0000000000000000
0000000000000000
0000000000000000
0000000000000000
0000000000000000
0000000000000000
0000000000000000
0000000000000000
0000000000000000
0000000000000000
0000000000000000
0000000000000000
0000000000000000
0000000000000000
0000000000000000
0000000000000000
0000000000000000
0000000000000000
0000000000000000
0000000000000000
0000000000000000
0000000000000000
0000000000000000
0000000000000000
0000000000000000
0000000000000000
0000000000000000
0000000000000000
0000000000000000
0000000000000000
0000000000000000
0000000000000000
0000000000000000
0000000000000000
0000000000000000
0000000000000000
0000000000000000
0000000000000000
0000000000000000
0000000000000000
0000000000000000
0000000000000000
0000000000000000
0000000000000000
0000000000000000
0000000000000000
0000000000000000
0000000000000000
0000000000000000
0000000000000000
0000000000000000
0000000000000000
0000000000000000
0000000000000000
0000000000000000
0000000000000000
0000000000000000
0000000000000000
0000000000000000
0000000000000000
0000000000000000
5F77430276E7F6E1
88ED062296F22252
10302A3F2B5BD789
B9EC56C8000B88E8
1E20DFC2FF208002
9CCF6500265F3929
7335CA1422688102
2214748A96FBB308
FE2CBFEC361E7F71
8ED606FDEAEC68DB
7FB90EB98809107F
FEF0F089C81F1432
0F6E100B8FDD6FD0
4FBA2C0CB9208200
8218F9284A182741
EB2E05ED52965991
DBA7FFED498D0187
3F0E98622723E388
EECA3B005C507F25
C9860BFF47B9848C
1E9AFEFEC828A907
13AD4F36FD7C1887
240011AAFFF176D8
EFA398F4C082EFE3
931390FF0ED526C9
2329E76655BB322C
13FF7BC969BD370F
FFF90E3CDDEB7F1E
1443589700C4493D
B13AFE6ACF78898E
A30FBFBFCECF0221
00807DE57884FEFE
FF6C810918B2267F
E92F4F6E2FFECD57
27126F8F230D9E20
E76B7A28A88EEDAC
C1E0646FC41B9010
B71D8BFD56FFF739
4E2AE59842495BB9
1D8B5706CE782CFE
E32FAF50464A3E40
3C9EF001FF75F3F0
A80088A19FBFC6E1
13304A7DD29098D1
AF774F001BE48E60
8604BE5E26F2DF9D
9997AFCD11B06E68
9BD8F7F6CE24EB22
7B3BE7E291312270
30A64DCC15FF767F
FF6F89CCCCEFD501
3FFFF7FE4FF97E20
0406F7981976AF53
E32F3B64C89F4E3B
8800EE99E2D81291
442814DC2F38D40D
46108A758C27F000
3A96DD39FF7240CE
E8D0B7C14EBD6274
1140FFE6FEEC5C2D
06B2D6E6F01E7215
8C90F1530099488E
D9779EFE8739022A
D01DF600515FFE22
18F2BB2237B30BFF
0A9FEC8AFCA59FE4
F3275E1D75FC4794
4C36EF8EE8AFB300
4E6E1B088A450112
E00B0021104D5B11
739D41E7080551FE
E38DB4FA8558CC89
39013EF7FA4C1210
923EC88F3EEF3EBC
4576FEDB1083000A
FF6F90CF0012837B
FD774132FEDF8FE4
330C6EF685540940
A64265E06A928044
803BC4AFEF21C0D4
F1FBACFA900CA7EE
441CB0483FEB4056
4A9631377500C3F5
D4E7CC785EE5B5DD
00D7D7F0BC00FD9A
BB1FB0178211FA3B
C156D88812FFFB7F
5C3C92AA438EEFF7
8003E4EF32D8B610
6A2445800F00B272
C209391700404100
FFC4409AFDDDEB8F
7D570043310FB7FE
084FFF34905920A6
1BD678982FECBABC
48ECEFF5C74C94C8
F7A6D443C13C836D
39EE11682FCF200D
5E77C67FFFA0F483
DE08FF9C21BACB67
69FF77D9B9208047
710F00019BFD8D7B
FE386703EE30BB01
3AF7871731755944
DCAFE764FD22BEFE
37F623AF11C0AB60
436F11FE693E7F77
B8CE5AFFCD9A1AAE
3F3807365E6B1117
9BE46F888DC0D64F
41A3BD068412FC66
FEDFF0F7FAFEBFFF
A3316909CCF12D8C
1C536124610C0BF7
3B15EE97F23F7384
7A8766EE26B7DFE4
CD0AED08FC5DA7EA
5000A0C0F70E3076
DA0359107044F791
ABDCECDAFF0588EF
D3402CE1A37E222F
BCFFB65DFF3C5742
AC735A0F1C7C1092
7BCE46B79BBB6FEE
AFDE5D273B7EFE18
7E76740058F69286
7467EC66BDB84CD5
E152D84F1DFE2548
4103D24074DBB60E
EE325013EBFE558B
E7F998F7B6834DAE
18D7F88F0C22C8B3
0263EC007811E082
243A67D1E2C7F460
220995860A722CA8
CA08ABFCA01B900A
86B820E4F91B1FCC
98CC85D0CB2CFF92
779AFCBACF493CB9
DD000F37C89BBAA9
04D28061F195591A
A683D8272B8D8F01
23C7601E52263665
A4BBA4985F8EFFB6
A131600A77BE166F
FB7F1136A94176C2
AC8CF57A1648B1D8
03FFE6DE69E620CE
50B8CE42DAD13860
FFCEFEFD987C19F7
B60BA0677149D4AA
CF606268240E16C9
303520C20213E766
40AA06E3BFFE34F9
D4A617C4408A301C
0F589E8FC800643E
611EFF9F7CDB09FA
0BFF84C124B02777
75E993B6F701FEA9
7780684E008FDAE3
2608880A973875D8
A01406804A09480D
330BD3FAA94C1E01
390C69337FFC62FF
A8C3AD4D43EAB60C
C516A1E88BFCB269
8093A310329E0AE0
05CB7260803A607F
F220A8A8B617D9BB
2144F0A0A85511EB
3201235505EE0E09
960633985238CCE1
770C40EFB1B6DE1A
AABF6067080147C5
34B6C78D0300FF9D
1164EDF406628B80
410460E7A80435A0
43DD8983AFD10176
4FAE972186EA2E00
C0E0D88F179FF9F0
E60B1AB007670CCC
117EE01C2ACD88EB
10263E0D76350C64
AAA5B1452348482A
2C47538CE1376862
6DD96BB023E08EAC
262369C3E1D81373
AD955279E163B6B1
005D7D6AA3C855C5
B34D51F7362CF61F
9A4549D0290606F6
092A168751BF0219
859BB4A0B0FF1941
3432A2B132CE416D
0EA619EB703BA8CC
715E2134802D38AE
A09A32A7135F0A89
E2B7C86813EF4559
9AAC6570536C7341
F8A81D7F999A6711
21FFA1B730DF1CEC
0077E31007327D26
9ED3FF20A7F9CB80
4980B1387E657EC8
50111E94E800C35E
1882F266835F1094
90EFFFFA69C6588C
0CF733A01100C7D5
C010A9325674C005
C0F2F694B1211113
FB1D8075881D462D
2A58834AE3123987
33B400F205F8B678
633E1AFFFE921EC8
D0F5D669453FFDD4
63B7137764DFF96D
E8A5BB88BDAE3216
87ACB1518CFDA646
043E24A2DAC80EBB
4915B228A14433F1
3953114AF4803B63
1C3AEFFF80FBDCFF
35E21051F4389372
BF7A18CE9673C5D2
9BE00AF0898D9294
7FBFA2991B602027
7B6504505B3D21D8
E50CF3741237FA7A
FF3B1B5098416E2B
600BB9EE30080C8F
B3B70712FDBDB2BF
821164EB36333150
F872FF1F8143AC55
F8A02942518C4C54
15F6057E10756F1B
C686FCD04E7AAE20
FF1775CE27A59148
6382F04CECCFA004
54EC5A648E3F57F7
ED82B89C51317FBF
73D311184C9F13A0
7BA0AEAE3A995732
023BE34609BFC0B2
732800857320B3DE
3BEAE4B6540CBDFE
4E7307903DB70C65
9FC802DDEC37E942
E7508196430774DF
1175F6587F9530EB
1202764738D43E94
01690A46727FC90E
8F8B46F303EF7704
F0316AB675F1F897
34A63230ECC262C7
EE58B180E018346E
A81F33D12A6587F0
F623119F64DEF7BE
44FD06CCA31D84C5
8DB8D1AE4FD3AC9B
B495D9026CCF44EB
8928F862F0CDFA20
FCEB6FFFF58D2A8F
F1B4BC9198ED4C0B
BD95CE29EC8864D3
93F58BD1BB525B9E
31F08C348DC0C5D7
FF1A3708996EBBFD
1FE0759DB9C977F4
AEB0A0E65BA27D79
F8DCAE6792B20AEE
2AE8AEC67FEC5892
B50257ED32D9E334
DFBFFB681BDB4F08
77B682D427BD7B28
77B3B522AD3E44FA
EC2AAA8703832CAB
F91EFFBEE89A1332
183D13A0BE7E67C4
1503A9E7F98D6999
EFDCE05A7CB77F3D
1F6DAE7CA88449EC
E401EBB7D89A49C0
37F879EF49D4FD27
FF21B8CDD4397793
3D0B178E5D31732A
0800D343FF477AE0
F57D6C37BFFCFDBF
184D81DD6E71EDC6
F7FE3ED78E71F59B
B001350B108F79B6
E1CB2F93472A7B09
9D74F76059648009
7670AABB7EFF1007
0EE8BE8C36F3FF07
A188A8D70300F9D8
191167EFF8373CC2
BF2040300205A913
FA32961B90830C19
BA80318077CFCFFB
530DD5A31A81CD0E
7319E30200F7BF68
358EDFE5EF9BBD19
A91CF8BBC808EFD1
76A86DC8ADC12100
29D7B9C329B7F3FA
5FE5819BE1B98D77
ABDD714867EBD556
B223BD17FEBFFFFA
3BEF9F7543641D89
F0763C2D412A9FDB
3202FDF70F86BBFF
D59FD8DBCBCCBA3A
4847760D84D777D6
42557774FFF33B11
1814B985EC5ECFCD
42151DBBDDED9563
58ABBFBFB7A111C1
BBEDD9137E8BDF9B
8DB3EC25FF63BE80
DDA970E3DAC5FECE
7FBF22AF1031390D
8090E7EFD5F0C98F
A1D9267ADFF95603
24F851DD7C88ACC1
E9BC172FD3C1D3E6
40CC0000663368AE
0416F8AE9FBEF575
4624FF81C5EA60BF
DF00334D31605AE9
11A05CBD9BF692DC
C646FED39CE93965
9DFBFA6C7491D418
FDF0C8027FFFB1FE
072355EE0911899E
653A07F60141AFEF
D2C09DD75FF02176
7FC18737289FB822
01839E80F337EC60
6CEB73C5F7996F02
D8BB06E69D611FE9
8743CBD97563F5F8
D484B8F30B372348
F8BF88AB17757A47
FFF9EED35280A12D
F5951FF17BCCFBF1
E50FB1A81E2FCCD6
6BEAC8DCE804C487
15BFCFC2E591F8B1
B3A898CEADF8E9EC
19756E7EE09E7E6F
E60097CB41EBBBD3
DC3DF323ED9B8E9E
19F37CE1E54ADD62
C77451155FE15748
DC4C9C65CE2EF15B
2EFF69D4ED6ED069
D78D15F98390EBBB
06FF6911FBC84822
6DB139579624CCCB
7B8E48A508041397
0FB3CFA4BCE95A15
DDFB7C4671119000
BDF84A29C8639EFC
C0F8EBEE4000B690
C109B3B321EF5F8A
93C5319892CFF0A8
B78CD15AF020FBE8
6F177FFFCA39E834
EF504CA7E3B3FC93
EB75062F9443DBB1
C2C77E90D1741175
DD87116EAF96679D
DEE202FD99CC587D
00E0E3767FCBE820
37590A0D14D0C52F
6D13733820971388
5A188FFBC9E6F080
85DDD13F8DF33FF5
047D91BB37F1432F
878E336C27FFFB84
C4000E778DD53EAF
93F22232CFCF053C
F1137FABE8BB6CBA
CF97886E898C4BAA
3700DC8D17FD1B52
DDDF338948D2BFC9
092F7908635F3ACF
8A62FC810F0C1305
01E550931342EA00
7A7B4CA9E7599339
0F3C68D422D9F5CD
B876C20E57B9F2AD
26DD13AD416EE489
AAAF6E1744560F1C
B8BBF05C1A81E457
477F7119348A3F4F
66F98824A0664A55
F90F773A4F7432A3
3A0E3730677EE31C
3F630D19F467BDC1
C30E73AFFF2F5DC1
E20EDE0812D1D393
DBD0983EC22C273E
10B4AF303FFCB550
F3D2FC0BD4616330
FFD1AEBD38932EAB
65713B385F5DBEBA
3F44853D4F553ED9
55C5F55F62E96A28
6590BD35E439B3E5
CE58430F0646C179
D902ABB4FED496F5
FBFD473D00351822
944BD9B6701573ED
6B9D5715D2DE8BFD
A6D900060E25D990
C2691B21400F1E93
10CED91132FAB294
D5FF84D97CBF3090
1FF7209651C5621A
77A84AAF3D676F6E
DB5FB582A49C263E
687EEE8FE0397A38
5C16DA5CB3E29CD8
49F1440670416CDD
6AB7DED7FD829AA4
E01AF6BE7B3FFF31
7D92CB89783ECCA1
5DFD8211487A4C52
5F9DDE1E2E6BEB30
D3113871775414E7
025452E05192F1F0
E8997983E8156792
127AA8BA450D7B51
B01310960D6E2A39
1F7BA5A81E506065
8335ABF3268CF0BF
4F35CBC24A8353B0
2084351433A3257C
5FD918FD75D59BDD
73890542951E3404
E0387481083E095A
7E3FBF9E3F9339A7
DFF1730F6EA9884C
F2E20295C37C8A2C
4F691F8F7378E617
5D45270A34DD6258
5008417E5B64367D
8800AF4C8F4E6B49
4C837CF2CEEC3FEC
C1F0EC8535693B7C
98DD9C0080D6D593
0E4E730B982AF712
E86ECDECB2F43900
C32803EEBE30EFB9
239B2B65788D2AD4
3BBF8EE6F30D02ED
BE734680B3B64F14
639F8DB6FE42FDCF
3601FCEE5F99092D
1923D53064D29DAE
B2B65B0384BC4C54
1287BC884FEC3C40
3633EFFF7A6FC1F8
06840FD7688FFF0C
C135CDA75ACC1393
E4896C1743401544
C9DCB42AF3DC530A
7A07B973964771F4
CFDC630D6D6C9B69
9E04F8B9832083EC
56D73BF373FC7EC0
43C2F5DEFBCCE7F3
50B839F2D8834430
B83B8904F6ECBE0A
516CB6CFC5E4F35A
19679C021540E7F1
F8AB10019F007820
6D3DAA74F0659F18
AF1ECCCCCDC7D968
8206D906AD18BF14
6622BF5DFAFF30A9
0ED0B5ECF4C0DE46
CD4A19B0FB053137
38CE37440FC6F444
7BF6DB1107F3DFD0
E7B06482460C53CC
866CEDC860BEDFB1
22486A249B2E41EE
9308EE2ED50B67FE
0B7631B775BFD808
5BE2A7281036DF38
04C03B7FFF18365B
466C497F5B9E9B60
64BFFBC67D965DA9
01E4C0E10370AC04
17C00A4B4F7123AC
8CF208BB7ACE06B3
0070282EB3F94624
159128C38C7F1451
FA0ABE2235F1F733
1146004AF4927FD7
B1444C767F30C072
2770AFCD81FCC26A
0A37F72FCDFBFFFF
BCC415C41938EFAF
93BA3F66097673B1
FA4C97EF872624B8
EF804FF01C01F101
F720E0089C00720A
0B110B9E6E657FF6
9A5161C5BF6D26FE
3053A7F2DB7F4EF8
32BB19DE8EEDF46C
A13EC4C6B776A8F3
46F5BF565FF2DDD3
BD7E0001675D5712
8425BA75BA15F911
676CC4E6A804EC73
12216208AF3F4936
B8A84F76E92DEBBD
09BA072D6FE67326
1077E74E99D4B3DB
63BE3D93B9144F5B
AFE0F890F7F1D02E
A03742A1A27EEFFE
A51490DEDF410A17
E403667F43056CE2
D1BD80FA73173D04
A2B586D85B2D1714
72CBC08BE7B866FF
1B72F003F15FA68A
49CCB18246E2FE74
3232221DEEBE4351
39102988F8770377
BCFA67F7B236BFC5
192CE137A27F6EF1
DD7F9D2B7C200CE5
8A737F75EB7C190C
5464F004475AE842
BB3C0311B446A6ED
00058C009C000B30
770901C06DDF3B33
5CCC6609CF103710
254010849138F5DD
555B157D404F9C3F
0C4FF43B5C4C72C0
7C74CEB80950022F
400F333F641FEC14
ECC7A3E5767DCCD4
E27FCA070B7E49ED
33694ADCBCBE3313
F3AE93F699BAF5FB
FEA0623B1CE67D33
3322009725CE1808
D5D87762D739572A
5DF5AE61361A4C46
3BEEEEE421040005
0EA60D0B97CA903C
6756EF32A660797F
87113F936C656A7C
E950E8337F37CB33
12175607EAB0D105
61955863AE3FFB76
CD08DFC2BAB1E554
FDFC0364417908D1
A886F54444C455C2
E37EFE4DDBCF7B82
C716253E133310C0
6EEF02766378F237
D2533F07401F4310
0A1C4776C56CA4F9
58DE5FFFB15F5FA0
D9041FB55D2C9330
BF3322FB2C60C1F7
CB35F56B7CB3233B
9F7F270246454092
7FFEE42600001F61
F287A108C9DF5317
EF23FE8FE24E0145
96320B98CAB3A096
00C3A71147EF6BB2
8A3E4BF515515741
EEF94C82FFF746FF
2D913B701C00FF31
3F3D3996A93B682F
091B10838006FF26
791DDF80409EF4E5
284A30088F8EADEE
3F7666E4E5E28000
C600DC8AE229E100
037F0244CEEB4CF2
72035785BFC1EE11
C88874AF27B03A82
3584F900880A2247
989D579B093E8FFF
7CF04052D771E004
A61F89337200922B
D0D194770AFA2BE7
7CCB00175ABF08C5
A223BC7BA5C03509
63AD26802EB87E2E
B3FC7DFB246EBFC6
28244870DCA6DCBA
8600B656793B500B
E15E26467FEAC988
89E6F7BF89723C67
88B16FE7E9D7CCFF
0F5021888FCF2E63
D30103202D5EDAE9
0F701FFE31008FB3
11006188410885FD
EB9D2775EE80FFF7
73FFD1558AF22C5D
4AFABBDF23EEFEB3
99EE249E0F674CFC
AFDBB7470C88D672
E8DA43313B232F3B
EBFF0BAD3BFE8881
C3394CD58C830291
939011102F091FB6
0D20FE8A05F3D048
DB3AA56CBE72678B
D67BFEF690BFF9BC
9123576227F2ED31
7C6227667DEFDCE2
BF734A6A10A91C83
BAE72876232CFBDF
FF5A779C1D66EA92
620C013776862606
0A00391099CD5EE8
4C73FF3ABDB78E77
060022FC27B8330B
002A8C3D08C406F2
620DC7A2314F9149
E385F6B86EC44494
5FBF583F39911098
05006400C88AE2B8
DE7E3E2000D80A74
746D9D9732621701
C8230F8AFFF7F2F9
7F93DCF7B508DFE0
90B2C03A1E91CFBD
BC274D00D6FF1EFB
C0229DD8099C51BA
409DFFFFE7EEF801
8A3C10BF955DB28C
530AFFC5D2F50802
B1B80FFF55A027FC
B735108A0A0C3A00
49B005F4E887FBC3
0002FEC4F35BEEE6
91F3F55165930FBA
3C7C6024FF7E9026
8EFB3E6B6EE3F0E8
F32B6F89FFE7BDEE
948508FADEDF9FFE
A388FF42CFFF7EF6
32C4B9B8D29E2146
4871CF77FD1457EF
B0C2344AB637DB16
ABFFD505E793AF09
90CF969B4BAE287E
040055BE93BF9CF3
7B72EF9D31FCBFD1
6108DBAD84FBC086
B0EF3211B3FC0270
0146346D3FF49588
C64866E46D84BF3B
F06E694C20964021
E2DFF4ED766DDFAB
8C093DEA830EC6D2
09F31652689526DA
668EBFFE8A52FE5F
0D7A9FFE8CFCE013
09020889659CDDC6
63E6FF332E83900F
537ADFE738FB81FF
7FD0F3EF86F26F23
7EEC44C4E3EE9DD4
3A73D7F6FB078EFF
03C9FFEB1404FFFB
507F956E777F8007
67ACDF8D0BEF1A2E
C49993336835F9BF
6EF7D19B1E7A3275
F7FE024EE0363E03
A0FB049085FBF19F
B7087D6AF5801432
F6E5BFEEFF89048B
8110EC12149953EF
36C50B3A0CAB104B
F5F29B2EDC4641FC
D0FE10C8DFBF8EDB
BA02FE3FFF54511A
E7F5752F3082CCEB
50CF054EA6403FB9
82E817DD1002F186
8070E71A28938D58
D97F3749005E5ECF
B7F17A2EA88039A0
2434ECCF50CDDBF3
FCCE2FEA8F09076F
585141276FAF255A
8665929D48EFA108
87F93B67245B4C1C
6E0333F9080932EF
A64C107A66724AF3
1051C7FF2D0CAD7D
2FF2F4EDEFB3CCE9
04CB229FAEA1AC44
1CC76D0D62E6232A
F5FF308C49B3E7EF
07E8C6920B9046C1
868B21056E2C4FFD
4180393095F1ACC5
22EDFFEB01407251
FBD0010036D8FF6F
79FFC51C95CCAA20
17ED8A372261FF62
00010300FFFFE943
1EFA4E726490F794
77286EFB9EFF0C88
84113FA725D01D61
6F2C3809637AD3FE
55F5F30E77CFEDE0
772B07F7E0006ED8
00034940F7DD980C
3EBF08517034D7FF
D113FD77D7FE0000
48F645C38FA5FDFB
80DD4E65C6AF0EF7
45FE7FED6ECD2000
F7BB70956FA01F8E
E2090F119D890405
E6F7000008B8FFEB
001E231E7A0117A8
929FABFFEE7ABFA1
000892301DBFF77C
C0F4F069F755807A
923D6B220A7F6FB8
D8C26FEAEEF4308A
6048EBF1D9DFD72E
C51871329CA28456
63505777F6FF4244
1484E6E4CA190A04
FF6BF602B719B804
04C606687AEBE1F1
9967E8FD2B95E6C9
6411A0254027452C
2EFF34E0CB039935
81004E0481A9609F
7AE2ECED4E43F668
EF24DFF8ABFF94E8
E64B142E0DD207FF
02808099F25C051B
31FDF7D03EB34B06
8FFFBB8AA2F35F3F
37FE9FF06FB150CC
C12D612158F0F3F1
88FF924C558945D5
C000E4A300CAFE48
5FADB2724EE2A73F
293565E4000085D3
74A2BAC4A88135D7
83C8FDFF143DE7EE
88C05ACE188FBFA2
FE0FAE6AE088C7FF
11735562FEB8A43B
04CC1AE826E280BF
2CB083F1530AA0DB
BC68722876CE37DB
0273288DED2BF610
7EBB5C4DE2243B28
16B0621EB6AE5001
65502341FA561A46
C4446C70FEEE3FCA
69CEF5127F68A181
2FBB4079B8C341BA
FF17EF6DE4CC58B4
464A7143CB782FE0
33BBAE09D539561A
E00D749844785BAF
AF89440C50645E10
41097E88C9991077
E3D04CAE7FB59660
D74A6CD032D4F380
501BAE70C7FF8A64
761AD199AFAE3ED6
03DDE6E533610C40
8422108206336C81
F517EB9446F2F5E5
1B4114281BDA3ADC
588196E3EFAC76AB
FBEB53F86DA27203
81FDBF8C53B0240E
8EEE3CD376B2CC0F
30C46DEDF2309614
C0C5BE3BCFFB8E03
5E00ECC84C163E2F
53D2814418FC9A83
E6C83600FF10EAE3
D65BFF1E1D98AB11
C35468FC209CFE4D
11D63DC67CCA6001
B56313B5E722F30B
412506CBDF219398
9CE1112D3FECEBFA
73EDC371266A7010
9F185D0D7671A4B1
9302310C97B8F661
0280D6214619C6C9
133DF354CF74AE2E
43A5D0FD199FFF19
06502B0B02887F10
8333FFF77F476114
6F20B7D2AF42C549
6F662DC50472901A
FFDD4743E5DB2704
520D66878569137F
9CCACF7AEFFF7FF0
12F3308368343E8C
04C072819F480D37
446AFCB009D79E41
F64842324124E464
EC0D1FE07F431478
BED67F55FF04A689
19DDF71A0CFF9EBB
235A9668FE033779
DCED77B2F4B17EE4
9F207EE7CCA9B31B
993F2A61C3412383
001916BB0EDDC550
C40706F23FCF977B
04979CF99F3E154D
80239284D6E614F1
81803000EF48AF02
6C8EAC12AB71D315
EB3603A768AB40EA
A1152649143C0024
D01CCFF5FFEF08E5
7C5BC41F65EF4FF2
7FBF8B49886016DB
B760739FEE13F310
C5814B13FFD8890D
5D0EFBBD80624619
1E21285DF7B92077
77936F010B0DF0C4
C6C5486A48707F34
804881A7FFFD0749
06DBA422AF267F86
191D824726FE8015
F988CEEEA7C59CA6
766F6EE2A053EF91
808110887C7A0D6E
76051DEF77B67FF3
D55AA452B2EF4CE0
8448058C58F1B809
C0CF392581DE381C
BF7D2482CE00A102
BD6A4811CC82E7DF
110019C1510CBF38
7F91207EF6DBEFAC
0A8C0DCD0800C35A
FFB3831F5030B6CC
791F2451748FA93B
273E502AFFC58384
E6CEFFE8EB7C5B4A
9236710C56F5F807
242317C40BFF73B0
39074005F73B3FF3
42F5F7197537A840
236ADBFF067B35DB
FB12546A4CBE1555
811770974ACC18FB
7764427198E1478F
1D7F3A0A4A5ACC0A
68A6FFF3297CAB07
B8FD75A4273DD82D
988A80AF73327904
C33358554637211C
51C1C90B7A914151
014FD95F4FFFFF14
69056F6B84ECEC08
EACBDD5A426E6B25
5EF80821817F2E92
FE0A268FE7646707
CC0AFCED5F06C8CB
D807010DED7F7EE1
49CA18C6FF8A6AC6
FFB755CF23140BB8
30824512DEF90013
95D8EAFA71035FE8
FCD76FFE91991111
40A4D98F0077120F
007541A57677A382
DB8661160E81F17F
3F0C80DD3D191110
EF8722006F00B200
4C8A2577C0166162
80D8F7E91872105F
992F3D0681A4EEE0
0CDAF3119F7D1750
9FEEFF261A179DE9
D19A00810410E087
670439915070FB80
D8E000B2F6BD4B02
EFFA0A0CC4EFFAA9
FC8F814090ECCEF8
80D99E202D1AE159
A086CA64D8267994
74E7730E88893101
CE61FFFEB7FD4312
80042380808DD739
7EBEABB8FD74DFDD
6488C92017FF4FE3
7A0F6E11CEEEF591
089790B0911B2C6E
CF7A5647179C7089
FFE94E43ECCC0818
49851901BCC4B982
14503E54730E1F62
741103CCCC26DFF9
0880C4F8C13777BD
2221AF6201B31316
6F79A1F9001F6D44
0006E4EBF42E5A01
FFB7D89FFE3946DF
0EE4FF67BAC64002
2FE062C26ED432EF
9FB412918113E2FF
EF72804FF9852BFC
D8540FA235F580FB
5FAD5571A2350085
495055F81F732B7F
8D150053D5E3D597
EEF1F469113F8989
86F39A5371172600
2FD8ABC4DE80EF36
04CB1113EDE41640
81108115DFFF98BE
45002020EE91EF98
E628DC8177E80FEE
40297F1B5007AB57
733E40DD96FB624E
A235CAF0CC04B501
E1B1EFD4D7D32E7E
CFF001907566200F
EF3D37E46DBC42DE
4200FF277A11F358
958D5003803BD023
0C52109A51B63FB6
90374612776C8BED
1900E6829C328DC5
463AF113AFF39DCB
E7E6636B40CA9001
49013F88AE701D53
2FC33280ED07FFCF
223C6751F7085D20
FEDE4D585B8CD9DE
8DEE22C3F044008C
7E6A38870841EF36
68AFCC69ED1F216A
367BB7400043C5CB
8EB7403B2D619392
28047BC09037F84D
4B4CEB311771CA13
4EC17C22207126BA
3EA5006100836EFD
00021132C0886A8E
8420D8673B665D70
889839095CE7ED63
E0402DB607F26A33
86C89001A7BF2A2F
C287C10753AA9800
2688327F472A7438
98B3679B21956B11
27FC9C8EAB311480
90E12AF3EBBE635B
034052D34909E5A8
2D20210276AF733D
267F12C5ABEE40C4
FB10BC41A66213E3
A0FE4CA52B3F6A43
362A35534AC7ACE7
E5BE8F43EE710883
B9C4FD0C2FDEBD54
50C25A505867E678
C72DD752F12254DD
B114729BF93A3180
04CD88AE0DDCEAF3
C4F03CC38224268E
E68E900D7F8E92ED
475E07D60B23CE22
A63F4C7105CF5F72
91E842EE15844F93
B505945F441EA806
84CC31E4E56252EC
7CA16BF5DEC7FBC4
F7D8F8CC8C4144F5
C89B55EEF827C302
C4E9E333BC0908C7
29870984E5C60080
FF3F11905E9F8311
2B666AEEB3890C5E
986E08A7011BA100
2B3AA54367F9288B
80276F30E140B7E7
DC42FAF06CC16CC3
0660CC7355F1CAE0
84004A2A3280C7C7
04A11A4B817FC996
F700628E84652C4B
FBEF221C055788D1
0CAE3F3567DE8446
DB2ED0DD880BAB40
2A3EC07C24202041
04A0963F88D8B17E
4C809880E91D4B16
390441E189A78149
06E75B7E8CF14989
D381E3D2F0C09710
6CD3187EC006CE27
686C46F204EA0FE2
6802A8A9C18F7BE5
6C3E9119CD3B0242
98D58DACA8ED1E01
719B48858B3D8735
2CDDB303426354FA
A81D8D34CD1816DC
9C4FC06B0056D23C
982C9CE73D996B93
090F9E1B0054703F
F65BA6E1520D066F
85527D9EF2A48457
20808806DFF2AF43
92FF9ED477FD205B
FC0271BC08C4686E
B0E8CB05CC2F0D4F
4C75147E541AB398
A1D667D68A67EB30
A4C8928DB318710F
50858F67B8C0109E
0489F164106259A8
ABF7A00F8897B0F6
AA120FDC288853F8
48DCD13609408315
100C7731A87DD454
E468B32F2602E531
70086818420484DF
9600AAEBD55FD166
000AD1B22877D9F7
D8B1D10C97F6B644
E44A831379CE9363
3D1301001024B539
C077A13115604011
00C7E733E6FF59C4
9977D9DC11D4194E
5EF200F0666240C0
60ABF43B6C3479B8
04A1CE1A19355FFA
5FCD02178D081FB7
B7A6003331B502C8
BA96FF50D1039005
2C0886D9C06643D8
C3DD6FB16D80CE42
8975CE586800701F
0C4E119865330925
C8C820E6B00F49D6
4BEEEF97737B406C
B7B17F782E8F1AB6
CE9D0058301A9D75
81A8559F502C61CE
DBD0E032460DB7C0
08703F9B103592CB
A53780593526B041
DF656C1692095A9F
488C82D393E82977
13B688725138587A
A80F933990C8227B
78DF11431A398F2D
8FE862DE501DDF24
E17988BA8003588E
9E0F08133211B38C
4D545D480C48A142
503ED80CCD67E256
218C3217A14FF024
53664CDDEE8ED14E
B7BF93903F04A88C
1FFD076E84F1323C
EF2CB180FF6DB813
6A6E57670E6C244F
AA0003753E67077E
79467B06FC2AE7E7
BF7CFED077093E51
CF52D9206044027C
A51FFD0A7400B516
4F2940B62F806DEE
03503407D7346FAE
FE71113E46EF8EE2
C64F260C8FE7711A
63F6627D7699EE54
CD00900B32248083
EBCF1A605CEC317B
FD7F00405F5D4219
C480EFC1369CEF9F
403B7A90F8CE472E
8640C08340514F7B
CDE98DCD2FAE0029
23FB719FD814167A
D3200777E6642801
3CD8EDE4D3280A2F
3A9402203BC05D9D
B120A730EFEF2C5D
BDA0E7E2C726E4E2
FE3865775A24F4F3
810AA76E5328301A
2E2801A66F7F8018
D151C4E74D9DB55F
04372B48001AAA77
DC0031881F379407
9E08F3607096EA7A
BCF0CCCA029B65FB
1A9E33C0463F3FD5
D10C22A823405DFF
F8C39F4CE1D11707
6020C6FF7EA214FF
D090F552CCC6C180
1931871F10187621
86F3C000132AF1BE
A7FEF8CDF0E88400
E0FFC57570316410
1283133105819CEC
06D8DC818982C50C
F7E06361537B103E
4F02EECCB5DD3284
8EF3D6692EFFDD39
B7A5A76C0206D284
B5D4FC244CCCCBEE
912F3F2CD4046291
97E2F9FFFF383A17
400891CB6072E61F
162845E70D1D6348
9511FBDAD0039770
7BC04682F14033BF
E1AE47B82B002ABC
87A91660E6F38247
008CC5033EC44CD2
C0BEE2DD4E933094
C6711E80E60ED734
E3E502345CFD3B31
CC1BECD44CFAF1E6
3C8A711780879AF7
B7B0C126AB4DD3B0
77A7DC97434C3BB7
61F6BEE75884E9B3
44189FEFEEC309C6
20EF136EE13A1A89
8BD80BC3103926C5
DF565CE2094FDEFD
FDDF1CAF3E1822AF
05F9F754051332ED
FB469D9E0FB7FF04
7191717805DCF210
0A524B650FC42D36
3BF3F0F7EE98F211
031C0482112CD7C9
78C5C266140EDC0E
BF471555BFA911DB
CA4EAF432CFEB25F
13B32CFDD2B8CC8C
33CA41C172D81EEA
BBF48E66BFCE44ED
6D66F39B84803D09
53EA008FF18A2323
13220EE81DC15A00
0C2519085AF1BBEC
044A363182EC6DD9
37277BF9FD8689EE
6F9EE0A94823A6FF
4880E3EC33AA5593
C26D1FB31CCF59DF
59F088B6733AF044
1815BD7C843EC926
F4037FFF33FD4019
0818CFEA7303CFC8
3F69A04A0FE719E5
13BC6AE0E5FC0B20
1919F9D913100ECE
FBFDF8228140DA00
E8CCBE5C82718CCE
1FC6FF08F015AF33
31B30802626C9E4A
194F446CD8E336A7
DEC4627DACD4239C
F1870D119D262320
3AE641B99C0BDDE4
6E13DDBA9FD2CA70
8FFFA67611E639F6
874A53FDDF916CC0
48DC9A6324847453
130DAFF2DB45A2A7
C7FA2FDF422022FC
E5CEE1906D61E709
07EF184D0F90B89B
DD2EE40FCCF2B3B7
88AC9886CD0DB104
2214199A773F1E5D
C1CCD69339FAA94C
FFF90F304E5E95FB
EEA4AA98D974D1C4
4680F47FEAE1A647
1239AB3926A8008D
73E1B23AAA8F67EA
2EE441019B760B31
1409B1928FF9D8D7
308FA0144ACD8F70
FE7F211ADCF0B047
8D9ED8F8EE727C5F
CA97B50E7F2AF623
91E221930F0D6864
297C2337464F0234
E8760099105FAA6F
2021928CCE154846
AD8DBEFF7675FC9D
BF001048FEEFAA3F
78A2F6D90204A2BA
FEF064C758D9FFFF
E7EDF80EFFFAC7ED
B3344F6EEE7744F0
9A12CC1CEEC1E0C9
D1FE0B4D0FE902E7
C9FFBC98FDC78463
675BAAA3FEEFEADA
F49FEDD2A6E465DB
D826E00976E7293B
22CCBCFFEC13CF77
2E3505C0231824D1
9C918391EE3778FB
94206F6CB3917B7B
F47403DEEDBE7F47
D26441B3F313DCA3
B65F5035FB291808
F7E069BEDF8DE158
EC481C3FC17C3F92
1464C88FC04CAEB4
EBBF72D2FECF8EF1
D0CC6C8CE248FB85
FFA47346703E15F9
2243E07FECC7CCB5
EF17F68057A83788
B0BF5776391B690F
C34CFE8A4EC5D15C
FFE8B1DA73F58369
11964B9D20280CF3
6A7D0F7D2106F235
B12D1069CC7078AA
F7B580F9615F5592
CD681DD2B13DEE0B
F381E03D9003DCBF
B7ED8D71457ECCA0
DEFF7FEFB179BEC5
BD1716AFA0ABEEAE
FF588AAF71E68738
E6FE720BF77B9F35
F6F5D05CE2AD3018
A24BFD1775EAF561
0B9F256EC8BB3BCB
CC0E501A5DA4ED62
4CE8C05A43A9EEFE
09C0FF1740ED7F93
BF5DEF4E8FF91C23
E4E1B23F92B143F4
2CC0BEE7AFF502CE
C49687E757F548D4
1088D4139D46EFE7
5FFB1CAEBEAE1B1D
1EBEE2AEE9F01833
B5772B7A23F9B3CE
C6DA0AA2E201754D
1039C10873ECFF8B
FFB16F22F9628F73
8E09FD0F9E13BF97
EE19209C7E3EBB4B
47EA7791BE0563C0
A6FE16D4D9C1C5B0
64D30FBD285AB3A0
78C816DEC0F8BAC8
AB9FD7FD188DFC6E
08CC1FEAE0866E21
F4F0E09D8D3F04CD
8A996DE3674A4C8E
4D6C2892AFDFCE87
F98D4C828EB48DB8
4D7F374435CE6A60
C0D839881D6C37EA
5F7FBFBBFF2355A7
B7B5FFB5CD7341CC
87049B63DE5B3F91
85F640FC1EB6A6BE
C4C2CE17E2ABFFE9
5DE82A5FEEDEE5C6
48E804926BB3BEEC
AB77E76410CE2EE4
04AF7DFAD7B2FEEF
FCF7F709DF487735
74D4C49049484718
25A6FE399DC8C4FA
CE495452C1D26DD5
BD4B7EC385BC773D
FCB94FBC2EF22680
CC84E447449002BC
D664DA47762390FD
40C078D888F9F5E2
76DB7E2E311146E0
00A9FE3419A3B0B1
29C24799C9B48744
F22E588BD8E8D09D
BF528FB14A88DCF3
CBC8F61CDF48CDF0
88EF0140FAFF12E6
C4D130BCB21910F0
89EE3EF355C5C6E0
F88302ADFD8025CD
F934FFFF468E80C5
2EF3E8FAF762D581
D1DDE88B3C37E414
EF4B8CC4B9F04CC8
925870EF824BBDC8
D3429EC55DF8CFC2
E1334626F0244262
5FC008EF16D9CFD7
8D0877CEA667C0C7
FF3FD04979C997BF
D1C06709F3D100D5
5EA8647AFB987AAC
E7EBD8E47FDF09FF
1CE3D839BC4012C2
42547C41C60C7913
7911C5C2DF7A8AEF
15F72DCC3896E69B
803DF7D4D0F9F0F2
E4C00EA20250C7C7
EEB390FF93C3F368
0A367B6A9710BF7F
2187E2C88FAF1F19
99FD9D053FFC7D18
3890FEF3D47CB520
682FA881FEF9D204
B42E1900B18A7A07
F3333140512810BB
B91199BE10038D51
10419140F2011D86
ADBB782C1CFD6FF6
FBEEFFFA59500080
FFEF439B0B2F7339
4892021ECB89BBCE
02CECEFE91442959
820B58C67717F1C1
6E17F604A33781B8
FFFDBCDE5008323E
600410C7B53F99CB
16E1E326E342EE75
7A3F88005AF09468
D99DFFF6BAEBAD01
B09A9FB38810235B
0014D04877F7F98D
FFFFFEECC6203F16
E00BB60ABBEF318E
6EA40501A8D77F7B
772ADBBFFCC0CDC6
FEFD711E3108388C
3C13C03A3839C97F
0AE7E46172035044
152E837402637F11
59183DBDAF45AC50
EEC1FECBC95E0063
600854007509933C
FFBDC78FBAD9D820
BEF707C449FE0028
E452B5CDFF3092C7
276FB76417B3AD03
03712416426075F4
1103BCEB71E7CB00
EBBEB8000440B504
BF72211250AEE1DF
9A150BDC6A456FFF
DFFF6D294F2C52C0
EFF93702D3429DB4
A12AFF8AFFCDFECB
E988D9CEF633676E
FEFCF0FD7EC68860
A73B95527CB70987
DE284282E401EA1B
10B4FBFDDFCFF811
F3257FB70992EFEC
DA07C46DC15DBFFF
70043D1CEDAE2106
311109E118A69FE3
1D40DEDE630488DD
8E066110A7F61023
F3FF0650F795D5A3
E4D7CCCF9B3E0A00
D69AD3C9EFFB0264
BF19DBB3367F5102
5EE77206E0031045
229D7101EF624D15
194509081A766900
37F84D4876FFE000
4DFF0EAA5E1A0CA6
4A083E9E8B467204
DB2E57EC3F4C0C13
8600019F0FCCEAFD
C5D1258F26FFDCEA
3E8D03862F2F3404
6E774C0166E03AA8
F09CD736EE4FEFAE
6E541EE6A1520D9B
129801092C3F3EFF
0630073F26D719F4
2328C8063D00160E
73FA0EE85582CA08
6EB836797F70636A
638E1BCD2C631548
00846A211CE3B54F
460FDD720FC4FEEA
36056E0FBE0A3204
C1A1BEF73FB88F7D
765F080535B86E9D
AC6FD18EE796ED2A
CCFB6DF3CCEC3150
20608FF483A81BAE
BE7EFCE72435BC79
C080B71F6FEF2200
B9E674F90DEE7EFF
75770D348F742697
D6591EEBE8CF10E1
CF0A148F063CD0E1
9399FF6CC7DEBCEC
860CB7662A90FFF5
E8AF339116E33EB3
DFFEDC5FEE53CB74
A08D2717E5D4EE7E
C44D4400D5F0572F
28B8333DEE0821F5
E656DCE847722C0E
4810F5F31E478CB9
D254268C6E43816E
49E44267A089C6CE
40C7D408C6200200
E32CB0275695EFE3
EF6D12B16509F06F
25C9C030C2A4BFC9
BC96240080A45A18
CFE786C0AF7C0011
305106AAC6FFE99F
F8F6E6E08171F768
C0E38DD639FF36C8
6F673C62E468DFEF
E6E5F7F47C0CDD01
CBFDB7FA9AF2A191
53AFC2CA74D7B082
52287E7F60C314E1
1755AFF02B20BD74
268863AECFDD251F
C26014690E02C3EB
70B1FEDC7640B669
A92262628E9A0122
BAE16A2F2B28EB0A
5CEF6F0D29EEC4FB
994E966D88802628
66A887858CCA3FF7
A11016B4805C77FB
85FD08CC57C323D9
19D2AECF3D87E147
FCE441B705DF47ED
0703B8619094BC3B
D357433C110CFD0E
FBB0EB0381AFEE0E
D991F67F70C87FFB
5971C51D27CC00DE
555D7048F87B042A
5DFBB7BC48EE9149
D899EB3E76DB3FFD
6633D79C33A6F2E9
C4C1180FDF669AC6
7EA44108C73DEEBC
3548AF884AD53204
02C7FD7DC110D664
7A6E0C02302D7FBC
5A312D7F69ECC2BD
7C12AA629FB34009
B9131B63FECE9EC7
54C942A42E8E3EDC
054D8948709091B7
BF4011D55DE1AA17
1FC0F74ED4DF39C7
25028954C05EB846
40590FAA98C7F8E4
11139049340D7FEC
82D6C91322677DEA
4F16B9EDFC07BADF
878720FF823A71E8
6B33F09DF2E111E2
B5F0ACC28BD3F6D0
1531F38DB111CEFD
22332A3EC0A0AE66
91348A26CF2818F0
54A018FAEEEB1401
E9643E5A9A72B3CE
57733EEBFB00F708
560186DA73370842
EBC0008BE7C74F95
6923AF06C00961D1
EC9419865EEAB06F
550B1E039BE8394E
534288A68050B7F6
E1CB8EA6FFD30093
805DB5879F202BF1
87C40160195113D3
EBB9407C491398A8
ACA041CC7E933AA3
0AE350F286E80B5C
7C723797FB31074A
F9E4357D8EA20E9F
6AE2FCE136EC238D
7CDFB3FE2F735F5D
1F0617CE88FFC95A
8C477E594E89DD5F
5A1A74C371FC7F06
B78E01132297FFB3
12EC29F377C7AE26
D9E50F24F4F0C5D6
3106AE4424A1CD90
68BE550198EA7165
9DFDCB23F2923D25
760F4BCBF781096A
4514B03B9E33BFB9
FD99D897E08DA4AA
40130FFF84700EA0
728E1FD506D808FE
EA6FB9DE14FAD87F
301601E677FB22EA
F400D5FA9F26743C
1202ABF998910778
2C87498C0B9672A2
E04A3F8036734220
9903B8F021FE6402
F113B5F92601211E
87D573BBFDD2D591
C7EABB823121347C
8AFD18B7D50F2320
79E8F644806029DF
8B1285505998D86F
89EF30C7F800D087
D309517BC80B37FC
273071061BCD1889
0C8E89F079F45BB4
303AFFE6A44085A3
58E8F3B9382C702B
68342F80BFFDD48D
1975FA2F933272FA
01E296F891BF679A
3931E2E133F9AFBB
B01A9D16C904D09D
9255DE33E66C8C13
1B788CAC6BA774A6
5BFFDBB9494E13B7
F1077EEE85B5E36D
9CFDFFF0039B5111
F888FF2FBDD98FFF
9AAF53BA19FB9311
8744D843B18C87FF
0366E2B90CCCECB8
3428377F81D7BDDF
3BEDACB7C91D05FE
1162DDDDC802988A
113168815AC360BC
CEAEDC1008C5A8BF
01ED38E82B87C0CA
BE2BB2151CFB017E
7E023C8AB0C690BF
C1EE06C6310E3912
CA08EE31CF158FAB
CFC9D7C7278B0133
9064C6115064F7A7
F7AA7A2DD4B0D08B
91A48873718A6394
BF77F9AC9DD68EE5
9092D7BDA8EB8E91
FEA07F2AE67E8F8C
62B9539B73083DCB
E399F5AA19B22968
93B93E207883322D
DE198AB58049D47A
DC368E20F1F97516
AA1D615AFD35F81A
3177BA973A7A91EA
6AF1F9E27352CD99
75C1EC8B388A0ACC
07F913780EECF773
00CCE0CD737B737B
73B9408B0D9E0911
8C2B4F2D5FB9844C
459D9131099C08F4
BB5B87B44298A0CF
D3A5AA00B5CC44CE
55FCFF9BBB8B4FC3
CA6362060ACC80EB
D776BBCEB97083BB
A7FF738464DDB785
577FC78ED6807000
F36ED78E19476E39
CB3F10CE56CDADBE
9CA048A593228BCC
5F56E6943A90020B
47E2DCEF430134EF
C28A7AC4200C4CC4
3FE6CD786E1C286D
C47C0ACC8F140309
31D8F7F308791E05
D297CE7A81B2BCCB
0CCF02AF8084AA3C
2D4010C6D9C3AA8E
08489F7E4C9F0A33
464306D8008E1554
C18D02D9E31912EC
0AE2F68BCC104CCC
4AEC0E8276C81A02
071801E54410C88D
CFD57F64A36B11CC
A11D100B6DAB224A
A8F0D8028ECD9CD3
41BC00081D0C88CD
06A84AA602E37262
17CA800B027EA47C
EC988B726EAE0203
9D67BE4BEC0990CA
C8E313F3A377A235
050301C74F7B893C
CD7900D868C0A3B7
184F028602B46B6A
361CE73ECEC849CE
C19019E219A1DA8E
4090C464833C777B
5391008B5EF74E8B
3042D734C86C0F92
51D633BFCDE3E4C3
8E3885762150189C
3A85C784D38E04AA
BCFE603A9E4F1C06
AF5207DC4B900DFF
0AAC1FEC45D0A3B1
08A6C777DFC84771
D0C684DF05E37F2B
06112F28657D1D44
0C84DFF84E0ED2FF
93467F03113FF48C
67CE4376067BFE89
8EBD0CAFF5936CA0
3A201032CDF80036
28CE454404CE2CCC
400F9551F7EBC1B8
1DEE09B5A841D5D9
20DA10389C591BC0
7F8A6EF57FCA7741
20A619355E0D8055
50E617800EEB4760
A0341994DE5572BA
20DFF0F95F27C407
E3A40B02E0864C25
C031D2812C1C8320
00FB9FF200F89DCC
000A0209B3F69958
2243E0848804B45A
CA9449C0DF0F6F85
723BE4433031F03B
5DA7101457F6F624
7F5CBA99EFDA8A24
7F0224DD0EE49A81
99024C0C88A48CEA
6001C8B282694EC8
D004A8A9CA78193B
C19A883614982088
621480106F33F001
98FD6F04A818D251
24181A8C0F67707B
8678D4FB51361DFE
531A180A076CE7CC
151050259EEE0888
51469835FEFFD00B
813BA5CDDE2D8D11
C440859C0C241642
100DFC88728CC239
460A3DE6FE82FE2E
408A62BC9F217DF8
1C73500CB018F045
EDD1DF29B27B733C
112D906200099800
948F028341016CC7
48BEF33E6E896008
00EE6FC2828F71F9
2E62D33881B9033B
336C88307837B880
326E19BFC021D37F
20039633520C0A33
3138240CD6932037
5174000981EAD0F1
3139B811500148C0
EFF588002165011C
08EE7D24A3FBF789
E90980F00CB2F19F
521A3FD3611B8B34
BAC0FDDF3B4C7C13
919338178FC9973D
302C4FD97319F149
211C19B28A668804
3BF16690DA877705
030ABD1D171B6781
EF79BE128E0188CB
365249447773BA8E
0055D7210C880207
1301BF7AA0153F10
940EA336CC41CFE4
BD5E2DA29228D820
98200D80242E1011
9940C0CE90BC64CA
A09A88B8FCFA8DDD
F49017309BB9AF31
341F2B363B24B38B
9377C4097FB22799
2BBB5F70B12E100E
719B09BA3F6A0826
65541D050F3B1CAF
B4C749B9318DF27E
ADEDD56F50BF8030
026051D562D5C920
494F9DCDD9F40DF6
AC36AB99B801FE17
F7FFE2ABC0171FFF
1FF1C346FFAE0F93
4DF14D2F90472136
4110A36F10CE0131
B8C733C0719D6C7E
D3A7E4221DFE9278
A444A089DF5D5197
E653E42DC13BDFFF
FF122BA97EF22289
DD6AFFB838DEAF83
1090DAFB6243AF09
A4CC620D979B50BF
489FCB03815777FF
2CD25B0AF8395908
CF76657E393FBF7E
6D121142D93B05BB
7E39590E37FF3800
AA6ECA80B20C20CB
59A230E414DEB13F
26954983DBD0BF6F
1F851712272B6E7A
FAB38FE0CD4664BA
FFEB3B0836DFB40E
762F57EF2621A194
CE7D5F4CC0CFC32A
B2F9FFF710466FF7
79D85BDF7EFF4267
354A72B6D9EB85BB
19D5A6EBEFB1FD12
4B27DC400C40193C
FBE75D2745FD7CE0
D7DEE77F008B3FFE
BCF6E030FDF80AC6
01C13B0AC24CD994
568ADE08FC3BBC3F
0130DEEF6817FE7F
0DDA9A11B5108260
A67C5F7577F1BB86
E334EA843EC2BB13
1C8BF891791A506D
BF1D0BA15D126F6E
DFFF0418AC88FDF8
81816732F145560D
828ED201B887D32D
B7C37FAC3F33455E
D604ABF9AEC580AC
FC7EAFBB7F36C9CD
EBF94FD5E73F8847
4CFDD840FD907698
52D7EBB75FFFFDB8
CEFA3A4292E7C0DD
63D45911FD500C97
22F0CCAEE3D7DF73
0E470847CBF9FCEB
BB9DF51080F74365
AA27B15D960EF8F4
B29F44300338631A
27679D8002784991
847904B6869B2D1C
706D50F33EDBCABB
0ACEDB81CE590090
5E4DCE6AE58BCE7B
F0EC774977D82D09
45C8670B608DCA3E
D09CDC74451EE063
CECE2CF8EF630720
0F7E85F05BDA6E0A
6D546519837B0F54
037A18D33BEC4339
F96E2C556C0F7F40
DE83F5CD4F646BE9
3010F69304CD6109
B9B0451900813665
66499DEFD500DCCD
37A44F1BE96D65F7
AFB9AD99A2D78CF1
D3236E1FB19EB3F4
931A7DDD5743F55F
03000FE1B63BD667
D998B3D321118B91
E5AD2BBDBFDBDD97
C7280C9BF65353AD
EC8F0A0E0C601D45
5F6FF31970D08E17
C9E087700A11030B
800ED32175033778
7CA90A2A94CDFFD0
64E73B1CA04E1580
88E14FEE7FDBE297
8BD5CCEF4D1B8772
FEF3C88BDCC1AF6D
1F8C1CCE9087C111
DFAAEE94C75AA7F9
D9F61640F7E5B224
E55B40F326B033FA
24E3E6E0DD1855D8
732A002826052460
BEFFFC1E13299F69
873F69E3936DDEC2
75110EC680CF89E7
7AA9AC12E7228C68
1E84CFBD204DB45F
F76A0DC08EF82C10
FD42006B11BD07BD
F70224EEB45353B0
0C2ABB0A09D073A6
D19DC7A4104486FF
DB630F06814C0560
AFADCFD92771C967
E664E6F589F4AD74
0EC0D02186DB205B
442A46F978020006
27F4E785E9F63DDF
1EA671D331F1C41F
C8F895B9C3CC5710
86136EDFF6E667F4
57411EFCE15EFA4E
13D00F7D9BFA1B62
A80CC8BA17D226F2
9031230B1BC0ED89
00AED090FD721CD0
7BF190188994F919
7C49CDE8142C1F76
8CCFA0640395F97D
20E2E10197FB5CE0
420894F612520950
F206399878665C40
13FA00C888B3C1C8
CFEC7520F82BD0A8
DB36F52E10A30168
4016A84235EC43AE
A7742BFDCA902BE7
3B0A2F8C2EE5A951
AB80BD3288728366
40887F2690A90377
FC42B00E0F03B739
067A3A7C7FF3E2CD
2013B4D452348902
DAD9A424D62398A2
3E8A9131D8DF32A8
76F6D756EEAEC0B2
53FBFBCC4CDD4852
CF770044CC40AD6C
8367BA227DCC7B30
0AAB1982FFA07002
F4D2D4FA3C0DEC20
A47CC5E1CC882053
668F08198E212350
3B0C099E7130FC42
0D670D46A876A9B3
36A09898BEBC28E1
C4FC00686223EA03
AF70C097F01CEFDE
EBF76321BF6F32A1
204744896EB8B9E8
3F32CDB3F81E6F31
B05A04E336F2995B
40B396EB9602A020
C0CE3D84E72639B8
E13070B74BB3FFE6
CECCCF6D758EDA0C
002D9000F7442043
14140080CFF0B26D
09D6988DC8302489
3B80E7FFB6E01A0B
0333D1D6F933B233
42E43580AF88076B
3CFF4E5BF66DDF0F
9921868F553B1862
91320E33737A8054
56410592F7812010
E893DA8B73C31912
6D1080902906891A
F4208F698F8CF882
738876C81A2DFCE0
8043D3133FB3CCE4
FCF72F4311CB4F20
9D301EE382109833
8806874174E181FB
CB1FFFE2ECC84494
0BF0313478262F30
246C430A7ECC8EC8
4C79666C65FD209E
0D84B790FE1F829D
13CD944A97F4277D
5A00EAB39D72C26F
E9FDDF9C91EF4EEA
B3BC0288D71C0481
3E4128846FEA028B
FE273110A1022DFD
81FC6FB2ACE06583
5C49172F853D7EE7
EF620508AAFD7571
12480EFF0D253934
AA64EDC3F5B37CC2
6C812186A7F5AC00
63AD53C9081D11B1
EFBDAA08FDC8810C
AD80A1D73433AF2C
7D203B90FCD45E2A
0C9A1C9D09101B67
9FF29DBFB0AEA188
424C5BB676B53FA7
087B9FA4E321B8C5
7F772DFA7BF16706
37F536DEBBEA3F4E
E0A9FCE0AEDFD7E1
B1EC37D98DCFEED2
7FA6BCD5180C3FFB
A50B16424A8801BD
D4C846DA1772C840
3374C17F5DFDB231
34510EA53853E81F
ED9AF34507DED4AC
DC882404781AF673
61883F226B8C09A1
07357B40521F91C0
5B8300ACEF7293F7
FC70CBEFF370F319
C42982ED2B70DD37
380CC4229BF681EC
DB67B3ED26808610
0673C100E28E043D
CF2BC0EEFE768488
5225C479E495A248
3592560100008F69
509DB49BEB4ADC08
D34E0EE9C3F0395F
1F21FCACEFEB9BB1
9A7DB8E98E6736F9
8FA0CCE733FC8EC8
FDD142640EE988A5
97CFF7FFFA8CFA32
CD4AEE948777CB47
D42632BEF8D21EBB
07B1EDB19FDF3FF2
55B9F89A8012F5F1
5EE8409D6C7A337B
15E11030F64928D0
DC880CE48A6B898C
01164DD0EEE6104C
8627F2339E13EA9C
8FC0ED80C6788438
41D2FEC5DCBBE082
C0A0F2D51139BEF3
FF7E4FA39235E0B2
4438E4EFFCD10327
CE1A300E4001CA11
BDA8F73BDE752441
27258FAC914E32F3
9041B1B040ECC0B2
188F731226DD134C
9698CD26F0F27FE9
C8B2B9541011FEE4
BA264637E917D008
CA0A7070708F6FE3
88015C4A68AEAE64
1049E8E310803F84
E3BA002A6760C24A
6F8C4E713E205BFE
A27998A2AE6D7561
2042BFB79CCCE665
D28C44288AC0EE66
711598CC300C900A
202C7C7FD111D0E7
723840005510DC4D
FECD477EFF80FA83
B07A7EFFCBA230F2
5FC005F7CFC3C004
9AF37E76DFF23DC4
0355073720A84396
16F9204877CFF476
00048262D9AF456E
16C836023003A800
EE4A8F216D75C060
DAB4EFF1C05C082C
E284733024ACFFC7
08045EE08443FE71
1F1DD77E901B02F2
20A134C108B9FD33
D00E80145B1B8093
FFE4CB368AF85593
31F66D44D446ED6C
0A53D579EBF3F821
575752D5FE63199D
EF50865B7CCC0280
4407C432F710EF41
6E3AF888FFB5CC7F
AB2BFEB53C8B62A4
A04C450893012BFB
1E96A280C4F0C892
7946209206FA0500
A0D17760480CD4DF
9888D54224462CD2
20BBFFEAD94B04AA
3E61B22E046D701A
587290B637048013
477ABFFC84920095
7608DCE14C81A620
FB915CB973426C68
CF4465BD293B8C74
67CEFDF99E60D9CB
F20B9C8900025BCE
1469E3306102AEF8
65F738DBC0E6D88C
2B3342166805C099
034044087672FE7A
544E7FE19089CA2D
7088B37499AA9AEC
0000000000000000
0000000000000000
0000000000000000
0000000000000000
0000000000000000
0000000000000000
0000000000000000
0000000000000000
0000000000000000
0000000000000000
0000000000000000
0000000000000000
0000000000000000
0000000000000000
0000000000000000
0000000000000000
0000000000000000
0000000000000000
0000000000000000
0000000000000000
0000000000000000
0000000000000000
0000000000000000
0000000000000000
0000000000000000
0000000000000000
0000000000000000
0000000000000000
0000000000000000
0000000000000000
0000000000000000
0000000000000000
0000000000000000
0000000000000000
0000000000000000
0000000000000000
0000000000000000
0000000000000000
0000000000000000
0000000000000000
0000000000000000
0000000000000000
0000000000000000
0000000000000000
0000000000000000
0000000000000000
0000000000000000
0000000000000000
0000000000000000
0000000000000000
0000000000000000
0000000000000000
0000000000000000
0000000000000000
0000000000000000
0000000000000000
0000000000000000
0000000000000000
0000000000000000
0000000000000000
0000000000000000
0000000000000000
0000000000000000
0000000000000000
0000000000000000
0000000000000000
0000000000000000
0000000000000000
0000000000000000
0000000000000000
0000000000000000
0000000000000000
0000000000000000
0000000000000000
0000000000000000
0000000000000000
0000000000000000
0000000000000000
0000000000000000
0000000000000000
0000000000000000
0000000000000000
0000000000000000
0000000000000000
0000000000000000
0000000000000000
0000000000000000
0000000000000000
0000000000000000
0000000000000000
0000000000000000
0000000000000000
0000000000000000
0000000000000000
0000000000000000
0000000000000000
0000000000000000
0000000000000000
0000000000000000
0000000000000000
0000000000000000
0000000000000000
0000000000000000
0000000000000000
0000000000000000
0000000000000000
0000000000000000
0000000000000000
0000000000000000
0000000000000000
0000000000000000
0000000000000000
0000000000000000
0000000000000000
0000000000000000
0000000000000000
0000000000000000
0000000000000000
0000000000000000
0000000000000000
0000000000000000
0000000000000000
0000000000000000
0000000000000000
0000000000000000
0000000000000000
0000000000000000
0000000000000000
0000000000000000
0000000000000000
0000000000000000
0000000000000000
0000000000000000
0000000000000000
0000000000000000
0000000000000000
0000000000000000
0000000000000000
0000000000000000
0000000000000000
0000000000000000
0000000000000000
0000000000000000
0000000000000000
0000000000000000
0000000000000000
0000000000000000
0000000000000000
0000000000000000
0000000000000000
0000000000000000
0000000000000000
0000000000000000
0000000000000000
0000000000000000
0000000000000000
0000000000000000
0000000000000000
0000000000000000
0000000000000000
0000000000000000
0000000000000000
0000000000000000
0000000000000000
0000000000000000
0000000000000000
0000000000000000
0000000000000000
0000000000000000
0000000000000000
0000000000000000
0000000000000000
0000000000000000
0000000000000000
0000000000000000
0000000000000000
0000000000000000
0000000000000000
0000000000000000
0000000000000000
0000000000000000
0000000000000000
0000000000000000
0000000000000000
0000000000000000
0000000000000000
0000000000000000
0000000000000000
0000000000000000
0000000000000000
0000000000000000
0000000000000000
0000000000000000
0000000000000000
0000000000000000
0000000000000000
0000000000000000
0000000000000000
0000000000000000
0000000000000000
0000000000000000
0000000000000000
0000000000000000
0000000000000000
0000000000000000
0000000000000000
0000000000000000
0000000000000000
0000000000000000
0000000000000000
0000000000000000
0000000000000000
0000000000000000
0000000000000000
0000000000000000
0000000000000000
0000000000000000
0000000000000000
0000000000000000
0000000000000000
0000000000000000
0000000000000000
0000000000000000
0000000000000000
0000000000000000
0000000000000000
0000000000000000
0000000000000000
0000000000000000
0000000000000000
0000000000000000
0000000000000000
0000000000000000
0000000000000000
0000000000000000
0000000000000000
0000000000000000
0000000000000000
0000000000000000
0000000000000000
0000000000000000
0000000000000000
0000000000000000
0000000000000000
0000000000000000
0000000000000000
0000000000000000
0000000000000000
0000000000000000
0000000000000000
0000000000000000
0000000000000000
0000000000000000
0000000000000000
0000000000000000
0000000000000000
0000000000000000
0000000000000000
0000000000000000
0000000000000000
0000000000000000
0000000000000000
0000000000000000
0000000000000000
0000000000000000
0000000000000000
0000000000000000
0000000000000000
0000000000000000
0000000000000000
0000000000000000
0000000000000000
0000000000000000
0000000000000000
0000000000000000
0000000000000000
0000000000000000
0000000000000000
0000000000000000
0000000000000000
0000000000000000
0000000000000000
0000000000000000
0000000000000000
0000000000000000
0000000000000000
0000000000000000
0000000000000000
0000000000000000
0000000000000000
0000000000000000
0000000000000000
0000000000000000
FFB2FEA9004DFFD1
FFACFF9301D30277
FFCA01D100130036
FE9FFFA4FF59FF14
018FFF9AFE42FF11
0004001000A90131
00A6FC10FE4000A7
FEEAFFD7FEC9FF60
0000000000000000
0000000000000000
0000000000000000
0000000000000000
0000000000000000
0000000000000000
0000000000000000
0000000000000000
0000000000000000
0000000000000000
0000000000000000
0000000000000000
0000000000000000
0000000000000000
0000000000000000
0000000000000000
0000000000000000
0000000000000000
0000000000000000
0000000000000000
0000000000000000
0000000000000000
0000000000000000
0000000000000000
0000000000000000
0000000000000000
0000000000000000
0000000000000000
0000000000000000
0000000000000000
0000000000000000
0000000000000000
0000000000000000
0000000000000000
0000000000000000
0000000000000000
0000000000000000
0000000000000000
0000000000000000
0000000000000000
0000000000000000
0000000000000000
0000000000000000
0000000000000000
0000000000000000
0000000000000000
0000000000000000
0000000000000000
0000000000000000
0000000000000000
0000000000000000
0000000000000000
0000000000000000
0000000000000000
0000000000000000
0000000000000000
C4C6CECC60D7900F
C2E7D1FE86A04033
62D64C9F0AC5EF4B
3FFB6E6556EE2197
1006DE70001E6323
FB77EFE4E1B17EC8
00149FB98EB1EFF9
FF7E6E00706C7FEF
80CF3F3103375655
6F01FB326B5A1BFE
FF55C803C3B72DA0
FFC04BEEB969B8A1
BFBBFCEB266322CB
BFF100801119707E
0B73F0A3FD2947F8
A38A7DDA374250D8
2A7B7E5728963DD3
992BB70EEAE6AFF1
FF631FF4E201E019
0AF7151044DE2484
6FCFEFC7905AA12F
D3CDFEFC81181FD4
278FF4CE603AE0E8
0409A33248930F03
147C2E8914BA20FE
64FF98F0BEEE6370
9F85D008FDD2C04E
72AF32283A744119
225AFBDAB9001408
66E08CCF5F3C55F9
E310580198BC975C
4F7A2F42543B1ECD
4E0AFD40FEFF577D
E0392092A09A0EE5
B15D66A034410341
B881A723E2591783
1F33B7146A9A219E
200704014FEAE78F
9DFA7CFBC0CF417F
C3996004E87180F3
1712F7E25E2BF677
0FBF5F19FF31682E
A3198024BE871561
F44BC55C8AEABF73
D4481D82C6EEE640
81D7ECBF36F9106F
FD5CEB0002338908
AEF7C237A084CE92
40C700F70EF40742
100980E661F73039
4DE1F7FFAF7C7628
3FFB1FB4810B222A
2B9FDFDC481FFAFB
2492E163279C260B
3108C85D80FEC232
BEFEF58740042211
2224F6772AAFF67D
7FCF17E59710DE18
AE6D5371A0D84DDF
FFF7040981097CFA
42FD835E0001F428
777706E10489F02B
717C98C9F1730017
8DB0928187F03ED0
0F1878CEBDBB2179
2E2884DD45D35EBE
D334CA019F604341
B4187BF5BCEFC6FC
5C1008AAC0334F3C
475425F91AF5F1B8
30F637527E10CACD
50C25F0C36661FE5
3684B12746E8D133
C795620EB3061BEA
CDE1EC208C1ED36A
C861FCDBC34A9E86
FC421360AA2442D0
990732043F05076A
BCD062A8559D3C89
706F4BD8FADC7629
03AD5352D34F15E8
834772769B86075F
2CB3F859853C12DE
109402B72B0C993E
304B54438A2569B1
87F14609333FF653
29E35320BBF14D5D
CC14135C4F13C306
5B1B6E01AEA01549
1AB704D6005D3005
73ABBD9649D4A8B7
34CC6313845B181D
71D2430D30B6FB61
D96FA626F1041B1C
73201D40949D936F
EB7EEFB14FB8C05B
129F1AEC9E1CB3F9
0C1D6E1D4D6CF7B4
B0512CDA99890687
E340920BF81055B4
6F01617D4111474C
2A9C7EC8B3BEFB0C
551C9E0D0AC1C801
6F0000F56F75D174
7A7480DD3FA0D7BE
EAAF12907BDD13E7
CF0C1E790BB93658
770E37BA08A7DCC0
D9916E4084AAB976
2AF578B2BFA03F78
610A825F6A409700
70EAAA107F15568E
45A8A75474FD889F
A026FD0207E4B173
4415D9EF905A4319
33BD1CCE73767C9B
80B0747F31400BFF
77B20F9796062863
236FFAFACEF0D1BF
60B202B2D6C3CB88
0A0B4A8039E9165D
63160A3408B76C20
28489E0C4FC78336
01A2D08701735FA4
0A438BF0CCFD7E88
04C270C64C028400
70C333008131EEA8
71716AB7A3E829A4
0FF7BF5F20E0700F
1FB9EC56EB699014
048EFFFE8D7BFFBF
01059FFB93C88191
A081EFBB98930213
742CFFFBDFE18000
C0EACE8D37B85120
86CFBF19FE6CB7C5
ABF2C7E9F1B14114
6FFA339AAB193FFF
EFFF7EEB1129C193
B7A051F53CFF983A
D18E8CCC41B0846F
3D7906C831B188F6
2F7A44CBFC44EE05
C8BACFBFA40BFBAF
1A8D03A80580FED0
7132F128FF7F55EE
FE9823E33711C4E0
8B7B927A0D126F88
8CF7FC95969F36FF
7F71A48455B9532F
2F0DDE36FF5BDDEE
659B121482AF78E8
6472953FFDC09AFE
5233700305852198
ECDD709A7A88D486
DC851C534870F188
66B8401B14197C7F
FF3908D5010C546F
1203478B0138ADFE
49E216748DF88550
C756FFFFDAA77FCB
5BEF2044016E5FF1
30B9EF89773B6EB4
7ECCB750114C77F3
F72F398CE060C9B7
C0A7F479D7EE2F6E
8A7CCEB6FF3F277E
D3ABFA01ED7C805A
026EFF765FFF5E80
818CA3184FFC28FF
00014830CE6342C6
3744676E2AF73B34
29B77F7F0903F460
4003A5CE8FFE21FF
FEFD4D9EFC75AD58
2129477E680495FA
11FE825A89A2BEFB
8CE5051E58001021
6CC57E69115E520A
405CBFBB11CAC764
773EC888A7F35890
0806084802BC6D59
761C336FFC899E33
E13DFEDFFC5873FD
03FEFB1253228D7A
013D944E5FF8B900
23840197FFE02FFF
AFF9788CB3136416
0FEABF6C60EF9D9E
F62D004004E14904
E17508EDCE6A2045
2AD45FFFE0EEFFF9
2CFD77417EFF008A
F89DF2EF457F238D
A8D278053431776B
A86A242563BFE600
114F1822FFCC6DCB
63B351152090D62C
FF7E33A3E6B2F775
7DFF0144C7CD6AFE
65DD31E90B33582F
CA3BDFF6ECC9B354
D1014497EEF620A8
919920823FF05BCF
8512377DF18CBBC4
B31C2E811F71B638
03B0D919F9A114EB
BB11D7E82EF79772
6C0F6E9232463293
F3BEB7D70C90B7D8
6B2C9E795AC3CFBA
8DE400C06ED54211
D3434244BDE6F32F
D18F4FF72805FEC0
0493B3482CF910DE
E00D25D915C00121
98CF5EE4D13B11B8
466FBFFEEF5CBD4B
90B15F7C0870783B
B6BFD7F904E62E79
CF581DBEBA400208
D0F0B7CEEFF73D95
EFF5730088DC8310
139A6A7D520B702D
3121C1E0A4CF0110
C1327F9F319EA44E
A2FE7020E6555A7F
033160237EF87831
EC8076643A1F71EB
1EF34C4100D1F282
798BA8256AE32C2D
477CA73D908FBAFD
9D13C8833003605F
022299233C41C9B0
41AB88EC828EFFEB
D02BB6B91294C7EF
970D8DAFEEC7B3A9
95DFFBB6F33BA877
D9702B63B1B78596
00B1888041471015
00F591042CEE3C11
75446A7E40EBB1B2
A96D7113C75D979B
376B59E041AF7F1A
0BC85BCD75082330
DC07EF9BF5D100C7
218AB8F332F45D66
B2D83170534C0A02
4B9235FF2105B143
0B9810942003D1FB
4DFFFF3D99351810
31124F03597C4CDF
77DD07B7088D7C0D
F209FBFF1A04F32B
84DBB75CDC464408
D1ACAC09C7A7D014
66DF8D6B700864F5
7CA10E118ACDDC8C
0E5E7FEC98DDE10A
C089804E0000D095
A8E4B852AE9D00E8
18CEB8CF1C4485AC
0F726C77D1CD4995
8DEF968811908949
AEC208A1D9EEC449
2FE7EF6886FCCEEC
208A2BEE4A2611DD
9838309DAB77FF98
FCDE08ADF47D56F7
20861A6746BE45C7
3EB0F6BE33B00821
0798C3440EFD611D
180026E044EE8BF0
43F080CF4475F019
6CF880CE346091DE
0FC754EE420016B8
4D313EBD87EF07BB
0C1A90CF8B8CA7B0
67F782196B4910BD
B4AA67F29AC7618C
27F130A76DEB5DEE
8FE4C4082189E8DE
11AAAF4B0B8C2095
A4610663B9FC0600
243346984A7FE7F7
936050B850FA126E
07334CE1467D8019
24C4DC78D90C339D
039C0111401E044D
9B364040C668C6D8
409122EE804FAEA6
2EEB2ADC104EA480
B09C6093B46594C9
44C294B5902EAFE3
8D809A48050AE1EC
D9FB2E32C78CE49D
60BBC8573766C51C
E36243F72344CF26
DCA44DF944F7C8CC
5A903C8840A0AB77
7BCEA8C0C8B131AB
130146DF358188C8
A7BF1D887DDFF888
2B618DE7ACC0C1B0
CAF33FC2C88741CA
CC759DDAE195C500
9A8E479E182DF08C
C196A320C8CE61BC
EFE6A651A9C408D8
7891096C426442FA
46FECFE1AEDE00B9
63914ED881BB1CFF
B8880AF0A381BBB8
D37C9AD688AC49B0
2F982D7C4FC67FFB
EE7CCE27042B2007
FB468DDAC29E99D3
DBB78200FEA6CFC1
2419CAC8DCD6049C
CE2FB40F201C898E
F73363000106CF9B
BAEC400403466363
BF8933719EF14AE1
A002E07F0C19ACE7
9F466B236455B59F
93EDB10AB37ACB0F
0EF9417C3B6B029C
2451217E87EC24E0
73F0614E32D43722
32B4A0290D6A6632
F96EBF76150BF420
2A2C985813BA33A9
D76D216061343133
1631061310673F55
348B4ED818FCA65A
C280120D2620649D
462822EF00BD4CE3
48A143F2CEBF5088
010F34AFDCCF43E5
0D2E2288046A2F76
832861F7B23224E0
332B8052BF220910
041C6A9E92AF502C
265412AD957ADBA1
5E386F627FBF3AEA
B0F00490A0FBB951
9140C480ABF0C104
C04D000B36AEDE50
BFE11AE5490E5B33
46948D964BDF9733
046F34B41F5E9056
3EE439EEB6D5B3BF
41E0BBB528BF6633
BF218DBFBE0122A0
D14016C41105B6E3
D1E7CE11EE8E7AFF
1BEC82F8871E27E1
D923C231F092323B
F394712E21989F7B
978647EF03C232D9
9C84D5AC7C202FA1
0ACECE299E316819
ABFEF3BD083709F3
E0B0B4863181414B
833373C4F3EC4907
76C0E83088AB0504
EE1B0560133E11F1
A0CAB7FFC3B03B28
A3629FFE63415F63
6FB930EB47400C76
0B6141BC76CE8013
25B733F5AC4F62BF
02A16C0575F502C0
4A647AFE013287F4
0712905E22271302
0E483030B7F2613A
7BFA70ED553906B2
0E0CBE73079662B8
443066F183E49B20
A316D35CD3B30F6C
3BEBB327F3772EAC
31D96CD6FAFBF6A8
D28B32E559363BE5
0E2CC12D2A2D05DA
0A3FBF0B5AC4AFF6
71132AD57B743B0C
48488CEE110FB605
DFF4918073005472
EDD7930EA13F88AE
300940C6B1D67687
7BAF3B7645977994
D7EA902FBD921809
4E5040A3C0FF0048
65FE6E6E2CD48F4B
F0A35777003F304B
F85B3117E6FF4508
08FEB70CE67254DE
07AE0D4786B2A983
78F007062E961DEB
33FDAC8BBFFEB820
9900FEAB009612C6
1E05BF4D10BBC4ED
5C8B73DE28DFDF9F
FFCF5FEF1B0E6197
4631BB9FD0931EB4
061136043FFFB3EC
F877071EE005FEFD
EE0E0C90607F63E5
31BF7E4C43D786C9
8DFE7EB9F00209EE
616EB8621011CFA2
06228E0D6806A180
1514B7310FCEE2FF
000363B27F8908FE
A3AED05FFFD9A3C2
1D00000241FC2056
821E100204C8885F
420F098137EF71D5
2CF29DC229A367BD
A8BC2CD7DD4C85C1
D2037F5800C5D708
E71B3BFE1AB76FF4
9F081219FEC87385
7FE9A8E2F7107595
69AC46D7E948FAD1
FED340FD210017F5
5400D9D807FE9C00
125276AB52B740FE
72FE1D020D3B7F33
7ECE1E08F7F1BA40
856F340BC4D77107
4E5917E03D1674EE
D867AF19DE07400F
37F6FF90CE99FEE4
1AFD8DCA31267FAF
BA4410007F1091C4
689DBDF6ADC87DB3
F1832101F60F906A
4AEEDD838FD70008
A8D641F7FC518FFF
FB0382AD00C10179
859CFAFF832A137F
BE31174844C035AA
36F9B852003A4B13
670084C9FBCEC4D4
C80BDE7BB1BA5D7F
14C2600834128710
DBAEB78F77110886
2D9C46C939216B12
443497FF0C830F12
33B486C4DF530D47
D5317FC17FC092D2
C2D6ED3E4973883F
77C0F1E2283F6666
C51B8EE074C83F35
5237199D564A96D8
A78D8E7582A0F330
73F17E7F3037096C
0B53FD08C0B19895
FF5063BAC23FC7A2
EC922C88E22E7435
A32307640371A4B4
7037B0B2A9816DA4
52F203F8BFC37F00
07B05D976B37A698
38672088E6E7610A
8249973BAF7C1FCA
E9E6766D2105AA36
C142C946943C2231
376CB9C3A6E02735
FD6B77BDFF83F4DC
AC0274BAFE08AAA8
33EA7482E0B35EE9
710377FB5EC10007
73A2AFE76FF3EFDD
886EAF5A6C52A305
70B6D11F2E73093F
7DE6AF8CC9B23BDF
E3130340E2F1AEF7
6B5DB7391CD02234
9B37FAF1CD74D37D
673D058CEDCA259D
C36C11D0321342E0
2DC4973F521B35D0
7B0B5E7BA1F34642
E917F7D1D9FFF299
5C10C31A7ED3E999
73D78F070FC2E8FF
B22230E48EA407F2
DCEBF32177100E21
4E01F3AF94FEEE01
D6D2BFEE1EE646AD
771A6C8A20BF7448
1AE7F4B67FA007C0
F13BD5F3E0132A80
50F5FB0BC7D4001D
6448B1CB6F0B5879
D23674071FF797E2
59B3D2DB8634558A
7775BBC3514C2BD3
6CE7AEBDF91A75FB
6E90F4E01E8C0CD0
9D70C775DE22FA95
84B9C7C4D88EBD8A
AB003BD2772446F4
7F6A96C38D741FF3
8C97B29883D7F27C
B7F8FD37B75F4680
741F57C4C405F0C1
47F772C8053080D5
2B2CF3D08026EFB9
5C303E771CDE45E2
90C5C10B894BF08D
2DEEFB1401B06CE3
007C74C8D6919940
0CED729B12800CCC
00870C81F6980F37
86EDBE503EC20BF1
40D7C1A2D8DC0FE0
0644808A0CDB9DD0
A657F99AF98DF56B
26CF858A5FFEB2C5
14FAE943FF57C8E3
F33ACB27351F52CE
9D0D1DC7B3334D79
0241B7FC07071292
78972EB09DE964B9
E3004CD416DB4584
38DEFF79AF792C67
8380D2FFA8C15515
3CEF843F3E3D0215
EF00B69414936FB6
FBCD00DBCB41AB74
9D030008BB69EF0A
488E1B0198575B9C
269D8C280719FF7A
0001AE3F2409F000
57503311C5E4FF5F
5CCCC344C8ED3DE4
9DD55F4C3B2A0009
00852A95FB4ACFD3
CC6D7AE41C8FEC4C
CB0F069820023BCD
229E395EC52A9843
FFF08DF9CE684BEB
FB3939D600C70C19
F4AFDFF48A21BADF
9ED5B6A75BAD6B72
C988190CF6A74F94
08047EC8158F5F00
954C2413004B5F42
8CAC2EBE24C0519D
CA08F63F4E72FF30
2F30EE01CD718DC0
36F4580828F896B2
12C3C7A59027F54B
EEC7229CF4A400A3
FA72CFD16E1B3EDC
42DCC2D554490DFF
67A90F960999B32B
119075C72103A5E9
0896B90EB954E177
1E38A9EAB2C0F0D9
4EC4967C0086A889
7F05FB9830135DCB
AFFA1FECA7082EEE
EA6BE324A8991090
EB03F1D506354CC4
1D8D1F0F7760BCFB
EA6E2CE3197A44C3
A4F096F0CFA2D111
6A0CDBE074413A79
45CF0AF20F28EABD
55A8048E1866B6F6
B1690E4054890706
A4D50A73F9C6BEC8
1F72930151B53A06
8392F8A69BC40F61
B18433BF32F60095
7D4F3771F4180982
8BD6376348601942
94F7171F1B4A0BA0
D02080AFA2C9C0DC
9E76B341EBD13871
31F511BA7B950DD0
144FB4BD2F203601
1F79A0B9EF264530
8A32571CD917E430
1095E7735180A9FA
4C506F609772493C
4693DD59F920E64B
6FD569724157BDF3
F1F7384181313393
4D95FD95047512AE
48115E104DA00C79
186B114B24CF9770
432E0548051784F1
88955D221FDD9031
7DA91CFFA873713C
1760B02B1CF474F7
3F8100F51D1301B8
32D5D721F5F6EEEE
161571E7FC158178
AB78F9770E2244F6
777378CF050230DC
811CF3C68DBF10D4
2D54B5425E236332
108828A5E2D83F00
9D2E5E30F1602736
6F289C523B15B952
D8F88B0254061570
37468FA29AAE7AEF
62FBD83CD6D82167
0F802E615130977B
4BB76DD0381E17FF
78947F4659D10083
3647EBAB1174196B
32027F6E995849F7
36F3CF1E38660723
DB706AB095DF0AEB
EF1C9977C5070662
EF84400F21157E65
FF490C76B0113B77
BE0B8396F5B26735
9357943DB3236BAA
270E62B9FA61847C
FD6941982331FA5C
4CD21B3597EC13A5
3246BFA13D7BEEE3
2F793913F48FA770
4F4C53637BF42F3E
26EF30FE78DD11B5
EFD3BDFFFE3220CD
3EC38B5D2BD179BE
F974BDBF20538BF5
5F7C34FA73FF25F2
9433FE3C9768C105
E6F218B268F87290
1EBCDD7716347ED1
737AB1DA6771C121
CC81E03E01120101
C55B90B2E4F128EF
DF192F03F1916D73
AEFF609AC8B5F042
622A6001E77FA751
E9EEC47302B2FE34
9E69C209EE6EEC6D
8E536D22886D37FE
D39348DA273F2BAF
922B8EF21D0C0616
8C17DDEF06E26F93
E50C5B13DF9391FD
CF0D408153062D09
5C714C08472EF739
61116F711FF5620C
C8132604008B7477
28166CFEFF405437
C599C85ECFD107F7
73ED853650200021
100631916C526A40
80CE48A06358E20B
F8AED065A013020A
00DC444118B71917
500D60B96ED2AFB3
3308DA620924EB12
10025847BFFDB540
4843D65BE933F92E
9C676FF0677F9C0A
9719804CD7083B33
A90580DC8F6EC49B
7C042003C00A8809
E7553369879B53E3
1C454679FF692833
5FEC06C7210A4629
B22B09AE72299BB3
965100284004F339
CCC70F6369998AEE
80215903C8379B19
A7F2D5330CB37C63
EB20020140E74811
AA503EB36913EF3C
EEAE2C8000924910
DEEF0D33F7B383E7
973BE8248F99F798
0551E6E77AE6D80D
01C2C7F7E648CCFF
DD12CB2701768E77
23EBE6AA62892A33
6462F5B5D020AF81
4C181423114AB523
C95148028B9AF7D8
A5FCE1FC007F5EC7
7E0162C1C237E7C7
8EE7FEE790EC2763
810160A2B4C8BF88
CB6885FBC2A7088E
BEEF0F236000BC07
76088F123CB2877B
7160E23310C10711
0533424CF501B6C8
8271822D0C632FE6
7565C88C4B89F57B
01A2BCF66564D835
0C444801B3277402
18D648CCB4414DB8
88021D55242EC923
345C7FBE6546773C
DACF014423231FDF
80F3E020EDE3AD06
006FB1C6AC3FE3BD
3D3F9DFB1EEFBE29
F5EBB01ECECCE341
3B7C41B5416E9076
4B93E25EE3B7D3C6
41720E6409ACE833
18EA653A433E5343
AC46BBA0F472B418
A03203672E114170
50B121A9D6CED8B5
A3304E3EA77DAE11
A149B39A6240D3F8
33358B582262BC49
1F31F8DE92D497CE
DFB4FCC9778EFB62
764CA9F31C0D73B3
A77EB29F03E80574
EAE919A7AB3AC7FD
89B769778207228A
42FBF1C42902857F
AFD7F3B911CCAF14
5076B421FBFD74F0
6CE46593C5F7FE91
F02D90C96367A09C
7AEA8EA8B13501C3
15CE5DE1209BB0F5
3F4DC14BAD8E81A5
A70D225B5EB90A79
C0C5CBD2A4ECEEC8
BFD410FAB44E4AC6
99A4EE937556B511
A41C4377AB517CC6
240853D000E2ECC2
2C6CC8472B23E0CC
72773AB5E707F634
EC9F644C050C93D4
FAA3C0CC9A30ED92
D92B248BD4D0ABD3
52E2C2870422D5FC
B28A7DC201DBFAFA
7F5C1FB067923BEA
83EF65A9CD84F1C6
CA3C620691F40CA4
9C0AF2FB1B074C09
B4A3FEA98AD55FC1
59B49AF9C0B4FAB9
BA44314EDD46F998
E8B46CF120C660F4
FB20ABEF332A30F1
32A0CBB588C0829D
E03BCFB9F1C4F699
F21ECAF02BE4617D
517C80DB5FEABC60
2B2AA1CCDC93733E
E272DCA4E7BDCE95
CE4D72C68089E94E
C719B0330C30F1C0
A1F50BEC29648FA8
FF677C8737F4AA86
4E18F07F14C68970
340483F56ED7DFB6
4F1EA010B403A7EF
32A545113F8F5ED9
E238FCB4AA19CFD1
6391EAA18CBF7DED
299A2F326E208FC3
496ACE0C263A7EEA
24BCF44302A2F60F
C1B760173B1C31C6
D48BEF6240DDF265
4D57B4E387EF3486
E63880EC36577398
84574C051F0C204B
397032A00C8E7924
70EFF5599854BBAD
9C9857364EEF1CAC
914D140E90A1165A
0CB83DFBA3166280
1CAF22238B2DEDAF
4DD85B2B825D738F
87FB0EC92006DE23
FA12E3AF722CD461
E987409463390E2E
FBF25E0B4A231049
90A3C5EFA01DC813
5DA7F50061DD82B5
C86CF41E045B9951
3572A0347E7AEE20
70F38EB37084FF81
735DDF0144D0BCC9
EFFFE675C031C46F
30AD33DCDADBA309
4907F31BC8E37CA5
1415FD8004530816
FC0EE24D0202CDB6
5E4040452DD14F0E
EA9DFF82D9AFBAA4
E78E561D02E26420
36F5D841362EAA6F
F3B04477AEA0FECB
10FFD281B0A75A2D
6F1C104C6E180B18
7684558592F4F8D9
FAA00E0046BFD2C2
18B570B0F7A4151A
E18CF5090AD4CF28
50F2BE2AFE50E8CF
A758C0531EF6C847
B2B40F841476D071
7D7990C3D4EA1B01
A3A384CA421ABE6A
F1D3184673C004F2
5FAE8DD460B7EA01
0335F8EFC89B91FB
CCA9808082822A3A
4A095AE8E16FF443
550C08E214245A6D
C5DB9F38DFCB11FF
A18C988E90471629
E23D11F4F8B82EF7
AA6781C9CD908426
D349C300A4136078
8BFC1724E31EDE9C
5F793F33011C237F
2F7E3A1377B00162
C2B18AA77455BF37
38C66089C291C7B1
52C1944DD8C20A44
8DF8C44C0B486138
008846A97EFAA94F
C0DEBFDA57F051F2
D7DF508FECC46A99
B0C49EDB0366F341
281A0AF283102FCC
3BAA5F87B63E6560
4F77F4015CCC7FEF
FC6601F2C1CEEE5C
0D1676570F70B813
FF366862F267FF76
C89A01B43F3D750D
B9DC48CB6C9B0A76
832B010E606DF670
116746E1E6170D6F
93031548F561F7FE
FFB9984032F65720
08332C811C82B09C
47332A7877EC0F23
3EF7F53A770F1900
0A014ECE80EA5077
2405E705EF16020F
086D79CFD7760191
4226746F3626D72F
8988E1FE02BEB096
03BB8357F62265DE
84BCD3BB28B3CE89
9F65A78EFB225BBA
1FC30800B93629E1
AA7FC86CFFFF8E47
BC44D8FB0117C5CC
86A713E99C949367
88CC21E6F3331C9D
D3B4DE3AF76522F9
C136F36F3E79600E
4045BB7B6367A180
1CC1DD1780042FD7
6AE9EEDD61BAC7B4
2FEE2723A56AA5C6
AFED37FB911811D1
FFFDC9FF77E379B4
6555BCD30EEA775D
262FEECDBAFA0713
9F6B55EFF00120CC
BA9A82217E32A016
A536F90B484F818F
88ECE001CFE59AD3
C012502209F0D6EE
3B3A8414C1E71B33
EBCEF52330EECD29
D1D7883EACCB8CE6
0233E1D0AF5225C3
6201C8BE8332C26B
7110B46EC637A6E0
08F6AA12A20F73B8
8D7F00FAE8279626
DEC6B08B2FFAA006
5EA0FFB66D708304
C24140641206F456
09679B29C0879FEF
274FBBD6776E3394
C9C607FF001E360B
CFCF80FD57F57611
FC91457E4103033F
191A055FD7656668
08FBA4456E9B7500
F5B6E790BA952247
367132D353194004
556DAF81F046C5E3
90A965F3903EF122
A8A17D0AC86F0211
F2116C4E10050CCF
DC3202FE9423E008
A910514744433FB3
2A65FE7FBF6E90F0
2BCEAF0482803198
2458FFFBA81EEBD5
FF12AE7A3AFFFF33
6EFCB30300FDC6D0
DC8B30470807061F
0E73040552EC919B
862E6CC4D471BFD9
0DFB08A108FC8AC4
50FFECBB81420C99
CF072800FFE3513D
553110201DA5C7F6
9CCA910F02342220
0040AEC282F40E4F
0020621FFD00A27B
111DA000FD01FCFF
BFE80102FBBB3873
CD0347FEFDEDEE5C
99CE00506DDDDECF
81DFEAD4150F5168
88004AEF300D90C2
3608EFC05891FA79
DC1B611406208FFB
0D381C23C6A42334
80270963E98D48E6
00025F9D47CFC0EC
AF4547A70871B124
C038AD827FAFE3D3
B289FC33679F57BE
10AB0AF88080F665
8DCC0824FFE1BA7D
E90164620E65D540
EE6BE6CFBE2625F0
B97534B7669BCA2E
04DF1A962872CEE6
284CF9A5622AF628
B91304FB7FF3968A
717332C96BEC5FF1
ED270931E68D5B86
6F6FD9E6F1930840
FE17F99F4840957D
FECF910F5593A222
00E6FF31AEB8E88D
0D4013977DD9D82D
CF7D8C00C01C6FFE
0C63011827079641
E019CE0328EB044A
9F2F997C5311470A
90AF531FBFF7C4F9
72A2C21E59136908
344CF2D6002A11EA
23F0F2C93157CCEF
0FFF2C956BB5404E
1007FEBAE0FBCEA0
3715A9D199E726E0
2056A72016F77FC8
8F643F0DFC478DEF
290520F720B78C7D
C841F79E1DC3E7DE
D4D3BC1D20B78F0E
F1403F767FB54ECC
967F26C8B52787CD
34DF770282D63022
2B71F4AFC9BEF7E9
FD8A82CF23D6FDC1
8D081AC722F138C3
DD388707D1FED5D7
A0061FF8C7868882
81EE17EFAC9F24B1
FF480697A8DFADE9
D00C6740ADFE0EE5
8CDE36DE680C50AA
44C997D82B81EFE3
101D3CE78CFF508F
45FFD7930F7567A6
D5CBD4FD70DD620C
A4A9C7462E5FFF5D
B3DE8BC8ECC7A00F
BBDFBF3EFFE9F192
F78094CBA8E4E5D4
899D0078F61F07FE
2ED999B172CDF18E
6F7B4316909E0EFF
797F4686D0DB407F
74CD43835F507110
31E3BFBD0F698E8E
A20309C73BCD6E6F
BF7A787FC09B7AB3
9BA948CE00C638F5
F69CFAE61F9AF0EB
1FEF7F2B7D8696BF
55E481AC93DE5460
AE5F335E00BFAEFB
C20E44A08E3DBEC2
09D7043B1E0D4CD3
CDDC062DA2738FA2
8CB7B2B13605E4BE
7C3790FE18AF9C39
3E8E783030833078
206FDCDB27B6B740
1F5870701109AB97
3AAD4DDF734F90D6
C6EBE483675DC04B
048EE8678A46E444
CF9AFB0F421FEA01
3B39703F6F44CCDE
A1EF34E236AC44DE
106581EFC881059E
6F9936B0712450D7
4353651C5C18C899
01FB0666A00BE4FF
DF4FA6C83639700C
8DB086C603D9BCC5
12FDDCC09F7C0C2F
E107962B7D564673
B26F308202F23A54
FFF18D667717D9AA
001FFF107DF6009B
A31523C0AB05F650
C61820F743621E90
7E797076AF4FA070
5D64A826B8C0A982
9DD14CE410EF8001
3307010EF1B98B37
801B201CABF9E84D
37CB4EE6917D9000
4F6C40C9B8F28956
B0C0604320B17B72
4DF79160EF7E7E14
087E54467CECBC30
AD2FEFBF5126E911
126677C04967DB67
EDE817F81BEFD00D
CA30B03DEE8A9D31
1A641092DFC1EE7E
F3132B30D06206FF
B2D0DEC5D370FAE8
12E85FFCC70E00EB
3BEDF737EA786D6D
2F72B1C20A38D9DD
C92C3EFFEB11FCE6
BB7A35FFC67D13EC
7FD0DDE4EEE32957
BF63D3B64EDE3702
FF032493F408EC3E
10A9C41D84903987
7040007F5544FD35
F476F6C51DBCB945
503AC005FFED1877
48CBF427DD2A5F8B
83F9DEFFF91055C4
A3217361813EBBAF
8C7B3C97178A7B94
3FFBC40B19B6867E
F657C892FA0EF124
77DF4A151ECEFDF5
E8F91B5CF9768C3B
2B22E5C4B7F57302
514F9A3CF416E3FB
50D46BB2C8A1EE8D
C7B6B3E6C52CF82D
AFC87C4ED3747616
8D3EB719ABF3CD08
4B7F32466937EEF7
76719108AF9BBB66
28685786B0120B46
A0DD803D5EE079A5
8DC747F4C1F44349
3708C8D8FF721A1A
FB5A9C37C88CDC99
D9EA473F069FE4B2
90B0C891650CB47E
D80159B4882C5B62
6FA33FF7A3F7ED6D
B3207BBBFA7493FC
CCB62E0578308859
01B797B87E987159
6C709111C83D63CA
AEFB849F37FE0910
8C309CEF099D3706
0A4E8C63BF086735
8001371BF7FE880A
D47ED4D3160F0008
ACB8B2205CDF501D
DFEBF3D00FFF4AE6
E7D960805C11490A
096788BC4647E201
509814EB31705590
8088D537FEFC4424
90C76322508617EE
AA1E7A9EFFFC01D8
401ACC5138F29C96
B7110FE0B9F74CF2
000505EC8894FC82
68FCA83D1FD6E13D
3C34880F6052C0F6
3615D08DCF9D8198
52299009AD716F78
2E3F0132ABF0C411
00010660EE4F97D8
C702B874A7E908A6
4AFD04EF60E77000
4637CF8541B0567A
D10C5BD3AC332002
A823FF7F0D663330
99F80496044BCCFF
79A3538FC0AFF8FB
6DBBF3F8DD014C90
C41808637F3BA044
B4F127B809404EDF
2E4EFE642398BBF9
C8AEFF37CFCF7BFF
3732C86537C7A78C
D1233381B9807761
4020FCF6001D867D
517CF418D773B64F
F9B08843A7CED9AC
DC414E2A67F44109
D40939B704C0B3F2
4DB1DB4789FE80F7
DA8333A3DABFCA0E
0BD6AD7F21D7483D
C15831F17230DDF5
E750F85BA0EB051F
800B8CC86AF804E6
D76E6818B00491FC
EFCCA9F78DDF8372
9DFB390B024BC806
8001E408A767909F
5F9139E02B606BC7
111E3F7E628D7FCF
7A6C14115D3F5542
10CC05ECE7B893EE
71EA442FA000BD7B
0D32931F8779B773
E6B05EE3FDC5A631
9C6B7626D89F262C
8C6F1E73C6EF7897
F28B871DA7EACF34
8FFCB5ED1BACE601
91FFEF6812184700
E5520E1218A21CD8
65427B5C20CB8981
E1A16EF13319F941
F723A66E8103381B
F6D2762C46F1E1FC
740108EB11D527B2
EAC993D648E6226E
EB02BA84E18249E3
AE28EFB70750B99B
F58C980715CF3ED6
4369FE551A7909CA
FE3E7812D4818697
EC1B6A5AFD9141EA
F5070685D0C7FA0B
FC906EC88EA31AEC
3546B16CEDA7903F
5D3312EE38679D8C
F422CD573C4CFFA3
98EEEF34ACDFA444
B4EAB79E15C8828F
65E55DE125B3C912
5B9DB6FF4D3AF0B3
9FEED07B343FFC42
7F0CF88C0243DA27
178361B9CEAEA042
734DCFB77E2F2FEF
C72BC85C8D3B7FD8
0D89BEDABC37E935
BDC8D7E79A898691
B9A983FCED573602
6E18D4E6C2B71213
967B9F21FF0EBC53
6EEB331EF4472717
9FE0C86EFADD6A7B
6FF413BEF93DF91C
866EDD3FB8CC0409
53E3A74F817E5489
FFFCA510E32A21D4
BC435F757B032ED2
08B1092F8ECFB03B
E5F5FF3EA1770733
D78AFDA0B1FE1082
8DA57E198080C367
0B1B723AED17CF15
7823C086B8535FB3
7EFE26CEF7D78CBE
8C02988865DC9DAE
54A383D0FF50A00A
A4C20440F555B21B
484649B1B7838DFB
7009DF1A08DB35C5
6B766764AC760893
B4FFEB23DFCFB1FF
DB857CC60FEE9DCC
823ECA227F9F3579
AC03446FC2E3F557
91E13FF132DE87B3
C3E9EE3DC0BF0504
1F7AC92038D725B1
BDD5B6EE6E77A279
3E43D68A2CC89D02
1C27F84B80C104D0
97FBCCECBE79C15A
C6CC204A71367306
C6AA1B02000EDFFD
2C0ACDD74F68388C
C7120E89100593D5
DEDC320DC0957780
F40D080E80036028
7A5C8925E4C4F6DD
48EE04627F18F398
F7F680DE36083F4B
0CF036D3537F011C
05866EFFF326B9E7
F2BDBFD012260153
3D33B5D3B909021C
F888B481AFA008BF
35CC00771008C7D9
597E9D10046B5FFB
B9DCEFFEB77FF019
BB00FFBBC90013DA
1610CDFE1A78F51E
ED5AAF7F76EDAB88
7EF3BD0B08CDFFB0
441BF69F36134744
07118445008C1110
7F3F48B80811FF79
4DBB5DD98213291C
559DF88989D20D88
211F2894FEE92024
801B0E08AFF14CE0
208883359D3F0118
0800269C81E46769
390E0AF0B3481E59
612A98057715D8B8
2DC056F5DCAD771C
C19A47863DFD27D9
890C008077794ED8
95EEAAF7300F440E
8C0066C991594D5A
A602167005C5F7F8
520B2F0F20DAF7ED
DD12DC0487040A41
27ECA854ECC0E4F5
217A1DC7F38C689E
A7D071FC13C008A2
C010B51B45888900
43106EBF149731BE
DEDC540000846E65
1E6EED52BF70BC4A
A31D4D64066FF001
FF32E78911821134
9A973DB46FB77A29
88B987FE399CEFD2
3B1C8FF4B73DF7FC
B9D90A98FF7812D8
CD71717C65C067DB
5C020132B40F8FE6
472F89BB85852120
52C27A1303C83118
EF2059502983870B
67E7BFB8850E8000
262A971F1D5147B0
F4EC000080187DD4
4CF8830AEE8A1421
4FF78C89008BA00A
7044F946F911FF6A
CC4743206D461AD5
817EC9B0E3BAB630
AF73451162394EFF
8C8D1044492A6FE4
0DDD82E04C2059FB
B4BD00DF435790DD
47A8CF12D54F7C53
8D0849486C3C4C80
A08DE8B953B0D332
DFA3BD3E53C87AF7
1CE7660923186A99
2FFEFE6053E85C63
58CC5D25E9BF80F2
C35769857230FF03
ED11D2FC681F4366
162E59918018CF37
EB5C241D8BA14E61
64DB15FC6577C13E
7CD779801851520A
0739EC0A3F359358
AE21F60757419BE6
8AAA149864E80F99
6792B89FD7832C75
4E416A1B962B5E55
867A0431BEA0FA1E
ED62F53AA0BB6D45
6FE1255E85AE3171
8DB28C91049D3C7D
91B8405A62328088
6027FD4917317B56
3708F827105F066E
339F2137D2E3FDBB
70168E8718FF87F7
65243E3D0F213F30
8F823A010569090A
FF9F266C9D307D83
40ADF41C0007459F
F6DDD0EF3532B867
90DC7DBF24226D03
0CED11EAFD2EB376
A505FF917B7CC807
ABA5C2A2C75059AC
C00666D705142233
F6F739137C33EFB1
8194AD6CF901FFF7
99B26F7359513C55
B90CE0C9C4F31FB8
19D08DF573D8B6F1
7F80CCE681D80BA2
11E0131909844022
BA1AB22384847D5F
49FE2C740DB30C15
CC94EC4B45F6943C
6177E892CCE1C94E
2F00337E48E4DB91
6F5D8401BB0C02FB
ED098A09A1BBCCA6
7DD25F21F95B3391
4C69590C0F3FAB98
E6CE498200937B43
EE83F91D8E899720
C8E2FDC3F6750172
DF21681EADB72236
49D01DBD4CF702C7
29C579B3FCE0C4AA
D9138EE680427F6F
9EDE4023FFD2FA90
8F4EFE1F2CEEBBD1
D888EF78FE7CA5BA
6F38DD8F85008967
5FEFD5EF7F7A8B8B
E8C7D8D6AFEF9028
E107EF906FF64202
BCAEFBAEFFFF9115
4100BDA7893FBFAD
FF09C7C8F64E1013
BC2D415AFDE33501
2108ECFD0249CD5A
4304827822375376
BFEF9DFE804CC1E5
1E445033D90318DF
10F03F70010C38C8
5232DFF12777E83F
09F17FC2F7A47FFD
8CB9116F802307F9
5DE78A5AC951A043
3B0E100F5AED81D6
83B16C7EF3FEFFC6
11E0AE67FEFF70A5
DE5BEDFF6B0825E7
F986AA44F5869AA5
9B8301A9D7EEE08A
819C11DC064F110B
40925AE2C8CE0D4C
9A801654900AFFF7
883EBB31D7EE62AE
D56E03DEC25E3043
E942D5AC1F3FB659
69DABAEA371388D4
1361F78133AC2FB4
FE5A3F8051BEA8FF
CBF9F7957ADEF3F3
1F8042880F42F861
498C7194F177CF7C
18CBD8AFF9F50EAA
40E74DC8926E9A12
0B75715FDA0D2FFF
F3B03522218A79DF
8124C4CE3D583200
BD40E0FF48C22F0D
C7C1F08F78DF3763
BFEDCB40DFC585DC
EFD5EFF6C3F250FB
7FC6D89EB7CB3DD8
C56513DDA8369205
978BFFED0EFA0522
B1156FFF6FFFCFF8
47B69249AFFF0803
C906C778ACB8EFAD
B70DBFEF0B100133
36E77471FE4D5161
4DFEC47531BB83CF
E5FFBB0956DDA88C
531E2F4EFD25494C
F62509D995B6EDF7
D4F8A22E7F44114C
F235802500D60880
202877FDDBCEDAFE
C50B55F83F6E6FFB
1D8C280A3F384002
1A8F76F7338B3924
FA50C71DFF050FF7
E502EF1BE272BD64
A20F544CBA4E5B0B
EDBBE1C8F0C19F60
5CA29B8A0401F623
F6BA00D160102FFC
D25D999FA5F81974
4BC580F5FF8891CE
BB1D6015CFEDC9F8
CE06A36F98C89FE2
009F2F3A47BD0948
F58AA8808FC9A788
5621A4419B65C5A4
2D89F78DBF19487E
7CD04E0AB8047FFF
C79EF5034CCF81B7
AFCD270DC874D609
500790CD7479D000
254FD3ECF8C8A3A9
D09DFBDCCA97D89D
F7D0D580403F9203
6001BFB6F1F567BD
CFCD617018F75EAE
7E7890A8FDC6F201
D187CAD07FA6F9EF
16EB2E20ACAD2A34
B38D60541C12408D
A17E04E980B83ECF
E204F9461C82FF04
6E435F64D8D623EF
9006F027CCE6725F
8E361688418DEC85
9CF6033EFC9FFF53
A508E23B2B38D794
C2334391889D6103
D0BF2741DA8FB5C1
99AB280CC4C50299
4BB83002F830B784
333B05C542C377F1
96819334677AECB4
7112CD6A93CDD128
BE21A011D1930737
F4C8FB3B00C7146D
0478D1B6FC19EB71
8FEDB81B01F479C1
F239D209088C51DF
9C583165CC86809D
D0C41D80D7E4B137
E5A6011B8F7F764E
3D72A914C1970015
F079EE00C30446D5
D831BBC060892740
98E1D80980BD7FAA
B03DA1ED0343988A
0BE33F77AA263DB8
FD80FF8D08089F1C
7F5BFF36C1178DE4
CCDE8064CAFEEF7A
991E48F88AA9C8C7
01A3968139CDE78C
33EAF978EC86F173
35E460AFCF122000
0E18C47A708C9C6F
4CA8AB9DC4E39910
73E0DED4040E551D
5F9581CCBD1F5FD0
0004AD5C9A8810CC
8607FFF70484B0D0
CB0A38201F935017
B5E1949CD89EF957
B8E6C1A374A4D215
95DA4B2E8701CBF7
81ED8E8F6C9CB994
99D0C496C06BC031
A0B7ECCB58E81D3C
FC0EFC84EA934C12
69E2729001423CFC
05DF7F15E5F91E66
0DD7D589D0CE9F80
603F107F1EBAC85F
57F954F9204D9EDD
FB9EEA6B4E1A898D
7EBF994EFC811E65
C437520465BA4480
37631670A154DCFD
CF8879D76A8006AE
4102918F48D1C3FB
8CA6FC3A5135400A
F7FC3F659F37779B
5D34BDA3AC50B70C
111755BCBB10BEE8
3FDC7C0BF4201CAA
18C14B68062D0BE3
284E442859A340B4
B654BF56435CEC99
D7805A00C0ED9AD4
AE09072E4C32C02D
2388751D1858B7AF
A01E6CA3E3CB78DF
C19C1C9BCFBC4FFF
417848B0DCEE043B
71F1A8981A273E07
417884CFEE995250
9BD192C55FC08007
45015CD2CDD8AF89
18D2598880A7E09D
3BA81C8A213F7E7A
007C7C15DFB65983
34D83593D9E6795F
521588070C34D7E4
8C5D16A31AD6786D
FE04AC042B95B2D3
77BD9EFB0C2A71DD
D141AD079B2FA0C7
767538F78F4E6077
F00221C0E14E488D
3E4C119108FE8B59
AB9DC09F9903BF67
0C3B2A18BCC12DFF
232B84FB45887425
F930DF20B5EEE79A
7FF9F010215A3B95
5D8BED99B0D330FD
9F4AB7F9FC201CCC
8CE5470589DE8208
52A03084EDD23ED5
359AF610B6EA61BA
F495E8010090BC04
8BDA441C96704F39
EC8491BF2F43F7BC
F111D6A8E430FFD4
691AE1D93A2E7167
7FF1CAB7B9584845
78882C6EB55FCAED
63FCB521FCB57981
5F35E21034B1EBFA
ED8076104191FD4C
F4D1BCE742449E07
B63EDFA7B72174AC
910BF104115CA572
2A60A2B33F82ED37
035E6E543F48AFA8
02ACE1B3F51666BA
B176875DD182C211
00739230AB7D9E95
02150F694F5DFD5A
4CCC3339D4D9B1BC
A492E3CBA0DF4407
7A29462C3F1E1AB5
FC4E41B0CB9D26BE
437CBB00F82B7D65
0FACE2B8E8C86055
7484AF0FFEB68B77
D2CE8003B05B08CD
6C1E297C373AC331
F47D6B32ECA0B398
EEA33437F4758AD0
BB4DF4A8ECE8B102
1A0FFAFEABDD33A2
F705E19DAAE8E6F6
914122F38932AD5D
B346B51F5E7DC0B2
2D196F6B84C3DECD
C2BD7BAFEA571B04
A0845EDF7B734D08
5EF9246C2E7C1D44
A6BCF5573E62807E
C93B50D872E30924
FD0CF1337FCFFCD8
6C231E7F0474B781
46ECEE48030BF133
1AF823BAEB207F33
EBFBFD124409BC88
C111BB48BFD5440E
6108781466FD01BD
DFB6E91A127DFB03
2018F1731072FD99
38841500CD126161
880CC076F004233F
D51878807276A159
F77FC4171A1AFAAD
683B43849927B71E
8A98F9F6FD118E69
E6447AA5FDBBEEBB
AAF00A980A4179CE
212A9106C03C4775
2B0D0D8C693FFF5E
20214B88F59C1A77
E0C48708D4F3E6F9
EFB72B7DD07E8D10
05971905C4E6576F
C610EFEB16FE3748
E689821DAC47509F
FC188DB87CF0376D
B7EA3EE4CC28F57C
9D98C871BCD6F8DD
F90153326D45A28A
44F16851D104A636
3D7A4CE0F990C151
B531DD45F7641421
89DB8C4CFEEC1547
7849D548ED918B71
EEF61290D636C8C7
D05297E4C4A76C93
4C4BF5F7C64F69E8
BF752EE3CA4378C8
77270C26CDC47A09
86CA76323F72C30B
F9E6CC5757F0C115
A8B9ECEE7BAE7FF0
A5FF66A038D0F3B3
03DC62C61E2094C8
3C6D40A964AC2085
330C82D15CC5FD66
CED5D264167D5889
8646898CA869DEFD
EBB0AC10FAA51199
49B5003644ECF635
EE3B6EF6BB7D4E6C
8C190AD89B11CDCD
82664800AD9AFAE1
336D9AAED972638B
4A94ECE0F46B1FC4
800151E4CED1E0BF
474FBDE0C20A842E
CD60CDECB064CD1A
20F4AA03566A8470
7FE02D4FCEF19EF6
5F563A218928A674
CB8FBFED09373C95
E66B9D02FCE673DC
2988BDDB8EE002FA
29C4ADBBE14721CC
2CC17830661B08C0
93F71746784F014A
EF70A012857360A8
092501EA9ED57ED8
849CCDC75B04FA2E
37A9AD9BACF1BF52
6FF7DE373854C7F4
EDFF7E89459AF7F4
E19882B9876B5189
6451E4FB9C82EA27
7DCF53DEC4FF4455
074999A263C0ADA1
0C9E33150B56A5F7
407C8840E5909D46
D5BEECC517C0E00A
985E1E0BD671EA03
AC15B902BC630815
8C70CC59F6E8566E
DC88C489CBABF0C2
9D6B2F92AF48C109
DB03F76979C58C85
7D9C9723310028BF
BD7F87DF2165944C
33F8DFF2F211C4FE
2B84808BA343EAF1
6248DE62E8F2046E
CED700C4110526F2
60D844FB9E848D47
2F6E1FD8014E12E6
F4A4749779F4DAB7
8B775B7FD2C69B72
E8034FE5813FBDCD
33B6FF97BB7E55AC
661430083CCD3758
EDCB001CD3AC5CDE
BD187AD5FFFB6801
136568E89A2EA147
984CEEAEEDC45440
9C7520877E933896
E3AE8BC4C84D18D0
C58866ADB83F1778
808B11BFC7F3153D
B6DEC0282136C530
C8AB469CB1DE339B
5560FB5C2F81F3AE
2F5D9C816A878D02
720229AA2599E04C
E727BB257F84590F
80A77EEFBE7F7918
7901326C37296F33
FB98CEE6F3FF3915
63151B632E68F090
4E6473FDEBF3D6BB
DBB452071B7CE19B
0F3A1093CA67D9F1
E47D50EFFEF439E7
3CC0E059C0027DF8
8839AF7175455744
D0DCB0C2C2330A23
6085FF6A13768E51
B2B5B94E02DDD234
F2148256FF3761D6
04C9CF57A3078BD5
1C4C2AFD78350CC4
79A36F0385DCE917
0BE4244085B968CB
3172CBC2EE710A20
1174417B80E344B9
3727164957DC176C
6FE7568E7D4316D7
EC8ABB3594F38072
EDD6510240EC0E4B
85A46804230CFB7E
8CD600F695D06CC8
18B081C4988C19CD
7B46C50894EEDB11
41F522EF0FB387EC
00996DF785269377
3B6C0ABC2020ADF3
40F8AAA08DF337F6
20DDDE02BB5E22E1
9B7F8DF61ECBFBB3
D26600880DAD3135
05D6D7C88FDCAA20
E4FDAE3D8B643140
BC8FCE01F0F7C8B9
1C80AF7F09BCB28F
6B80838480257AEF
75F33AC529F70608
BD4EBC8E5E0F28BC
EC8A5061F060ECC3
127702EB9AA0EFD4
F227A9107D2A3F29
44294FED0B2EF2BF
730FDD5420409C03
D541C81B4E22334D
42417E8E0AA9DE3B
73B1BF41B2085088
DE1F80105417A66F
F17DD006F6052EBC
D99146F3B225D5F1
6F2072402442D963
8D0B702AC84C09BC
AEA283782A292D98
CC40BAD546F448C4
AA1B0347FC45C00F
70C4C985CD01CD13
C75AC6A33E5D0D3E
31C578B00DB6C395
57CFF0A81734087F
C78D8C4CB20AF171
6602C500A0C0E9D4
365FFFB66EECEE71
7E95C773E0000705
44F50CDBDF83F74D
703132414E6097D1
C4626E3DDE2FB3A3
1121B8ECBEE7B284
B0303074DD7DFCE7
AB3F546F8E99ACE5
C44446C754417C83
2562D7BE4D39DFD2
7D9DC0E306F0D199
7382DEB307C889B0
079FE8D3B993FF6B
ADF1E1B23989E6E7
A824FD11234F0837
E028359ED5857370
F54D211C4DAF7772
D59CD6E06E2E60D0
8DDAB18F2D5194F1
D127D522DD16E768
2E26932F1D87561B
8EEA0C92A06BBD3E
2277CE5E8D72FFE3
7727D712CF28EB84
B22B4160C1B8662A
E5CBEDFDC127DED7
E68650233C9D88C6
D0E2E46A916C9F0B
2CD78F27C226AC2B
B3A32EF14C9177A1
A452B5F5F0FDF00C
9CD1BF180F9088A3
7C4404414EB9FECC
5F029089089817B8
51B8C0A240A76722
C29BA0C0C41D782F
D78D04F6F5E0C026
1E81AD526810300D
59782556EAE8B032
705CFFE29FFAEF7A
008173F38B288BB2
30807E9BB2B79422
EC6F7AF9DBB10002
6029D98C903F0C40
820EA7108D48B500
A8F7CE4B6990AF9C
02E8038A12087EDF
3F67FAC100081FD1
946A45B5177F93B0
42864CE23330876C
7D7107C067741F6C
3F6947F79E42C50D
E8B809364409EFF6
04B900EF6710CEC2
5032000DEE634103
04728181B7090688
017F92721C3C2750
8DD4CCC8CA3C2EF5
6E64C0A9E73B24D6
674CDE77EFDFE862
34800600E6255238
65320136AFC078F6
3610000100852730
48CCD6C06FC800CE
8DC079C14E7C080F
0FF3C2EA3189F466
767700CC008C376E
6A2147A00136DFED
EDFBAEFE0FF08210
6ECABEEB7D27FDE3
7F31A00688EA21F1
311D4720F8116C52
FFCD17400006B477
BFAD380CF1F2CB34
8032F44145E8332A
9AEC823A3F3243BF
3ACDF20385F74E4D
C649FB181D4C1580
01082401C3FC80AF
2205409EF47302AE
078446F6477B1F80
2AFB2D3E08200000
48122FFB02E70DFF
17FFCF9D410665FA
100DDD7B20508140
00B49BFB00A02DF1
E6D3A40E1C140001
6CC52E611C4C1002
82DCFF2F415244F5
7EAE8091BBFB90CC
0400D4E60068E04A
70007C67588833F9
CA5DDCCF08D9E7F9
0022E310DA626764
6118C4462744F604
180486C05FF6EB5F
CFE9DDACB3132032
0B09427820A815B2
067A400404E1CDB3
E33500CB4D816013
2E115F7310E63F71
EAEB00F7C6845F72
CAEE4A8EB7ABE2F0
78CB43DF48BEB810
AF47901EE7EAB117
B3EC373C1FC568F3
FCAACE1F4FEA8F94
918C7117ABAFE4D8
0D11D3E0C3BFF110
0A032A5ABA4DA04E
208A95E1DDD9CE09
32C4924576F86A87
BDAE4A9678813D7D
051B445D6E4E9DEA
67A8C8FFE4FEF80C
82005F145A791ADE
CA80C037014AC95E
684FBE6F598D6BE7
65988D3924049FA4
F1464781F8E84169
71C3D8EC90AB6AF4
DFAC6C9D22C08F86
380093184C8288C0
86B7A9CBC49F2423
01FD9E87F0FF3C11
6DA48CFF27CC0892
C65B0D44DB32C7B9
AEB442BE8D0E5D9A
7F35F8ECEF8CCD8E
0AABDAF09B11F08E
2780E1C947FCE066
9D78A1AE27968E0B
04001E4F97F3B680
68F00D060DA744B0
1F4060E6209B1741
EEAFCF6445CCACBA
58BB6DE4AFBCFA4E
30C69FA83CAEA832
1443047D2C0005FB
5FF271F5C62C3676
21095FC8D8EFA18E
CCEB9E1AE0932B00
16D13FFF0D5AB0DA
22FF0EE0604681BF
827FC06320C92F77
BF7E8B7F7D6026C8
C5088E0D005B800F
1CE50FA0939E217F
BE5840EEC8AFBDF3
A4B0AC840A4A3366
58D1AEFD210FB4CC
EFE726B26B88AF76
881A4A2E8CB3E550
57AED381EFFE9511
32F076FDC9F8D7AF
84730340E5072D02
AB4C9FCF41387866
F47F862358983313
1C676CC4A64A1317
57F1477B3F9F0009
9EAB041BF58BB97A
7094B01BB7220471
B6E6AF6783F773AA
1EB908BFF58508A7
5FDAF0082F37DE3F
F565D991AB36A832
B15298E948F355EE
B786DD40C21128F1
B3DD6A3028582C25
0FEC2E45FBE73F34
E2FAEE761C589B8F
13C476DD6CF288C0
98A14C610290A51E
9276AF77FD1FAFBD
BF4F41401B1EC9BD
BAF499E2279CF5F7
5D9C08F4FD04DFDC
C77251BB0D065A60
455B1F7EA47BB2A6
77246F5DDF8D0F45
2D89630A5E8167ED
F79D1841DB7A523D
815E44B911120840
7F908035B5C807E9
332ED9173E9299D5
87AA66F175E8039C
26E171FC138A3A09
679C6A059D530913
0EC7EF64285AF95F
07909222CBF38B00
84D62E9789BFCF70
3A9DCE2B9619DE79
16B6EAF193788877
9B39C61D12846670
639FB2B30EF6ECA1
5D222E921FEC0008
A4EF3B0C8F9684F5
9BEC0069A1465940
13915B7FF7F90028
44DD980245189BB6
427395FECA9F5059
ECD960CDE7B56E9D
23DE3C9980964E40
B5468436C84F8E30
F8D4B203468F03B0
B37A89920010CE57
06CCE650314249EB
8ECE4630FD2CB7FA
978D308E44F821D3
CE1D30957F510058
6603C775C892F08C
4C8D4F9CD7D47FBF
3182880520903A3C
71A0880008AB276D
0FD59010390CC152
66487233458282DC
B3FD0EF960F77C67
35E92917860FFE4D
EFCE1E9A00F0E6C7
033DC3B982E97B6E
4D90A8F0CCB7BC9C
8FF35C9A31C9969E
390E6E803B0B7317
182F66F5379313DB
4200C3D1B1F0F006
1B62A4BD15B6FF35
616341F226C19F67
AEC6BC886F27512C
8017A93BD8A6871C
B50008C7FF152010
608940C50090F364
7B108C90C2BD1832
676A002C0086F6E7
F33B1012BB6D7FFE
EEBB404B28179F63
3588B329E062BE4F
EB2212A0006653F6
78CCD88E2476A2EB
B11916C3EE6463C4
080E686CAEE52AE9
58DEFEDAE2D5767D
C67F6F378E6EF000
A68A65104FE67F09
E185E2D093AC8967
76F647A83B4145FC
60076CDBFFFE88AD
FFDE40422094A230
F8F7E599499AC4AA
A7CC58447CA00641
3300007DE54C6920
08EC4F5F76F6D8AA
10E0624378AA020F
11033BFD77D0D7C0
508D676607092012
377EFFF0AF7BDE65
54084BC10730E038
715000AEFE1C3FD7
F7F1B5447AAED080
00963F28E7F78006
7EDDFA5CA04E8013
517F6339125FFAB9
330900820ECB8835
85FEDF9F03BB7087
D012011AE84AC975
7427C000FE736022
14E7A7EB19B017CE
F2EF397003831802
F39AC00484A00411
1476047F1E8FF714
F1D500DC010853FC
0EE5FD47A0465712
7324673933140F64
A24CA000F6AC9D76
14FB6ACCEFFF5B9F
B478F30470C71642
E322036B8C15057C
1EDAC008034922CA
2CF9FDE11684D5D1
736CFFF07E6F1C37
33E200138E4AAE01
62BCD01487387CFB
C2CD13F44808B777
7DFCE2B5FDEE0801
3812FCDF883EF156
BEF7E1A08D62EE86
015B2DFEE8CC00A6
BB034F372080936F
D3FFBE3B0B131004
B104DFB3EC76366E
C31472081D1483BB
3D47BFDBF388BA76
0759060FD78F4294
D77CE000B70D0000
0000000000000000
0000000000000000
0000000000000000
0000000000000000
0000000000000000
0000000000000000
0000000000000000
0000000000000000
0000000000000000
0000000000000000
0000000000000000
0000000000000000
0000000000000000
0000000000000000
0000000000000000
0000000000000000
0000000000000000
0000000000000000
0000000000000000
0000000000000000
0000000000000000
0000000000000000
0000000000000000
0000000000000000
0000000000000000
0000000000000000
0000000000000000
0000000000000000
0000000000000000
0000000000000000
0000000000000000
0000000000000000
0000000000000000
0000000000000000
0000000000000000
0000000000000000
0000000000000000
0000000000000000
0000000000000000
0000000000000000
0000000000000000
0000000000000000
0000000000000000
0000000000000000
0000000000000000
0000000000000000
0000000000000000
0000000000000000
0000000000000000
0000000000000000
0000000000000000
0000000000000000
0000000000000000
0000000000000000
0000000000000000
0000000000000000
0000000000000000
0000000000000000
0000000000000000
0000000000000000
0000000000000000
0000000000000000
0000000000000000
0000000000000000
0000000000000000
0000000000000000
0000000000000000
0000000000000000
0000000000000000
0000000000000000
0000000000000000
0000000000000000
0000000000000000
0000000000000000
0000000000000000
0000000000000000
0000000000000000
0000000000000000
0000000000000000
0000000000000000
0000000000000000
0000000000000000
0000000000000000
0000000000000000
0000000000000000
0000000000000000
0000000000000000
0000000000000000
0000000000000000
0000000000000000
0000000000000000
0000000000000000
0000000000000000
0000000000000000
0000000000000000
0000000000000000
0000000000000000
0000000000000000
0000000000000000
0000000000000000
0000000000000000
0000000000000000
0000000000000000
0000000000000000
0000000000000000
0000000000000000
0000000000000000
0000000000000000
0000000000000000
0000000000000000
0000000000000000
0000000000000000
0000000000000000
0000000000000000
0000000000000000
0000000000000000
0000000000000000
0000000000000000
0000000000000000
0000000000000000
0000000000000000
0000000000000000
0000000000000000
0000000000000000
0000000000000000
0000000000000000
0000000000000000
0000000000000000
0000000000000000
0000000000000000
0000000000000000
0000000000000000
0000000000000000
0000000000000000
0000000000000000
0000000000000000
0000000000000000
0000000000000000
0000000000000000
0000000000000000
0000000000000000
0000000000000000
0000000000000000
0000000000000000
0000000000000000
0000000000000000
0000000000000000
0000000000000000
0000000000000000
0000000000000000
0000000000000000
0000000000000000
0000000000000000
0000000000000000
0000000000000000
0000000000000000
0000000000000000
0000000000000000
0000000000000000
0000000000000000
0000000000000000
0000000000000000
0000000000000000
0000000000000000
0000000000000000
0000000000000000
0000000000000000
0000000000000000
0000000000000000
0000000000000000
0000000000000000
0000000000000000
0000000000000000
0000000000000000
0000000000000000
0000000000000000
0000000000000000
0000000000000000
0000000000000000
0000000000000000
0000000000000000
0000000000000000
0000000000000000
0000000000000000
0000000000000000
0000000000000000
0000000000000000
0000000000000000
0000000000000000
0000000000000000
0000000000000000
0000000000000000
0000000000000000
0000000000000000
0000000000000000
0000000000000000
0000000000000000
0000000000000000
0000000000000000
0000000000000000
0000000000000000
0000000000000000
0000000000000000
0000000000000000
0000000000000000
0000000000000000
0000000000000000
0000000000000000
0000000000000000
0000000000000000
0000000000000000
0000000000000000
0000000000000000
0000000000000000
0000000000000000
0000000000000000
0000000000000000
0000000000000000
0000000000000000
0000000000000000
0000000000000000
0000000000000000
0000000000000000
0000000000000000
0000000000000000
0000000000000000
0000000000000000
0000000000000000
0000000000000000
0000000000000000
0000000000000000
0000000000000000
0000000000000000
0000000000000000
0000000000000000
0000000000000000
0000000000000000
0000000000000000
0000000000000000
0000000000000000
0000000000000000
0000000000000000
0000000000000000
0000000000000000
0000000000000000
0000000000000000
0000000000000000
0000000000000000
0000000000000000
0000000000000000
0000000000000000
0000000000000000
0000000000000000
0000000000000000
0000000000000000
0000000000000000
0000000000000000
0000000000000000
0000000000000000
0000000000000000
0000000000000000
0000000000000000
0000000000000000
0000000000000000
0000000000000000
0000000000000000
0000000000000000
0000000000000000
0000000000000000
0000000000000000
0000000000000000
0000000000000000
0000000000000000
0000000000000000
0000000000000000
0000000000000000
0000000000000000
0000000000000000
0000000000000000
0000000000000000
0000000000000000
0000000000000000
0000000000000000
0000000000000000
0000000000000000
0000000000000000
0000000000000000
0000000000000000
0000000000000000
0000000000000000
0000000000000000
0000000000000000
0000000000000000
8BF515802EDB2111
FF8B0006DEB1D730
EE7F00006F00C559
A6233451408F3603
602302B90CF99027
E24B1E7BC4AB7BE0
37DE407785C57B10
B6687C4A9EB003A3
201D5EF413C0E193
EE28331339662B00
0BB210B090EE210A
DFFE8080EA194EFE
FFBBC105FEFF07F2
61340E417D78CBB2
D282E60C5CD211A8
A5EF0020EECDAD52
C7E104607E886ED3
A10704066899F716
BFDCE83D7FB27F32
6A9008B95FFF1EEF
4C9F0A08A2FFF7BB
339A0017E5173842
9EF2FF83CF9D29AF
7F0B0A89F18C8FF5
71C7D951318836CC
33367B2B0F120E64
BD716A16B19886E3
198C2C89CF9D7E38
C4809A3B13BE7999
902E0EF98164E4C0
008558D3BFE9CF00
1487CCCF4172FFFF
4DD70002C01E7640
E4BF6137EED8DA45
1FF857F73029A5EB
CFF508DD302F2D4F
128F37A7AE053277
F104939766F180F8
5D10DFEF9E120B30
FFFD204F63E6AF55
0363CF7798A7B2F3
A7F7D0CF35747F20
417F858E704C8E51
04DDDF7F0164166A
1189DD357FE6B62B
2BE550BD310B9F51
5002518131B238EF
8079D51343FD1790
B7FD628FE6F70B60
67342360031A1993
341BC0C7DFBB7E6F
EE1506AA42AFFF9F
BEBCB7A4DCF601E4
8088930AD5910247
83BFEF379C0C00BD
A5DD78803AB454A3
4A29C709423A91CD
0840E762B584E094
25B377CD7FF59CEA
5D1BD409480BCC91
4CC4F7BFAE6CF153
7EC92E80F0C59F81
E5702833EF880241
BE52CB9E7C810541
6679FF467F3CCA2A
9AEBAF500625F86F
A6DA33D8B657EFB8
32EB165F8FF6ACE7
F03B668FE46DBD80
019EDBEC5FF2B872
016887DA2DFC65B1
6281391CEE63601B
A0889F605511B3A0
8CE6089A0E9B9D2E
6325904B11D81AE0
3F1004C0897ACE02
89CD82A061796F10
0115B644B67AEB30
9D426FF264041171
4A3B54AB59631D5F
F73400123AF67B04
098194E2CEB9BF4B
A384CC15D791C0AD
1143CF27FAD60F73
CF8EF00E09E31F0C
53A01CF38A122B22
31132FD7B5365221
F30BA400933000ED
56812E7363324391
337753BF24804010
E1B7DC5DA9D64648
0574AC8BF2AC261A
258C853E4F0246C1
13FFB60E89D82F34
7D29A806FF173710
2BE246014D83DE37
1D80EF40553B406C
D6BEF473464934A9
EE4B0666370C5723
F34C39DD43EC3A17
268E03C04891C254
E6C2D8F5A348B7B0
81828C3F6ACC4DC8
F2CFBB7CD851C21C
A720369E0B00917A
C398E4E77444FCB3
AB0040816C0526C8
07B083FC57BC0733
4D0A370097D910C0
2676BBF8E9080748
DD3CD2149132CEBC
802CC70B00711A0D
4740DBC7CBE16729
41B642B3A1A51175
D70E518E03D1F361
52AFBC65A1FB419C
FC709E3F56B727F1
C700C71C890B8C83
BF308C2B54BC029A
F73DFF05F01012EA
4EB1113C1D382221
2C226B34754131B3
D7110CA8337C03F9
DFC4C35461010444
44558B1BB614730C
D4F43FC4D778156B
9C6069D3434651C3
AA03F4CA84428208
9045B6898CEE6318
77D37D773802DDE4
4F23236C28039B6F
E6FD511C721FE897
815E8777010B75FB
08D2FEFF2FF585F0
140A086E2760B684
C6426E457F96A30A
FC5FAFF5417E6AEF
93C080D043172A01
171100072F2AFE09
6010B470FCE98CE7
7289FF191156E4D0
BFF2124836DED777
B9FDA47A8CCA0CAF
146D8AB73FEABFCE
00060310FFFF567D
BFFF6EF840F8BBF4
67DCAFFB1FDB0B48
05907BEFB1CE7EEE
AE7C38098B7BC3EF
6D74E45D355B0DE5
FFE3FFFD05006679
0008611135F18CED
DEFFC89171115EF2
9137FB79FB758989
48DF46009F39FAB2
804C866CF74706F9
CFECFF7186F4368A
F78F59150582F3AD
E09306D2FE10868C
A4E720D68BE0672D
101E81427E01ACEE
6F33CAFDE0B0B7CF
0032F9F28C23D26E
115600FFBDB16759
1B3FDBA348C75B08
EDC1C1AF805E32FE
B78DFEE295C50000
E6FC40F8C6A82CD1
62001F8EB7FF4FF9
3006E6ED5E511A36
7F7EF7289709220A
140B179E10E1FF63
A000FCFF7C92FAD5
2CF9407F013763F4
7EFF77630485BC1B
102C091083F14F9B
1DE2B8EFF71845C7
03D7977AFCB39400
8B2A2C3B6F83AEFA
04840094DEFF11DA
B7B297877F8A4102
2DFFD3C28AB343DF
64EEF94BFF81100C
A0CD312F5C7A1663
396F30C67B094FF7
E200F3E10080FF59
137DF1337D72ADFB
3BF571201010DFD3
4DFD4488DFE0A5E7
E7FC7FFF37FD77FF
0E40080ABC9B9FE6
7E53E1FFE5CD84D4
98A015601411BF3F
9991E2E8A7331180
BA65520057D14508
08079337780CBBEA
9BB2FEBADCD9F424
4D0F0E02FD923B4C
13B365F87028F431
3B0F5F624EAD50A5
C2076155BA90A12F
A5287BAF7CECB2E0
BBC6007AD1E03327
FFFFD78CFC2713B9
1718735A08BF06F2
845EBF283A104DD9
F10A6F24161BF741
FB465764BBA75237
E9AB7EAA4C2D8396
681691858DBDD6EF
CEEB4C4067B4F77F
728F4920CCEF90CE
5E0FFFC987382F11
DB8282001875091B
82BAEA43FFFFE19B
F7E78FABF21C73F6
20EB7301FFCE50CE
BFE4A6538DF09E55
FD37185CB348088A
EFB81DDA5010588A
641B844816EF910E
02D33CEBDA67ED57
177EC1002FA01A81
0D838C8F139D8E1F
CEE25F4745C61002
28A0B02284987C8C
5BF777AF3237D113
2F31215D8A275786
4E7AA661BE582627
E738755B1BB736E7
113322A7BB628FB6
1390906F33C6E83B
FFA710000D8CF134
8EFB388D3BAFDD08
30EF4A93EBEEEFF4
FAFFF45B47401B86
93BF4F0477FFC524
8005501FFD89EEAD
998A8C8B32D0067D
6DF4F85977DDA428
127F5BC7B9B7D11B
41B02285619A91AF
71FDDBE4D3BCE545
FEADF7A8085239AA
6E1EB009F935E244
2000772DDF05D0D3
5001F605D486BBFF
10231A9EB3319DBB
521D873D33C6D88C
B1EFAA18BFF51F33
A6FE3C5DAE77512A
2C91DD9F4FCF92A4
6E81FEA73EB37730
86C52302DE04920F
E33BBD696780A909
91C031FA3BF62A8A
00A89270ECCE51C6
BF9198D14CEE03A8
1494FDF55CF31BBE
4DE3A0B4D8EEED33
DD732AB36CFC47D1
38880954809C808C
CD9B0301DA8C2E42
38CDB27131858E13
954326F108890EEC
3DE37780E68DC6F7
2CEECAA26EE219CB
E80B859EFB4DDEE3
8340BF9CE79A1A0F
AC06D0D5269F1E7D
40278880D7AC0844
6FB62248318B6498
000100122237508C
37F182C2D8BC11C0
C5346F73C7A6D63D
425B1080B39553A3
90C9216B27B69EF6
05F6378B35B63FEC
49940ECCB87346BD
E2F56EB2E2BAD234
E29833C4BE7F2EF5
55A310494E41DEE1
3C0A9CD0EFCB0BDC
085773C12711BBB2
8BBE01968EF0A7E7
17080881F7945C48
66110081C0F90F1F
443E07288AD403EB
9582284F1AD89CE4
330B2174CC4DBEBC
6E7B683CC2E241CF
C07C0EFAACD2B52F
08D7994EDB3EC8F0
6433AC31AC6C8B87
83897BA1267DF229
0399E884FCFD4A28
069FB09DBBDF04FF
C6E800242094C4FF
8FE7936EA1B8008C
C50AB6C0D67C061C
53B42EEF318F056B
4262C9F75F2F00EF
08B0C5789CBD620D
0F04C9E04FE014B7
F5EE25FCFDE61C89
1F4EEFA73C89A951
0130C87F0F84E445
0D8D3039A0D2991B
48819C1026491473
1CF75060017A379F
9BFE16EE8D20A7C6
2F28A6EDD063505B
B9D6C8892BB4FFFD
8E0C2496499DF633
E9C44073C04E995E
48C841D1FFE5ABD9
558EE970C437CCCE
F084838C88807114
029974801143178F
041350B9EFB9E0C0
238A09E0102D2357
D163AAE03B030E35
1B03B93404F7EA34
63B36FA5B6FC257E
8C100AFC196283F4
B5E87D561AF72FB8
627E6C8D7B420EF2
7339FD08BB6E1D2A
1771E99B8E000311
02F166550578286B
004D1C3BB7B47577
10315F2F226434F7
355203FCB611118E
05515EB7F772D5F3
07600D8A1209416E
127D5F90220613A2
588A6BA1D5340298
AF287F103772036D
705E3233C2210C28
4E511FD266A31581
FDFB04E608F9F733
05858C019E323372
21500133C6F12FDF
8CAA1DC443D27A44
3B132B82398C9213
4ECACE8CF811C6DC
44367B33C5B1F5FF
FEBC16375B102C36
9E02631027002631
073C82883EBE02E0
0305549928282873
03748B73FEE59453
100AC184C1850420
7DEB941C3B07BB47
6BB82798B7ECA8EB
8EF8327273488508
D371407DEF2111AF
000D44DC34B21B5F
81713B7F520DF360
2D15844748C70DCA
C04B95FEAE3231BA
832B4BC84C40014F
149D314DC2A209DC
81F40E759FAF8AD4
9B31E6264CD413B2
352CB27B043EB33E
DDC983BF20F025E2
E108F7BBBF8F23F0
378FD5D9366F7421
12856F619399BEB7
D5FDA2AB04E83116
4147204E4E29CE82
99FC54204E4E0005
B722B0A4F771B23F
233B1189F218BDC9
91320DB30001ECFD
D631000C227AB155
0F5106090A65E016
8F6F1194306D5120
91A38592880E0727
2C2704D703211F3A
3D5F09000FEE61C9
C1CCC77448880468
50A8099E7E737171
0098B2392C8EC160
D027114818EE399F
0CD49FFDFFB83FED
FFD6B84418C6C0A7
8DCF2CCEECCDDF00
3D067FDD0B03710D
FF791F0118A6AC02
E8D131FD00098130
A4E5C5C9FFAF3BE7
CDD18C0DF7E84FD6
04EFABFF5E7A18D9
7E7B2CD39FD17718
441DADD2EFBAF98B
188CDDD5929F2EA9
90BFA803B7FE8001
FDD2713213847298
E75DA003215A1B98
03F788EFDD8D1319
8D7334EB55FFFFD5
EB55B00023FB6219
8B3FAFFE4B8646FE
A56022E1C4EF09FC
0F0440003C6ADFCF
2377FE6C362EBF83
B49C9211AA66CFFF
94CAA140DBD4EF03
7642972789085984
F7FBBED44442E870
FDAF999ECCF487DF
310435DF53347F3A
7D5D0363E4CA738E
8C828F8C1AC1014C
FFB9A01D3B3AE58A
11043A1174CDAD37
9B86EA187FCF5004
FEF27EEEDC5D7301
300AF4C457FEEC08
EE801AF627B4BF80
A12D6015368C5FDC
6049FF38341F3201
A73C810607FF0D0D
EF30B6490C4CC4D6
888169D562443100
155EB36D10D18F8D
7F772EEEBA70C010
70F9DFF74A2D6D11
0C9940E0150E48DD
0D4C803973320460
E7A61851001B0248
2F01006B24736931
01CE99DFFFCBF754
AF0DFF6B9CFB7F6D
6C07A68B22A1FC6D
DDF4848D80DFCD9A
2DEE2EC7AE7A4F77
3602FCE486CAEA4A
AC7F799C01BFAEF1
59EBA4C6FFFD80F7
FEDE6CCD6F9C027F
7010E015FFE52B3B
81C7FDDC77F5DDCC
FE94D9B7A0105500
20B4198C26761BC7
0137748937767222
753FEFEF6667A12D
467A1DD704655EB9
B90CD5C888A3B97A
37D33E4EC0C4A863
073943004E01F602
34BC3B9769815844
7912B496BF6B1610
EFC138C37CC47533
92933E754C89FA89
37A37835D7298184
47909B231E688BA1
445503C6DE41DC03
F066B2E271EB7537
A6038EC0361A8FFE
BD8DD682F7D4C7E8
64168337DE517D76
02EF225A75FE7680
F5F684CAFE993C91
5EBEF0EB7D9EC4D7
0FD07CC80E463795
8C81081A5E06728A
6CED7A323EFC4555
7DF1C6D127AD7327
0AF1EA44B035ECC9
B5BD12333717368B
F932FFFF5AD08D27
B1F977462EDA59C0
65C426D3AF66C032
F48A3DE257A0A4DA
B1F46E3851D47C80
FDC180D25C33C792
C5758395C1B12682
C916540FE800D842
BD7330F62A41F615
267B6175A5CC2CF7
7DF681A853E51FCF
F61A9673871EF625
EE03BBA4E47526E1
AB1B6CEE75EB7BC6
B3BF77ECC4CF4B77
06198FB40F07B136
F600E197181F360F
AA7741ADF36ECE80
281B33CAA630CFB3
7380243D17FF8AAE
1FFABB285B09A28D
0B8C053F33B11B16
60301387A264F30F
CD87FEC9CC816C41
36E8C22117210E74
9114B5CE2B91E6D9
87A47D771ABE9014
FE802E5E8F3175C3
448894BF51F2E9B6
9C8C779107B08132
6F55B749F10198E8
D90492500362417D
0E73232EC055B97E
6C820C3BACB410D2
7E885BF5A137E453
E655276986F93FCB
7FC0FFD976C17F81
77FF37350B4C9E0F
ECA89F6BE7744A18
C5F91C003C045EFC
4C728EF50DC5268F
AC9903D581F7826E
9AE1F2889CC312C8
4820DCE8CC20C670
11F7BB0DAE630C81
0092721DBDFE9C85
F4DD0085925C7421
C5B831CA0C949DD3
0F4496AFBB0211F3
5E19012CDDBD3FF5
E11EB4CF4689B807
3B8E7B07016E6E9D
CFD801917401C323
0A302AEAA40072EE
D52658CC4CFF4803
9C0E15C72CD024C6
D60BCF5A80835C60
BF4E0399C4132A00
D39E1EC9EF190A21
75305BBB0E500018
8C89872A89AA9D84
9EE93CE617E07F15
EFCA81C036FA0024
DE1924D7CEA13CC1
F08BBC6F95D769BE
33C414D52AEE399E
2B930F4C58F1C71D
054A9EED6F866C3F
989E762A512C6AD7
D011F7E7FBF058E6
240C9EF13A8E00F8
1C7A9795246193B9
1FCD7319BF3AFBF7
85D5D916231F8C71
1DE4E28D141C012D
9BD8C57C460F3309
FF6A044030D38048
FC8AD71350C5B6F3
281D00ED9B494C4C
EBC470ED0538FE00
041D4201E21C36B4
810A20E31CC08CED
199B022C92A94BCC
025B487A03988EFD
D097A082C79ECA76
FA5D821655F2D24D
3228FDE7F1091B18
D58EFD4083A85446
682EDD0A29EB84EC
ADD51E54DDC09E53
ACE6BED25B4CB33E
11E2767CF76EA021
BEF798A74AF7CE2A
4C03C7EBD350D003
59C908AA7BBB8AA0
C00ABAA41D5D3457
52A96D2F08D338DB
DDEC84E0EDF80025
8061E1C0CDE0981D
0E288064EBAC2229
C081856C3E306DBB
C89E3CE611BD8B8E
B52ECA0089D39FE8
9153720A25710A50
65CDFFD53D486FBD
5BE13B6D0D6DA5C9
1BBD24E95F5DD95F
B1F2B58242B9B95C
32DE3839977E583D
FF81C08124316BDC
87F391D71F1187F5
93EB0507BE6803A5
0612D57CCA1C950D
8F62B14089F61F61
CF7CF60D7C1B50ED
663CD09D348CD2C3
44CBDD7813ECB1B7
60164554572FD999
9B126FB04473F005
0F6B43BC2374D1F1
B4CD770F0739E990
9CD891830971632A
B670B771BC4BE4C0
3D6F2F456C5CB7DC
AF1AA8B617216129
87E30931D70C930A
6FC00F17FE1E8A00
EF3B4F740C67379D
AABAB0335E3D8D30
2E402F3B556C555E
E82ACD56D424DD79
1CD5E37187628A52
7DE996879D02B1DC
3899670B0A3D047D
8DF32EC301B075A9
96DF04D76B853316
002C10D193306FF4
E03E22F1CE62E17A
3DB1676DFD0546B2
259599CA4E603407
D88B453EDA9460F0
602E8A1B5557B590
63F3F17FE0A21EA1
F93B03246D9D3305
BDEF03F5C982510E
311C3FDC4793B977
FE8D175BB41339EB
DF4CB1FB6AEB75B7
F94A191D9D623AB1
B7B254C8FF3530EF
F89B1530F7AB05E8
533231B7DE1BEAFF
62E8292137D2F700
2A70B89609222AB3
4439BB09C7387EC2
B1D543CFE243531F
7FDDFD804F048335
713919B8FF0BEA72
006666E654F7B546
349C0742FF7CB903
E7B0FE8F28F86972
9BFF339F8491BC86
A676383D8BE5060D
203069358EE001D1
69145F0B8DD71437
CE07C5763C7F0279
416C177F649C4335
77924F767E27A3A1
08C8CEF3EF11C088
8026119A913EEC03
DEA057E766F72CD8
FA00CBA99829CA37
3946D05F47BD8EEE
9EBDA60CBE652C01
0E45CB22CFF3DEE1
6677511004C64042
6AA40F6E08025029
40103079ED0B87E5
6668482C02F602C7
5EE85E1901557330
401808295923CFC3
0FE1CE3EC2334BF6
430EABD928A81731
35208FC1C9AF8017
0F91C8B6B0066E72
EEAF5F3D4F93342A
84830DBFDEB8CC19
06099008AA354D13
472BC0B45B32ECE7
E47A3F37C671F814
ACC82400CF51D83C
D779CCC525101051
E720AD17B6F64444
A2E5904BEE727AE2
25BF2861590CA73D
9473CCE97FB84814
0AB1C3D63773C0AE
A0D7B14BD3002475
277720810AF204B9
D2FF97F10A812827
8E49300EFC0EEE67
8559C717A9338233
1EF7808908AA8618
FBE06026E6AB4373
A84654CCEF71681B
8A8823FBA26AA63B
B49500A742C868CF
65639FEF5D9F8210
CF2FD9156B247260
CB3539800FC3E3F6
CFF52D108922C817
2399D23540652EE0
991E30198508D82E
6DC61801A6F90285
5613F39D00CFD80A
3F7AE7E81277A6EE
3230E7C789FBB70D
6FF122400CE50B77
92093EB44F829F02
D27E2774D6EE13D5
823393638DC236D5
553321238CF71CF3
05794800B0D6B510
2E51CF252420B39F
A800073188DF4C60
42C4F3530E3BCF23
5DA601A00458050D
CE20E623E00A5A3B
496B681344FF4CD9
575368ED88C80A80
FDE8680ACA985A77
A4F9EEF522868D3F
0272A262C42140F4
F8FC0CF0B5F0DB70
F2102B5E8123E803
9138C92F672F5002
DC243BC5AA938A6A
28DE78FB827AA3F7
CC87F972B2E62478
C449F5BD8904FE8F
99733BA3EF6FBBD6
C444404A07AF5B95
BB8711C6D8E1DF0B
322D932EEC8FDF0D
EC148FCCA4D7E9A8
A0F8C282C50C2FDF
AD1322468F17753F
019928D334F8504A
03D8A7D0F4C5330A
3F9D61784296F5F0
02F730E31995733B
A9E9B2E126934CE3
34335790A9AED800
E38EBAC3FDF3FDB7
381B60B8F3638324
A48EB367373AD7D3
E4CCE6E8EBC5B40A
13459D56E9730360
0FEAC33EA267654C
ED0E93FFC1BDF457
B346EA4DAD733FE2
70C12127F870B39E
76B69431866B3176
A0067843FA98B9FF
B9FE205596F7553D
FD99518D8DCA6CEB
6AD0AE780E46778C
660EDCD39107D967
6E039A70733139C2
DAAB2437AC6554C7
B7ED8BC6844CC337
0F9DB18035B731BE
3330E66E5F5DF346
B5770330210D9392
B4237115FDE92A67
06E33A7F0695903A
90EA48F0831CA744
6DC98D2D1FFBEA16
403968E7004A5C65
84CCAF55EC5B24C7
D5458A14126182E0
5136CEB061105B44
62E79837D9F1F2FF
EFCE7E4CC990F4E7
09E2544C019C2993
D5AE6460450C8CD3
B3678410CE61203B
2086695D01E0734D
773774EEF1B3FE97
BA828C9BDB1CA2EE
62CDC3FFA30F75F3
EBD7DDFBFEF292CE
931C9E50935F01E6
30763A3362E27EFE
EBC36533B5E26175
565DEDFB7FA7E833
80311310E8FF516E
E4D4F612BB10EF3A
26D66E1F3F20B227
001D4AE0356BE700
75FFCAB2EDCE79E8
212A97BE2EDE8EF8
66083CCC6EC1F056
82856D72F60D7A10
7525C38B278F9DE6
E0B5C29FC9F902E2
2C6D2EA2116F8217
9D9F92EBC0182580
289162167D304400
DDD8FFC2C04E28E6
B02DDBA8BB881149
FA5CE106CCF10B04
8195D4C90077B1FF
E5ACE161F60ADCEF
E11F8D8D30E60E37
4FA8D883B8673BB8
D84CB569A30A4D55
2A0A0CD7692C46BA
D60CF259B5A440EE
78A570912F144A06
102751BA4BA021DD
F787CDECF385EF90
1135B684B1BB8011
B3021DB24C32D589
F804F82B755D2F36
F3E300C79F3E771E
2DD7C6E7440AB8C7
CF002F00143B41EF
FFBD76B8667D340D
CECEE5BF33649FF5
3AFFD99CD2F3A6A5
E20F8C944BDFC140
0ED818E100D4A425
9D963C37167D1845
127D12B5FC2BF54F
05E5FED349269B64
0710E9276D7594A3
AF210421A96C4EA8
10715DEE82156F60
8003A7109274DD2E
66F0EAA327050F42
E90C6B3010549495
313DCCEAA657585D
C6F16B0E45E9A500
D51FB6F312276A7D
E547457CA0FEE018
528FC326ECCF00DD
AE1B103F74BFEDFA
400040FD98688EAD
84C56AA3925E85CD
6799D25988589208
EF26713F88822E13
490FAD068545300D
AE0108B449762277
D3998F0C3330FDBB
4E55C619371F972E
74FBDAD736B85D29
D8A4F9E5CF12BC8E
CE97F84A8A84F70B
5F8ACE7DC0A0EC08
80EDBB7D174C289A
516ACEE35A4D8286
48CA8CFD745014F5
1FFB780EEEC88EFD
5D10D4CA7D40EEEF
98DAF5FE9732DC60
E5C6B91024A0D67B
1232500C5CB10065
D3C40A704C1F04EF
1740FF6457FA2EC4
9081723AAFBF4400
004CDEE48066712C
EAA334FD4D0B73E9
49CF8BB371253B7E
FDEC90F300909010
6F402C58013C7819
93FE115FD3C22D83
E028EED08EA88040
8FC9A380D0481F6F
1DE441947B5644EF
6D6E7EEE98E40AAE
E36A0762E608FDC5
0ADBE6E87FE86300
1FAFDC21232701AD
A8C61A58A37E0889
1FE31FCACDB5B7D0
589DBEB10253B66D
1EB3EEA8B7D08AB4
D7A153F87FFB7FFA
1460CB01902FF074
CF1C3366B5BF1621
C08FF1808FC12BB6
FCFD9FD06014406A
800C0C80775FA9BF
541BBE776F3E66F9
6F8C006B81E41FFB
9D634E68C5045814
2C8B88FEF966E0CE
C5926F806E95108C
D409DFFF1AFC0900
8F5E8F10EFFA046E
72063F012E5054E6
CCA9A452B70C0D4D
DE0B4CBBB3811F26
751336F05180122A
42CCEC4C7AE78150
CF22FBB995CB4F0F
4CE9FE6E888CC4DA
A320C7F270E253FC
DFD44E5153F100DB
D6618995994A3338
F7730AE705B9DF9F
C6E7051EAC5BEC20
BFEB06E63677B22E
00335BE6510EBFD1
4D965445498898B2
C1B82710E08BBDB5
47FF60B7144016AF
F3004ACC206B6001
8B015255401CFCF2
B10A1957EF5A24DC
63724995755FFB20
35A1A78608387A3A
E240B6C8CCD90C48
4157714777FED014
745E9FF7D39C9EE8
41589CF97B01D90D
FB8415FF66A1570A
4FE02891173A0E5F
FFCB48E8A6DADCDC
8CA306009C918116
5842540CF7E41102
6818D2FD44F3AF39
21B7A8898E8B4512
C670477C4EB8CC8A
2C9FC8453ABFE8D0
51A13FBF0859BD5C
187F6670EC8BEE75
0AD44C338220C114
CE0C0020DF7F8A6A
84F3E7177D1CD847
1F7F0D72C5F2CE50
0291C611FFFFBD60
0E9F0DEF3D72FBFD
D103FC51A1074EFF
6EED7F4C0442DED8
000F2AABD20BD72C
C5C969A162AAF66F
8DABFD68AB04A007
E7F18F17E401CCF8
77FB4D4108CA8263
FAF4AD7FC119C801
36F5379F922237FD
9C1088413F77FCDD
E4DFEE4308035C29
FDFF809E7F1F08E0
91BF2890FCF85D02
9E6EB071FFFF4410
CE79DEEF8E6D786C
80344585DCA72B2E
008970170F357A39
5C21080262BB56A0
F871FB290620F6EB
1703DFBF49F70449
B3BF3EC73CE4C600
401D501AF211BF54
FCC3884CA9EBFF79
FF97CBDE7CCF2003
D1177B7F011F26F3
4FE407FECF42824F
00560008E2094719
2233B6A41A3B42BF
C193402E8C19E349
0C427CC1E943AFFE
8611EEB94C706C9C
6EBDC4C2E2FD3163
89F1C01ECABC5004
47FF4142EFABCB86
51DEEEE35E4D7E5E
38BF261AFDFB6E3C
8BF8A08EEF0DCFA3
FAE629DD0FFADCC2
8ED0F25A32028259
E6B94D586EF3AFF9
BEFF69E4327F95D4
DE648800C01CD017
CD73C1A5104161FF
86FDDF962EECA222
C01351EF14AC3BF9
BF81234F4F30FFAD
AC659DDA206EA8EA
9231D2EF1CDDF007
5CEC318D29A36E20
2BF456192A21D8B9
46F7ECDCAE7CF280
EEBD90F61B8A7BBE
BEA2F68E89E6E310
E6B2102B95ECC1AB
8EF05B81E28BB7B9
7F54E1BF3AEB09C4
814C3E82B039EF90
A03FCC44FF1ACA30
242AFE880AED7DD9
FF63236A78EF5C11
4D1464A629B74452
0CCEAA3BEFBE2FAC
EF822C8D2CBF039F
4C1E5F29906DE39F
D1D80801EED7BD4F
3F8328E1EFF17CDE
ED2108CF791149E4
1ADF4CC1D6DC3DCF
CFFE0FC941FFF521
B1EF6F36C8CCEEF9
8DDE6EEDFF5C6798
654FB0878EED58BB
A4885D49153E6D00
A208FBEB0DEE1F10
39E2089723BEC9FB
4F66400F600EE6E1
A60DB7D202EEAEF7
0BD77B18301E9470
13F06889F95F46C4
FB1D77E4663AB259
B18AF9F940FFA010
6251FEF50641E1FE
D5F9202E8EEE6574
83E5667E4476A246
06F1D09BB8471CB9
571B818037DE06A0
91DDD40F21D4D3D0
111F7F2210CCA6CC
9175703E1C4B9F81
8AAE1488B1FE60FF
347ACF1FE7F70782
643742D546B30F60
E3B3CEEFA9F82D72
FEDDA0C68CB54F69
AFD11FFF58FD3F1E
3C11EE08E4FF0068
C1AD35295B5BA0BB
CE5F4B95ECC78C43
35315C8E8804DBAB
F6376745089F1311
3C90F19C3FA2E1C3
4F57F1C9A5FD293D
4C8C5D259CCF9F72
B6EAC0FCADE0F5BF
1CC02FD774009EB1
C19D0EE60F004EC2
A663B686D3B24670
3B0A7F20339008CA
666FF1746A969F20
DEA3E4DC3DE47F80
2895D8803164D2A4
46ED1EEDC07F1B31
8C07D790014C3F35
0779F7024128B25B
FAFEC5328D530E44
E4A20002FB7C0A4C
9AB301CE813D24E5
E8EB60866373B4B8
FFE4D33B9210B17C
5103B5FC019C914D
03CD6CF712211403
8719DB47A6D2F725
C96FA04BFA93CEE9
FFDFA0BA6F69532A
9B7472C5946E8642
807205B56E60BE55
59B75558B7BB8472
12F3F7FF1DD15CC0
2C844909891082DB
8F16EECE79F30030
C027912B138BFCDD
6C00F04310ED2750
0E24CEFCD682FB31
7F9827793DEFAB45
FEEE72DA327BD885
3F13468F514DC012
184FEC438E717666
2D4ECC32407B3B66
0918A9FD80A13443
6FD1127BA39F8B72
C0B85E428DADB3DD
FFF9FABCFBD8DB48
9F22FD5F63DF914A
A97245798A3BDD5B
90B9904BB8B1D751
F2521560604C7FC5
1C02D7D708770BC6
6845F120C3611DAE
567CF193252976E1
12A12116453EEFEF
AF6C5F3A0CEC438E
17E85CC482CB5972
0064CF2E4EFB6FF3
A18289F9DE3E0381
F7FCF537EE360C61
B18DED3AB7801971
58587F3FC1A94E73
08133A70F267BEC0
