00587C1CFE73D5F5
E088940AEEC4510C
C32C848A36FC1100
5DD113BF2046EEF5
780067554FFE8806
7A823BAAB1BCC0FF
3ADF754609AE8A22
63584D41F6A0FB40
AA77141A64EB6907
19B7CDF12C5C00EA
ECCD7B3BFF87900F
9FE4A08FDC051B31
7AF74AFE004A485C
80006806564AB99F
D8102EF51FC079DF
C0092E00420373EB
34469E0B9CFF0A81
DEFD44EFEFF199EC
D9EE811683011159
1B4E4FDF8B2C2F65
76E40DFFFDCC7621
FEFF3EF01EBE2DC6
CD60BEF0C3CF48C7
C407C84094AE9E71
01BBCD6004C09F10
D1159F6828142BC6
0F409B3123179E77
FB662779EFC3709F
DE88ABB42E87AA76
F397D369004AF135
767804093CC3F04C
69A8C1EF021919DE
3880704F25AB31BF
F9BBCF70B6B16704
02F69700DDE2521F
340E3141E18FD48B
C30603F1588C3209
69E4755786CE6BA3
43B671A318F85468
63064100401E078F
BF0A59A055C6C0A3
209BF67A9A250702
F0C1019BD94F5518
D19F084955403AFC
E871F10A92FC7CD4
B0B3B95DA0005D46
00AAFB18D43372BB
2231F04A4B0D00B2
936DA130735BBB32
FB7A933FD0EEB114
B61E9103DB2245FD
A7072C95CBBF4101
C3069517461E1C30
5037D23A37FC3323
22229537E021C4E0
310E82B5A01F2E14
401AC7B51E7FA027
C56862CD0B24719C
41176207A1BB8709
8148E00A76D9D8F0
2F7738012536B700
8236D864E8430DBF
CD2740B831D032EB
10C88630E9152982
7BABB5FAF96CD3B1
32520130F6792682
D1F609A8F04CB189
F8CF998620DFB7AA
E39337BA9630C39B
F7AD4F32FC520894
88C4934B119AF135
DE30C1E2D4861300
032DC90FD5C6E395
11F7304F24FAB9CC
3FFA761BC5956A2E
28A0365B74EC1386
BBB0433358074855
F1DCFBBF4EFD3533
E1FF84596DBCBCFF
7156E2547AF5557C
5E34093393EF336F
11F722F79CEF311B
55F379C039BBC329
00BBFB015A67DF88
4209FD9BEAE3B897
80A2100AB8951000
1F72806775B35BC1
04E7A9C961515384
02A603BD2BD20CFF
5142D268F947736F
38C6E61C77790011
47EE9991F9E58198
39713A8C812FA103
0912F589B71DA282
E08AB73E5EEF3B9F
28980583D41D8249
B1770408AE885813
1E64501F11B87648
D3E554436010C046
2EEFD64E7CE04E49
510BC764C84C99CC
B39C819AC20E443A
C0871B7DD5C09567
BD7EDFCDEEF580D4
93364C233ED6789F
E73F3B27814AEB25
6DA4E6AFEC44C79C
796538881BC1D319
CC80319E2D3EB08C
DD137AE8EBFD8E0E
790A907CEE2817F4
E741BBF6892FEFBC
DA4BB784E57691DD
B502E73E0209C0EE
E07F74A4DBF9DE41
64A8E7791000FDDA
9BB73FBF880BB80D
BFF3FE8146C01DEF
F7EE8401FFB9B3BE
F162598D012C017F
ECDECFA9E8B9E102
F3398730E1EFC245
CE197FF56128B1DD
CF6FCF90C0EC2BFB
8598EC90FF7268E2
AB8BDC776660C5DE
C303DD928809F980
C6FF75D6EC3FF6AB
782D2E9AB17F66FD
1F689C83E6D1F084
FDB1CE2AB7108108
981BC434A7F3B2E1
6A0088EADFEEEA8C
4715FE0BF7F7E2F0
6CEACD08AFAB80BD
61FA27F4FAE5CB15
81275C51F8CDC01C
0A211E4B7ECDC5DC
446C295D9F1D5271
9349FFEED494A3F5
C8D6C9610D649911
00024D45118C49F4
E493F8B31988B033
C8058C40EA8549DB
B3E0C411DE5C4FF5
935B80C043CA07AE
030007AF2A036B7D
880888CCED035EED
739D0006F9D4B32D
D96F3E7FC2EE661D
77FE2FFB13EDC104
C85CBF78FCEF7D8E
81D868888BEC0479
5FE8FDA19890C919
95037FEEBF90F391
510017A8ECA0D300
7F3FB51066EF5BF8
101082641566466D
FBB2A917AB5FFF3C
EFF73B87A83D802F
BD93F9D533F758BB
0017BD3FF3957101
7F99DF363C4EF050
FB1766D59210FC7F
33247B3DF94009EF
D9FFACDD37776B03
F811EEDC9C6FF801
62808E05893127A3
C6F1745EC1160127
EF9C5003CCBC68D7
CC00D030D54C0AF7
5FB680ECA72EF20A
0BFE16C973029CC7
0F592E7EBB4850C7
FFDFEADA8CCE543B
288419CCC917B92F
B763ED9B35BD50C7
B809678AF5FF39C4
B928F364F999FFFF
D620ECEC294EB3E4
0212495307BFD085
F1D047F0EEAD16FB
0D6757807FFF1180
14C15C35C6792F66
9E5748D7A3FAA2B3
FCCACB67D2188890
B10E00131807AF67
00330294E4C5218C
F7328000B3028E30
3FEE673480362773
4F59F7EC463B0004
F15F13AD0BC803F0
4800D80A788EE812
3173765D43983F7B
EF9F098010AA1391
80CF01BBD2710408
D312349175374A0C
003C084FEE104400
411D6E5A385075AF
007F279ACF1F1750
493F530AF3809088
765159678089E404
ED222FD353BE5990
EB7FFF870A71C530
CF3702F7DC1B1966
3114B77FC67EB7ED
C97F1B717927C69C
722CD3B03EE9E07C
A003FD5F0C200501
3BF4B6D93EA777BF
1044CCE1D4AE51A4
7F3ED7F700EBA986
4051AABE5063F84F
22C23F0914750001
DE00F3349294695E
27E37B8A301212C3
3003EA01A08751FF
EECE00230DFC88FF
E3BEF711820B7BE0
DF53FAEA4C65D40C
4F367F5C7226C9C1
5004BF55DE115EDD
2777BB169F4314AE
48548C3714422059
C89140ED76175C80
90EF84103B578043
A9E19525A6F4101C
A3158433066F9D80
D9B9F18411F410F0
953F33F9E9254138
753AFC8C847C57DB
D40C2EFF807400CF
F476C3774F6298B9
BEC48303F5ECA8F3
9BC641220DE4128C
78EC8C4F5777500D
C9F69B06ACCEFDF6
FEF601CF48D54EEA
EE1B233FCF5517F4
3DF410750AB00F50
9C6F1C4011915D4E
A8B223F66A75052C
2F51048FC9B833DA
81445908541C2ECC
D11F9A4B1E2470D6
A3A411CC7C75E20A
09A2CCC45FCA7FFE
19DA59DE3DDAD57E
1777DF22AEF0D994
81E88E330902525C
944D2B879840FF4D
F3168C3DF79C4013
F4C12B710C5F770B
8D093E7F10FB4400
18387F6104476ED8
375BB2CC439BEEA1
4E30DF1680454DF5
18FF300BD8C557DE
2DA3E5052E823066
836973100B400575
CCE06807260E8CA2
63847C136C00B16E
0E6C807246F37C06
302019DB13309CFB
AA3681E804E75E98
E6E18AF52EF752B0
9FF07DD316A753B2
FBC3137588B50A52
1EF2DCF2D1FE2158
98DD0A11EE1F7760
0CC354548098E87E
E862096C8CAD8E41
63FF07F309140931
7051F2D04712B168
506011628580BCB7
13B43E3C5CBBEF00
2609A2441C4F32F0
F441DC04C00A1576
75EFE441CDEF1DFE
D938C18B27BF0A54
D41AFF709EB15556
0E6136CC20228021
CF923B6731219EE2
E8D973E232B12340
33E1C4DDF3763001
06D7EE14830F336A
672B6B4764DF728B
EFF298071A630FF1
00970EAC2462D077
06B63142C37D5654
31E47D9CE83923B9
C50FB8D7FC81F14C
39F7D3609CD85F80
BFEF57D614077BB1
5991E2569F5D99CB
5646857FF4243314
41DB85DD2D779B06
706E7DF08F64137F
75568ECB903D79B0
2254BFB1FF7E7EC7
6FA9005EC89AFDD4
502CDCE5901D94F7
1FC7F8C4E99520F4
68947A7FD3F011B0
578831F9D950F947
3F02F353F7775DDE
D367ADD12F5C7F3B
D8CF59BEAEDE0074
9D1379557F72FC40
1D43FCB35FFC3F17
D555F0448002EE7E
89F672ECAAB6B476
6A36F14FB5CB2910
0052EAF546113AAE
5D35F0379330CB44
2F373CF9B016E0D1
ACD2306E6460003E
E55009F710E8367D
16E673BC0AD3716C
AE3FFF6242B8C467
0A99E608F42044D5
122A9A9744E847FE
EF731D32D1FD315C
BBC1F937EDF28CF8
3263270C75DC90EB
BF30DD20E0968FB1
2606AEE718434F0F
8966BDC52205F0A7
9771FB7D885175C6
BC8255461F2F82F7
FEFF030A949BB7D6
44FF327720F803B9
D976F189C7305F7F
8DEE9C7BCF6377F7
72D379085E6C0807
1DD5C1A9358C2C24
FFBE7183F5F20D2D
1677B4C53677FFE6
4E56F533BFB65134
7322670EAC3900D5
DF72BF6608013F95
F5458F43BF5C6570
9014D6F47E8A3E15
66B7BAE51885626F
8B8AFB6E32EDD690
D3A814D70250255B
C195FFFF3E05980F
EC9A9DFF2F7118A3
71C0D5FD0AE83111
67FA889EBB3F0951
000AFA6EF29D194F
203DC7E7D2A96E00
7E97A298AE237F58
7760238F01BB2AFD
F36C80BD833B6D2B
F77132DD37E507E0
301D996E0D3BA466
4906681374D02856
84DDC22B660490BF
36CA710007E1F98C
6E2FA6392DA70CEC
F2F83FDD33E2BF3F
7D3A7BEE23116327
30337F3C16BE15A7
4EFFF7FB4C8F0588
DFB805EDFF876C01
ABCE09EFF09A30F8
841D0E01AFB2FCEC
4FD9B37002277EFA
8A0075D403630A22
51333AFE8A8FF09E
0F7D28200BD057D1
650DD27B34C3FC15
5C6566BD40859857
675509B5D2AA5646
681FFC8D736680DE
6785F322C98ABDD7
1010A4525FBE14FE
6ED118276DE848EC
2A7F0F6210BE73CB
F9B201AC28C52BFD
83750005FED972E0
838D2EC682480BA8
883361E4718DA2E6
B74E8A8EBE3AF645
2E30DE03FEBA7DD5
5D1099AF581CEA71
3FD2EFC90C62DD1A
038EC14731EC1263
986FB38933BFDCFF
CE6203C619CF5F02
C1BF5720DBAE5B37
D363BC98E15B3426
F9FB97701200E8EF
601FD9FBFECF86DF
ED436584BEDD80E7
7C5540ABE1387E22
1F2089143122359D
FE7C6FB9526E0435
ADFD0DEB672B01A7
5802F8BB50C60124
594D99DD42229F6E
DB3CC73F83184836
DD10776EB81897B7
AFE41373FFCC2604
DDC88336956EE64F
D65950C956082A8B
6BD9471022994EFF
1AFE913BE887B010
9FB2574FDF778A92
766001808453B228
AAFF41209C903DEC
C7973013CEC008BA
3450CEFE0CF42E2E
12206F2148C97476
9DF2F7246640DFF8
A46CD093606CBB38
AC57EDA0E26E8026
80BFAF9E0F5CBF77
970AD6307358D3B4
DE5EFC8E7EF24F22
ED1FDAB28901D5EE
D7A7C1942B2E2E31
DC783037D41E97F8
110BEE39D0ED8A92
FC001D70A701467F
6C5E3D5DCF7DE77D
C5D83236CF40DEE0
6724EE2E5666F26C
0601900228D21667
30DA64AB2F40A01F
D3AE447F4806069A
251C4AF004762152
176D9A293EC4D342
2E00AF7901221B14
91C188C49EFD3101
9E456714CFE61927
E25FD9E11FFBFE99
0F5004CEDF357F41
CCFF1858CF72E614
1C3063A01506FE6C
C27537BFD14FF7BB
DEE1EDE8EF39FE30
DCC036641B02CF7E
730577179659992E
6741F0EB0DA3AC2E
4C540F817F9060F3
00C06128CDC0019B
16F36DE401068CE0
8E35E705186C8A7B
AC437F946C67AE66
0CA5DF00BE13481A
C6F69C131C0087FE
C5270D15AE0FB7F0
840042FF5EC4487D
E424C9A000DF1467
3A208EE7133ACEFF
EFA0C09457E07E11
01809CA429787EF0
A6884CE0636E217B
9F2AED354FF2A232
15FBDC7F48B54F70
27431A0DE2F5C724
4C6D9A77CCC077A0
A34825FE6020BF0C
6F222222422C0000
0CDD19E0E73ABE87
E70115002C75CAC1
5E23FFFFB333CD00
F307C200EE40F868
ACED301724508A65
72A5F8CC439DE628
508D37F6E765606C
C0C9EC389267D679
33EDC4463FF88BB6
AEEE0650C90AD001
B867BFB3481DF48B
6B07F75EF34C1093
A170F7A8D75EFDC2
830380CB740E308B
3770E73312BC0017
DFCF41AB7F00CCCA
C089709560231002
8F84FD0D0CE20885
C5170699DD73B588
74201131C28964AF
88FFF131511B166F
29777DFEFFF5D3F7
D0180821EEF2659E
D85A27FC6D9E2B30
7FE902CE00914D5A
313B8EC1FC8C5073
544CA9AFD3FDBF04
2CAB3A196FE3B02A
38420131DFE15937
FDA333BA2C807EE0
5D5F07848040C105
E6DB447904240839
C3FC748D08FFF40B
EFF0D3334081ED83
BAB317F69101BA57
DF71BFC578C7CFEE
FDBE3D3B4C53977E
FF6E599DD800F19A
FCC51B3BDACC1E01
F33134DE68791151
9F08FFFD08BFF7C1
EEE6FF987A617F65
84E0FE813BF73559
ECAA3B67FFE90996
D91E8D11CD441B00
DC8CD516FA7FF389
77FB3FFF19FB8FFF
B9C413E004840B5F
FEE066FC37FD8060
FC1B4C4CAFF9DF7F
00009A07BD8D5C1D
6BF2AFA767ED7CEC
009B9D0DB3FDBF83
BB7927FE7161C806
4488FD30B0EEC809
0B5B409B77FD2DFA
364149134A0C13F3
D7716D4F92DD014D
9880F6723120FD0F
EC0B0546B30E0001
DC90B5A8E0D219FA
8811FF106B2731DA
B7EB0A00BEFB0EEE
D94A0A1040092098
FF6873720E23E979
084D810CAFF0DFE1
2FED01824CD46F60
993B8FBF8784DF8C
2FFF373BE3FF2087
845C1F7DFFFDE2B9
C5DD080CA5FEB631
1731FEE037D970CD
69A8F2C8FFFE0CBE
BEE716D8501FE11D
7EC861800EB114D3
F73B2077F3B7682F
1DBB6E607307F99F
C53760F12810CEED
9FFE7BF7EEC3F65D
FFF024C6488A48FF
358F81BA89B7EC2F
FB2BF604FDEFE308
830F86BFF7FF4A3D
0C94022CEB90FC87
85B7AA03F77FBE90
9FBA78A00FE2E152
BEB1E10AB9A0757F
3FB296897FD4A634
DCEBBA8032E73910
AA4E7FF3A0912694
77F977B4CDD5DE7B
FFA00888FFDFB80F
F34217277ECFB913
910C3FF7CD44ECE0
BFD94F5BDC4806EE
F1262901E4718C27
80CB7FC5CD376078
EFEFFF7BF769DFCD
953363213153499F
663D2DF42603EFF7
875FBD336B612018
22F1FDAFFF6C48DE
FFF41F656CDF84C1
739365CBDC59FD2D
9139807586DA8253
E1C092EB679CFE63
8C6785020872D971
31B308F7FFEE8020
00D34F78060C0900
0FFB6E53BB09F003
73A3FC7360B9AC2F
853F1CDC13A3BED5
9BBD88C06C23EA7F
E76EDEDB7C37C32C
FF5F476E3AE95C59
FB438F5571B4CD1B
D10CC9F5F7FC7FBB
1F5DDA39703BCB72
C8C03C83DB9F9104
468AE5DC71ACE0AC
7F591A652E4C975F
73586D77E3EFCC4E
896C51016A32EFFE
7F194D50BD02795A
92EE34E9E004B1F3
D079FDA9F5E0520D
39C640915FFE45FF
14D84310D558729D
F9FC1FBF82FFF8D8
FFF83F9C2298F399
DBBF390EC018EF05
ED871BB34CFCFF6B
FE3F5F83A60B294D
EA08FF7FFAFCD7FD
8D53DE1D22A7C4F8
753A8CC87FFB6B01
C081AEC37FFFF7EE
7108CF2E027E4E00
0002E4CB9C792044
A44C424E08F74CFD
9DD6D1010730CDF2
100DBFCC4F4B7B32
FF74ABFEE0654400
A608026D3FF1ECBC
8E488232EFD169C8
2C987D6E5CFF1624
8BBF831AF84F0005
0870A20014C17010
ACC953596132F284
235D2BE36CC31823
24C1BFC6783C015E
D0E99CEE74FD388A
3532CC660BB9187B
0701EE74E02DE52D
3425E7F0CD9FEBF5
9D8206D093C5EBB2
E8B48FBE7B05C05F
500D1F10FDF5D8F3
1677916F66E12EE0
00C84C8003565C93
40897E78169AA22C
5FF973356640CFDF
E8CD10E480484F65
A66C420111137D66
15E61B19E0086000
02279109F80CE611
EE007776DAE6B9AF
128E3044D75311D5
4648010C78AE00A8
B004CD5AFFDB3A26
FCEE08047F8D93F4
0AFF0FECFEDC0265
6AFB200CBEE4FD1D
EF2000EA311898CE
3A5EB5040FDDBF02
2D8A7DEE66F81DC3
6C80A90988A63B3F
6706784030206FF9
E6CC12B917C85086
D50B2178BADD083E
E68D328FF35E3332
5FE64702100322C5
44282D8037110A8F
FDA734B1D140383B
C080F3F7EAE90932
FBBD3101ECCC448E
66C960AC20193348
2A4147612E100190
DAE0AE2B468D3B9D
515E3F80714891EE
10C6D8748F1F2082
BF47D93F4F311259
F6D736184B76A8C5
98ACC0A884487536
1DE172E7CE86C0C4
C204533B976C7502
7780A6A0EF983F45
0DC34731F2DC10F1
005E8C9428816E3D
37988EDA52537FCC
CA02BFECFFFABC71
D408BE96CAAE7F5B
695F4658A7FAA2A8
15406749CE772C88
1CFD4E3EBF8C7FFA
13017BA932313587
FFFF9EEE93500860
74E488275010B00A
2029E338F33A3CE0
671FE1869CF618FF
F76A2F09CEA9D03B
3CD5206A084F78C5
B8FB97DDF33FBD81
A1D97C4216430767
8EE213A2845467EC
01EC668B4008A898
C777D9409DC01BE7
A12AEB24032AA41D
68F23EF0B7317788
CBE8717149393180
98D4FFD21CCF00C7
918D6F9F736AEEFF
5770170C9D3F67F3
E8840C1110179F64
540FFA00019C3AFF
CFE8D91A341CAC34
8BF3200B10C126CB
DBB681EC7003BB6E
25EF6291EFB4A004
46F90C401D407779
EC611526C9F40BFB
FCE7CC4094FD40F2
73C09C255E8DC624
F83553B86CE26483
3719B282B6882988
3DDE66B0FEEAC073
0350A841E3FAE9DF
CFEF57195542F001
F5142AEF39CCC926
0CCB64289102A4F7
2E6C714D5EAA8087
213632C0EFF3A3A7
47180529ACA77200
B49FF5DC380D3502
BBE480400E2CF6DE
118437278AF78EC2
93ED7522D504DBA8
FB3164B7C986FC39
0007EA9A46FFCD23
5F3FE71D3DE4F008
042C8FE9A1B44C78
3101F7F573482778
283F2B0E665F0190
94C43021E17160B8
943DF1CE4816054B
30156E13065657B3
B494523C903FD8EB
086C774130DF2E8A
012A7A8186CBC0FF
6660997353CCF815
57087F05B1F8883C
072467395A9617F8
A8130900A23F5CF6
97907E9BD6EC0FFD
9B46E95B7F6CB770
06F43B0BDB4A1D00
15EEF3BF177FF4C2
088645C84D4B13DF
6D94D7FA77C1D3AC
17557ECBFC3AA583
FB6BEC60E8BD189B
989F70CB3FD3E09B
EC08470130828FD0
0072650B4FB5CA02
5ACB8572F98F91AE
CE238177614F7E00
71CBDE1703F2F4FB
4FEEFDFDFFBFDE64
A4EEF1DD02777C35
C7FAA3011DB5F9DB
F3B9118842BCA336
6169241D2F6AD40F
C5ABC02691F0BBB3
1409EFAE6F0EFDFF
FA28D651FBF55AD5
EEFCB27234BAEEEF
6B4BF7DEFF90B791
9476D444362D08F9
7163D78E4DFD7351
34A0F67E3890BC9D
7F7F21408BCF3346
DD778C30D0626476
01EAE6905BD0FBEF
DC4D6D363050FE7B
EABE87913711FFEA
60FF9CD221CC4FB0
CA9CDE555128DFDF
6B1C23F06C289579
7DC144C047EA2EBF
D80E37F9B2F2017E
F038F94033E8671C
EDD51FFA59996D29
FC6D0EF03DA7B22C
F3FAC7F30D205186
8BBFEA8F4670190E
DD87435FFFF48507
77314BF5C7EEDD88
289207D8F9AAE00A
3BEA0588E74F827B
7EA136434022FD0A
67D2FC9AF6884A8D
B1066E263FF9007A
DFD4BFD103001066
FBD3F9CEFB0B6AE7
8DD7FFF618C6894F
CA01BB6EDFD2F9A7
D98430C5EBAEF9FF
1B097D4AAF0CE350
0FE70FC1DED6CFF3
5981EC9E52BF7F26
9B29C606A7A34459
B3491F7E0F7D3C6E
30AF089EB0DDFF53
7EE373D722B79003
7E75FCD77BF7C871
FC13F556BF7F11F7
ABA7DF8901EB0B39
3E559FB06C5C3F6F
075F1948F675C27C
32E11C669903C19C
DF5B08BF0077BE9E
1D8D6510561962F1
F17C173F09803197
1E002015BDB0E10C
FFD93C67A79B5086
99BEC173F31DC241
FFABD717C8649318
0FF7C66FC1B2892C
FE8CC2ECD0ACFF31
3DCD0DEFEE6FCC39
7EFBBABC8CCCEFFB
9426D6CBCC3109FF
8F6DD90706CC68DF
8E7FD731FC2FD6E7
DFF95300E4867308
49CC30981833B0FE
D591A61AB1B2DC88
19FC62269E7AC401
0A33764CD4668A47
23713FF850C04AF6
348FDDFD835080CB
C10586377EBC688C
F777E7A5D93D26DD
05A7BDEEB58AC9BE
393FAD01DFB144FE
DC5B18DAC4F911E8
402694320FF0A9EF
D5CEDC2FC63A62FB
94EE010035F88F31
6F6F5D5F30534E0D
B11FF790E160BCFB
A4DD231966FF8E11
057DFE00B5261000
201AE43344FF45C1
2E04FF76D7562319
B1DF00B98EE26073
CD294CE33F2100AE
974F55010101AE67
95F7458816BBD4D9
38E45226735E0026
73984573B02BAF98
02744FF93C762E76
197BDF11EF19E0FF
420118A73976BB88
314DFCE8CFACFE19
D9042E27F3CF4D80
06FD8C2F00B72247
D87EF6F3E2214240
8FFFD7F0CFF4403D
F19C6A99D3C9F079
03BFF0737999FB33
8CC19319B987EF10
FEF90DDD4FECEB7F
84DFBAE83DCE03FB
4E26318B14EED9F0
15933E3F77F93884
D0922A843C3BEB7F
75F7CC8F081F7100
7AEEA44E14E7C061
B808FEBB4FFB8404
AD085314CB65A4C8
C82BB1B360A007B9
AD38170593FB303B
AD340E0CFF314C51
335212E21CDDEF66
E8C31481CB066CA7
04055EC877D43201
242006C68744E600
CCECCEA42C9B2415
8A9FD7D7150B8ABA
9BBC66820E6D878C
1180EFBAB98E5B45
EE0C127987305B1C
36027F66B51C3CC4
8B1418131D82A7B2
4CDC992683570CBC
8F9916B55CB05203
95CC80D4BA136622
203ED7032A2E8400
8F881294DD998CF6
0809BF81C91B6AA8
096717870D473637
3051BD4315148EDF
B90C5D63CAE46020
0813A25008811DAE
DE309DB8293407D9
7BF48A020206FA40
9D11C72AEC5640AB
8ECC585719301C2D
982D04932F275D54
D9AE306D9102F989
E31160AEA48AD998
F5BAD3364462679C
7601829973923A11
9DC4C927B0B048B2
B4404187BB5DFD60
91EC042D8FD5D449
4396FB32912F11EC
CAAB6683EF605F4D
19D70A38112D1ACE
9E049FD4DDDFB1BB
5596D74E8EBB2F9C
F107831201B77F25
4445E48E010BC912
4CC0011CD938AEA4
84A303A1DFCF0101
FC5C8E3DB120C819
5AC3EFE7779BF714
5FD40A0C32AFD1F5
6E97A81AA949E258
06EEDDDC5B484B8D
6804CCFDEEAF0C06
8BF49F397FF26003
08A4E6C56ACCBB6B
923243C90A34BFD8
5E102F068B544589
C908423037C26654
6E22D06E2E8E5310
177357814006F247
37431DA81D05FCF0
4190383022B70040
598E62B0165CB7B8
15FE0088A32B2735
A9B34990F19812FF
1AF9E281D610188D
D4C17D14B284CCC0
0EE3C91A41203731
C429F29B7369C2B4
0AC7DE8C9B37D903
0FA4C81F4F86A2B6
02BDF4788BED4663
484B8098D184C100
10F0FF46AA2B7AC5
1DEED7C5753FF52B
E8700E4AE83ADE01
4E0BBBD22AF849FB
7F20CA45208119FA
D6553CD3B889DCB3
74A7980BBEABDA0C
FD3117204135DEC8
E921E5318BFEDD31
EE9DFCBD292BC400
F19D45AF73C67DA0
70BB102BDCD0F800
EEFF8FF5A5F29012
D64C6F48CB0FEB75
8B44332F8CD65E2D
78045004E4487680
275BF208A80739F3
A932B88220C74794
26F1B12BF9D97031
2337B52A4F04E330
D308E134E0EB17DA
5331BC3D4CC52105
0929DE393F113CCE
B1197D9B64E96CB7
636D883546E80600
D18C4221C7A84426
12CA11EED690778E
20F4106B02896495
36AA47B3E495614B
00BC275F30EAC5CD
D3126FC3B9FA01BC
00673C6F4258BF43
50FB86B82AA5CFF7
B209E040CDBBB005
4E51E52476FB6071
018A7E50028AF9BD
60A1C7E277C788B8
BD20044EC9396E08
F72501434A40164C
603A919F0519C86A
8DB8612FEDC659DC
66018AEA6C677543
6CCF84FA0CEC025E
43A0062EA589B133
E1CD47371E04449F
4A0AAFE4040B3446
97DC57D01BB2B0F1
54804C256592CE6B
34EB605D02BF6C68
71353CCC501B4FEC
0232C43FF2C66DFD
E49D10432005BF28
F377A2AC3997F0EC
3D9A201ACA0FA407
7EEFAEC914A3D858
3702320800FA29A2
53481CB58DF34063
CFB054C7C2946E80
CE73C8DEFE3C07F1
69929F3092A6D773
BF296EEC7BBB1BAC
D8B3F748C0680000
FFFF3BFFFFC05BDE
F7C0FE73EAEF5903
F546C347C198D8BD
F1D0B3DD72B9F408
BA0ED727EC08FFE8
E098205931F0CC5F
FB84F200CC80FFFD
DB77DFDFA084F5F7
44F34DBB16DC7781
48830FF43FE68F27
DC690F1E9A17FB0F
193EF401C8644355
89BF404647FB486F
CD9FB06026C4EF1F
F82BC009327073D0
240F3167EB40F1FC
9935DE417CCECEFE
5AE9FF9854BF7A5F
40225539DF9FA754
FD72AFE837C45A5A
BF34B012F61E2326
BA98819FD1EC0ABD
AEB6AF75B666A0ED
7777F1FE4FBBB4FC
F766BD0139B6EFF5
F3787DFD04DABBAD
28DEFFFF777430CB
C4DDFFD60AF40CF1
E7EBD0DFF3138C65
6EF7BFFF6F21B99E
2FE23748DF18F840
B6EFE6F101EFDF7D
505FC55BFBAEAECB
DF7CBDFD6C123D10
BE3A6BCF5F469B9E
DDFC93F3F88CA20B
9FFCCF5159FF9689
E81E44DD226867D3
E0577EF8F7AFD26A
B177A4767C09FF15
FDF5F716011810F1
B24555BB60DFF0E8
D6CFFFBDFF08BB3A
5200B3F4AEFDBB73
9FA62200C2277703
ABB3870A22203F9F
1782200B8FC1409F
5089F7BF76D124FF
3F6D8806E6DEAC1B
515FFFF1DA6FE6F5
A8F95FDFCB11FFEC
019FCD7BFBFEF2EC
F10CE69C9EEB9D8D
7C33C8413770BC48
7C99F00C928DE9AF
0811BDFFEFF99F09
9800D8C9F5E7FF5B
BA0A4B139AE0DAC4
FF013E87473BFF6C
31476BD8B00BC4F7
3D8B6C6357F29152
C0379F7C39AF39E0
FDB04CB3CA101D84
02751D9105463B8C
439F34C03A31FF4C
ED12A45232168E67
7CA877B50796B9C5
49B31107557A636E
127688C6E840AE93
DD9F92707BA169E0
AE865027A110DDF6
4662BCA2B17392EF
E836AAFEDBA55F2F
A400F80FE7CCA718
4905A0447B7F0891
334E353F3B24E8C6
E82F0403722CB780
461E30425DC4DAF4
63DFA145E113544A
1145D7CDFD09A227
0296EEA6E4531578
0CF4B3D1A4B0C4A1
0088D19CFB76165D
C2031771F71012A6
DF3325A3912BCF02
4EE795E8AD33FE32
18F2916F2F36F945
836BF9448716DDF5
D372C1EF3C615493
E5F063AF84FC6E1C
7DF89D59210628DC
2BCC8B2188B2A2AF
3E24AAF0CD4B8B5D
9A236E9DA0F027AD
981248FF67742817
657BCC276FF0D305
9C800FDBE415504E
F9FF2166D2572F5A
F23F092F65FD8033
56302F671183FB34
D751A2720FD363FE
8CF9CC1267FFDBB4
0FEFB44DFB551CE4
26630645022CEC25
B9839DC0FB228ACF
F97DF7F70889C9F0
40C93667991B3B70
C02ABB412C9A97FD
E133441008D63F71
F744BF3881AEE973
0D0E450ACE977CC6
0DB3FD53CB019201
159503C6655A8BD4
AEE4FEDAB5D21B15
FD5D0867C3BFFDD9
9F788FE40100BD56
AABAE57BFF204107
FF435E34E2279BAD
011DBC781042BEB7
65F7FF26AB1763CE
9B370CD3D0B79019
D83C339D7B65E746
A9F8BB8F5F250208
7020D5A09A04615A
ACA40F3B51816818
481B449DEFB5A828
7F20934F760459B9
000F8811936E5064
612A1003F2E77369
CF7E8B791AA8C86F
00CBB101FEEC084F
8255FD5A833F919F
EB91CA9F7DD5C917
D72F1BFFF30D1EC4
89CF08F373F4C9C0
D998D9DE67F6FB24
71014C549FE0D18E
60087624DD6DD781
D20DE55E396FEACE
5E8219D30701A1FE
8C9457DDBF1CFA9F
FBFEF1E061CEBE03
F3BDC00D004894AA
0055185698082EEB
078B7189AD1FC432
3BBFE47CE075B00E
08393491EDDF595D
B7221163FE6850C4
EC2C11DFF81CBDA2
72155CE88FC75043
C005DD74F73310A6
99FBFEF9DFB41C13
15B0C6CE3549DC8E
0907ECDD837FFDE6
06FF7C6FE502A8AB
C9BDB7BD7A9FBB10
301F1BDFD11B8B93
35F63EF3608EB19B
D027C917C417CEAB
DF45D15C0177D7B5
EEBF77F33D9A80E5
8236B944419D1E5D
911AD216FF57641E
0130FE92B6FC9F38
3CD7DC7A201C3B50
1D898D778111A588
6F936D5A41744EDF
899D0227DFB244B5
24CBEEFFF9020FD8
CCF6FCD7DF4C3D75
472399CFB9D925D6
0B3BFC4A409C5143
C76C15259400B9D8
4C87EEFEA37B8133
DB37332FCF5B5051
451FF5F5D1EDC6EF
F900DE8B0FB9167D
2B97D68A7489EE63
9B10A33F70EA3D37
6AFFC4CF7DF1BC1C
03F9EDEA9806AF04
F323F7566F1E4717
66FEFEF7F7FF1584
B46C2080995F47ED
015DD2F04481F1C6
FD7FF8EE118719B2
72F6FF7D188CF193
AEC0507AF936C373
D2D83313098DF7ED
02EEE8B243C0BEE7
80424B6EF11947E4
93A5B90172897157
E6C16EFD8232C190
0018EEFFDFCC775E
4020202206B5D3C8
AE41B4E63C88B780
9E60340CD8904EDD
ACEE25EB120F1313
B8BE3D7924DD6713
832C3733DCA23CFC
8EFD4400219021FA
114D92F63084D8FC
7598076E0E5B90CD
4474AC3D545BD3E1
5773CD2F8EA1B167
3335F619854D492F
A602C00B18C90351
8A33EFA314766FFE
F17E14C5623137C4
776B040097FD0444
C1A408603603FFB8
47FCF0D60A38BBDE
C6F5950007EC8341
1824001BB13324CF
EDED903C80037620
ED05CE0503969014
EC947F5DC81F4FED
2F0F02740008BBCC
4021A501C923FFEF
86915CCE6C5E8C71
CE7F0EDD7B6012CA
9BEF8230DF338EEA
D5A9FD4E537D334C
0F5C38C81105FACA
F6DA408F06E6F73C
0008C49ABF9B2FED
EE7C0E3ADF1F97FE
EC08928BEC0040D0
C200373FEE5CFC81
28DE72E42A4C27DF
3EFD4A707DCE0625
0BC667AA636BA0CE
FCFB169B1DEF8223
ECCE67413688F6FF
1357CDBE74E8FEAF
B5AD2BB764909EFB
92A6D35FC301EEEF
880D00008400268F
A481FE48308DF005
0AF4080756B18887
F404E89EB385155F
8FCF0C54063F45E5
47D6832A758CBE80
5047FEBF4E30CD6F
5035801037512477
2005A2520BF80063
3306047BBCC50700
1B68EADCF1A9E990
18FA27EAEF689EBE
1F8F0004EDFAB805
7FBE4D33A6720731
E00163DAA11BBFCC
883959B1E8B3AF77
2771A340CC1CA3FE
CF1D8E770CEACC8A
2B04EE1868B536E0
59B2CEB64F3867ED
DE547A3871BB49FF
BF3351DD6438A88C
785FED7EC610EE4D
4A970470DA689554
5E8142139F5FDAAB
DBE2F036D3859957
D97D16D2FB5B59CE
6E3ADEED0DFFF614
840D77C3740EC233
E4FB7139E650E7EC
DB9CCC10D5083110
FFAAA967525493DC
72AE57227FBF327F
FDF48C7DD6EECCFC
EA91EDF522ADDCC6
FB7FF251AE73851D
2E0076F290026746
E5EED8B0A530C217
99CDC3319983EDF4
8F934509BD7AFFB3
9F843316B33E3885
F977EE89C5ADBFF9
2900D16EA7F0BFA8
7E3D5F80CC596C7B
4ECC999B7710CFCD
4D55CD8D1B9BAC11
A12251756C70F60C
83B7ECBB41937763
D296FAF58712E635
0610DCFE34644C88
EEC966E13F7E7C7D
DF6177384056E684
7261C49D0DFB4B2B
8C352FA698D80F6B
DB1157F0492582B3
41D47C4DF72B53B6
66FD1170DEF5495C
D91EC554CD750D0C
6731FC70C41E6CCE
CF7F5501ED88EDE9
8E72BBF9A7F60D22
B9B3D460CE66DA0C
49CE0B3FC206CD11
B3AAE580E4B83822
6BB75EE0AA51E298
CD9DCE9024A127ED
B3F69B7B44180C40
EDF9B8B6B8333892
4A85DB77D907C40E
15C1C44818C83ED1
43011091B3CD039F
1728C958AAB99E00
C6CCC350D763D60E
487201996C459FFF
8E7EECCB039B59B5
077318338517EDFB
08E8329D07DDE01F
7B2322C4867D6577
CC2F0CB5FC83FD23
718C7BFD7C13189F
40B381897E3BA6F3
7B9CB58C89AB2F1A
AEB4621D699FD12E
1E0208E273FAC981
E702502B0AA7EE26
60CE5688EE4AA6EA
D6AC0973CCE4BCDE
B29596FF8F2772FB
FF5A937D393906E9
3E779DCB8E3014CA
17A04B4ECECA3AEC
C5A80EDB3DFC78CC
9AF1CC9AF3D286AA
F19FA122BBA8384B
42C22FD75542FBBA
008B6CCE331107B3
BC080808DC8A0C10
8FE3CD3509D98ECD
08FC7CB2AEFFB8B4
DD4ECCEE3748FEED
3388831F08D90F39
675A66904CE2898B
5067A215604FAB93
7EC39CE248A16498
9F8D1172C38C7558
1A3947B878262FEC
928A0AC0275809AF
7CB24683BB29110C
C7FF8DDD9D64944C
DB9C25EE68F37A8F
B19B2FFD0E2799CF
1A2A98AEF62579A8
33F3135F9B962498
0C8949B67FD12B43
9CEF3919C8543B07
19B533558A6AE9A7
4D037C47EFEF8049
72FF927454C9D97D
BED75890C9EFE5AD
DF741BD81CA32802
46120A40DF8DE31D
66671A3518436C6A
B6CBDFB887EB97A0
AA3E88F73B8C1E98
E9FCD0DBCB480CFD
04EA8AEBD25DC1FA
27EEC8FF404E8295
055C987D4535329D
00CA3C3CDACA3071
EE67D089F3389CC0
8628427E4D07835D
57BEC098903FD801
2E18E664019C1E5F
998A4A700E40F94C
462C0FCC38FE0C8A
C327F7C7286FE690
F34ECE4C7C9027A0
57C188E0699A02D9
1FCD433E134FC8E2
91F927A80CB93F39
C1CC2174628237BE
C954F0EF338D6C97
87B83E3BD2E8CC71
495F3F6F90533EF4
53531B01FFF1D110
0C3E2EEE01FFB771
4088813A177EA3E6
DF788157B9823AE9
5733CCCF7F309119
AD8548C54BFF5917
F127F790DB796205
FFE3C3ABDDE78010
0CF76F6D849CA96B
AB9B02FC588E1109
B1FBC19FCEFF8410
711BEB65C0CAEFDB
31367C3D77B1205F
B76E73DFC08C79A3
A37F7D13BD3FFE5F
7D9113B1808613C4
6054BD790BE2E0BE
EB91C1DCF81AFFBF
FF35CA682A238881
1713F819B8BF1216
292F374B43A7B3E3
20198CA7F7FDACDD
E1230022FFFD60AC
ADF7FFEFF144CE7F
25CFFF6E34829CFD
11AE31130737E8D2
CDC0B11A055136CD
0022B759C7B8E9DF
B088608372CA03F7
FCDFD55117B808DF
9DEEA8D333942008
A01FE000411205CF
2086AE717679B8CB
1FEB610021306E68
7306180337F309E7
9A62FFC0F886F2CD
3FC18CF78A30CEF3
4119D99877658757
41F09CFBDD442E3E
C42340AA411E1150
F871911E00469017
508067C22C76088F
5A44799B3FBA446D
3FCE0E7B681BEBF3
DF887008B9FDBA2B
2775FD40ECE47800
1121CEEF0DF61068
AFF57FF7990C4042
FE6E4BC3E89919C8
A9F7FBFB08E348BE
4009EF395FDFF6F3
22177ABD6FBEE8B0
E102C6486A37E118
7CD17D7F7F460817
CEF7BEFC7DC51E77
E04A909C86AF1B75
931BFBFF68EF290C
08102D46FDC1AE7E
667F18D90CBFAC17
72208425EF9F51C8
FE03FF7F1EE70C84
80FB5720410F8CD2
7006FC0B7C7E4167
DDA7297FC083F170
11FA03F9DFFDFF8E
4394CFAC0087EE89
509F523B88F14C97
FF6864017247EB38
54BBDEDF344E918B
FEE3DCEE84D360F7
9483CFC015B05F17
B28FDEEA55BB5159
4C768F70DC2DCFAD
FF8F93E136E618CC
BFBF1B4208A6EF8A
7D5EF977A8E9D66E
41261AF047AC72F3
7E33DDDE5B44EF9F
AD516405B70957FF
DF2060A0C04172F6
6355D40109470C30
ED71211FA9F93530
2A25AB4D00889BD7
0CFEF4C85C738483
37FFFEFF5B941113
A9B7C4BB09B79209
EE2F2120F21A9F94
6CF6C1A3CE4AC409
A0078847EECF13B0
738267771EC3064C
ECD6F506839C6267
1203A5D900826505
E544AE73908C0236
E07C048587218D9D
4F6962148ABC5311
458F63F5BDBA2769
FD9AFFF8D7FD8EAC
0818FE2C681E2688
8F477BFA00DE148C
DE4756F0B2CFF7CA
7FFB220120AED691
DC920386499B4CB6
73EAAB69ECC91131
E15F0DE2E71E11A0
8AA941E773664579
4C8947422910E297
F3AC6E2BD4990948
DCC7D103D420E87F
86D88DD56F8C7888
E72780885576FF0D
03B5C665865A1534
D421CFAF06015EE9
FDF5CA3E19101600
0280E7BFD06BC098
52BF57B74C298881
4D67E291CCB6AE9F
7BB7D6ECA087ECCC
916CAA2B97EE2FBB
83DDD2F999C1AD74
C06FAAC829B33728
2027FAA1FFB9500C
007A8613E9CFFBBE
087EEE53BCD66C59
007698E3E915D5D0
DD578CA1EEED7014
2670F9895E5C90A6
74C5668FCD77469F
001373C6EF8B6FF6
F118662303F4FEF6
074C7890F7EB3260
C029006008CA4522
1FA0C083BD008AFC
1648FEB3BF7F504F
3789EC46E94B506E
080197E6ECC16420
7F748E6CDEC0E66A
F0D85C2A80277C0B
2EE8B30A198C8F6F
67EFA2E5C0332CDE
45D3C2EAD8214111
570DA3FC54D37B0B
3FE137B0A0994187
E667891608EFFCE9
936FD1BAD7FF8267
763008F7B337C86F
00F4F80BE554CDF6
739DEFBEBF22A7FF
0AFE2E00211C0890
1D528858577F00FF
5020AF7F37477FF1
70ED10CC4FF6F6FB
9001E33B7710A76F
CB2142634269BEFF
0ADF4A68904A1764
0FD781A0B391FD4E
087954CF6BFDAD90
026A323000770E61
09AFC07D7FFD586F
8CD83096E7E7D02A
F27F018813060CD8
2B3DF1EB9F37098A
EF770D220398F3AF
4FFC199498B78147
F6FBE82CF4A2C7FB
D5708AA83A463862
6C06E3011F4EED00
FC4A8DF5177FE542
9F2B3A55888C1491
680CB01FB0857EDB
AEED73F517570EF6
101E62EACB4D0004
7673F7CC03373996
EF189F0952B6F6C8
626B4BD8ED407FEA
15827DF37712B148
3708AECAB23A4580
ECA783508C18FF8E
7628030898C739AE
C05DF6693EFCEDE2
C82F1AE3FDA7CF77
C7CD6CEFD2FAFD6D
085137FE0E93B195
49C7CC7F87B57DFC
154F3108755DC06C
5B3D6B2F53EAE406
002C8EEA8BFFD01B
FA0BCAC99CE38001
8300F001EF1C177F
EE406A11A2128CD1
781744F77897B3F6
EA07D85AA809BE7B
78383F38FD8FDCAD
A908EC8230BF1461
607B7021FFF813F1
AF72898347C71AE9
FFFFC9CA4EB40A77
B0676CA8D9924627
F75EB34BBE4C8732
0354F0AF18CDADFE
D19B7EFA8A675D6A
F3F8108EEEF8A673
04747DFBCD3BCE0B
7343EEC8A4311876
044506F2F8DB9187
BBFFA9F8A8FBBF05
83DF9228E00C1798
F8EADE476127CC86
B9FFEFCF3E2FD5CC
BE9427E1EAB8FBED
8BAECE713F893FDB
D361E622B37E4089
BB55955A03757D2E
D6E4CFFAF46BFF65
43089BE8F2AAE3FD
061DFACD8FB7062F
ED2223BA0EAD7A9C
1CB3BDFE3C71F154
4C6E7D8DF9E2FF71
33CEDFECEE11EDD9
FDDF72E23CEA1BA8
467BC6C27EE9510F
B58DB0DFB8007164
2792DCD35E7EFC43
5C73944A440D3916
BE7D0BD7E93E8F5C
DFE307DDAFAA28C3
F6DF83AABF40DB63
0708BF6E88FAB975
CCF67B9F5F652B9C
14278DEDD9B93448
CE0743CF16E3DBC1
CE62768E988C6CF7
F34E3E20C8DDF6C0
0C73DCCD1B7B9738
7A46FB65EBCF3E07
B9BF2E7CBB8EDAE0
1CFABB09BA5CC6F5
89C2B24BAA2B1C77
DE205D594F8FD60B
3657949CBE7ADFC5
B359EECFDCFA7ECF
A86DA909A6CA9FE3
473795C798400410
7C0955C61959C5E4
9628B933B701DB27
F990256019CFCCFF
080675171D06C2C6
DDB9078BEE73B5C7
EAA37327019638EC
BDC215C2122F644D
9909A183F940AF70
E2886B182C4996AE
408443F2FBF2A9DA
DC8B2113A73C2B4D
352C5FBCCF189861
1B88D0026E88A9F5
18023D890002DE33
08EB10B8517F1224
7BB5FD9BC5414707
47B04113B7A60EBD
12F57BBD4AA37119
5D6F31EEDD117744
A0364277F88E2541
A0342C7E9FE34627
F5F6C90B2033D933
77B3A8564FC8EE77
1723BB2A88671A47
1BE295F32A206006
C369898828D289E7
B37C6EA63A9D1585
8039510B0E83FCA9
F8C12F0EFFA911CE
8E27767F9055FE89
A03FD53396123FD3
5D007FBED9B0212D
2072CEFAF0C34A07
80F4CCDFC05350FA
78E40AEFB363F277
DF1FEECA8CFEF2FA
40E273081ECC6063
CE9B89D95A7B1004
E67800F80AC957E0
598C740678C831D8
761BEB89E9990000
667306A24CB004C9
CC0585B26602806F
FDCBB4169D7A9C20
4E77056C33B18092
883DF5AAE63B4ECF
41B2A20A57ED9587
7B000A9CBA869879
1F9FD87A003B1437
82D2232B8F422D44
1A6EC92316333184
EC0B20ED328AD042
6E3F32045581DACF
F95E72F154DC6FCF
47228CD7133D2322
D9CD13594006B84A
31AB150628C60739
5236D3139EC40FD5
6457DFAB5D8D5E23
50D26D360FA7EA79
72AD4C9AF636ECC5
E8E3A5CF265E9ECB
6209C420B8EC2DBA
7B757FAC56FB4FDE
E921813779C1D50D
DFAF45231A208106
8C1BAAF00A8BE6FF
088C1C9AEFBE6FEE
3F872B12D151C084
41D031D587D2BAC1
3A4B33840284B117
0D71CBBF2AE200CD
3380222D221173BB
11530CA2E8063C83
4CF41573F83DF3E6
BB0220B38D9D3A97
F7636C84FFF7C98A
7FE3940AE0384111
BD979C802271E86A
9805CCB318B7CA27
A1600664475FFFE6
CFFF30442227079E
3F6E2733384CAA9F
E81F5A121C195082
B798700708EEF7A6
6B075802CDCEF881
D018EC16FCF691C0
B59A03F2E1089082
A9F59BFF7CCEDEF0
88DB78527C6FB3E2
D002FD69FFF2D0BA
CC0073F9AF076233
FC002C4E40CFC698
CBE818C30CB1AA90
066F8234EA2CD0B6
40E72244F4551107
0113C131FFFAC133
9E8EAFFBEC04BED1
3A7FF791109CC019
D155A2A5FD00C007
160E6CC079E2799A
64EEC7FF0894DFD5
C1C1CEDFC339B927
335C236FBFF306F7
8F309080733C3862
D1FF3DFCEBDEC198
58F9E6FDB88ED411
F722273778C3A39D
95ACE46786E00933
8CC0EBACA802F625
82C1511368788B00
449FE65BEFF20497
258E2F13391F5A81
DEEFC5009020310A
97811CE2E1E1ADFB
2FF54D77620B77F1
FCDF0CC0B763C36F
401D0F560C636F3F
70110026E018D091
F439D413E4C42966
6DC40094A1DACDDF
BD77E9F7602F88CA
C000B401196C001C
2F1DD908DDD797B5
DC6061F4C1449E70
77193BF0C021A810
C9D4F097C3E88D8D
85AFD5D244A6217D
C8FA642C0812C1CA
4311FE9869CCB27F
8BB3A0DC3FBD57F6
1179800033DD200A
1EED3FE7888BF008
4A6D8D8CE003FECB
E6FFF9D6410FFB10
100723EE80145008
EFFBB7B6FB7C2914
B67C7FFF7770E7FF
91C5FF00D4E1D271
BFBEED6400A4E400
0000000000000000
0000000000000000
0000000000000000
0000000000000000
0000000000000000
0000000000000000
0000000000000000
0000000000000000
0000000000000000
0000000000000000
0000000000000000
0000000000000000
0000000000000000
0000000000000000
0000000000000000
0000000000000000
0000000000000000
0000000000000000
0000000000000000
0000000000000000
0000000000000000
0000000000000000
0000000000000000
0000000000000000
0000000000000000
0000000000000000
0000000000000000
0000000000000000
0000000000000000
0000000000000000
0000000000000000
0000000000000000
0000000000000000
0000000000000000
0000000000000000
0000000000000000
0000000000000000
0000000000000000
0000000000000000
0000000000000000
0000000000000000
0000000000000000
0000000000000000
0000000000000000
0000000000000000
0000000000000000
0000000000000000
0000000000000000
0000000000000000
0000000000000000
0000000000000000
0000000000000000
0000000000000000
0000000000000000
0000000000000000
0000000000000000
0000000000000000
0000000000000000
0000000000000000
0000000000000000
0000000000000000
0000000000000000
0000000000000000
0000000000000000
0000000000000000
0000000000000000
0000000000000000
0000000000000000
0000000000000000
0000000000000000
0000000000000000
0000000000000000
0000000000000000
0000000000000000
0000000000000000
0000000000000000
0000000000000000
0000000000000000
0000000000000000
0000000000000000
0000000000000000
0000000000000000
0000000000000000
0000000000000000
0000000000000000
0000000000000000
0000000000000000
0000000000000000
0000000000000000
0000000000000000
0000000000000000
0000000000000000
0000000000000000
0000000000000000
0000000000000000
0000000000000000
0000000000000000
0000000000000000
0000000000000000
0000000000000000
0000000000000000
0000000000000000
0000000000000000
0000000000000000
0000000000000000
0000000000000000
0000000000000000
0000000000000000
0000000000000000
0000000000000000
0000000000000000
0000000000000000
0000000000000000
0000000000000000
0000000000000000
0000000000000000
0000000000000000
0000000000000000
0000000000000000
0000000000000000
0000000000000000
0000000000000000
0000000000000000
0000000000000000
0000000000000000
0000000000000000
0000000000000000
0000000000000000
0000000000000000
0000000000000000
0000000000000000
0000000000000000
0000000000000000
0000000000000000
0000000000000000
0000000000000000
0000000000000000
0000000000000000
0000000000000000
0000000000000000
0000000000000000
0000000000000000
0000000000000000
0000000000000000
0000000000000000
0000000000000000
0000000000000000
0000000000000000
0000000000000000
0000000000000000
0000000000000000
0000000000000000
0000000000000000
0000000000000000
0000000000000000
0000000000000000
0000000000000000
0000000000000000
0000000000000000
0000000000000000
0000000000000000
0000000000000000
0000000000000000
0000000000000000
0000000000000000
0000000000000000
0000000000000000
0000000000000000
0000000000000000
0000000000000000
0000000000000000
0000000000000000
0000000000000000
0000000000000000
0000000000000000
0000000000000000
0000000000000000
0000000000000000
0000000000000000
0000000000000000
0000000000000000
0000000000000000
0000000000000000
0000000000000000
0000000000000000
0000000000000000
0000000000000000
0000000000000000
0000000000000000
0000000000000000
0000000000000000
0000000000000000
0000000000000000
0000000000000000
0000000000000000
0000000000000000
0000000000000000
0000000000000000
0000000000000000
0000000000000000
0000000000000000
0000000000000000
0000000000000000
0000000000000000
0000000000000000
0000000000000000
0000000000000000
0000000000000000
0000000000000000
0000000000000000
0000000000000000
0000000000000000
0000000000000000
0000000000000000
0000000000000000
0000000000000000
0000000000000000
0000000000000000
0000000000000000
0000000000000000
0000000000000000
0000000000000000
0000000000000000
0000000000000000
0000000000000000
0000000000000000
0000000000000000
0000000000000000
0000000000000000
0000000000000000
0000000000000000
0000000000000000
0000000000000000
0000000000000000
0000000000000000
0000000000000000
0000000000000000
0000000000000000
0000000000000000
0000000000000000
0000000000000000
0000000000000000
0000000000000000
0000000000000000
0000000000000000
0000000000000000
0000000000000000
0000000000000000
0000000000000000
0000000000000000
0000000000000000
0000000000000000
0000000000000000
0000000000000000
0000000000000000
0000000000000000
0000000000000000
0000000000000000
0000000000000000
0000000000000000
0000000000000000
0000000000000000
0000000000000000
0000000000000000
0000000000000000
0000000000000000
0000000000000000
0000000000000000
0000000000000000
0000000000000000
0000000000000000
0000000000000000
0000000000000000
0000000000000000
0000000000000000
0000000000000000
0000000000000000
0000000000000000
0000000000000000
0000000000000000
0000000000000000
0000000000000000
0000000000000000
0000000000000000
0000000000000000
0000000000000000
0000000000000000
0000000000000000
0000000000000000
0000000000000000
0000000000000000
0000000000000000
0000000000000000
7455938ACFCC2A6B

