C183DDE9DC79DC29
9253F23D0B063375
F36442BC542677FF
7C8ABE0FFEE3F07D
C5D0145FEA717366
2834731EB57D0B96
7DC4114D00989087
45D696045B550008
F2FE207560EFFEE8
C61B941232FFFC5B
6C6F61881F6994C3
AC1B77FFEBEB2B73
85D25D9213EC6226
A86623AEBE1CAC9B
CD0AF648E400018F
3475132C15B75BBE
9D6F625F6CBD3517
3F0095F773081F8D
6EDB194615B0107D
78EFBF9EC26351C4
A77D8CEF6C67D8E6
FE06D00AE37A41C7
72E1621B6009CC3D
E2E8AD2DFB668123
5EF3C8FF85FB8F30
F1048A00509FED99
BCBDD24CE6729A01
50988FFB677C5BFF
89B824CE8800FA23
80EE550DF16EF4FB
F18192A6FD0354AA
676FA4EF65F08818
ECE501D12FBD9050
88804F02C1826E6F
DF13F12FD76F6D7F
F7FF48C48DDC21D0
93CFF47FF1A56919
891802E01909F6CE
76901006F8CEC7AF
489F8754586E9115
D66C5987018CB888
C1C8F3DCCECCF5FB
803AFFFC8C108208
05AB14C953A8DCED
DFA0F19748E7D306
1165B9DC0FFBFB74
37DD30AB8F4E1914
A2E0D35A5ECC1F00
9700F347629D9820
7EAC8CD0D055C8A7
0400781D7F9E3BF0
45E7066DE03EC6FE
28BB03EFE010C4F4
212F924632B9F8EF
DD4C8AF22910F1D6
704C67F66667B3F8
F77B5883C83984E3
8A746A02FF5DE5B3
ADF36D0D85DB83A3
9821D9B9026D40B1
E669CE3F47BF4014
81FC09F3F84DD333
7A14A0327F817804
F8AD1F73454177F0
B2B28BEF76A9A11D
C88AD977D0C6433A
66E4C48408D87F85
FB378BDA7F8F05FB
3D180718AE76E840
2A41B4026F0388C2
23C5246ECE687562
F5B3B70ADCCD357F
E600048B2B7DF0C1
CACA55351098A2B7
A8D04C09EFCE61F0
288BEFFBCEE32991
39B515D4144880D9
5DFF3C89ED1F5BFB
B728737BF183A7FF
C0D2A1227EF8FECC
72FF18B345117777
6278E81579002E01
37A13C29D7B7C2DE
6588C033A97E9391
9CE1DFBFA0004120
C9CDB71B261307B9
DBEF418FC78AF804
7A567E5BD4F22CC1
8AEB26264D1F0005
7DB3B92776A27060
334E857DA6DBE029
5147FFB97F05B806
7112FB62CB7685E0
FB19038193312B8B
7327EFCEE002F211
EDF7264F5803DDF3
714DD373FDCC6EA1
F8E19FBA3BEF5A8D
5BC41B113ABF1FB3
EDED9D2177631EFF
13677BDF9FFD9DF1
F53318BF1ADA3FFF
03BD033BE3F83330
82C4F52767873ED4
154D2899B665209A
631BB5F712807FE4
3B9C22AE7EBFDBBD
9D0AF7BCCAD4714E
00804940520C4FF2
89027F0DA4CC1F8B
A376770D1F9D8D22
4C83A32003BA1EF0
29011A4F1FBC82E4
BA8B4B8D491624C0
333332433FEBB5AD
3BD869FB3F8DB5A8
8B84AC0A6598EB80
F6A6A4BCBB8DE4DB
D48F1210F107221B
BC0E9FDB79808ECD
7770E3EAE0913039
676FA39303E1331F
EFF286E782C01400
5E02C37FFEDB0E6F
B4FEF3F6EFF851A2
8FFA6F82915802CF
DE544C82ECE2C40F
BDF33E39EF208B20
45D3C4446CBBF3DF
0F179E1C73BFBF86
20FC09BAC5F67142
C6E02C7B47363633
6BE0E666F7BB3050
8190B6EAB115A008
6C8C1A64BD2C04B9
2EBECCFD33BC7BA8
9E9AAFF345639FAE
C37A63D7D9120844
B6C6ECC369C27EFF
ACEC08602FCF10ED
7071D3AE95860D1F
EB48403FA7AF6C42
1833CEF5DD827E02
B8102F047A267FFD
02C3B7B68FF199FB
3DB2FFD7DE9385BE
7F3DA0C1566336B3
010BA32E7039A416
176DB2B35DDF588D
5F10CCCAF63754CF
5057FF7BBE2F73FD
EE11F09D3BB30009
104EE776C97A7F79
F271EEC74BBB7FDF
32BD6F60E34B1767
5B4F11FD7B10CDA7
6E70BD99654BF983
14DAD4CD801BE5C3
CCF52F08AF8D66C0
B973073A70A8AF46
D867E143CFE3B407
E4E6CD68AE7E0984
B93920063647F322
FFD3D53F84999EDD
7E99B79E1C37C932
AC6AEC505FFF1B06
FE1613D8ADD90601
84CA8778568ECEFB
F9253DC1D914EEB7
77343A150201A3A2
61C2FB30A0E0C6A3
8767706F3510E893
C5B1106EA8D3BFCF
140E17C40F573F9F
2607DFFB333354FF
308C7C190776B677
FBFF482774C7343A
17C0CEEC404E811F
569DC4B92BC4FF53
B5A3A33F2539358C
62E210BA2E0FAFBF
6CA1EC141BB42939
590BFF86B3FBD1EF
98C7018A5FFC9613
008F00A87D9011F0
926580236F00CC5D
0AA010E2EFD934DB
C0E1100F1F01F920
916B628CCDFB7928
37F21C5F72CACA30
D108AF62CEF8A30D
C47BBCD496EC8591
640C9FB9EE700300
3992005998DC8313
6FF0C789F40D32BF
CE4844CD804B4AFC
611C0E0851347D02
D10ECF6CDED1DBFF
1D6677ACE2EDF559
A5E10F6208E490DE
688CC23EA88DF37E
9FDEEA7C77D6FFAA
F8088BECCFFF0AA6
AE8F86882BBABB98
9B885030C1313443
F29E5A917711F898
FFE26003EB080FFC
6AC37E5938C439C2
AB8569AC84BF046C
C76F5008BABCBFEB
9A9A7CBC5DB04716
B6CACACBC1FB792A
78EB7C2FE64EF750
20CFFDEB4F6113B0
B6D88880D138EEFE
9C9185D7C0DE4161
F79AA32A2ECC8A97
0FB857B9A0BB362A
0FFC7108F9ED462E
5BB82764266A9041
FC28F9B64B72A0DD
6B00DFC907F223BA
8381903753ECFD44
0B69FC502EC238DD
17FED38816EF3720
7D58E5E002F86FFF
2CB5217F38C2DA0E
1329D70517FEFC38
00A6903EB989EF8D
C1C79D812AB9AAEE
5029D14FC8453918
6B7F029E0773C6A8
E1B065848C8A3D26
E7750DD07FF2578A
577516FEC387ED08
794C2F7A807E0244
822F7F626F994265
5751E7B1C51D1833
402EA8C8E3B4088E
46248F69433E03E5
3880EE7B7700E7C0
02527AC58FF474EA
CFCDAFE54C5A9C86
0C84D7A9FF60B37B
0CCA3F67C5F529E9
D06D0BE1A688C1BA
913EF818538CDFD9
D71401260E363C98
DD0AACF986DC6460
2B33C00B931FE910
918F54D20E5816D8
C8F68248D920D976
2002CA838F267B33
8ED706973BD57461
C6EF8903DF980682
AEF23DE08451991C
0A2038192056713D
197A000A01BDF9CF
6660558D91080C44
322247A100A60116
01F2A8A2DF3AC5F4
EE3087CE26105932
A2234D80CC29C461
0030BE62D144EE76
4400B2AA2CF467BA
6C73D8048C976602
46A78F1B5D31CB8F
1102B009EAACEC0B
D29C87B075318523
17F72F2386F34998
1855392A6FF24960
91F55DEF50441208
EE64DED60A0C82C0
61677828CEED22F7
502B29ECFCA8044B
0C4ACB2320A13860
447F5FE68943C057
4276D00C0945EE40
033726046A3FE812
8A3B1108CD179D53
B7373D0A151EBEFF
844E0E324E38F0B3
8F0B80C0802C9D4F
AF61A272AEC43215
30E3500D70D90CEF
7F6A88E7DDC7E773
2F36004362F0411E
73319BA7B4443836
44EB8A94E5442630
B00D13944CD06CBF
CEFD0D15A9AFB2C4
C0A9111001071966
4024F4C0374A3A39
C162746288300B96
18037388008C9B0F
9005E27199D4FA27
00204584AB8B8D82
278644820089DF8B
102DC618C5820887
937ABC20FC780977
550F3386F2C21099
0213CA8B0CC7411E
0450409CFE778E11
5EC4C501A6E21183
2208142A400F50E4
01DD5757042BCC7F
6FED238804C736C7
147004B5B00F3091
43B32D0668B9CFBB
E3312CD114C15210
6F6FC59E8AAB1928
DC88F5105C40A5CD
BE038E6F2D8902FD
C105E03F0DF74117
AC277E01BCCE411D
C8220C971E2F8036
C0B90112502BEE86
23BE53E2F499FC32
E21DCE21DCE24E2C
FEFDCF767506F05F
117F747B89014C07
01FEF016F71B005A
8EE9908FB14C45FD
AB66417FF1360146
29DC60B08EA67E60
0F08B30CB4D4B1EA
44CF62294F9DF037
91F798400C08BE7D
E5AA807E7912CE66
4833CC8C64046732
909FC8CFCCAE8572
69F0804D9F86EC26
3087700EF824B9FC
78779DC0CFF3D997
CCAD74E2575961F1
ADF5AEDD29CFBD6C
8D408C26819AEAF2
C980AEF090DE6CE6
B3B6E013889FC4E2
F5A288D1F1833F1D
55FE0D06F222A7E8
B266D0FD5DA1B863
1C895D859A1F8812
491A32EF8010DCC1
5DDF94A00F8A5BFF
FFE5D474F336AD7B
8721BA8AD91AD2C1
D3E6C6A8249070A6
A2E14204426A6807
6E7900E699F7BBF3
9B202420F0CD4CC0
C1D7799FEC4008B3
2030433F4E2B0D9F
66EF606B686420C0
7BD140714185523E
F177D51D52982D41
CE2FF412C1FED062
4723A0BFF777C08E
001ABCC840619DEA
44E00E0A40E7ABB3
3461050130965AB1
B090AFC544A149C4
18BD22464F84B230
E37E397C8AE280A1
E323D4E453AF76F6
DF5FE146E955DD4F
FF56AD928FBFC93B
D82C499488FE932F
09AF20295F50F7D4
64F64EEE92AFAE4C
894E45A124CAE81C
1FEB96B79D1BBA1E
86E5CC23F89841B8
6023F8DD88BD0054
93084C046E173DED
ED3E277AC7FA913B
A4095D12467794F9
A3B6644089B7B9FA
3DC1FE27DECCCEC8
C51B1D1232115D10
353F2E6B2C138FC0
074FA0EAEBF16093
AFD309E156913393
D3A100628F0EFBA4
316176E0D37F9FC4
15B2380BAACA5E9B
97F201C35D436F1F
E445CFC3632AE331
706FCFC0657D43A4
DC9637D817DE37B9
F602C23AC94CF30B
D80122C20CFC3782
CEF55C19EE9134BB
B742494AE656E68F
C8009FC1F26E3742
EF0DD1801889CB3A
25B06E33216E207F
7C91B7F0F7841635
C395C39BE1426E51
77C43439B1B718A7
337E49E71A980C09
E3FBAD47550847D5
0170629B830BFD2A
2F0B95E037600449
91AE8F3861105700
2F1D21C218F56F55
6DE78CBBCA01E70C
9700060F010AED97
EFFE2A366AA0E755
6E1A603420C858D6
4C5749AC48C151CF
571AA6F357B77766
BDE9BCE4C17526C4
041460038B3BE1C8
B1733FCCCC850FF9
86D9025E3F0F6123
F071E10755CBFF88
AB038B6223CE1E90
7906107AE3F04BCA
7BE0BC0A10C1EABA
B0639BA31310E2C1
8C98518B599192AD
0010600F21014325
0AC35FEB4E43E7FF
341C83233699E135
900E148B1690E6DC
6DB326E701FFB81A
A71317C4AFF16FBF
4CD1D5350D688D02
A4ECF3C502CC2177
39FD3CD000F80A8A
FD0707F023EAB107
28A26383877106BE
E8131D3BE89505DE
0FD0D935D995B875
504166498777178E
6DD1CE998701FF91
2323371563C8D6FF
7AAFEEDBCD51FF8B
98586DC27F223FBB
0267CC07372F9FA0
381862123141D338
D53F098138EF8283
321FE5880244B09A
DC496FB0B7665045
022C5935B882FB30
62084ED0347E12C8
EDBDEF70500A62F0
7A300DAAA380900C
6CBA10FB8804012E
CE3EF040DD988E84
B93E301808DF1FFF
221F2208B6D08809
560FECF43EE22029
A109A666FF7EFFF1
F0E2FF8AB01EFF84
2305C448CF21604F
B2CC77A9FA117B31
50F45E16A88FC306
11AFF7108431D19A
DD8F05542DB99099
BC00A81249E156F7
F0AC837FB1FEDFF0
C113F0E7DAD8A281
400010A085C07B32
7863081D69F62001
A324A83C8CB45C88
4899D8029846B7AB
90EBF72495DCA121
C815F725FE429E31
89C255E5CBB4D404
2AB4CEDF10BA3623
626287646767304D
55F2D9F82444B643
EDE2189B58A80196
AADF292650CBB44F
27C5EAB5F1F24DF8
FF3E23802EF9AAED
3F7740FE7012CF13
FF7524A0901FFCF2
0108FBF2791A6FA3
AD7F00BA34ABC209
920C0CD576851230
E05CB13A3660243F
DF3440DA9E7EDFD0
7527BE1E35141FEF
C9FD0037C8B03AAA
2E06600347610D2C
18320880A2650B6F
3E3DAE62A0387B14
2AF4E2DA42EFD8C1
D114FABABAB26000
70469E5FFB544ABF
18907E1DFF6B009F
0FFD94CD2FB1DE67
5C5ECF36078F24EE
3D7FC65F29222BF6
F98B53732BB43279
3DBE3123D87BD4B9
7F9A5DEABF04F888
D310E08019D11802
FCC60E6BBB076FA2
B88CF415F462063B
3BE25C831E23087C
7988FD69B0CD8073
1F3A02026645071B
CD0532F35B482D2A
2627008FA023F81F
D8710621500C5B32
AF587548155151BC
8AFFD5503BF17B9F
08850422BA00304A
62A0999438357F1D
EDEEC594188BE82A
FEF0DF486DAE6407
530E59780EFFCF20
A177568000C88870
7C40FDED6211EB0A
259E20CFEDE13451
10C0E02E4059A047
6DCC962FDD415300
8C810D042C971139
84C6FD804B229DCB
6A824450BF05FF87
DB86201D0011A88B
9FD6FD3818D4D0A2
28603131DC8E0290
CDC3F945038E3706
16E727B21F0BC240
4371F9A8106D3F62
718219B7FECC548C
E3807622F9817E14
DAF30F32CBD0EFC6
E5CE34550F615B11
EAD8670FE5F3B741
0236C00EF87A1183
E2BD1421BD0E02C4
365500A2501075EF
E724E844F402EAFA
68442325E4D0DBE6
70E77126D1444750
7A0A4FFB99765F00
3426924222F0CE09
D880C63FECECBE62
FB97D0913335437B
EEF9D844FC307FC4
D2C35509B297F000
91481F153E2325E0
10154A1E20F896A2
D771A2F034066DEA
805011501ABDA419
53F11133B17CECFC
001E37FDF91A4404
BC18EE627D7CB78E
18EEA3160E23B60A
7F3616B20AFFF1D3
CF0E00F27E08F8FD
4A91D8CC7A6C5498
7F19C55CCF87FF37
7071030365620E4A
BC2CB969FF00DDF9
325136A584E4FFD8
FE3B029600FF4D8D
2E921C913AFAA7FD
9E613662ED812382
FD4929B004156178
6316276054864EE8
A7E1E647E71072B7
888811D818044A09
79C87340DC03E82A
37E20057EB00EA62
83FCF73F12EA2B10
6920500EF1D400CA
7282F46CE7337B11
9EA9D4F3A8C12FE3
DFF700001114E0E0
65EF3BE0D2519008
EE88007EEFF84080
DF6FE04817B04C0D
F22EB709006EF668
E6879500390BBB94
D188B11440445FC4
D44DAA2E80CA2D14
4CCC775721371888
5DF74184C04DF8F8
3FB86628FEFD9539
6D827999DFB7DC8C
370B25194EBCF7E9
1F6C2337FE2D080C
FFDE73C92309B445
EFFCC4092D19820E
178510618E5CEA8C
0C3730709B2727FA
6C0340088E093B47
00D09FE9E11F17B6
20E8A49CFFF85064
8B79CF1F2E7075C7
A4C09C7FFF302415
3B51108C7FF9270B
00626EEFAC88D104
AF454984FF40270B
F05846964106745D
B737805EA104503F
89990E230B6C37E0
FF7CA026EF0A1020
C13A88EB4827E348
D58951C04FCAE33F
E7CF2C0CFFEAD140
868508068A138E6D
0E906BC0728AF602
048BBDCAE15015C2
4020E0E8B57DBF3A
391B0040FF07EC8C
4B8DF819310187ED
50FBFF7A0444500B
4E08AE971FC01742
EABC4691386EFB08
FCB8A741FB9220A1
CDB49CC0FF5781B4
300A39EB211152EA
25A8FF1F1C08FBE8
074C1E6114469020
681B1114F0F91100
A94294BE5000E64E
1115EF9880B7BC69
52D8033FBF633062
E713E3366007B84C
4041E505CF79F77F
C510D2BA77392D9C
803107EFF589BB23
FE9A3DFAA58CDAC8
23552EFD097F2022
40899F7E9F10774E
B04651FA000B8FFB
9EF9D85BC9FB7F57
01D5F4FF3090BE37
4BF210EF3BF088EE
CE8006BFB7A6FC35
2022EB4F8F76708E
D3F341CC43FF62BF
C547CFF2629B1AC1
221940118E26E2F5
6020FA3DF05F828E
83FD7D6D0004A003
C0B17D441899E5AE
9DEEEB740BDCBAF4
75230B3E50206AB4
182880C5FBF34C78
9BFFFFFCC00DDE28
9E8A1FE98E7D31FA
BF183FF33A9BE847
F24E3119D41087D2
4750F6005BFECB8C
22F391FBC8E896FD
A0E8905041D5A226
1A3FCA312B665FF3
DB3F7D6FF97EA99D
5BFB42C8EF36BAE2
80F1BB7DA02023F5
81FC3D880E64ECC8
77A4FFD76487FFF3
C0297D57B013A055
A2670153284AFAA7
80BE01E6080977EA
7EBFABDF82D0B5EB
E1E818F08533EE56
C898E83BEEB1557B
9E310822024F0106
888FDB93121452AE
7449C2AE9D79EE7E
DD8950F45F00FE9F
73591BFFE7FF42C8
0DA27CD07E116F7E
909FC60251F922E5
426F9AAA5EDDCDD0
DE02FFED6FD77812
30D781FE401F3014
EEFF74016FE988A5
00000006BB09E017
C06F37A4400B827E
42B4130DAD9F979B
2443444247FD03AE
02A885931DDD080F
B0D0FEA337BCC002
AFFF533ECF71D77F
10EEEA9FFDC3701D
C8BBF55508C498B4
25FF266FD828FFE5
BA00A097887A31C8
57FE795374368E07
EAB00B2218129A3F
D4FD2855B1DAC6E5
8158FFD66071E0F7
841718EFF0DADB8A
109BBA39E26508B5
9E5D8410BC2FE463
C6900071E5A01157
E849F7D03748DCBD
10789E1A80ABDB32
1E4DA47855531D87
A90140DF2A0108EB
3043289DBA05997F
6A0FFEEBC9EAA52D
8C14CE7E2183FD7B
7968C72312066289
74B57CFFCDC3F33D
2EAFFABA89DC335D
6FF83D8EEC7F2DE0
B40A111BA8992CD9
89DB9837B9DF2806
11A6F2631FDC76B4
A177FFE04D100ABD
7371CBA81C6612A5
654A46F27677E7DB
6F85018A01FC143B
56B09739DDAEAAFF
8D71970C7CEF905C
5F8F38E933DEE6FB
F6A7F8291247100F
A4EB51F99F500FB1
28EE0950CB331DD3
302BF1C44B0FCB9E
3EA9DB543FFBFB7C
282B8C8BE0E8EDCD
59105AB080EF2813
1E6391BB619C3A85
0F73BF6CC14F804B
4426A041397E45C5
2F733FB4A67D5D4D
51C42F8A80848104
A9AA4CE8896201B5
1947FC00B55EECD7
3BBCBB9313FB2487
BF3C47A4D09104C7
4DED62993718347D
8162C97107B3DDDB
3CF9FC4EEC526CF6
C977B76433E610A7
113F50492B774D57
32860FFB74A88E0D
BAA672F704B00487
80EB2C63148568C5
327ADCC46795A666
B35764DAB5A48542
10333C34967EAF4F
ED908D6F38BA448E
7FC7149F7CD3BB3C
908AE2D0A8A5C472
9DA1511B8874F722
99CFDB418374D1D7
F60AF0B5BBC0C02E
AB7178BE26F1CCFC
725B80B033C29AC7
50FAF550BE27BA16
110FDCCC6454AEB7
9D73F8C42605BCAF
D00FC1BA208D522C
00B31AFF6B920C17
9A143C0CBF7722F2
C5171993140074B4
184D430B1B08D6CB
A1976F5C04144A91
94EC0CBBAA4F1C9C
D5C518DD8C733186
D44087688D567554
221C902133DDFB37
F9B0F662B459D52D
C41D84E42F3ABA07
94AF6048EF041496
D00CE5B83BF5770A
34F2B60CAB892309
9091C30513F9F1E6
D8B03504F9F2EB4F
F3CA01A8330110C9
8992C13E1301CA30
8894199FFFC64FDC
F92836650664E702
02D1B6C1B6B91410
6CBE975530A3A2AC
60108006FC8A818C
A291FC19CEE937B1
F550386C893FE331
6F0F69B7B2CA95F0
CB17A408387081F8
28AD068838893BCD
0F7C3BC8717E9402
820804321A06AF9C
9CF8C75E71CACAC5
76680986F8CE3037
221050398C01A155
18E805404173E4C8
0C1D26D3A2DEF024
7E9F4FB90CD89971
37DA89603A88F0C0
1C111352FEBCECC0
D7CF55C8A799B363
FFEF889E3A62D2E4
C983775739DFAC34
C8FA5680E5012910
DFA64FDDA39EAA0A
658F5F032CD31C07
3FDC56D24C96767F
EB4E14A6AFF54B65
876F6BD8400CC7B3
608C93A0C2EC5C6D
854D241D656E55AB
0FFFF2BF0C34E9BD
21712D9B3F505C18
8FFEF923668021A2
013132CFFC6EB994
1D28471B55132807
54CC0001071ACBB3
F29C661DF71B6A7A
23C81899731835DC
813E95EC221E8818
027FAD155B153B8C
ED1898E53714FB1C
C42F0ECE3A993E08
AB46C5B14CA1EB09
799A12BF7C4A0AF9
0E701490DCEE0E1B
F337AD8B8639CF6A
B290D286F96708D8
4160CC667445F05D
432F45681D9FC414
93CBCD9350C7DDF4
FDFFEF805543BCE9
8ECDFF0BE800E670
77D0C0547D524621
22A3D510B1F27395
4CC1595004F87940
C89DBE4A0880DDD3
EA1102279F3567BB
77F55C6839191931
E490E1FB9E2B803C
C133416300A1864F
BBCDE42F10B2858C
643C6BFD01506F62
700AEA7BCC10F6DB
F67BBFD3E9673D0C
B988CDFEA0BBCDC2
8ED4E3BD1A907310
89AC4C71A5899695
C713F7F588A9ACC8
2CAFA857AECDD82E
CC48E4627FF1764D
11A390751DC9F0C5
3802E8F19EFE9E44
401DDFE77D627EB6
67E5253B27F7A522
3B01DA7D5A93F69F
25416031C11BE99B
D04B6F6E6E400728
AC5CACAF007710C2
01803F018CEB1A93
7C5083FFCB439331
A437DA9B3D232A41
7EF59BF64E4ABE60
3508F119C7C6A1EC
576290A98DF94D03
F7B6F6415C43C771
BC10E8107B706320
8CC4C6830852ED74
3ED7C17255629406
085BF119FE810157
2F6B49135C13C665
2FB7C801199F9F8D
2EC075968AC14871
D57FDAE2DDFB7CF2
DDBEBD877CA69809
95FF092780B00016
810A7CEA87A0FD70
947B4D08EFB34077
A833B7E6B8304CD5
F8E740584B7B8425
57367D38AFE6020B
678998FDD8ADAA31
5A009990F30900B1
41009D94AD38DFD0
5717D4E5D5FBEE52
7637897FDB88D8F0
7614F088C539336C
876884E411F6993F
8D2C949C8BFCA619
6711E64056F1DCC2
40B210739B77AA64
143A9DC022733EE0
748A2EDDF0C78748
5633FE6F847AB517
79A9FDFFB0FF0AB7
E434DE8C9C759E34
FDEE0190E2DCECD5
2052E5FDACCFF795
E87D2BAE0C6FAECB
A6D7818DE9CC4A1C
10107E2B38AF9EA4
C07FAB584389DC7F
113DAF8E8F5DDADE
31023DF3017A4C42
A0E6FFFC7724D80E
6BF1F2FEC6E2F142
CDE994DB66307CFB
6AFD88D1AD68CEEE
101C02111C32FFCC
94EA09D7776E68C1
F02971909829C000
1E0DF1D7600867B2
98E0016F1D94D04C
267C7DCEBB08F332
5F8DB7FF08408A62
000067F41AA9FC71
E6382AF533314614
71BBC97B20C1E9CF
10747CE345F8CE79
F42307036279EA52
DD8C87722C05A661
D788F092D77083D8
4F734FE4B0C6DCEE
C3BF6771A30AD501
7003319CF2395EFC
8BFE4E7FBB4F9B39
E46A9CE25F745FCD
F00577F17D209753
2D67F0DC48035DBC
28C68C88884D3F4C
8CCC2E086ACDD841
74FFFFD4883103A4
501AD7DFFA986F6B
51CCED29C48373CE
A3468074CD759089
E320ECBCF6F96721
FC6EFABBD0113D69
DCFAFF55017C1072
66F26368CEAD7111
9C0BAA18BF1B18AD
3CC82C23D1087D53
BD45B163B3F588C0
0FE23C2B508090D6
408BF941E6289B15
EBC358381FD69D13
D7FC854CA0630597
FFB81F6E6840FF26
FE05E7739C636767
FC082BC81DF00331
C631D53DA0CF88BB
31E084B6000E8791
E03A16823137AF49
BFFF684BF1871887
F37D949FB99C79DA
9EC1EC8C9873C6FF
5F67C4EFAA09146C
AF1C6129FEFC0EEB
0D78E8A9CCFE9E2A
00DEA75AFF5BA291
477F5306F7EE37DC
D98C5117F6FD7B3A
EBDDEEE0D1B12F1B
FB0424E98D8E5575
C2E919A37CAE099C
D547C561A69C237D
513E6B3526AA7C61
D3D811790902B268
2E60498832AD77FF
E87523DE1FFD042F
6C65EEC17D510CEF
240AEF8F2EB95981
7FA257150CCFF0D2
FBF74C0084710B00
4498B098529D0D0B
6DDB39B76D32569E
8ECAB8B06FECC88D
E10FFEB243B60592
DF3C11B71AF727AD
E9583BCE3C7D44A1
FFFFC3B26F7477B3
667D9635AFEE1368
5315F239FBF98FE7
F10AB90BF77CF88C
7DA3F1960DB491AB
B48B050E522F1135
02E50D7FBAFA19D2
B4ED790B0FA3AE51
68790F0C193166CE
FE93ED21CDF7FE04
67EB61930E64FAAA
C6A8479B19BF6D26
CF550ED9E118BD94
1C15E6ECB7720EEF
A321735963100881
182DC7F53D384FF2
6B06BD0F6837F98A
57BFA6DF04CD45EC
0EEF46016027FB3A
916D2AA678931EC0
2AF37E0823E74210
65A9BB13128FD17F
53238D95FF489C08
E5AF0CEFA88803CC
0EA8555B30C91B3F
D733E3D63BFFF7AA
414D77DD2306F7A5
FF834ED093FCC9DD
BFBD7E0C5317FE29
FC6224A9FB889B75
24C44F355611F356
32CBFEA01FD777DB
5D10FCBCE603A08B
71B7AE0B44959BBF
3F6FAC2EE61BCB33
205158110E254F8C
0A9817ABBE7D004E
4C8FEEB316173996
4DE8AB080C8A0384
FF39AE09E8BD1C0C
069B504D3176A5E8
0111A6752500D7B6
F6FF747C5F8FB77E
0C980C790D82313B
8C734E02B36126A0
4511EFEF8D50BE1C
2134277E2BB0F065
9F893100903703CB
3F713E7F4180CBC6
E131EC500F8B72C7
9709F00941390C96
FDB380B287FECB8A
9D4789F2D6476BB3
4109A31E8010ECC9
6EC3FF6F372D9007
5099134AFFCFB09C
1C10C702001E698B
8051F9FDEFF97718
0370A6FDE6BF8FBC
D04E1FEDD969F11C
603D122093325A82
F3BCEF67BE0E00F5
2CC8DE7A057E466D
070537147FB086B3
EF67AD606C332C87
68824308FCF7ECE7
441AC461E8ED7311
749837233BEFD910
0847D6C0066F3678
2B6F2BF81DEA277B
673E08E0210112E9
077A0E7360024043
F9B3E99CAC4861E9
9D6BECCECEC4E918
AA302E918085A759
BF77208586D2E40C
F8926B629B1C5DC2
3E5CCDC7D3AF9108
43FABFEB1C10A75B
2CD9508CFDFE664C
455846C5CF354100
FFD3889F116DA92B
3210DF4E42385CA7
D881BF34364C4735
679A1102BDEF5B8D
E7340CCD9D5B90A7
480A9FBD7FF72F70
2E2959E6FFB5AEEA
A0D9000743305297
6101C82C67405786
188A8A6F62107811
18F9B95D2F796FC8
C8930D13A97BA0C3
3EA5485F8B28CF9A
ACFCFDCF93756010
A47D39710901DE1D
B686958F46F250DB
899579113EF97049
FB1708C7D8E28CC9
AF7345069B9C0FD8
321C6979EF753237
D31D89A0146C8DEF
B35416BF00071C71
080851032373DE15
84C71136FF77C184
A4BBA381FA40EE60
EC711766CB616EFE
228CBFC5E3790AFB
A650BAFCE8AA77DB
EBF24373A6A8A4CB
6DB83DDA396764B5
E6537BF59293F5E7
8BDD4ECCA4A2FF3D
D63C6F28F3B42BF8
607CC8622974F6B8
3631AE4586055855
8726BCD668F0851F
E9DD6A397FF78CD4
BBF05098AB5FF889
CF3DA4E84C1DB400
5BBBD0F31B2FF6C1
00087EC004FBE99A
AF539E7079328318
6F2B00C3EEF3E771
F0601E8FD8DA6FFB
EFA7C8141F3A0A7F
216120A129EDC565
48B46DFFEEF35A61
F8989938303BA6F8
B2BF60BF9BB2AAA3
F76FFE649FC163A5
C3E5F51663D064BF
D7180D598BF3CE31
E7B733F0A4F166E9
B6AD37F4E9BA05D2
01ABAE75C3D6F0D7
D2EB4E326718DFB7
531FF30E31287EF7
CBFFCC7DC7B25976
FF0FE91A76CBFD8D
66516EF504914E41
78EF74BE881725B2
9FE600944DFC66D9
7EEDAF05440D36F3
887D8998B0EAFFED
F5F4F087CDFF4E7B
7BF16F7C3B70C0E7
09A34C7B3119FD99
FF6B6DB15DCDAEE5
3FF3AAFFEF922FCD
37ED464B4334CBC2
B79DF9A27FC5441C
ED43AC90E333EC2F
43F6E2A0C9FBD56A
4843145B5173EC44
8FF96E2F81106296
F6D74032B6FFE8C9
6CCFB3F7DE7C2FB3
AED3F6E84C524013
5BFF2C46C00CC001
C9F7EE3186E3CB01
64EB68A4D4500080
EC70DCE0E7336973
993EAAE52645A0C7
B09AEAF60011EE19
66BFEDD57E872658
FA981AB6F99CDB3C
9081FEBF40997EC7
85E36665F5D0AE2B
39EF07C16FCF80B9
7FB3A23BAD290B79
CCFE50084F75CC12
F8293EF1834F2105
0018F3A089F6907F
73958FB370BF77B3
05DECBE2D54112C5
FF6EDDAA98100C3F
F99EDF730400E396
23BB50562D167FFF
9ABE9E82971FEC0E
F6FF4501467AEEEE
D9BB0354FF878F63
2B74AA22E7FEECF6
6F00B60B70E4E098
11751A85EFFF95CD
87E39DCB5FE0D767
AD88E7C4AEB7B116
6BE89B988007BBE6
48E0F8318940BF7F
F8F64E73A4FFFBB9
A85FF52F3E10124B
DEFFF753808E08E6
08110B33A12FCACE
0867CC44F9B1F505
60002AA0D914DF6E
B3917FB7047F04F0
2B0CC810DF245CBA
2200DE7153A73A0A
6E6C08D6957FC0C8
C19FF5C60FE4DCEF
BCFFDBB30E7E28BD
8256F31BDF3F8010
EF88D056399E236C
4E77AFFB5090B9FF
E3A60088590CEBB4
F1EFBFBAA981DAEF
60DDF764C7F71855
2BC0FBF706732041
9AF6B01A00865589
08D38E558005E7EE
13F5D39553A42235
D3FF35CB39042613
786F553009E73AB7
80801318500788F7
0B20FE09831AFA71
7B6B706FAC623FE2
BCF281F201EE90B3
A6EC1B99E7FFA09E
B5C9A375520510B4
B8B16983010CDAEE
802101AAE401ACDB
97FE1D648C7890F4
0408DDA2F731331A
12A969623147F9E0
AFD77F3A76B1BFF7
3281249AF7E2B13C
FDB79EF949540D97
1285BD0A2EFB9DCA
5AFF30A39947FDD8
97FEEA272FFD3318
6FF36C8829C7AAED
E6844500A0494F74
2EDD84CF1FFB95CC
AFF26415911C0646
6317F1153B2E77A8
3F2F9DEE0CFEB3E6
23D18CF7689DED9C
FF54AD2410F8615F
03A225FA9819F573
908F3D9CBFF85FFE
5CFF6FDB5AD9F73F
76F2510089AB50BD
18E62E8E09539FF5
F745E703F70FBD70
09DFEF5A31AF4440
3315B937A006DB16
CDEFB1B757D53B3F
6F31535FA01B2772
C8CD3DD056D9C20E
6AF07B77A435F5C8
386F395DF9CED965
007E14E0C7DD29FC
FF0511970003D96E
B5F409E6513416E9
34AEFE54802EAC8C
FB5967F9DD8EE340
D86799AC3A7B5819
55D82AF70F27DA32
EFCE87448026F7C4
0BA2875106DEE3F5
13970EC76B03CAF2
57FEFFFC401DFBC9
4FB6E61BDDFD558D
392A8BAFC17EF599
F3FB9B7A7FFD00D7
013D4EAA2FA74BAE
6AF7F2C13BC95AF8
700173072544EFF4
312BB7624D32AE72
AD319FFCCDB07FD9
40F3DD8A89917675
1F7F714C31847415
E1620E61DDD01BAA
561AE977F2F92995
803DBD062427B9DE
17494866C4A3882C
EE323ABA86D07504
0C02EECE022F3A45
25000C42467632EF
8F44BA9CCE55D105
7A114C5B9DB72FAF
9C9B98AD6C4FCAF3
7E8BFD1E2EFFF671
CF8938DEE80F31D0
2FE300D79510D79E
6BF119011D47527D
35D7778D2BB98851
EF3101CAE5BBE8C8
1D8B73FEA4022BDE
ABDB37BD7C93EC0A
FB34F38D95153D12
5E0C88E0314D6E7F
AE3D0DB5DFA4F11A
FB2F145C31B2CEDE
23EF737D523EE67F
3651FFC4FE427BB6
C7A3BDEC2B9DBE0E
646BA4628911000A
840A9E6846D6A2E2
CFFB24120003C81B
10D55BB23CF7DD5E
26460112FC041303
D55EE8849A7FEE76
A980FFCF850D447F
78450090685F52FC
A0248B085B3309C0
DDC47F376881CCC0
3064EF53081EA3ED
2089AE04A59B0280
CF257FEC27634537
418500D19920FFE8
2C20059973B822B7
7910011110ED73F2
AF12000D10388009
F488B02B13892F40
61231101E834187B
9FCDB1970A88814D
8D4A1111F3F05E19
F67D4E8076EB2335
0813092608F33927
2DD19E60DF7DF051
B83EB24021E71F59
FD758514996AACED
B4A22C4333726118
813531036A190502
9D123008E70D0ECC
008459A0B7FD0A9C
446D619548C9C7FF
82041B956F3990A4
84D211408006D99A
E402FB12081AE020
E40CFD8B5440D133
4CA32222218FDD41
F8C0927666C0F77D
0003E6590A85AD31
05E1775F74C6CCE3
6A83C470F8FECA89
322445280814201C
EF835AB85908D19E
A7A818DF2C100811
D96576E53659A61C
965B46202378D4D4
63B3C81041008203
04E52080D6BB4109
263C7FF91FE80004
C16E3764E9C68211
FF6FB945B1D04F75
9352460840218904
B3408000D5851B7B
1B4E080162EEC564
4420034867762C92
3F00019C8B00B41E
59B1781380035991
70607DCCC0040000
36E87F7D085B2236
C04ADE210007BD8E
48DD08121F7B4F4B
09162EDB1191D804
0020C520EE901090
67B99A260C41C880
C2ADDCDC10712902
B1F76BB3CEFEF962
1C986EB11CE4F671
98505F3F5650A5DD
D0D4C91240FEFC9A
EAE79831BA9C3CB2
41E382195E1F135F
4B2240F198E7BBFF
20F923E8D593BD66
26250A703DCE5FE0
FC276F26DB2D1300
D5F2619100452E39
3616BBCDE87EA18F
954CF43DF00C90E8
119510C8057032E6
8044E5DFCCCBFA3E
913257ED6390A1F7
D03CBFBFF94082E4
F061DFEDD72D6745
3849D67EB3E6F573
F9F3AEE56655C817
0D4F3612DC311212
CAB3F4806666CAFA
8C4681EC887F027E
4786860C40B7F8AA
C0EFCEFF4C62CC93
FF7FF9FD4ECDF126
4E4878E82C6E1B66
98C0871915B7E1EE
E9E21CC0D6729DEF
31C4FE2DB005F333
60EF2B4581D010E6
29E84DEC424458C2
93900823D8F4E637
27F1911D0EA6B5AE
05A30C1172988036
A898B6043E91DFA2
20B09CC4333B9147
8611C69FE8FCC4D8
B54302AFC16C6B01
02685059D960EDF3
CBC906D1B67747F0
CCD2183B2D1FE710
4071FD5C467934DB
DA794ACE8161093C
283F3F406FD62290
00824647DE3011CD
40DF132475371600
64C810C6E7861070
20BEED55D06E4BCC
6A0AB10CFBFB48FF
02C30182471C990E
11DCE00E98D77D40
C8FD4FFF026F0030
7CF327E2F7F95000
A0C6C617A610243F
80BBCC3D6CD4C077
B9EFFDEFEE9A251C
3E60330A15F8C1E4
05869D420098EB36
F28712913ED01C2C
F5E2987738C2092E
595CDC911031381C
926215EE2E0F80E4
29C462BD31F76235
CBB1C53C8CA06035
23C811414112D808
6ED022007F007229
3D02207F7108B9A2
40BB573F1CB233CC
C9213217410413C8
16C2F01187F17B10
1FAAFEF690139DC3
C177A1D41754E080
EC60F9A97260A300
7E835039F5C81B20
7FFE83C0F4E1DAB9
7D09D54980DC4EFD
E2429F803B1D7B95
909F5625D84A1304
90E47AA209D47842
6F6BFF6E27B81150
3B7705848811D5F6
2F9EAF797FDEFFD9
68006D081FF7CCC6
601DEF19CEFEADFB
8DC08016119E7844
E69A57625711649C
EF68EA118C00898C
ED01CC44BE80F487
5F110331F2062420
FC9B429CBE0939E9
089CFEA881BC7038
66C5088A97F9390E
6BB8097108257644
C04FD4FA7DA94F00
EFB3E8857EBCCFAB
8F442E23844CC002
67E131E1EFE4064C
1FDC3B1D0110C06C
DFF6901F80C36D76
9A090F4295B6C239
FE2889E527B190C9
991470F93F53233C
855D107B27EBF177
CED07C4E03B3A380
4FF1071D021F16E0
49D8EFC49198EF82
8C1BBDEF287487F1
233354D7FFFEA230
0311103BFF89EFD8
7C0C910BF9090EEE
517B9513419507F2
3F37E28D27F35FE8
03B6D6450C0039EA
CC8DEFD2FF922EE8
CFF804FC76EF243E
3E9520EFEDB742CE
23ACCFBB1C9191E8
846DEE211C3D187D
29A9108CC1B03C23
1733D2703224C64A
1900E7D79DB08458
6338A161EFF1BC08
67A3786F409E3B90
4405C564CE70F759
1F80F2E1F5C6FFC5
201C07F5F7099180
32161A0B550CC81C
ED822408022EF3D8
75BEE85DAD0C6521
F7B6423828F40190
CFA54EA6AFC93642
BC1602888973A733
362C06A1DEAE7A92
820C55E8215C3EE9
F76EDF2AFEEC276F
61F2DE7304601C1E
22BFF1142D7F6D36
011FC50413C3EAE2
E982431E46E06EA2
32A74CCDB3B293B2
19F4E466E324646C
5ECC01AA86A0375F
A88DC58DFF778C4B
009378BA19382772
CE0C67DEFFB43F63
C9043354B84462EE
9C7FFE7C1782EEE3
7EFF30EDB6B5F311
3F0FD006F5F23AC0
C33ED7BA67AA5C96
CC840310F3391273
2F2550AAE9AD3B44
4E8B020C1ADCEECE
5732A4E31EBCA4AE
88A130196A242744
06FA373666053F22
5C4E032284D883C3
65770724A9167C66
7A99717BFC56AE61
82F3588283B2A842
F72B970E310C67EB
FF73B3EFB2B0FB89
0F8E32F41328BEFB
713333DDF8C13679
C3F01644D64B00F5
223D960BFB6B97B0
B81694E3CC165B02
8D2DF33089DCADAE
FF671BAE07840790
C67CBD4E7A647977
3AFCCF2FAB6F2BAE
8023B55D4EB5BE74
5B20F3B6717AB33F
6508190CEFE46FD2
F27252ABDEFFC3F3
C89B0C4CF249FFD4
58BE37597B9D80BF
3E73A0A1D915B202
32278234D6ACF5C7
11FA013B465EABDA
6F7FC4ABE7B0F449
17B870AD6A19FDC9
EA49D1F0AFA74700
F17425B9F3B09768
3857F60DCC55A53F
6C371FCE33DFFB49
F3ABA50FFCFEA4CD
AB396423B8D73611
36FE2E0683977E2F
2E0C7281CCF99B1D
75D2FD5F2FBE2104
17460731F6191B81
428C98999FA9763D
01FC35FDCDD92738
D95296F448CC7656
8FDB308DFE111600
572B5D190B91400F
FDE03D211AA60033
342128E54E840F53
D4FBD131FE1F339C
0D934205C2F44FD5
13B58F1F2B2856F4
9FFF545BDE406B9F
BE5136D3EFEE91FB
B2C2DF49C81903E4
56F7EC912FDF6704
7F007433035E6320
A11D1E93021B2101
7FF7029A5908E741
0566E44B4FF1E727
00F2A3C151315400
D81FBEFE57CB25ED
A14B3A233A7E0B3D
CFB04809705F1111
C0DFEECC0B37777F
45B41234B03F6FFD
9D2405F8FE487C15
57504DF626130182
7628115BAD1F789E
70BF0A4A9ABF80C3
1312C4C86244791D
34AB0292100A23BA
EB30FFB1C8D12400
F78AF0FF0B3AF417
E3390C745329EE1D
F373991FFC451011
27C74CFA4E55FE57
140394CD0012F80A
D8EF2ED083397E61
74340002119A475A
0331EF08B4079371
05FF151E37B7019D
F8F77777EC41D118
8B1754034642F610
0755347851630531
3FA378CEE7B5062B
D20D6F4B7024C519
0C890CC9A351800D
03BA0A68B3D0A0F3
C012D7538819D71A
8E2610811572EBD5
10605C914690AB10
D514FE69C17B2F34
EC892DCC62B1D76D
2DD1643B235B9880
068AC8500DDC03A6
B9EEFDC10ACA4A8B
099730586201488F
B3A2ABE0B7716135
D0813C9F40170FDC
0785C975563C2271
024B5E3B0257DFCA
D40C7773480ED710
AAB820372CE01395
6BA332DF6B776392
102F130E3EE6F41B
7F6626FB4409B267
FF0BA09779A7E413
AEE8574C1FF63458
1016FB684E7F8B6E
127EF9EFE7EA1BE6
93BFC693717C68C0
577EDB0877CAC000
63F8BF8A36650F54
1703745C85D039A6
0EBAB00C7BFFFFCF
677075A88E9F71F8
620047DF501F72FC
53742A66BFB21627
3760237E260098F2
268BEFC0771D11C9
1DD708EEFF7C9B54
800CEFB2B7EAFF6C
DF16DC0D9A8E62A6
581E3B4DA1B91363
640AB74D36FE9802
3AFDC5895813AA82
176E0F76E3A16CCA
37530DDF7F70258C
9B5BF74F2CC51FD8
0102D00304FF7018
312531EAA4CEB6F0
8EE274696B240599
824AFEEE17A97133
664905F5750C88EE
C285D9CF279C70EC
7CBD98C7526E83FA
8CFED7CD96E58840
548D779AF272F3B9
3988D5D062AAF26E
3BD23240D32E9F15
F370BBE6BB81108D
8FF9766F0CF3311C
6262C8F65F6DB1FB
900471EE48043000
3AE3793F2000D6EC
23F7C30C02340C09
E7E4F1A72AE8056C
43394115AFD87256
D13FC41002595EC8
7C85B09CBFF63F76
A3680EEC937F32EF
3EB8F09955AB71CF
88FB463417F21AB1
B5BCCFD83B86349B
B1DB016E96EF5DCC
3048379FF108360E
47E41C539D320797
9A3E10F5F94336C8
25102DFF8DEB7B3A
5554EE4A4137ECEC
68294744DF1EB708
52001C11590765DA
C4475E7457F08B07
DB6405C96ECF605F
123422BFB3213196
6F66EF072EEF68FD
408C05C3D6482A30
340ED830C7F35CC1
0000000000000000
0000000000000000
0000000000000000
0000000000000000
0000000000000000
0000000000000000
0000000000000000
0000000000000000
0000000000000000
0000000000000000
0000000000000000
0000000000000000
0000000000000000
0000000000000000
0000000000000000
0000000000000000
0000000000000000
0000000000000000
0000000000000000
0000000000000000
0000000000000000
0000000000000000
0000000000000000
0000000000000000
0000000000000000
0000000000000000
0000000000000000
0000000000000000
0000000000000000
0000000000000000
0000000000000000
0000000000000000
0000000000000000
0000000000000000
0000000000000000
0000000000000000
0000000000000000
0000000000000000
0000000000000000
0000000000000000
0000000000000000
0000000000000000
0000000000000000
0000000000000000
0000000000000000
0000000000000000
0000000000000000
0000000000000000
0000000000000000
0000000000000000
0000000000000000
0000000000000000
0000000000000000
0000000000000000
0000000000000000
0000000000000000
0000000000000000
0000000000000000
0000000000000000
0000000000000000
0000000000000000
0000000000000000
0000000000000000
0000000000000000
0000000000000000
0000000000000000
0000000000000000
0000000000000000
0000000000000000
0000000000000000
0000000000000000
0000000000000000
0000000000000000
0000000000000000
0000000000000000
0000000000000000
0000000000000000
0000000000000000
0000000000000000
0000000000000000
0000000000000000
0000000000000000
0000000000000000
0000000000000000
0000000000000000
0000000000000000
0000000000000000
0000000000000000
0000000000000000
0000000000000000
0000000000000000
0000000000000000
0000000000000000
0000000000000000
0000000000000000
0000000000000000
0000000000000000
0000000000000000
0000000000000000
0000000000000000
0000000000000000
0000000000000000
0000000000000000
0000000000000000
0000000000000000
0000000000000000
0000000000000000
0000000000000000
0000000000000000
0000000000000000
0000000000000000
0000000000000000
0000000000000000
0000000000000000
0000000000000000
0000000000000000
0000000000000000
0000000000000000
0000000000000000
0000000000000000
0000000000000000
0000000000000000
0000000000000000
0000000000000000
0000000000000000
0000000000000000
0000000000000000
0000000000000000
0000000000000000
0000000000000000
0000000000000000
0000000000000000
0000000000000000
0000000000000000
0000000000000000
0000000000000000
0000000000000000
0000000000000000
0000000000000000
0000000000000000
0000000000000000
0000000000000000
0000000000000000
0000000000000000
0000000000000000
0000000000000000
0000000000000000
0000000000000000
0000000000000000
0000000000000000
0000000000000000
0000000000000000
0000000000000000
0000000000000000
0000000000000000
0000000000000000
0000000000000000
0000000000000000
0000000000000000
0000000000000000
0000000000000000
0000000000000000
0000000000000000
0000000000000000
0000000000000000
0000000000000000
0000000000000000
0000000000000000
0000000000000000
0000000000000000
0000000000000000
0000000000000000
0000000000000000
0000000000000000
0000000000000000
0000000000000000
0000000000000000
0000000000000000
0000000000000000
0000000000000000
0000000000000000
0000000000000000
0000000000000000
0000000000000000
0000000000000000
0000000000000000
0000000000000000
0000000000000000
0000000000000000
0000000000000000
0000000000000000
0000000000000000
0000000000000000
0000000000000000
0000000000000000
0000000000000000
0000000000000000
0000000000000000
0000000000000000
0000000000000000
0000000000000000
0000000000000000
0000000000000000
0000000000000000
0000000000000000
0000000000000000
0000000000000000
0000000000000000
0000000000000000
0000000000000000
0000000000000000
0000000000000000
0000000000000000
0000000000000000
0000000000000000
0000000000000000
0000000000000000
0000000000000000
0000000000000000
0000000000000000
0000000000000000
0000000000000000
0000000000000000
0000000000000000
0000000000000000
0000000000000000
0000000000000000
0000000000000000
0000000000000000
0000000000000000
0000000000000000
0000000000000000
0000000000000000
0000000000000000
0000000000000000
0000000000000000
0000000000000000
0000000000000000
0000000000000000
0000000000000000
0000000000000000
0000000000000000
0000000000000000
0000000000000000
0000000000000000
0000000000000000
0000000000000000
0000000000000000
0000000000000000
0000000000000000
0000000000000000
0000000000000000
0000000000000000
0000000000000000
0000000000000000
0000000000000000
0000000000000000
0000000000000000
0000000000000000
0000000000000000
0000000000000000
0000000000000000
0000000000000000
0000000000000000
0000000000000000
0000000000000000
0000000000000000
0000000000000000
0000000000000000
0000000000000000
0000000000000000
0000000000000000
0000000000000000
0000000000000000
0000000000000000
0000000000000000
0000000000000000
0000000000000000
0000000000000000
0000000000000000
0000000000000000
0000000000000000
0000000000000000
0000000000000000
0000000000000000
0000000000000000
0000000000000000
0000000000000000
0000000000000000
0000000000000000
0000000000000000
0000000000000000
0000000000000000
FF39013E0075FF6D
FF720120FFC5022C
FF6EFD1E00130105
FED6FE8CFEBBFF9B
FF43FEE100C9008C
0273FF5900DFFFEF
005CFB9602BD006F
FF07FF4F00C1FF35
0000000000000000
0000000000000000
0000000000000000
0000000000000000
0000000000000000
0000000000000000
0000000000000000
0000000000000000
0000000000000000
0000000000000000
0000000000000000
0000000000000000
0000000000000000
0000000000000000
0000000000000000
0000000000000000
0000000000000000
0000000000000000
0000000000000000
0000000000000000
0000000000000000
0000000000000000
0000000000000000
0000000000000000
0000000000000000
0000000000000000
0000000000000000
0000000000000000
0000000000000000
0000000000000000
0000000000000000
0000000000000000
0000000000000000
0000000000000000
0000000000000000
0000000000000000
0000000000000000
0000000000000000
0000000000000000
0000000000000000
0000000000000000
0000000000000000
0000000000000000
0000000000000000
0000000000000000
0000000000000000
0000000000000000
0000000000000000
0000000000000000
0000000000000000
0000000000000000
0000000000000000
0000000000000000
0000000000000000
0000000000000000
0000000000000000
26E6C81113430DDF
39DA5105063C34EC
4BCAE373A2A4472B
F46E7DB79CF50846
C30DB86101ECB653
F4EFBFBD75C13C95
2904210E7468AC49
F2E6A7B4266B0105
EE18AFE8FDDC2AFE
4CB8B09347CD7281
9EF001103A0366A4
1004FED005981B78
AEE80130ABECA13B
D180F26F5648BD50
C1BCBB4A426E0A90
C0109A7F70214CFC
8940E3EC5EC8EF4D
58B0E0C7C2D5B801
9F9CCA323E092E50
5CC257E9802311FB
A247E30E6911695A
5D77049FFCF04459
441C70A220376708
18799CCF3FF84811
1CDF2B6C65B09E00
221C0985FF1B1153
DD61D2F4C7CF1456
3BDEC28D1D3C3000
9F406A39C88496D1
7D39F812B95A2770
304FF7B8F7098AE9
10CD13A512032746
3AD22FE534F96EBB
BE99095DD7DA11BF
11AE3F8C41E359CA
0F644055304CCBD9
D7DD219D23B06CF8
0A6A27FE14D41998
02569C08001CFAC0
866863434CFF4CE0
4452DB214ADC7BAF
B7ACCD102DA052F8
347DB11713FB1465
F76C98B60415EB88
C642F5CC3887527C
054424F4EE5C8025
FA3282D4233B3FB4
F21C2EC8570AFF15
9B36CD5CE961BFF6
A12896AC065A4448
7543D4B02ECDA3FF
32FF149864215299
2FC9D115668DDFEB
E6EB156EDC01FCE2
17B7C4A431256AB2
C1A3B27326283678
5FE4BC58E1400E06
6F88F555127EC023
C250E56726C12000
551FA374B1194669
AB6471340B5ABCAA
E2FC880603626348
E18F3BFFB1FFF201
EA4E77FA082791A1
C8FE85931C70842E
AE5DA8BCF2644280
C4A4227F51B9742B
570B85E7A8D9B18B
350853F918873983
22388E96DF4979C0
A237232980EB60C0
7C5131C91739F0D1
1FA720A211B0049C
30F9FFE80CA51714
C47896F20020DF91
82FF6FFDF69C6534
0EAFC50344FD13CE
675938CE5C218994
83B2171A1274979A
F10D8F0D36379EDF
0B17C8E93AAB1B11
CFD0159314715985
2249309B89EF4378
3921028787B96218
212F002298A7C451
C87B07F1DBF47C67
DA46B1CCF4C436AC
C2B3565080CA9779
01E6105C34060A98
23F84BBB771176CA
B555510AA8111A30
3E29FB450CB4EC24
BC1CEADD44E3467E
619B43A7333591FE
F00E27F83884B7C8
3311982456BD8ABF
66B9CEF9E94D91F8
F27F0966D3B8BF63
58079FA04D371A67
13CD1830754A4989
FAC1792230913F71
0620547E1C3DD6E8
A348C71506B99FCC
6C041993F45610D4
4E08D23F56469545
FCC8AC410CCAF40C
D220DEAA9B1E5677
9E4C293F127880F8
937906678B3D00F3
431F8476E6E06017
C372FE1120F03977
508006C0E768A9F8
760E1329F9C7A8F9
73A02C148598051D
28F800F862F9501F
648180E2303F89FE
1B84E44D62C43008
5651352B51639101
4477EAE6F082BC83
1C41017D6CF81ACC
56FF603C6F02B05F
0D3400DE8B11136F
BC6F7677B031CC80
5EC8A2FA70668419
5478FE2F452E1715
B0980CFBB85C67E5
9F9C012312F24810
B317A7C81317189D
880C0E8FB9E03900
199B78302FB2055A
D190BAF9574E6C27
07B690189547D54A
3A20F6AF77CABA22
D3A6CEFDB4EACE00
40C60E880D054FFD
111C3D54DFA3D2AA
8B4CEBE593750EBE
C27F1618600B226C
ECA07F0081624D44
0A825FCFD80E4622
41266E893851B7EA
CE6B8C30D6C02508
06DD84ED1B264C49
1C8A05A30C220FEF
0497124B2F23A440
7D029B30D7FC0130
4EC110882019D399
60A6BF33AC0FE492
955408512D651CAC
AD84F38289FD0CB3
CC8B36246EEFE020
D202806D9E469E6D
B04610256C775208
7E0110441CC82468
9CAC6BDFE40B74A8
21E20FED15742327
F40A0D0ABBCD9100
7D1303190300DCFC
33D4777E73845FF9
435E8C29302F0B05
4F70AE426143F5AF
7FAC03CE3F8425CD
5B2032018A511F17
B72ACC201191AD9B
6E8D1E55DE25E006
1F105E2ACCDB8A19
182A18DCA6C53B79
8C73D19BF8FE00CD
F2878BC0AD106002
08D41FA7E60007BC
A345A825C5D05E42
1719B28A5CC8F7E1
E00AAE3C781A8898
2BB235EF08E403AD
82F4898FE66924F2
F00D605CB1C020C2
98003FE9318E0DC7
54F8005550093991
DC3031AB47BB1010
1D0818C4830461DD
44060E8902EC9CEA
2D3A95DF42DC9CAB
F8A0002919169F34
4A2FA7C00B9C8864
1338F62B6E2457B2
80039C04FBDD5A0C
4E0BB0BC4FEF0B19
2FC93F66D35CE2D7
510BE81AB8A948B7
5BF731F2965066B6
C764F8A72B117E11
B88E9D36111D0C44
01C9F002AC19DC5D
288069A17FD5EF60
810070A8F5BF7944
0E221808B116D567
676489453283B82F
0C28124C4F4F0131
6CC060305AEE7F7E
C047F7DB1C9B2520
675CE9C87ECC07DA
807E5FDDA0213C49
288046CC035D43F8
7B3CFE9574948F50
754C63221D88D846
CF66F53DFFE62284
6B0477142134B0C6
26339861516377D3
854417BDBFFFE8EF
86C356B4110B0B3C
A1727189284A14EB
7BFDED8C1BA0677F
C0201008E05C7A64
337C5848FFF3B338
40012F7B3DC9189A
2864FEEFEFF036B7
F1CEFF7E6F544E0E
90536CE5D6437D2E
08015B7642144720
381B043F15882181
DF8E8C772F09E0C6
0009F1205E779022
420E4DB61662C3DF
864D008277936DC4
407A110A284670EE
392D77EF97DFDB98
DF9A010FDB72FFF9
773318111536A40C
E7FDD8EA9DCC9FE3
54D2F9E6520D35F4
3E46D89C7513B798
4C6681D3D6FF769C
7A8B112B9180A9D4
6D1D57B7800056CB
E4637CDABB7AB377
08D2B92B7FFE1014
5783EBE43C474111
5FA83405FF9B7114
AA020FDB3E8437E3
05BA73C8BCE35A46
4C6871DEB202F58E
CEE4CED58F4ACFE6
1213190B48430857
0A045C202EF2FFDB
3747E3441FC8877D
27DEADE45FDCFF61
D15537B3C0096002
7DF2D8EF3FFFD5E4
3BDB25C8770237C2
1B23C8BF512A21C6
2908A67E3FCF0441
108A7108F8BEAAFE
3080C22DB0403B16
77DFBCDFF9807F6C
2400456E3289FFAA
42C6E1CE180B195D
EFEE030D50994A27
8C218CBBFF4D1110
8FA1AFAC1D57284D
DD11240A521E7ED3
D042A5364CF1C023
2F08884ED5176628
680038007F1FC014
6F7FD6F7DD13C669
4C9872D1D1500812
4DF5D85FF59FBBAA
543262A50026B028
CDA374DB87FF0932
A08F88806A90C1FA
BFFE02270335FFC1
D85823F10CDA6EE3
1C7FACF8AFF79C11
803177AEA0050CC9
6CDEB7DB7EC5E9FC
CEF92F4DC8094A99
FC7F4F26200F1400
4111B199927BE7A3
477FD44385189314
4E6EBC88C451FFF3
E91B7EC59D11C48E
1F7F5C9B21660D88
01037EC87D214224
502E0FB9BFB17811
8D8B96628CF71001
00B7B13AE6C5EFEF
DCA06EFB77E3315E
43274A89DC43AD52
9CA1CE2323BF4C73
A9114E074EF8031F
04EF80817CFFF9ED
C2F344CEF9FE6E0B
215C088B21506DC1
EC33BE7681D4C809
C0032153EEB58AF7
C1335F6813F5E2ED
55BBDD03F6C1FCA6
E03144097EF25501
FDCA315E28B0EE8B
5C01FF776F7F8A99
553304807EAF801C
47F56D0181CEECDF
846CACBA3AEC281B
6D71C473A417D411
FE01F9792EA3C446
EEFE5C9DF7C4DAFE
A4C00BBE8531CBF0
AF33C5C53CD8F154
9913BC00DC5493FF
885429E4FDD0F9F9
41120410608C4D78
7FCDCC4D28985821
DABF016E98C827FB
EE8345E920002171
B7A5AD77C0461EB6
3EE60D020BCF1EB2
B9DE249C980F0499
ECEFCDDAC9AB00CB
828788CA80B00C99
8078FB618D72A0F0
DC5A906611004944
319397729046EC31
14172841C4C404D6
6B968220C411F8C6
8ABD111D2E07D555
324291946D8E843C
084748FC932C32C7
21FD51BF36050944
A047A702044E71FD
44E22CCD74FF72F3
4F77E80292339B72
50B91F27013FAC4F
72DD2CC9377D08DF
EE77D0C8F16F55F0
15F7045670ACC0D3
FAFEF3E8C580C6A1
E2FD73D69FD8BEEC
095CC19ADDCE16DE
B46F0CD0CBB4B94A
88F90CECB21A8B8F
5EFC76680B053EC6
7C91B39203E7168A
E782408A416EE11B
98BE2280102B4541
AC9FCAD77B057BAE
02F6189DEAA50717
09A4EE52AAFDA851
217CAE6E64CD1228
A1C0B681EED07A09
F0B176BCFE760D30
D89A5F1067D10155
4655843F455C9098
EEECC27169E0E664
BB94008CAADF8389
D71D004EE66D82FD
D800106BB12F65E7
8D9CB81C8C618581
1D9C2327644744D6
024F50DF0AE0898B
C035AEB7F3D98151
F6F528702247CE75
66EC75774D186AEE
1C7AD34050131A43
694FA2555CF90CCD
60A6784607E774D1
4DE524467F806806
326AAB92AFD6889B
81FF539EC26F448C
6B501C59064F16E6
2C41ECDF7EF24FAA
1596DB2304BF4A49
21C45532F4DF2FEA
92354111440C7768
4C1F1FFF11DF44A8
A185007D8E40F27F
5F37C52E003ED24D
A0520208004A85DF
0D9C29124D11C27C
F3DC61D555CA2598
426009804366FB5A
A039D20F208800FF
5353A51262DC0FF7
DBFB408F319AA147
30B6228309F1A5E7
EE3C02BD896784D6
0F7F15E69003BFFD
477B5281DD01D90C
832F3EFE1607D85F
D40C7702D60822DC
EF72573EFE41C324
1F40E182567D2181
983A0C6521059094
219FD0D0EF12E001
6A6F62A278CCD110
1FB76C53C314E8AF
E7AA23FC7004913B
AE7914E3237F0D30
3113ACCC04D2C77F
0594167F11330BFF
DE6A000764DF5CBD
84BED131EDEF3811
73191391804456CE
60F4CD0C2E7378CE
E5D9C8827EF83D56
27DB737B402F0870
4CABFF9117771DF7
0F9B144D10881372
FB6764B1B117FF9D
DDF9F977B32BC0E4
9F77EDAC598387EF
EF062DCC7483029D
B7DC3FA31F27B6DB
49D0D05AB9793008
302E0E8004FCFF7F
FD4C61BF19D80BFF
193F96EDD7392AB8
19E25B71C94BA314
E89ECF76C198EF4B
FD00A400576DCAF0
67D9FEC9B5B6468E
0F8E7FC9191FEFE2
5A026AF8595FF6C8
D7C1A52B2EF151B5
C8395FE917240BEE
43763DE7E920027E
21E3C4280F7E4100
8446111E7F753A37
F8101D130D7EE899
61344ECB2C3020C3
998434114808AFE7
EF20B9FB0197B90A
87FDEDD0EAEEB01D
C565237F9C648571
BFFE043FE7A35867
C5DF9BF7E311DFD6
3BB78FFC76E589FF
F9953F99FFCE93E2
C375F4452FFCEA72
71000938A89E4FB9
6FEF8DCAFF4011B1
C3B61EBD907E6173
7DA3F99111AA13B9
53B3BFFF8FFDE84C
7B180D8E9546377F
67FF34C823BFA980
3C7FAD77EB7FD10D
2A27889F077F1880
3930F7B818793FFC
584F533964E08FFB
0C8B8CF9C201702F
4113F5AC02A7337F
1CD989FD240E1BB4
EEE84ED0D44E732A
2DA30C578870D14D
14770A1972325D62
48D98AC0F3770086
427193E2CFC82976
E87E05BC1F419AD2
E4381FBD421D30EC
2CD2833D82DF0543
8566A0C655563BC1
5D3B3ECE132062B3
22088C41870B200B
CFDCAD7C2B7F8971
2A894773C834D8E7
898DFE7C52B930B7
149C7600ACC2AE8B
3176DC7068B12E5B
02E96F740400AC84
E8C480C63C7F2D07
4CECAF8114FF81AB
4E22A2611B10BE70
91EC321395CF73B1
10098FCA282B0832
8050D6C5EE7E12CD
0CCA00CC76639374
502CF1E2211AF101
231BC30CBCCC1CD5
8460620ED82D256A
0BC066B40EE790C6
0CC67BE1DE4B90AB
EBB0D8C27AE3CC02
32E6B10F92DF4083
6B45CC2F8189C997
8244CEA59838D17B
73EFB1042028E6C4
AD9D0D35CD09CA5C
0912DB6960B00212
800BA8B01BA82198
0730B2DB8C531B51
91C46BC0DCEE3CB6
63E443C940834EAE
3E8B046423A9D419
F01FFAEE4A498414
C50A3B77DF487E70
02E301182CF7D2BA
F37EBF77838BA09B
9B93586604B25587
0870D4099AD96925
F22788CE02BA4684
2BC05931F67FECDA
822F40936667870D
A66C90652470924D
100599F70411715F
AE75B5D4009F9427
E2FBFD17106580C6
F6BBFCE73EEE7073
1CD079A8F20330F9
FFD43E763815FBB0
130144500E3176DA
6C27880422E41822
D0EBF6E2FB9F205D
90E61240FCC8C040
4BFEB7C37EB6040F
3017C1CEFFC39A13
0EFC89BE01F3B193
CD99ABF96FFB0D5B
B8EF8D773900F969
01E72C12CF219BCC
BF9ABFBF27AFD798
DDBE7A41A3F9FA3E
3D8AA3F2A73341D9
29F67EED45F1D910
BAD94EFEC4BF8130
8CE60184FC3FBD01
01D3FB3B250DFFD0
10B1EDE97EB335D4
15F4B81701061B5A
19F337015F1BBCCD
F1910E8800287F90
01D43A8B2AF2C48D
523677B3F920FA7B
99B9012BD33FDC00
3DECBEBB1BA91155
0DFF33B016D4CDFF
120A6F7DE7C9A4E9
938200213EEF06AC
6177E7FDD370FEFE
FFFBA3991152DFEB
197029030355FC56
EA048187638BEF5E
F5F339050B81006D
06E34583A020DFFF
8DEE850101EAAFE4
65CE24D818F1000B
9103827527FF1CF6
6046997100AA9E82
859E8600C52018E1
7A10316AF62A07C2
286A4A19FE582631
B8FE237A86EB7CEE
2303A8737EF95FE6
9072948B90D78D8E
1B39058014778FDF
CB1C028577428202
C69801A5232A3DF7
B841E2F97636861B
18E3AF774F331B32
43099085F52353E2
9ED9AC80F2F10E3A
80DB5E260FA00019
70FECA239AFEA813
F7DF4059C8EB0041
04EFFD8165320E0C
D488AAF09B7F8480
12003AED65F22115
3C49F0994DA35111
43C1199A85010372
E4DEFCFF7D915F69
CECF523A8DEE13DF
1DF2147EA3FD3814
0987031B7C00EA0E
7F794981455EFDD6
378000C87537E138
E649FF70FAF61781
E402C621A206005C
31BFDDAE57D82339
C95E07341892FE60
E2389D07B2037808
0066984E3B08D31D
4361F5EFB6B18E4A
7251E228188590B4
604506A6D73C2022
E25A4051B0A23D94
FF4872CDFEDFC606
1FEBE5E17A886084
00E8F4A4909FBE1C
75AA9E60112D9C1A
557EA5659D0A0060
CAEE1F467C54664A
111011342043D956
276A423254DCB1D1
A0B0040FA894BFC5
1077D72606F00244
31106EE9F9317BDF
2400690A1FE304F7
82B1540A1FBD742D
E170F6FB58B20296
036006611A2E04FC
498FB97EF60D7FF4
826432D8E284D2FA
40B0C09E52AABC4A
A1A2E233411099BC
8DB6041DB012D72D
16750B91FDC4FBB4
951C3AF7C9F6ACF0
9FBBD0361203810C
0C8634BC792E2B49
3FDD7880EDB2C5D1
6498B69D20299148
8368106316310270
A638B7EE1115339B
688C8C84822E4DCD
B802F7A712A07FFD
60409F118200C6C2
816004726F003766
B306F84C66C24DCE
F5ECFD32303CB89C
FF68C8A8AFCE07C3
34F45C013F3E4AB6
40476DEC112FD4AA
D83312E66335FDA6
1C44A6060EE3241A
22C40730D60FFA3B
62A2A086716FA879
52C3729B2F492146
A9EBD100C08213D9
38C8EC2C7D630809
8020A38FF2859D29
2998DCFFF5E00106
D052312B4374C015
0F0DBFBE37807EB4
D40AF1069D1DDD6E
4EB6BF083E80C35B
1814C84809CD285A
272F802D24042C10
F320BC887308705F
22E61305E9669E2F
6F0A8EC2DC4E8082
8A0127A7E26C0CC4
8813A018F6FA2ACD
9AA914EC4051C900
77BCDF5F6D13D809
4A1D0AFC31D8DD95
DE1B177F4ADF0088
822455DEBB910AD7
BF694F8E23C5B1C9
98808D80DAEFFBD2
25B2FCDE8E36C802
4155541F510EFED0
47FBFFCE4EF21D9E
8FC857BAF80C9A2C
98DDA0E6DBC0DF79
D0BE55C67DFF4574
F6C1F913001128B0
18B2B23494599BFD
FDEDBFDC2E6EBF54
3330D1516802017E
BF11B7723B62B34D
78A24ADCABE97E31
C1F74819A3F42101
F3E405F970EE94D0
1273CA8E510EF0BF
BFEBC4CD1F074C43
C268BE8F3B084834
840CFECACCF3F8EC
01C3E1904D81AFA0
5DC8236E1B50E8BF
363D6BFD9CF9A178
629DCFD9D737337E
9A68AFDE773C0A6C
93E6CCCE48F4054C
8052501984E49DEA
E90B0F575DCC6A65
CB2CE01F08D70660
A012EDBDB5F0061D
51CD2F2FC26C4F38
C899CCC7ECE66D5B
4772C82A13ED6FC3
7FEE5ACE2D82CB3C
2F982B00B9A51588
4A4FF3EEB6FFD011
9F96269A038FBECC
DD9894ABFA24DC25
786CFD751AEDF56B
DFAEE08266ED00C6
652E169E0B1F2ACA
75EF77048CB7CD2B
DCEC061CC4006F4E
9827049012F19726
7494D653FEE1F4CD
D700877FFF79A68C
B7DB9191845FF5A2
83CEFADDF08D7DB1
984690BDF7DD62FB
E8A738F54805801A
8D0CFEE3E30623C4
CE314883FECE896E
E17D8720D02D36AC
33A962FFA87775CE
37C737C96890B601
BDE1FF4FE479C939
35EA2DFB485433A9
F85F2D2CC07F9E4D
EDBC6480EBD268D9
7E01F24B7B90400A
FF31937512DE907E
B070E9354DDBDD6E
86FBEA04551F3CC6
480C7C1220374A8F
EC18EEF13A15DE6E
D817FF88EE33CC6F
56259B7EC28C5FE1
9436A2458EA886BB
A178C3F710D725EE
A846DE2286FB2263
D12664EE31F2DAE6
DF308EDFF58FE1A9
867BCF83669B6D1A
B63665CF6B12F94C
699A6B984CC7D2C2
F807DEEAE3779931
220FF40CEE8A7D91
CDEEC7712C45CCC0
90CD9EF08DDC0C15
CB76E4ECEAE788BF
DE7C27A1E57BCAFF
EDD663E2ECABC038
88076036FD19C73D
63B3EC01E3B90EB8
4CC80468067F88C2
AA7230D8ECE87FC6
84267E0BE29331CF
2BD9C01CAFFBFC33
FEDDE45FE2A06E62
F0C36100A1B3FC63
450BE3247FB06623
9A77F0544E68D9E9
072335ADC1916109
1D7F412EB6C1498D
C8DCA62DC85F1434
D4BBD35463FB1E8C
C00F8DC95B37E359
7F32E223F682C813
D40CD786FCBB9FD1
93979157C140FED7
18EAAF9A35F29CDB
E74C069DC3806C89
9C4F55008EB73F39
E3F3EC00A7544400
068C2F33DBC802C9
34F598AEEEF3E330
FAF3593B6A2ADB8C
483113E7CC2BD357
2868C60F6DD5A0F1
6CCFEC4982145F06
0EE6984201103AFB
98BEDBDF7C2BE7BF
C62EE8C190ED639B
D8C8ECFF0EC6A80D
C6F684C72F02CFE3
8002EC1F9A8F5424
F7CFCC49EE6AF731
6CE7D809D772BB1B
7FF9B9B7A9DEC6E0
B3135C79541AFE39
04FB5470E38018A1
FB7DB104FF8FE431
E0AC3AC75ACC1140
CC340033FEDCF0D5
1776D1D990F80EE2
08D44AF2F1500685
0774CC1B788B1B0C
E6784FE0B3787A88
A0C16FB7B042CF05
EF6B456F9C87EE48
8D95B079980CAC24
C2D97D9D62AF36EC
E747C30E141E89DF
ECFDCFAE85C3E6E0
E64220F588B52FD4
86DECDF30681A293
0271758EC8C93070
11952619BAF0BDC5
CC061FF84AC1C5AC
F0FB6F5926A8A150
3578DF21C05C5045
10ED0FF259D9A048
8B8E3AC6CE03864A
7F644470E1F3860F
BEC24CCA1C0000FF
43DF5E0F9226FAC0
16ECCEEE8F803E88
D649EAADA7C8CA15
896111732476A41A
2CDC9F93D1D9AB73
B60DABC402C1C88C
FE83C6484E9B9C77
0EEEFA2A34007E26
05071E2170CA4E40
86AD5012CF62B4A0
14FF9FCB36C1FB0C
9762BB8C2776FF39
E00BEDB1334BF141
1797FCDD9F0288D8
EECE604049BF6F74
88E2AB15DE42EF0D
07643631517DEC63
3C90DE91D0E9A0C1
7A2E2352AF14BFC8
665CE73DE9E2469C
86F54B290FF777F2
AD42C6E50B4B6A00
C8EE17B047C2CC35
72C58D6F4A5D8DDC
7A1694FC1DEBEE22
015CB99D77126FC3
31CB0200475CFDA3
328D20311008E04F
143FDD71A0DCCE87
4CF7CCCEA1945819
4D8D39AFEA963C48
AEEA00CC1C529106
CD87E32D42F2BCD0
EF09C053D795FE84
ECAD4201C67FB5CC
4CAA26D53FAE6648
DDFF239188AC0AB7
D933C39564C8D3AA
956A174424ABF6E2
2149C4BF9F3CF91D
E5CC0A15CD42EA21
8F7F6D4E07178C50
AD9F58061300FFF6
698C36795FE0FDEE
9B710AA0F42818E5
F274598AB0899A5C
CFF310CC970082FC
7AFA0E5999EE3047
C9E87CEE380830CF
80C5D6FCEC02B101
2669441318C0A646
90AB0C0B9A678EC1
01B8B33073013F6F
617DBED5704A06FE
6F7890E45CF75004
B706067F016C0FCF
F9C8C7BCE0C968A7
47B61836086CBE60
A067B03056E59BE7
1E67AC7CB1198976
A8B1A88C34E83FC7
F7516F4B9D8875FF
EA8B2E18E41623F5
7C144CC3323F7184
916698F9B387BB57
87FE7FC4793FF765
9D80FC233F055145
89124DDBF67B0602
44CE3F7CFE3E1F64
255D34299C373091
480026FFCEDF499A
F824B4E57FFF0184
0A3F83ECEF27D0C3
F4D0F833C36CAF79
0B7D10569981895D
4B0948B7EF69D354
FFF30846AFCE6E32
49EC7FD719C62360
CF989F7B53667E5F
DFCB8BBE20008935
2EFB528A1304E99D
5D662AFEAB085231
4C6EF21C0A987080
E11D747F88863F4B
8F6FFFFD157C0EB0
267E178A43058188
732070081E0F30F5
FED89F1311D77EF0
819FD3F5750EF6FD
DD20B1FB8A7B73C7
EFBAFF1077854B8D
1143F7F1DF60FFF7
BD130006FCC719F7
A27C778D7F8EF381
40646535BDA35A6F
46E7686ADE5F89F4
7B7FC7E9175FFB05
05D3067EA223EDFF
E5145980F1F18284
D2176B9359BEB47F
FB09A8ED67CF9137
1080F648E9D3A801
7801B031EBB5D72F
5B0FC0CFE1191C63
B3A51636593B3FF0
4E4F3A43F88099CE
F4205A768B81B130
5E409B7D1C3086FD
5B2C9FC462205FA4
F511575717F62F04
3E69500C160F760E
6814D51072BF5871
6397514F9BB1EBF2
05AF4E307F0B320A
39A5DF7EA05438B4
9E98FED3706A3576
D5555F89BB801121
D341AFCA9FA81031
7F2196A718A3B806
C483020E830D073C
23EC1106D82DE7E5
88E5F87E9D2077B7
BE7689557D446078
B5CAB9DA80E27BDB
F3638A420E85BF80
FDF7B00414F50057
FFCBF02A4C5184A2
7BE0EC67D84F9D53
64EEB194143469CA
101B3A89A802F754
548EFE91BD02083E
21C889357725B985
52C5903EE000C9FB
B3FED16ABCAEFA60
28088F36F5775000
76705FDDA7180EE4
B41832341C0161A9
BB49F2309A67FAA9
504015E82853F9F4
C97D983F3D41C112
577971BB6C810901
2098E61CF5D021FF
5D5177A50711F847
366415A84440238D
19BC0025208ACD42
820675D5A9F95C2A
367573AD353B2E66
AB37E53AC6183CF7
0C50FC81B8896FB6
E0FD887D0E277F33
448892F1F789E5D6
055CCC768FDD1C10
100DEB67980487B4
6E3621B794727D4E
23619D9F63925B14
82B8FF2236E07319
310A9665D7316F39
142715536F7C746A
039A79CA5233375C
4B7E3231D9BC2896
F330F95352AC5C20
7E76DF4711229098
6DD51E615C93E7B8
BC0099207CED830F
F5E003BD17B6106E
028485C8D1F8BE77
E7E161355C64778E
3DD17BEC19B0B0AA
D18F2424F3374CC8
020D704E35E01214
5A2D92E5229B1263
1B762106F30B7331
FBAD36FF32E4129C
8BB3F7F7D278BCDD
51038A3444B904E6
F974F97D1231C256
49779DBAD0C4B11B
22FF937E6AA60AC1
081250D911D5D972
4590139F80FF7CB1
B661318E4E0E0842
F673158E21E68821
819C829948FA44FE
BB3B520142774B67
63D2B9700C630C80
384F8972A1BF9117
033A30DE39CD614B
9D3B02717A64CC4E
40F67E6C622252C9
001B66360177D99B
48B7E98919639300
11B2B41D990B90C6
913E29FA013E6713
B0B91FCC5DC68867
9EE2208110F47DE6
A039EDEC4BB208B4
9A738230DF46AC9B
419702207DEC4040
08610B06184DD370
CC0010D82ACA2754
009012B9AC3BEB36
D9660EF76546C87B
99934EB3498BD493
F9781A024016BB78
1103E289AB668681
3A29C00029167DE0
0B2D1404305D10A0
5001D003EEFC85B7
89B33DF291797AEF
0FCEE063EB7ABAE6
2876846C7E66498A
80BB89E2CEBA2423
911300CE910910A9
493331150606C5AC
337436EC48CE7061
843239FAC7510B33
2B5E698320DC0073
F6F175ED9ABD08E7
85A275BBFD72587E
04BB9F46AFF30022
BB703EBC4CD820A3
A933BB84E15CB5AE
15DB6E23A9A6D39F
4B334013A2B00238
1B418C48608C0240
D0AE7A1213FB0191
10CBE8659818232E
03CD35D9DEB72DB2
06701D2B27E318AB
94FDE9B993B1AAE4
27F77832DF5009D2
91EEC8CD41BF06D3
109E7DFD99F07B5E
5DBB039271EDFB61
F8C746714FF40206
23FF053FB76F2A28
38E5989B4BBF7810
28822EF7FDFB01E8
C9FFF339173EF179
C5BF4F773F308A00
F7548B80E4F72611
5C10FFCAEBFF7E9F
FF9A89B6CF1B808A
356A99B80CC9FF0C
EA9E0CDBF3E341A0
8A80C810FF9D3030
8785FBFF480DFFA4
DA80FBB9FFFFF310
020F0D5D3970B34F
4F8305A95546CE5E
B402AEE59993E991
C0145FF724520E23
110C46914886CDFF
31A8989CF7339000
13FE812CFC80D948
08AF333D1FD0ECAE
2482A9CCCCD7FEAD
1060CC01EDEE1875
F8ECFE77F5547B06
4EFCB31B6C02FFFB
F81113E6A02FFCBF
BEA54844D0170FF6
1FF88883DC40C4DE
1836638FEC2DF4EE
FFDD3DEA39A382A1
900674CCFE83C182
ACE0CB30ABE7C1F6
37E3EFFF7B9ABB1B
4BEFEF11DEE051FD
7BBB8165EFAD0A7A
91EF2888FA82F861
BF6708F58DB5CCD2
3AA8A880FE16FFDE
89C95F2AD8EFB89C
DCC7026244F38B7A
C60108A7D13AF53A
E6FAD99E19CE74E7
8A19AB47F3B8CB6D
980BCBF73B660779
C7538D41E8D2562F
3F404910BBF1C8C6
A852E5FA51BCB058
53F721C4B0C331F0
BBCC2F0968EF012F
D0EBFB6F2B113E4A
58019DF79FFFA915
13087489EE7DB30D
81DCBF6331B0B702
99F00A18EB7729FE
9F8D99EF6FD89AC5
FEFC327F1EC0308E
0C81D64CABEB3F93
D9A77BF7F01EBE00
DF2C27735DDFCD7A
9A887ABB77EEFC7B
FA19FF71FBEC7FF4
8F59347992CEC20F
17B2FDDC3E27577F
F300F44AFFC0F5D2
F518733D408EEDFF
004FA8C4937BD044
F035E30279005CD4
9DD780B7BB318F95
02007FE3C0B69031
137DEFF25191D7C9
000800EFB000DBBD
A27EAD7002DEEC40
FCF9414C9EB7383E
22D05B49CE8B2467
C179A2350A935ECF
FEED972A62737111
632AEF070FD26D07
3AF42E223A1F3568
C2BBFA0C4074E100
D561D0ED7EF55F33
4207A088F13A9164
04E0797B04144085
320A6FF80B0063BC
A9B43EF29A9B0854
40381B28243FFAC8
F7609F7B0708DEF1
CBCC4C9E8017FF74
C300D200168991FF
67F05333F919AFEE
2EFA096F90C85BE0
FFAD4A013910D54D
0DCD8F39E9FBA0B3
726D353009221BE8
7E320DFEEBFBD973
4AC0F4487D0C7CFE
E263B840DA2A20EE
FA3519974666628F
E7B091EEBF903395
13EE47D4EEC66764
F318885F22E6560E
F3870BF5F5CEEEE0
7E1E235D0183F990
4CCA0ABC770B3000
8EA840BC1988CED7
DD7FE6CB606037DC
BE0D8EFB54C64E88
58DF2069013D58CD
C2AB5F88AF5F00B2
030817111D27FE00
B8AFDB9DEE85FF3B
954B19B2C004F06F
70306B9BFEFA7F11
F33F0080FC5D7AE7
D62A26F008153182
FBD033401D80B907
F2EFC7DDE9B20FFE
D6F9BD0D466A214C
106342B20C02E408
B80456F39DBDF673
31109698D2F0F0DF
D8AD50D286AAFF3B
B1EF70694A8CF26F
A67A1E7906C9D001
7700E661F350E7DE
01936331FC1818F1
4E7A040425ABDFF8
BF96AE19A090ABB2
E0E481F66F682083
CA0D803EA8BC4AB9
6082BB8DCAEACCBE
237C66E4F8F5AC2A
11B637ED31003DB0
CA9037FEA8DF8D9A
B707878B41F6A2BF
FA18C8F4F0F506B6
A88F162FC91055EB
EECCD09764EB140E
EED7CD8AEEF2264E
08C95A7CD498B846
9248015A00CA6F88
FACFFD8B7ED46A2D
80C37B6B1140063C
DE4D2AC47A8FA4F3
831299D2A28E313B
8F9F07346FCE0782
D1A706B760A9E06D
63B70455F1FF9ED9
9942C43C9804E1CE
F9CF7BC2C8557CFF
5FB3F9CB0035C40E
104DAE2BC840F083
8EC2135B86E4C89B
16E95817AA79B4CF
AF914B56D8E3C92E
3A124BD44B13477E
42EA698BF13EF788
ACF5AC65D043E78D
EFB66E64F890673F
F00A988B1F0E483D
98E99CBEFCEDC119
BBF17170EB223B6F
028D9DB8029F9216
E84841E1EE01D827
25E7A8924268B9B4
0C2CF844ADECBEDC
56CF9952084C7F9C
280E5515EE7BC983
1F72BAEF8A1FCB3B
52274A411F599DE8
E8FD9266718BF377
910BD9E7DACEC914
7453B3F79312C18D
F1FF4524F21E337C
D0C248BC0830EAF8
8170648079A43937
7590E9EBA3792718
218F100052CA003F
CCE1E5DA0334C725
063B00A7B1ADFF31
7BC90D2A62033F06
3297DFDDA8490414
A1C872B7A520000C
F826C99C49B87888
C3FF1274689F79B2
CCC8C38938879B8A
E6CBF07371B1C9CD
840E4B32544F9A6F
CF9C408DC5C853A0
84A40214DA8FF773
8634AC9975CEC01F
23182AD5C16B74E1
3334FFBA2C121104
6002F8F7471330DF
B3B6F880E23810E7
AFEE4C5451068461
0BF80E40528EBBF4
2A1667FCF40938F6
FA89F6B815FE1FE6
FD0000041285AAF6
531E8E75ABBBBBAE
B2B982C8FB667C76
BEDCF5D364CA275D
51B858407E88D2CE
22711B17CD20C368
3B99FCB00BAA4E10
3D33A120DF5D7900
E39CAEB25FA1C540
6E9F781BCAF5CF35
FDFFF6C0593116C4
E3B6A432FDEB8B01
45F09B9924E6B10E
FFE46466E79BBD9D
A420B76A7B2A1ED9
BF90424299992134
58C6979921061B37
226816E66BF9D617
1DFF5AD0BB4EBFA8
63FDD6FC0054BFFB
4FBE3E01049C7A5E
EF5FDB85C8A70F40
73FF8F5D8C857410
ED00F5DA29CB9009
2175FA6E90837BFF
3B06B42BB26C19DA
3791031641FA20A0
3CDE19A60EC81DD5
E9D3116CFEB5501B
64F088A0875349B6
8B701C621314D508
B3EAAEB279FE8C40
F2BE5198632F4DDC
3BD4338305009876
1FE16EC230A75C08
CBEE98B105E0E773
3A8E10001EEFFCD1
A36D63992BBD1910
81D51B7318094216
8CA4DC9EA67BF7F6
2CB3C9E448813ED0
350A258968BA26C1
2694ACFA2BEE3C97
208C68904C1C8715
AFECA46442F204E7
78CB04445609C644
29EE8897E9F78493
A8704C9BD36C77CC
AC14F0F66FBB0C9C
CFF1BDB27E4E7EAE
F88708F8F112D3EE
256FDAC454B23DF7
5101AD017818D18E
BD817D4B01F83B37
20993B90FB38CFE4
37E7CBF22FA1D98C
A03D1A8CE807B608
3764F9ACFA7ED6E7
8E2DFBA4B19BE9DD
F86F09B784B6F376
C7FC000BF6DF1806
B5FE8108B0C79DB7
7FFE8018D5447FFD
BFFF3F75EFB1FFD6
EC9D74F7FA3D7A16
BF68F4F6D2ACEEFE
1EE4CD6F4816E837
0E4C6CFE3FCE7B36
E9B847FEBDFFDBDD
9B0FDBA2FF9DFF7F
44F0FFFB719CE9D6
80D790AF59199E4F
9FFE571AF7D7EEC4
FDDFAA0AC63CD109
24EEFF8F81A57EF0
BB9377B9BCE7FDCE
FF399933F6F7DCFF
BF7FF6DE63A6F0D1
3FFFB3BE06C4F7DE
100478F79368ACEF
D743C93B7EBBC58F
DD6F7F7EF6B89F9B
AFFFFDFEE773D53E
A574E08E10177FF7
768FFDB78BEF7BAE
D73FFFCFCEF9B92D
DFAFEFDFCD7E2634
C16F7911092D6460
BFFF7C4B9939CE57
307FF79C552BFFF7
8417901DF132DC13
7EFCF4418C72C3C1
3300F04ED01DD85C
8E6EDCFFD6B7DDAA
BEFF7F1079A62A7E
BEDDE8D1F7FF3CEF
FF3F9CBD0042EF45
7DAB37BF0261FEFF
F36D57243BCC1B3E
55F089B97389F732
3DC96FEF7973E6EC
883B7FB3F733F24C
D9F6B9D7F8FBBFBF
104AECED3BB8E777
28281FABB76E9F09
7FFC002090BEB463
A8EFF67FBF3E544F
11EFF9A8F2EFD611
C4F388E256FBEC64
B129700E9638EB21
A5FB19FBFFFFF515
FFFC3ECCFF75E78F
DE58AE973CCD3F24
9FFAF30F3FBE5556
A4932FFEDFFB7A80
DC9C31041131A072
3D3FD88FA07FFFFF
BDF6A15F37E4973D
DA7FE6AAFF7E6A05
A6A3BB2FC0AB4004
E80ED10783F816BB
F49908812ECD009A
7894E6E6461E34EF
2C5DA001FE5041C4
F762FA0DE8195824
1ED4E88C277BEA71
E119F73011CE7FFF
8E146732E050AE6C
2340082F88AA2DF5
88182C6809D33CEF
D000F112ADFE36DB
DFE199132E170EC7
1256BE24B3807FC6
CE3914C13E376000
C2D51C88124C3CA9
80A2E6B8FDF51361
C48C5ACE4710E002
00666CE4B7778D7F
B7B9E720D00C73B3
22CF1E30C4CDE011
68C61FF4884C233E
09C407E284D9E0E2
D20AD0C1FD153401
DEF6820910130122
384CFEDE01439F13
D1889F581EA7522C
E0585029FA75EC41
8E4A50ECB8CEAB28
345F66657A9AD87D
DC5C2DEF700EC510
7221AEE42F77A100
637072FF88F7B956
821179B8EC0C14FE
74E1D8650CC74110
7A39C7AFDF46609C
6481193792DD8FBE
C4FF5AB5FAC8FA31
4BF1EDEB00FDAB46
45338B68B150BD05
A7561344008EEC00
56986A0D26DDB079
6B52BA5489097F27
67BFE8FABCA5FCD8
9F6736DC9E8054F2
F1AF89A2880FF31B
670073A096F49997
24F7FE11080824D1
A1BA03C6051BB6E5
7FF7B0105002FE7F
D0127C8F6FEE8F8A
8B3924901FE4F7EE
DA2C026EA2113FE3
2F67089020B82351
DCECCE134C001FDC
1EF8FAEF9DF004EF
8032622450AB5100
2802531333377B14
11113EF5FBE5C882
5ADEB4101080E572
BFEC7F73AA1AC0C8
8A0276F37BC1BAA5
8380DBA980009F7C
0DE1688CF01041F7
7ECE2CC37654EAAD
0FF23EF6D708FCCA
43FC07623C78806F
DA2FCC73C3CB479D
00404B7E8B3FA10D
41DF7342D221BDFA
08D0DE2C00820281
000CAEA7DC486050
4BF0D1AE13BB1518
14908F271F00FCC4
1722A01999B14589
84EE21081A0F8770
A3AF9F7B400D7416
2B3571350CE9600B
09CDC52170989FFA
337953F4FDA288F4
0E79CEEA54057142
113B9B9F00BACB84
1F3070B70511331A
30108419E2ED59F7
F6096132974322FC
0132B36AFF23FDBC
BA2617B602A1F7F0
47396680573D2B63
F00F9C6CF207FFF7
76F46202806F38FF
C9A8D0259CCB9A62
6FFD211800A76FB8
276F95FE0CCE06E0
8C21EB050201D932
FDDF6B53000D8CFF
6B8E0005000C3ADF
00083FF74FF3BD66
ABDDF088C8038C45
049A9E4959ACA68B
6B7FFBE24F799FF0
9DF6A6C6773C335F
7FEF3F50130E4CEC
F2E6180217FEF73E
0400CEF93F03CC61
FEE0027E7F1FB64E
E280D888F64400CE
50889265CE9A3C81
9BCB09BCEBCCA7E1
915DC266ACECE287
C9EE47F9D3E82A23
CA5E9B238DCF2060
881B7C421EB03BFF
1C7D1C9960A9658F
59AFC5F6601C357C
10AF6B1FFF32A4EE
BF6100187401120D
0CCAEEC0000E1031
70C4634413D3A214
F027B427A7D418DB
315C1B6D032B71BE
7470C230F3C53200
D2DFD85FEE35F0EF
34BFF20C9771CD7B
002482CBCFFC7AB4
350200C7ECCC4F6E
CF60BEF4CB3AE892
3EEABB7A66E7E05D
C7090024DCFD5FA1
9C47491B1E7A1DF8
6193BEDF20C32FCF
66610EEC004A536F
93F30A03DF605010
642B3E683FFFB6A7
9913FFCA8774B39E
C542AB1684500662
717E9DDE6F384002
E86218A033511094
82F6BA50E7B0FF43
FEA77EA879165912
458D0CAF01116BEB
F791220FC000D896
AFB0FD9D77EF8131
198E6E64C0A3067F
EFB703D191E518FF
D6FB9EEF0441E482
0877F95C80536895
0001853DCC0044C6
6B17103866FFD9CA
C84F43CF362126F0
1A5F37DE08360D99
08313810413755B7
6EAB14400DCF9147
656699AEE7743FF1
5C19AC285A940CA2
3F6F85A13C0719E7
630080AE1D9303E0
BD1F43341CAED49C
69C09BF0FCB14180
102632304559C66D
FE441031181A7676
8EF6FE8F03371BB2
5CEEE9F22B7A5811
9D13FF02DD976645
0CEFBED0762FF371
1151F69CF73D4642
EC4F370001723FEA
FD2F3EF0F9FE364F
5220C775DEEC357D
9811EB7EBF775667
27EE9C90FF587ACE
3628044C76779880
50480115EA9C2C65
3991CDD2E47FC88C
41704FEECF62052E
1F781C4BCCCD6064
77636DEA4FE4001B
63FDFD114CCC401B
133F217FE6B95D76
04350E2BCF871F6E
CE45B788CA311091
C3D77EFD11E81037
9113A31226549765
0D0472602ED6CBDE
210103001085F73A
17008DEC6000D026
96A4022BB9C54050
10DBE4680012A179
C37482EF2AD0EEC0
26C28CE6E14E5FDF
A45A08DD13A30499
4E66B176CE45D8C2
D2E708C600290881
083C7D0CD0E26F6F
0E403F75C5FBF7F3
FC687230FF750A47
BE271747A81EA192
FCA5C1018EF510DB
F73B4CCC77B65F28
4599E740106E3D8D
CBA720422991CBBE
5FF2FF377EEE9715
FD306EB53E8E49FF
194E808A09B4D90E
2A2AF205FDE7D440
4592001EEFFEC890
0E9E0048EFE8F001
CC9B93BBF6CEFE34
AD90D383DFDC8253
3A914850190071B3
B7D3D320AFA6667A
E40A2ED0B8E7C300
88826BC70D8868A0
1249E7B64FDD7EE5
CDC115B873791909
B2205FA5FFAA8161
092A7FF7CC446EE0
B6997F51DFDC822E
B200A0A254E4A026
9666FFE3D111E2F8
FFEEDFEFF7C05DCF
8462000156597193
6A6F69582FA44FFF
8A62B213EEE56A88
FBB06530FF4008D2
BDFC1378DDDEF5C9
7B0E27803041F985
9C10922146FF8713
4140F7E30684B222
0567721018F6990D
62A3CB87E7FA0024
0090CE7BEB406160
6EE9C049B7D9A682
E121F323A1F2AEFB
89365DFE9A67FF34
8BBFC8015621E86F
D6B98FFFDFBFF032
7B0101EF1A34FDC9
D311A7747A200D07
100C21F1E6FDE7DB
177DD0BC80235962
41407C82CBBED1C1
6EFDA480F191609D
EE118FA50CCDB85D
7B31EF79FAEF9C2A
49EA67826816FFEC
7700A4E86FC62B18
126A15CBA0301892
D019FB8FA2613201
AFC0D0D87FD4CDFF
0DFC2330D5D5C81A
F6D8BFBF85FEA910
3FFBDFACA23C1788
399FF9003422EA50
003613AA4C7CFAEE
E4F398E3FEAB284D
4C57FFF5FB2DF73B
8D51F28C90E794BC
7B32C0C877EF6101
CF8542E4D4D8711B
0DCA43FF73FF4B00
79F0EFE3BEF3AEE7
0B886E66F78E20E2
015FFD351FE70303
7CADF25D91148D62
F2109AAC5E69CF3C
1EFE9220D1D4FFF7
DEE2FF3CE7994198
F3BED5F735992DF7
EA4E4A4E9CFAB173
FC283ED8555F5510
CD85EF574F28CCAA
E7882C08E7B8A3AD
9AC70DF3DF33A107
595BFDFF0590DB7E
DEDC9E7EC008FF93
63ED3A992CF1B99F
5E7F7774900B1908
18D6C921B5D96200
0D4D2CCFCC9BE13E
DEEFDDFFDAA9BC58
93C077EE5FF3101B
2000211377072CBF
A7B788557CFC33F3
C6DFFF331FCE9110
FB06F124E3F7FC0D
F835787F446FFF5F
F3E6F0EDDC20E42D
E7F7DCC8E82198FB
66313D2200461D21
4E43E67946DF7B05
A95A37296DFEE555
775678914005BC51
F03DCE4E5CADC1F0
71C390A0C699BDFC
E47F0211EEDC3059
511F41C1CEB6D3AF
58988DFAC05B1E7F
6B1E370090BF9E81
4E53098AEDA39EF2
97319F1CDE7FEDBB
7A01011E7943E98F
DD33AE27FFF3973F
5981D87FFD813C04
D195BDEFD3FAFADF
DDD79212DBDB0117
83FAF53B831888B8
802F000005D3AEB7
37582225BEEF0109
E6C21DC5DFFE3968
0DDA7F530405BA6D
76FEB34BFD79799F
198A11581FAAE18C
70151433109BBEFF
B76FB09D773BF7F3
5A7FEEFFE28C039D
BE73939A31803FF7
6FF27335B45AEC8F
DDFF34FFB9FFFF7F
509F9CDF0246FCE5
E65FEB2030AC73B1
C3FD2DDDEFA21099
D7B0453A0F383369
8C00DBB8E8FFF08C
DE26E44C32AB46E3
85FA4403BF79701B
A0CE9C6157E67789
B04208C8C0087CE1
DDEF09377E08FFD1
C788F790FA6C2748
27807F8A2BE7B9FE
15629DFCBBBD68D6
8681B484FC51F794
4DD3CFDA7CEF0FC1
50506A98FF8412D5
114F76639D0228C5
9899B940B14FB609
AA9FBEF8F06EB2BA
4B01CFF437C015CE
E433EA6DA610E47B
A7A8F7F6A370C629
FB8EEFA018A00263
21359C1575F72CAC
FEEDB6277181B12D
0117E58440C79053
0CC352E45BEE0F50
06CD6A483FE69759
67192363347AEB84
F37E9A84E6C6EF52
4CD4D6E3ADEF85AC
B6C86380409D641C
AED1F0AC414A1C62
C19B88488D849960
8CA1312170D57CDD
00FFF9FEDEEF99FB
CD40CE8B6AFF4B20
9BE3F97CDBC97639
F10F3B7596E8987E
FFC5B0CBD9903320
32CCA98FEEF6BFF1
0A2907CD25CC0908
456A7033DB1AAE50
8EBF736C806F4559
09C09C4EA7A3EEF4
22ADEE888007C884
91FE71DF32C012E7
9305B15E920EB6DB
A401A3C79CCE0A32
C19ECA81884B46FF
A3B8E1941929C6DE
C86DE4944B83CCCB
C303173262B98DFF
EF88FE2F8AF6F0E7
296AEB1DFF5BBEF8
A46296B5816F713D
6701676C927502AC
EC7EBA0654103F77
8B13F15E68320D0C
7A28FE013B638280
37DEAF76C41C806F
6EE56F007978C6D3
0FC013F3B92EC900
EB0481017720EFEC
854831223EC9FE7F
787DC0ADB109E7F3
F0C55DFF5EEC780C
CD90FCBCFFFF9839
8817BFECA9DB330D
420056EEAACDDA9F
39CF74DF22EB9889
3419F77FF576084A
BFBF0DFF11059F9F
5B77FBF77FFE08C8
DDF3FFD72BEF8FFC
941FFED5F39E7C21
B227FF7FFF17951F
CC3E34D7DE13FEBE
FECC8FDF68871963
9BFF82FB214340A1
3002EFEC8BE2EC01
718803207B230806
2EEEBDDEA19F31FD
6BECD57B09EED05D
54445F71C2262BF5
373ED37F376EB982
C4F357F07706A8FF
EBEF7F368846ECF0
7FFDE2DF1800181C
728431D5527EB1D7
176781FFA75DDCE7
10ECA183F87F6500
F50977E3B83977FF
B7C793F4550FEBF2
DA92A59A05FFACDC
DFD4DC8AD019022B
06CE5988E8BA34B6
1EC2B604294E67E7
8A6304E7AF3F4F3B
EFE2E002E774008A
F943B835DF773767
A181A75DBE8FE283
6B7EFF97D3082F55
F3CD379F4AFBAE77
BBF9FB9C72FAB478
3FDF86BD5FCCFBB1
698C71B1FEEA4A12
064B85BE6AE10EA3
956B7DC010EA90CA
0AFFABB9DF89344B
F1F637B6F6C7D0EA
4024747F21D0FAA0
1225FB7F76CB2772
6C4AAA0A1F8646E0
3D7F7B2CDF908CE3
3F5317A7812E6ACB
1B85A0221FBAD712
7773C50368D933EC
76CFEFFDCA271FF6
7599BFFFFF7FD4A1
31EFCFC93EF7EC41
84C023B9BBA0E73C
00BA1FDE4BF52327
FADEA6DB2A564173
6044BCB9D4BD4128
FDEF76F774EF2506
5E260FF7FCA2F94F
7FD21949823BECFB
1400F704E5992C68
6FB2DBA0582710CB
F83A8071A00345FF
A51AD717FFF4AAF7
4AE440018D3B8FFF
2EE5AC12880E26FB
0CCE0B2EC80DE647
776531055A49C23F
8EE8DFEC27878DF6
824822A6F54A735B
EF76433FDD9D2658
7F3F406F5E4D8D64
D08331471BBB466A
8741FF4B247B8B26
94FA9D930016EE40
E725A37B50A18EC9
06EF108573B9E7FE
107D53FEA1BF72FD
91164EA106E03107
C809825C78D52328
2F29EB0F02F10311
12636F5B882910CC
16C1E5EF9AEFAB34
EF05B7939C4673BE
B12A157627F5C31F
D65B86AA2E040448
C33F4B0D10440795
76FE8C2D8E00A80B
6A71ED9880E9FB41
B99B230BEAFFA8D6
E4E48E0E9180DFF3
AE8DF32180EE8E98
EDABB25A14F60F71
CF6FEEFF74D5D981
45E2AC18FEC1760E
A2B10092C9200039
1368D7DC9CF8FA98
0C85813AFF04CF7B
0EC8EE6101F7B1C2
1D03BCFAD74E1199
2C08304613A87E0E
8F00FE149E65F80B
04E73567416B09EC
BE0E42FCA8100070
3326E6879F65862F
660C08410EE0087F
844DD9B5CD053759
63D0FFB7055B26C8
989C550900B7E736
3AC70B6D8021044E
FA88C6A827EE96AA
04660D9977F62E91
1BB8E545EF5D8271
3A9120FE09A04CC1
18C8FF747035E6AC
46EED0CC5E989C03
8711BCAE8884B500
7651083E27520407
A77ECA8487FFA2A0
5A402110C08EB81C
FDEF0B000459F8C8
40A7AB1DBF00E8C1
55EF31C001A46B61
492BCA8DE180C914
8FEE031E2FFD66E0
83DD44E54D34F919
894932832771CF81
89F72933A776B4C4
C29D6443604DD08C
6C9474F6467ADCEB
70404251D2A985C1
AFFE601D6B223951
000C1AF010980893
D109D7E1D1E43FC4
B05FA3189EEFBF68
7720048404D6BCDE
8C041EFD8F358F7B
D489B4F636CF07F4
BEF19A0505374607
EA464260FC00E5EC
8669100A67242099
127871031345B880
FA77E7BA3F6EDFF8
53EEBDDD7792DD2F
75C75FEF33F388FF
022AFF36D0ED9B71
4F6D3EF18D938009
01F444FFACC7E2B6
F44D12D3A29928E9
D04D0358E63FE7D8
1FDF9627600E3420
F18CE7D009137F33
A8092DBD16E91AAA
44BDB3801F7CC733
DFCDD2FCF9DA0930
F425E61930094408
E64D9FD492030218
67BFAE847FA79E19
F221D44AA1874D50
C8172800DD3D467E
0A718D73FEEF18BC
FAF181979092CA96
F12EFDF752C9C93F
8AC50673FB99CA02
D9C9797E266845BE
0103C6CE5849EB0D
2F6E820D4099C311
7480D286CD9C3CD0
2638B8DD0C1BEE73
3FFEBE682582977A
B7EFC26502C05767
9B4FC2DD848EBFB3
C6090B83DCEF4E0A
408666017ECE3557
C77A673C44758E6F
3BE6D1B2130D7EF3
708181DF7FEEA79B
58000018BCD7307B
6C05429B339A7E59
4F688F7501093810
FEEFDFFE501F9EE3
8EFFBD6FE74E02CF
100AF35270C6A108
3C0B290542228E07
0A10B73BE74CF95A
F9FF3242730386B7
8FE8D363DAC02514
DF062AEE712CEDD6
F25157004401DEBA
45FF06046001A23F
EE69045F3640F019
3FB8875B4E3AFF8C
BF656518E179762D
2FF34885B33B4C40
3D81DE4E00B77798
000017383FD96C24
E082D79D37029742
0CFE8C19327B8630
BBAB240101E5504D
0049128A1FB1E2A1
CF84FFE9C4A1C550
9D7F3BE24F17A891
059860E6DDCE0DE0
CDCC9BD7096BC430
E466EBBDBD2A7E2B
A827B6D14FF4EE88
5F6BD2F50743A8C6
0E96611189B7F27E
FFC4038C9E458898
6ACC0038BF6BF557
8CF20ACECF78F434
315D0970FF3516D9
17311F185678E7BD
2F77E951309D3657
00016541EBFDD00A
C7929976B769CDE5
EEDF247F61663CC0
7611EE4F041857FF
552C2F016F2F6053
B3FB89FE14626002
8523747834D9D6FE
D9A071CE886E3C7E
1FEEC308D4CD1C78
537E06B31315B0C4
06193778C177BF69
2CEE375030B5D3FB
D01FC9DCEFB54E23
0F11F152016F049F
86263164B8E68651
50D7B8E3C6F6A063
8F99DC30F76635EF
1F71DF82934FC31D
D653461D4BF0F5D0
00C8119F29B1B3E1
402145634D768F5D
2D7528285454CCCC
AB7E5F5DD54B8E70
E59C2BD13FF8CC38
4A907CFD864E3551
08C59549A8504CC4
90EE4D4800C4C1DA
2306BB6E1314427E
2FFBB0FD7FE90104
05958501083D80BD
120131800B88A93F
FD1816E0208D1F00
7F006C4D0B0E9CF5
83FF6CE81D6894F7
0160CFE42202756D
972999F6E975BF05
E1199D5B31BD7EB1
367D2E8C00DFB198
707FCCFB41EF9445
E204CAFF5FEF4F08
C4A063FC95463141
CFCFDFA0511883B9
E16954B002095FE1
B0AA0609EE7FFC09
0E27DDF40DBA1807
68084F6B90284D19
FFD8F4D79F69A9EC
068816CFFF6A0133
8FE080F770EB2809
AB03FF8BFFF0E181
4F0122623EC80108
04B4790B806DFE61
0BBE12527D0DC009
03FBF61343C66000
291A41F800FED872
6B06A9FEE2674A87
88C907DAA821D196
8415017CDAFF1975
8101A1E4F48D08AF
02114E75264CC822
9090E88A4FC60F37
65BBEFCF930A15FF
22B82630CD6FF2B1
482F3519D2E13056
1166E07BD0255FD4
72FF5CCAB575F05D
E1ADB06B1A09B563
CB33EF9560809DEF
859B8C7D00884F8C
1F49267CC0998580
19A3F38840FEFFFB
190CF3B5E9072363
0A3690FCF7772096
F0968944465C3390
6D58329E131B4FE2
1974F067CF7F7B7E
1EE21D4323BAE798
7F73DFF497E63A6B
B59FEEE09151DEC1
FFC0F2BE21BC5C7A
6800F7940770FCD2
9502DDB61E6A420E
CDEC827E689E0180
D109B07EC88CB751
FA8032DB637A601D
497137BAC43BC04C
B777A0DF99592FB4
FF64C4600076F48C
26F33EC474467085
1580A4F0D279806B
BF66418EF7C0F81E
4B57B783D209FEC6
322368C6308101BF
A01757917FECE7EF
BD40F7B7AEE12B1D
D05DF844582AFE6C
E0F447EC7F1B00D7
1993027AEFF940EF
5CD70880C111C081
0135E3B713EB8C0B
0116847BF8E7B422
8056DCF895E00008
ED12B6E7EF66C9DA
EE87FB17935E08F9
18824CC81CD2BFF8
3013DEDFB197BA6B
0000000000000000
0000000000000000
0000000000000000
0000000000000000
0000000000000000
0000000000000000
0000000000000000
0000000000000000
0000000000000000
0000000000000000
0000000000000000
0000000000000000
0000000000000000
0000000000000000
0000000000000000
0000000000000000
0000000000000000
0000000000000000
0000000000000000
0000000000000000
0000000000000000
0000000000000000
0000000000000000
0000000000000000
0000000000000000
0000000000000000
0000000000000000
0000000000000000
0000000000000000
0000000000000000
0000000000000000
0000000000000000
0000000000000000
0000000000000000
0000000000000000
0000000000000000

