B2052C56FDC0F40C
1439EE4167A8B746
016F3EE64D49FE44
08B4D100BB090D52
8094F298F2378284
7101ECC89C2F3020
9277A18C910708C4
18AF006BB318ECA0
9FE0C12CF043F7EC
B8D4218906042ADF
4427BA63F9712637
4371BF754466366E
16658D033A999703
652EFC006F47844E
CE6904A65E19650C
C038894F00FCFB30
067D10433B44022A
7C2F200C48287DFE
0C6610CBBF23B89C
154854748D90231F
8DFC99FACA670E32
FE71AA81FDF8FF6C
0044FB6AEE02FAF1
36C2106602092BFD
446CD02426E8C67D
4AE0701710866B8C
2CACBB67A008E2F0
E7E60F75B10CFAEE
79E50F5A426D9621
D67B5BCD008DC801
9D4ACF7D60078F6B
BF5E7C4CA8B49466
74EE6A1D1802A689
E633211C40412DC3
F89057160998E296
FF7F3614580E07FF
FB09BC7430A0101F
2026720945174444
366C004AD1923282
0D829E88772A8940
A0ADFEF580593E00
9957E8FEF77797E5
B01D40805C7DCD1C
2EFF172D606A7DFB
2AEAAF2E773460A2
430A0677C7F60B9E
DCDD2E1DB548357E
915F005088143B5A
324C240FB93E4F69
C9B73642FE0D7209
F2C88631B12A1006
5025E342101C39A5
E8978CA6D38BB466
A363722D736CD032
7404ED971C350083
3828CCE3EBB3F4FB
0609B4383ED7E4FA
8941E00C5601263C
BA3218AF5ED66E7D
F8F1FFE59BCAC11B
16A919E3320D009E
9B227132F437C8BD
DC9D020F21B3D13B
27A6BEDEB00E7E8E
8FF7013F8012B80D
2BEB80DBF905B774
F71737AFB436EDFF
0080FBBAC4CE2281
E2E4ACFF08486476
EFEE5F191CDE8FE8
4889140124A8DAEB
10F7ED74C0003B00
AFD07FD92760CB36
17AFB4FEFB1C6BFD
BFEB20C732C45DF2
77DC7CFE03E847E0
75148CE19FBA2BED
FDC80004803492CE
477932D8D14AFEA0
2D8A593BA6085696
49C4011C7964F3DC
D9FE9029BFF23922
EDD8280F62789640
205D807744C10E51
1853F881A42893FE
7FF6CCCF801E3012
EFB950B3ED3FC051
BDB3B3F4DFF6E104
175E2192E82639E7
A2036CE495F62031
1A5DE10DEFB48CDA
5143F76FDF7C3011
2028C6C8B04CFD6F
7DA8C8CDA37FFE65
113DAC83043E3EB8
E5C8CF37636BC736
BDD7BFBFFB31372B
95DE00CC10D81520
418E737FE0334C8B
8940D24A01D3E7FF
DF317F776C7300EC
11DF1502C5DF9A0F
4D45F8EA328676FA
6370E5198062E234
665F34EA77E45780
10CCB332F31129B6
62236773D4328392
0535EC77E482A710
3D9A3C5B5000AC48
A079BDF70F49156D
B3FFCBF60616A7D0
BBA89B2B848255C1
75EE100E14F939E9
00C1827E73308333
FF3A3F75DFFD55F3
C4BEBF3BC0297A6C
651452003FFBE428
6F80C4D2A88DCF9F
3E08E56F50EDFF73
C9FF84CB198FB4A5
0000ACCBB8A80704
B335EFF44565C400
52908EB26B3C19BD
67EEF08CA1BD02E8
556DACFE9022D820
F576C88401051000
7022F7ED0961B1E7
4448413089BC47F9
9081CC9966A9C9C0
E102D60A2EFE3602
10C0DA01BE9C5921
FBA26E1FE8F9447B
5D37DE8C777DFFC1
8139BBC24A460733
EEEEB3922172F274
3FA02B6C05B90CBD
0811333825DBA553
ED08F914FCFF3770
F061AA151C6F0850
5147F20015C53D00
C19F0456523758C4
EBD9200C27C0FF18
60972ED83937E69D
40012FDC1230091B
40006FEFB9932C33
D711E77FE4CC0721
486777B504FD4238
FEC6EDD50D4E4E16
D18E00F9591FB2A2
580D4736F931F9E6
5FFE6052300E7B13
9C046CC081429133
E28D1A7BA497108A
633CC1316E041EC9
EB4357FC88C8E901
7F7166C5381E7663
BD507B05CB8E5610
E201DED0FD27F805
62A136F75DF678F0
8011108466CE1151
46E01E0F48DC0203
7B68BEE61B8B73C6
600A8D27F2B14F39
BEF70BB0FFF9AFB0
F3BF2906A7DB93A8
DC3ACAE36319F8C6
B1D6B318109BEAD1
28E98A1B5EF83D13
4EC49D00FF1E8B30
DF930BFF8D40C5D9
B7883A8CC1C518E7
DDBA88AB4C90108A
7640B2E75C4E0B8D
97DE4672504E42C1
CBB39A1645531C0E
7779F0D8D0783832
F08B4B017EC89DBD
1767318554D991B7
D2C2228F0219FBA3
7F46F7F53BA9629F
5EC40FBB23331FDF
6A107FCCD708B1EF
0086F8787C261186
5B4251D76739F08D
F7F7177941402448
C8DCF38131043737
37ED1773CE864602
AC065772DEF487FF
C91A5EA0CE187D92
05054FC0B0C877FB
32FF95CE75DACB35
37B8FEDCF7573F80
E81697FF80D05773
440056287FC2FB18
041C689E26E6B985
CC1022669777F045
DFBF09574C02BD7F
D9375FEF0F789800
90D3F8576FE7C034
C4226711EBFD7209
BBED8B7AD726D904
4050ACF5511DFF88
A3680256B8845133
8CDF605A6CC70811
1010EF2D067ECA89
A000FBF11F260902
06EEF9DEC0148166
27EE2103866E3076
61401E9051009804
4214BD65377604A0
2101569079949DFF
B9994D2656610D00
6A216A8C1005B000
31B139D45BBE91FF
1759BDFF77F52CEB
89080102FEFF4084
7D1BEAE7FB18FFFF
878FE8FC4C8443FE
98023D0005F704D0
5EDA901A48090328
0022F901C28B209F
10000126696A8BF2
886F5CE38FFA0BB8
1CCBCE0476168800
C90A0000F3D78467
41426E617E989987
0DFEE440D50046B8
36EC1D1900FE076B
02F97E3CBB5AE028
3F0B02A9468056F2
188070803F70EF00
424A97ABFBE23622
6D6C0880010A1811
800493AFF108A022
51307D5020EE38DA
881C085A7C100220
1585D8FF4CC327F2
4685F0013FB9932A
BF7FCB00DA807E82
FC11EF660128590A
CEF12AEFB6F24112
EBF7C200E2239644
12A133ACCA2A1064
D8100FBF5FFFFFAD
752E63BBAFFBC601
70447E209AA26F28
60F497DB4D35000A
D6FF96FBAF5C1771
6A464429919B1115
35FE76FB70DF2816
1970BFBEB841EC0E
EE70011985BF2573
0000F000DDB05018
FB03C67208871889
1A10FC18E08B0ECE
F81695ADE4CF00FF
EE194656B8D39818
48312BDC13FF82F6
7BD0FBB2844333F7
8EF75C560A8660A7
5A7A45FE8039CA8F
341F78E14A7FFCFF
099E5E244F1722FA
D42245761C5E0CE9
3117A0210E68DCFF
5FDAD66DCC5708FE
C6C04F2600BEA0E2
3B56A4B283724EDE
17332EECEC6053FB
939BEC03119BB60A
A138DB2A3BB10DED
2BBF4FCF8EEF1EAF
73B3D973A37621FD
B34BFC5EC0823FF9
07E6CC3108CD988C
93F685C2969FB006
48B9060CB7F020FE
BC543FC92CCB8FDD
FFDB87AEBD3F8808
E9AEE3358F1FB39E
88387CAFB7F1CCB9
05EFB272AEF80BB2
442FE15B78CC03F7
A072B6F9634888EC
28DF42AFDD238803
9CC56633E36C9D7B
54CD4E4281BFD8EF
3DAA6B208DA080AB
8A86AD8CD6C38ABB
DF33491DE1B8E488
84B9C37919C94C36
08EF2547C874D15D
8D37F1006B62C51F
C20D5ADDD9C455BB
46BA667359E48923
959F84D67DB7B319
92A8117F0589A459
0A3F1422EC677AA7
6C2E8EE864BBFCBC
36BF9D5ED2237731
41B54D082EF85DD8
0CDC3F9A9B8B0291
08FB318F9267DDBE
8ABF18266C07E209
473990524C26D71E
22685B009CDC29D0
6FFC45E2B40D5ED1
8E2A8C5E801233C3
8AFE91839573F1FF
66EE68B122F34ABA
9CC32B770E561145
0E7947B0404115E3
0004AED408EE47BC
F2DCECC15C22F3BC
F0935C1CF36FFFBB
AEB980A380EA5E67
9688BCE8189ADE89
23E232314BE110FD
80EAA2077C033C5C
E53C32874CEFC896
F279E060FFF5002A
EEAD174E504EE013
BE0921010BF51003
FEE926E77935C91C
71EFFF621D24BFC3
C7973093BD33DFCC
BFF7AE77D68F9F9D
7D280804CE0CEC7E
150A8AB20323D41A
E30B5305CDC3B118
F7C2C19CEFBEEA10
4A908018EA80F407
874F2F33B67F3ED4
97F8FD13FF72905E
1FE6E940DBA147FA
EDEBBFE10F981CA8
3CAB2E5448E70311
A8CE638622282684
060E5FF4CF7FD4AF
DDE200D0FF719805
2A64F7EE7FECE818
90003FF27C44EE62
B651FFEF0EE8040D
B0010805D5230082
B084EED1D8F938FA
FFEEFFFBFF29FFC3
2FA13704025B8099
3A2C217CA002DFFE
B6EB9A3A4E67E000
77F74583FF60409D
EFF0076AA89B8602
73032540E019F82B
3D299F5136DA945F
7144D7AB21943626
846257001CF491E9
64BBE753FFF60080
08914EDDED6A08C5
EE3B4E59FBE14004
71A0F4E508F9AD8F
ADD70E5C1307BBD2
1BBCC8C04481AF5F
C3B7DCFEFF43C10E
574212BC12845DE3
D0C837D538C4076F
514889A6EFBDFFD2
1317F399102E5B56
D3469C02C39F9940
42989D857F05A0AD
74418B200E7FC4CF
737B6EFBC8CF6628
8948E78F84228FDE
7F2BC54891967912
9BEE15FFE0023143
805DFB89E7601209
A4D17A94BFEECEFE
17D00310C5D4524A
2E3856BFBBEDE8D9
5EFC53B4A2105751
9BEF1100803EEB20
6CAB4BAF0CECEE6F
ECBB598F32BB4959
01487FF7FD3CD3FF
0C49A498F387046E
773E8CC8DFA7EB01
F03506B2469F0DF2
F986F6060EFD546B
0240EA51BB944004
F77B6A2F28357805
CF5B400CE57FEF7C
35E993224EC50D53
BC66E33268D0A300
7F606ABC4CFB0BB5
A880913A1DDF4561
C088F814CCEED632
C133E31C16770AC2
4A1F36003684F945
C80C4077C006118C
02CD28EF1BC63501
F3927F9A5BBD8021
040DACCCFE77A930
2100EED61AD30C7F
87836F75F214AF29
F2F7FF9074EF4BF6
EF8605D501F15F3F
407F412313C1E818
D029D40938039100
CCF6A00210407F90
1E7C2E8809C21535
41096AD8141A5802
9174C991FE074CE9
E84B11FC8886CF24
8C1C264531872220
08C03906428E4A10
89038A31FDD3B908
62343EFFFAC57686
94841B84361B13F7
EE41C82228884394
5B6CCFE25FD36DDE
68C2A0E382ADDF78
90668FDEFFD9A228
E2D3ED03099FDF8A
5F610AC63005998C
6082D31E009EF610
6E2C0F7FA65C2491
080084C1A095AB09
FFBB09DB0800FD9A
1D343ECA418C302A
D9AAA82B081D110B
D6CCB2CE7CEE0F27
FFEEC43052505837
20BE13420593B6EF
CD3FBAD05158F83F
F7006979FA4AEA8C
292FB9D13D6CEFFD
B68C80BEA81BFFFA
302042A4BDA31702
D0E04E3E0644079D
5B385F96BC2ADFEF
8986B16239363002
032123355273888C
FED10A794011280B
2874F391C180C5EB
2EE39273BB820480
A00617765E803D6F
A5105225EEC0FE1F
0DBD8D85E08E3E6A
10CBC55B749AEF30
57B26ECCD3273286
B50197008F7B21CB
5E34F0362E9F8C0D
9C34B3031FF84459
31496FF2ADA98EFB
48EF700B7F7D9F5B
C7ED17F01B190900
75D1B70242EA020C
DE622EC9ABF82FA2
150CB9B71FC16990
C115220D0CEE1310
9943EC181CF743B2
801079308C813502
460DC27786701D80
FA00EFFC5EC7D33B
E0962EC0B86764A2
A70104F65289677C
49324AE4D801BFCD
C202E361E74043B7
43FDF420DA8F7FF9
19460DFD85B8D536
020D50FFE831F042
10BD67339A60BA13
02C331755EC0FFBA
D420600AC7805127
CE0015712C1E7108
7A79D6A056081C4F
310BD2F0EDE0F83D
F2CB2FC0E53E0EE6
BBDE1215C9085C11
0117DCDCC9A81952
6ED02FF6C1A6F30B
435721946E4FE088
0C409C796BFC947F
3162FE4F7BC7721E
4B6D7D233608DF6C
D7C211A4EFA0D6E5
43F9683DE995E3E0
1B25FE49133A9A18
6102F716950BFE92
CA08130F8EFC31B3
DC5504DDF166193E
542F9025989B4C13
E764601FFA9357C4
D9A8E9B7BF8A8557
A2CAB6F1312F8A1E
22E6E64272411FB0
3312814301518B8D
D266FE18D288502B
F48BF28F15C0A7BA
2B6E372790EB2937
C92333EF8A5B5950
2893BFB3C76CDC19
D5C4CA1B806022D7
5D10EFD7181437E4
C119D24878B3377E
9CEF018D7E12D084
BFD30AF4D034D90E
6B400B89EBF64723
4CF437E0CC920400
C31C5BF357F4FF60
630276A54E094720
659D63703201B778
83FBC1D09C90FE70
17307FD971E11969
31D4FFE8FFFF2606
FE9A453D7FEACB11
3CC0E8FA59FB3F19
25BB46E6EF5B81E8
ADE7F05A5315DDDF
827D07F7CF38992C
BFD4AB23867F051D
DD08628B8FFDFEFE
F7EA993ECB03B8C8
10740B8D4EEE5F00
C0870FFBEEFF32A0
8008402EFED7B431
1185FF5AF12DFF86
0B0AFFFDFE703000
36CE8DDBFA18314F
EDF99F9141E62FCF
A571BEEE99B14D30
12081BEE34CE80AF
5500C4C3AD845CFF
9989281CD7FFF40C
0BE08FECD9B2DC40
CC6D3BBA5FF9DDEC
BF830F6FFEE8BEAF
0240CC00C5F929FC
A83456FDCB1CB2AC
7EFCB33A4182DFFF
99A031B00055B73D
8EAD2C160180A5EE
9FE81833CC4BA40E
20F64917C8EE30FE
ECC63768F98A58AF
A2CE68C4FE72B840
C4A08053603A84FE
73E2EFFB2E9FE155
8C7F8480EE003978
7FB78734EEEE8855
21FE8888F48ABBBA
9F5BAA7F0D9F05F0
A980B110FF37BE96
ECD2168C4FEE9CC9
DFCD099B9430CC7D
CB11284FC1EA9590
F73FC88CBB6C5AF7
DA058157F1B9592F
30F7CBF7AFBF1332
DF6F5605FBF77FFF
17E228997B990C3F
1A1AC5E021FAA0F8
339BEBFB80CB2511
FF7F6605DEC71C44
0056218A780C1D4E
4803D3ACA37FD3FF
7E80A6FB85E00213
B9FC7BF399305331
A8F492C8CF1101E7
938DD9FFEE90D3EB
2EFE022E1FD458DF
8CA0D12EE3FD7BF7
01A75AFDFC7EE402
AD5817B2DD4EEFE6
CA801AA976BF255B
E91B777BFAEEFFFF
8E1384192B8E5A18
33ABDDD4060F2CBB
FA99FEE76FDE1113
C54E93FF7BFCC900
FBFC5EC1DAB9EFF7
17847DC5FB1F0091
103F703177F33F13
53B72EC7E5838E7F
B13ABFBC1FEA8F73
86FC98385159DFFF
1E77FF0DEFBBE918
7FCFD5F4771139FB
EB6CEA2E8DFBB9BF
FC042218BCFFD591
C895DD6FDE3ABCA6
FECE3C80E7DCB2CC
EEE326EAFFB3B5FD
59DEDFEF6E90AB32
CE37DFFEC800BFF7
71FB3B1DFCBBEB9F
8FFF77FDD0099319
18F6C41025DFEA00
CDCD89FFDDDB8566
BC4FFDEF8EDDBB5F
D6D0D7BEFFEF1005
4000695F570FA0BF
6377CC75ED7E4730
DFEF772F1FCCFD13
F982FFF66FF5E9DF
FC6275B74067FFF7
FBF761FFE701E581
D7D78CC9D2295AC5
37293F4A80A75D60
FF63F17D5E9F280F
E80B77BF0FEE76A7
F7C277DF48847FC7
B82ECE3AEE9D56B5
F1D73199E23BFFBD
C5FF2A15EDAD143C
09AF06D3C5FFFF8F
D10C2FBFD4D912C1
6A5A7100905FE6C5
CE93FB831DBBDF7A
9F3B1BBD3FFFF4F5
0A0100242DD7CF89
9B9EB6CEFCE7D3B3
F380FF4DE71F3C8C
7135FFFFFBFF4BFD
F9FF9803FDFBC496
0BBAFFF3618C811E
C02F110218C327BD
16500825FCE591C9
A6824F9DDBFABF7F
1EE6FF50548D7CAD
77FAC857F1F6699F
598899C80E404598
78091E77109CB7EF
E7E9D5C5D7B6F7E5
0AFFCFFF8AFE66FF
BDD29DDBFC02FFF5
FFF0FBB4F6DE6DEF
DFEFE5FEFADFEFFF
25BB9CFD02056EC4
E6D9CF01BDA457F9
C3DD2B4DFDEE001B
DB9B3D186FBFB301
0C51C5025A817FCB
5F6CF9F373427EEF
40707370D1094CC0
0BFC398C9A9B30DB
04E5FEFF80994010
0048FEBFDE6A7515
6048E24B1A195148
08C08168145187B4
1E76757C019866E8
B5CC05CF1A164192
3EFF961886C77753
732E67719C061EF4
D6F5052173100C38
3B6587C813C69848
F5B80FB01EFE22E5
C032AD7D30C3DAA9
1976D3E7D7B3EBFA
0331D499F5695F67
8440A98904490819
5222EE770CAAE7FF
9DFD1CC040211EEC
7761100033FF6EC6
DD749A618603DB31
45FFF85C00187F7F
004080182EC08080
1051001112FFE60B
FEEFCE6C80CF0764
7D0DEE6D0A50F09D
B50F8C7FC9913FF3
6F2FD2E400891F80
530D84B0E3657EE9
86B1288BAFE54E63
6E77EFD8FA207FAA
97FF811AA9703FFC
F1C9AFCD57097103
89541CEF9A00EFDA
9FEF084526E6CF3F
890200DA33DCBF49
BEFE077C470393D4
7C08C282A4174188
7230BEF7EFF85EC3
19DF6E613598FFDF
26FF4273B778037B
1BDFE5DA034BF0A1
BFF931929BFF1410
645E2E417EF45CDD
1ADAC7FF64DB6EFF
B98F1B172614DF7B
11819147EB3986FB
88080000F40E32E7
24898DC8B1C0B155
42E0E0061258C895
FC00AC765BA22D57
8FCF0C464276018C
3842EBEA8403EE98
4813EA27903F7E2C
09318601E76122FE
80010008DFFC82E7
A79E12F9FFD7C711
D725E8F8E321D499
39AC766341C09EA6
8EC10020EEE8D876
7FFE187767F02455
8A418FD680198DC4
E6F38613864F2AFC
32A2F046EA16D480
C18F3BA29C8042D1
A40A4F321ECC3140
57BFF380065FF33A
E1AA7F88670888FC
AC24D9DFA2F6E828
2B950F0D7EE40447
027584BA7FC80B94
8991BC9A51DFF68D
DF1D881B33EE49EE
492576548DC039A9
FF8BC34C48BF82FE
51CC33FE404FB8AC
70802BEE596F43F3
580069F9135BF4E9
10ACBA10FD5E2403
92EFCE76E550F529
D41EF6844F1C3764
4EC779C902CB4F98
E99B23751DE3C1DE
5FFF346FDC349DE3
934479FB04CD0300
14F9F8C61EFE704B
9CA92EF960CFBEA8
F374D94862C60511
E806D3DE40E83B4C
B8D87764192392AF
299829DDE4795CA8
3D7DF8D8A8DEB351
51B7FEE6F7C4FDDC
3EF99BE64780B35D
60B0D5AFFCFDEB68
521308649F8A3AAF
B28E7913F7CDDC2E
AB566FE881C30AE7
FEE7A08A0CD6FB80
3E73A0BD7D11D58E
12DC298505426E5A
2B0FFB7C86CC2979
1372CF08F9EFB9AA
E994CCDFEFBCFCD9
F088B107E9AB64D6
E02CCC752009033A
96D3E2FFB6BBFD57
DCBDDDEED61B0045
88B924043AC200C4
ED4300BC10A8FD11
F5925DCF6CC0BFBA
8BECB1F944F451B4
E8ED421434DBB177
A0D447302A208601
B979A738C6750A98
48DDDBDCD4F5F0E6
BFF8F655331635B0
F6FF9BDF62ADB818
77E6FEE6A3AC0C0A
307DD2E4F7F4E0C3
0E74E67F8C6718EC
900EB6703592D077
AD282A3ECEC87704
ECCFE96793FFF967
DB7F7831F85CBFCA
45CB765EB4F356FE
24EE0001C2BF8FB4
87E7C4D200040137
A4D6258342A40E87
776E3C6771B73EAF
BF3B3F6441AF4F56
50D6601D0DC3AB9F
BEE2336BDE08974A
FBF6CC557AA6C236
C00535D6113E1E27
4A01EC0D40E0C136
7F0E7DB0A60E8F3E
E6021642E9B28165
A6EE111D23EC0E7F
827916736089F2F9
C31EB82106499A12
3944860F371656B0
E886AA0223A30F0C
F0D09FD219C0F390
2E835FFFC2EFBB36
EE2083230297D01F
343BE50726D1BF5B
8F9A77273040B640
EA9F1A8C00002310
7777A34D0D064080
84D1FA4140E22358
F50E9372F76F2201
9F6033385561DFF3
E08CE9AC0CE4EEE9
F6DF3BB087D62F76
6FEFB903FFD6F71D
2DE60918BF898E04
03B04E378862572C
11BFFF3DA6F9260B
DC48F6B9AF150671
A7F2FE9240FF91C2
4A1A7FE3EF8BD88F
1042CF750ECF5DFA
BFC0653994778A89
46E10FE3013BCD69
A3BE02D54823C8B3
037077810F73E0EF
E60C1E507EB91A6F
8A2A8F370B89B760
B740FF8E4096B442
8844052490A4FEE7
FFE523E5220A1047
8F1064F9922EFF64
866A6D8D57BC968D
A74D5540277DA86D
3000B4EE48A2AFC7
05CDFF30A4ACEEA3
17676CCCAA973B08
03D9B08C41447D42
8E61EC3AE413868E
0FBF3698E730AEFE
07463330C24C020A
F7EC1CAA2777A4C8
02BFFF14F7D2C0E0
C69F118410A940F4
081FE027E480498C
81EE074F8FE122A9
10DDDE444455E10C
DF0291FE97638EC4
91790B00CFFBF262
123ACB37B6F64572
DB3C611DF7D345C3
77A6BF0B5F0A877E
CBC7B7047328DAE4
839BFB28731B5147
2E40F84E3C894FAF
338332FEC6B03AFB
E9D9C489D3149F9F
97FCD7C0C064176E
B9FD31981EF3FA03
87FE70B37FB0D3BD
6F31071BF5FFD18E
CEF3D31233DD179A
6F7547A2267D9BCE
78C0D32F73127618
F471AD843F7B7FF4
519D97210819C808
0BCF6AC93FFC15F6
6BBF0D4F516D9745
3F376A6BD15C0FBD
D6F737ECD81167EE
AFFCB13B74B4EC4A
B0409B0BC32B501F
C283D5C400101BCF
21EE17F6478EE2C3
BFB8758B9183461B
0B66E962B70251B4
B77B2518B308E573
F1E8DCFA7FB1F798
6FF5568264DDFA9E
F1D99387F9B50773
91FE98DE0B9E57DF
7B4B122EC1CC73FE
DD979A1880305164
1CA23BE275CCF1E2
36627C79F6901EDD
BB2CB75FC7D44217
4432D36A15F329F8
94AFD206864D17CB
B1F65D119B57D88D
C01764F757CF5FBF
F1AAE65F2278BBBC
8295C99A5E6EA0F9
FB222FA5772C2DE3
3FF9ADFBF7B033F9
EAF3591903558B36
FCCDD6C98B998997
DF2B1B4AD3C61009
B7984B9578DEE2D8
149F2F49F7E6005A
8F813F6277FC810B
936BEAE7D6809189
3BD1A134F39FB37C
95FF07C17F23E300
77EA67E3B30C59CA
36BB7D2B6D987B79
DF17A63D9822DD1B
3D1343CE473738AB
B59F284CCF9DDD17
57FC7DAA461FC89E
3D898AFBD76B848F
D7F0D079FE3A31CC
8F74090E719A1C00
AA295FA5067E7A22
4ECF151B01857417
15E0269BF763778A
D755CFEFB30F8E2D
03888A9C7294EA56
408412F7CAFB0077
6E409CC470037728
C8631E482C8D4025
E2E7B29DB4188D09
CCC97E61E08C0311
46F34BDAB33D6EED
FDB762E7020400DE
7FC733571377C710
289C9C6CAAE2017F
B72F064001358AE0
096177172F420CFA
D3B8A7FBB6BF9111
C90026AF890676FA
4AB090087E4FE936
EAF902CF20398288
D74B7D4668816381
4E5D7CDD847717B7
3CC5CC4D290907AC
7FFFCC288901FC9F
CDB93676C4270580
5773D89361E26FAD
A10F684690970162
D15E2DF9FFF00C08
0481BE2F1C663010
0404A91803C46FFF
ED44CCC8BB1A1AFF
033F8E8F07303F3B
BD104F71FB0C3009
839C3DBAF76CEFCE
1E46809A527C97EA
C17142F6F80F4CD3
EE4CE7470058EFF1
B21557F622E8F008
4217BCEF0AF667F3
8898DB0A448D41AF
6261F411E601B0A1
4333404DEADBF310
26D915F52FC02FE1
74818D42EDFF8888
773F76CB47F7263C
F755180008C07E4E
10272DCF6720A888
AB7F8D496477D901
FF6509FB8E1355C0
FCE644C91F47822F
08448836CD1083B0
FF85CFCF54EDF2AF
83FFB8BE144E03B6
2CFCF330694EDDF8
43936848A68C9EFE
572EC449E08C8C30
ECB74EEF80EEADBB
61B3EEE981813179
7764FEFFD6E2CC12
A7DC8FFB8F4897FA
EFFB2C5C22872099
0777CDDF598AF80C
8CAE880200FB6A2D
7378FD4C94E331D3
CECC1A37CD105747
F151B1773E600CF2
9A3F0329BEB7EDE1
FF5D4110E5D0A2F0
F1008B3E84FFC026
EF7F64CB3E6EBFDC
4DBF0C9288BE8869
31C09D5EB67A802D
2811BF904FF77211
3B77CA1E0ECEF196
09A2B08599285839
00288638FFC8010E
F2FF51B93BE53500
410BC8F5E8DEB2C8
2305703EB8461F01
DDC399DCA12F408F
1D46103990754477
FEEE00B0540DE03F
130055F7210DB00B
9113E08E511C4FF7
7AD458FFB6F81CFF
0332513AC7A0B8D0
0023F33D1C0BC203
98242DB765EE67D6
D6523FA2DD5CD0E7
BE00677F611C7527
48E5ADC70110596F
8EEB4196E5ACD9BF
53D31179C73FCEE6
3AEC73C656FDFFD3
1D281977EEFA47E5
9CFBAFB7E7A610CF
9EEEB68D874FEB98
050088CEA803EA32
71C073E4FFDB9BAA
5EC3D1EB20B2DEB2
377B5B3CAFF6B63B
C57CAEE33152FFE3
FBCC1134251888A3
610065B46166FF53
3A635DEE9B7E7F3C
FCE502EAB1045230
F26A91AE90053B89
FFB2B5435509EBF7
2034C87ABF50C404
1C15EF7F7D529DDF
CFF1B700EC2F4F26
2F0003487500F7DE
0EA87CD0F2FB01F5
E710380E90DC705C
EBD86FB1B22E17D9
BB280886DDE309F7
8019A73F0FBFD56C
250A56D423B13908
5000F6DC08B57B2C
D351046E6F7F515D
0FE5062E3171548C
5D7F6CE8945A8943
86395B3030C38914
E09C80FE6D29510C
C006CE99D5E4CE6F
A32E2222B73700C6
EA5DFB7F33113B56
00A3FDFF4199BFFF
29525DE8A06E893E
404C31209089FFED
2E6C8C97067A5C08
80CEB76FDC4CE6CC
5F8AC41D78F96D39
CC40F0994411A0A6
100C170DC7047C97
0E2421DE54F7A300
7727EAEE7FD14CB7
D0493021737F4140
04917D2D346E9B62
913553920837205A
E823B5251EC1AB00
B84C0708231400D6
410D007701271929
3DD95EEE2C6B1750
81D4EDFF7DFFF989
0110AF6708811CFB
0391EE7DC23EEDAF
F4F66F97DEFE6BBC
DFB6BF4E00C05D9B
647102DD1317EC21
9C19040108A51142
9D7FA8E45004FFF9
7CB90C910076C5D3
9061681908F2231C
A10C1105EE0A24ED
E10540EC84C0DF61
2CC8060770070000
8489BB19C9EEA673
0807837B7980C061
612662C95E733E4C
DCBB588462DA1119
83C8626E7EFE4499
5A61C0229F76DFC2
F3D1CFDD9B8D77FC
CDAB6FD0911C3EBA
BFB7308082C5FF9C
DE00C98A3331CDFD
C8501F14B3D8F7F4
190969FC6EF88180
300A24C7C41FD90A
6F0631ED0C44CC70
5008FB3B8C9C340B
ECF1476E5ED4A31A
DE5F308C008DEB67
FF664D061610BD9C
4962CD1074A7D00F
EF4F2097F97049BF
D9B27FE0EF6F8A2E
88CD91812C188A9C
7E4D4CE6305D77BD
A2F24EDCFFDD13B8
CD72FCEB42400BDB
7BB36922173B34EE
07AFD100F5920000
AE463B7FFAC9700D
FFFF125C091031C9
006CB3888F082493
2F6237EFAFDE16A2
993DE8680E20F914
6E768226EF0C6CD6
29958427020AD0D1
0C4604406842FFE8
1E1FA2DE7F7BFEA5
EFEF8E495015020B
1677085BFDC1A98C
FF560F6E11B7A799
8885367337ED7EDF
702436BCACC0F62A
E3F3A4D786B982D0
C0829C15EFB7C899
BCEFFFD0C33930DF
F1EE36B36730F118
0F73FFFD9118631D
F213A3E626FA013B
38F401FF6DBF8D99
B976624D95C8B66B
9456D0E675A1B0FE
768CF65F4767501C
AA6C03E2AC7CA27F
00201F60082833D8
707CB93911664809
0A698217EF74F3FB
0ABD40CF00134281
1851FB0D763631DF
0DF6216CD29089F6
A2876C87EB857C49
C5060132F6E14094
1E57ACE79952BFFA
A20D9160119C00F2
319F86077EBEC0DE
F8DE8D621F7B8A26
023A001C8B987DF7
35702886F118AEF6
31754805FCBC7799
4C6C337E52FBCA0A
A7806B3859FFC645
C1C7244020D912B9
0898662E41166268
2C827C2101BA45FF
B8476F5C7F5EC0C8
E00BC144103EC6D3
CD184D506A2B09F7
C0FBA794CD7598AB
03B50CB0376710C0
92E53FDD331A0125
9088013A684E98C5
04914EFB705A1FF2
1C5D886DCCF3F4D2
65D840EF6FAD2B2B
F6D5AE20D7F5CD88
2B558626BFD498B8
45F7320B0CEFB27B
04550B33808D0932
6EBB7EEF117AE6C0
1910EF37D177EED4
37F2489CE2B62831
008CFFC82080C58C
C72CBEA7EFFC9200
8FFD06C9F8C10260
B8EBFB3D00880151
2BFEFF1576EF4812
4134EB1F7CDDCBAF
6777908F05B74777
15EF71DED1CF0C48
FD45DC218CED4805
8159F38D18F6147E
5471E5B9EF7F64FF
2F4E7313A00927F4
39FAFFCD59674DEF
C74446BAE2081B74
6E63D788338A9381
CFD29ECAA9AE66AC
3840D5394087F22F
68885567E10C78CF
C1C0500E3502CCE5
037E24C150088EE7
237B0B4AF067C903
08BC33705119EFE4
F3B39D23A07E9F7E
2EFF880678CD3073
236FF6FF101CACD8
310080316DC57C07
92F6B0329364C680
0FEFA301A7FD4004
1DE7645055137B5F
F036C80EF77EF95C
DE77E3899B880BFF
E631B76F6EB21F7C
2F7C66053336DFBD
802B9A189109731F
CEBB98C7B80DFEFE
2571BE0E7BF0AFC1
000F6F90F675179E
6F30EE2E3808FFF1
C1CDF8B49BF8B482
7A1DA5EE9CF33F7F
ECA0323358C9801C
C1DED128D7118C72
AEFD99D281A0BFEE
FF7C3646883AEACD
2B918888CFDC4472
CEC8BBEBBFF6D186
3200F4CFD49C4100
DE0401CB0580DB37
D7C8BF2FA2A265D4
F634AA3FD306A2D9
556448E6C80C7854
006A33358BFC68DF
FF334027A0A4B315
8E6FC8CBB67E8774
7FE71B280B67FC56
4B3B7140B9B1D933
CF70894E0558259A
45A9F5F7EF7E77B5
DD2281193953AFD4
9ADE0E006F07F61F
A8E8CE80F046EEC6
451D5F50FCA768AF
D1EF20587D08C84A
8E31B95770C8DC6F
8FFD812F13F73903
7F6F89B3FF9CECC1
C5801BEAA8097E7A
F4190180FF4C9DE2
820AB23E3F3F18FB
4814A20482F31F38
439BF605F8A9A1D4
B0F70D5FC3FF433D
1B307CCF677484C4
3FC653276FFB1E10
8027EB2FA400DD02
B2BA610BFA7EE01F
B03A20DC51BF1FFF
63D70AEE026EC88E
87F70294721F5B9A
69970DF873F347B2
B29CE27300FDF7F6
776A2FFE8E9F34F9
5BFF53F6D28ACEE9
E27C70522EFE2EEB
97E243E4AF30A1FD
2EE410EDAB30ECB7
4FE5A64668FE6FEF
CBF12D9DDED7B2BB
3F79FD03075AEF72
C9E7535FFADAFE29
C9F2F2138FB3C623
FBCEDE25CBD0CD5C
5756728E1933FD50
CC8E36FFBB03A10E
578EC8F6FBDE2CB0
F7022F6E72D85FDB
EEDE4BBE2DA6E67E
EC27AE8CBAEE00FB
C7D799E46E2E6FFE
2972ABF7F771FEF9
AEFA467E1BFFE52B
3F72334302FB517F
6DFBFFBF4341ACDF
82C0BFEFBE422BAE
4E76E90EB46950FE
D102552164C10772
6608441A6921E4B7
9AF51D71F74280B0
6D90D3BA087CD400
C43F0EE077D342FD
CDBFA55FF67B457F
86D2C06FBD71891E
A0DF05D7B2776B55
F6E7B77BEBF8106F
F570EF41828BA3E0
77576AA5C73B9FC3
07B248112FFF7376
967689B65FF7853B
6CF71E264A6D2A31
CBF5C983E730C6F6
B10F3BFFFF1BDC97
D1C4D6FFE3FFC7FF
185528C7CA27AEDD
303E6F44786F0065
17DBF3F0F5A37086
4F5CC78026E5A7F7
FFEF2C6ED016FA56
33F9988288EE5570
37EB43BFDD2CDBB3
5AFE2DB1346602DF
CBD421C857EE0EF6
8A3EC83F36FDE6E9
7CCD3AFFA6B4F7B5
BD027FDE66986AAB
6FF955FFA24EA29B
7AFF2D8B153FE215
FFF03C086E3003DF
6FD730072C028060
DBE789375E11D24F
406CF0109EFAAFEE
A7FA8881333B19C8
C8410C74009C6616
7AC40C8FF6977786
EE51532E5580808E
008902042608E308
9FA22320EC861313
75EA20231F938A71
E7E0800440ABC04C
67627C476034A000
408A856E8C7FE239
A88DA001486C2C4C
2BFDB136810797D4
0136E37EEF92E8D8
0085002206401E00
B630332883FEEE20
ED71FF0488CA5100
01C48EDE109108F7
741020DCCAEE4F3E
FFB8E081FF4BD12B
6433013F7A242210
A71B7732ABE0CF38
C0041100C66055BD
86376E35026860E6
0AE2EAC855E78201
4CFEB31B6120FF8D
81263424002F5F33
EE370A97ECEF17C4
D72C2121EF6E777F
C83FC3AF7400401A
618EA298DCCD9600
971D308A3171224D
8009473784E8809C
E54C621857C55B6B
0EEE549043F311F8
C0B268C4FE9484CC
C800A4400181FC31
8E80BAF69A37C6EF
E228445463719CED
FD6752E66006F8C4
70208F0D47718839
EE75D0A424E69734
1868D8E7B5CC5500
6AC0518B33258046
4CFA2700A721C717
B355606077FEAB03
84009C19B8EF7905
20413E4073550C99
B47E7BDCDA0F906A
DF8479E28C34EED4
80FD508A2138ED11
180048C8F9C490BC
C811E57F80C43B71
88597C3FE90F4190
FBEE4E01C9FE41E8
88831170D3181F5C
FDBC400823019858
8803218EAB1A3DE8
0C104F0CBDD58620
413C7A3650CC9396
EC6E0CD35FFF0C51
C8DFF739FF7168CC
4D23CA0057000F08
91B2AAEC27030400
10002088EF234D18
8817FF60349E8EFF
FFD0A100FFC818FE
E6FF798D48874EAD
13EF49C9BB3CBF91
A2AA7A10A17FCAFF
B30C332B1000EEEC
D81020FF298C0D76
9D50FF78AEC7FEFF
F104D6563FF0A2CE
1EE21ECE4FD4EED1
F74EEA48E880BEFF
DF7113F22E3D2004
D24DBF016EC63D01
E1A40A91338D725A
74C0500C0A403ECE
AEEF6C4FF7FB482F
AE835042D0190FC9
1766FE6021093009
49EC559CB7D8767F
AA6C2CE8E2C8D008
10CD6FC77C14CC10
5A9873D1188A515A
9E6D1F6F6C82F71B
3500A3406EB18234
5B6B8CF7AF7FFD46
6CF8DCC9E1583BB6
729569E4770D9FFF
FBF5AAE6364A0300
46799F70CEF79404
9EC9FF76D8CE5046
E62B039F9433FFF7
6E631022A441E930
FAF1734F80B68086
D60690B7AE118A87
D110837CFE61D113
44FD97FF162B24F3
6F7D320173F53802
B616A045189C1100
AEF4E2D5712F31D8
3FF613D48001FFFF
6BEECDB1F1B3DCCA
E6FF4334331127F3
B75E72E48855FB17
E230F7B5F7BC1991
D2C693886A4297DD
E82A4EEFD70126FB
C65C311120856B1D
6008CBA1F0FAEE99
3788EAF013EA6D76
69480000FF770ECB
2EFCD8EB30250C48
B7A96387D0115755
8FFEB2FF13799847
811122FC28E0FFDF
3C8C474296846410
1D053EF3FEFDFEC6
70F86430500B17B3
89C97E0182B22199
1007C337E7C0B258
F20071843002A73F
216D7FFD5308EFFF
AFC1A283EE07508E
AF65221E802F8018
669937A7D4CC753E
F98F40283133CD2E
13C1FCD1F5CE1130
8368A7E400F0CD3D
406B2D4350AC315F
D771FF6D0929452E
181CAAF36CE2AB29
030C518D0398015E
99DAB9ECF54975FA
F7B00A6F0EFF50CE
057518017FA603CC
DCBBEEEB35940B51
0D6026CA2A4D21B6
58C8252305283485
E04CAFDE29151960
FF881FEC362086DC
C013C5D09E113881
16CE626E077F1408
2012446C186A77C3
90434E3DA7F491EF
A29452EF41CA9854
12ED3017F5E0D8C8
33EAABF922D51CEA
418A824A20FF94EE
14DF024FE41BBB4E
98DDBCC687600853
4C6051C476FC2346
049E82629188E019
44C8982FB022678F
07DC7300A2238051
7909E6C4A8CA13EA
10EF8AEE9FC5A0EA
4FE201D217EF4AD2
10440A6A08CE501C
612E852ED8C870DD
F5054DA90099C779
1FBF13270A798453
2ADD2EA1019B2FEC
B102D90DD4667E10
70CA5FBD1A00F5A8
A11500A32ECC07F3
B18111CAA3EE3AE0
016C798F40AF46EE
9183934790880409
0D77E7FFF45A1349
F03EFFC41E096E70
F4C3910EEF146722
F5F40DF4020B5001
009A6D4FC4D2D5DA
A0FEF0095FBA4074
7F712FAE78CF2669
8AD45420E4A106C7
F74C4853057DC20F
CFEDA23718A3A0AF
2BE39C46998397ED
9D26106620879C74
685EFECD85CC0482
578076EAB77DB131
8EE8861B0E40DC8C
03D63748D6414D1B
4C8CBCCC6C8AF66B
E721A86122FF34A2
0C6B1615819B5590
B34AF75FEFEF7674
6B44C97C5C14E7FB
02184E7218EB4AF9
0AC2011B6FEF9AF6
37F7610A7CD8CFF9
4F30686D130298ED
0098372A457F158D
1BD421AEFFD146F4
FFEB5ED13B4A8EF6
77C6813173A10CAB
207A4D170261A72A
018D3298AC2FE636
002107464D202AEF
1146131E5122DB5D
ACE133DB4E230936
1D9E3E26CA085104
8C67800554BF1D03
9BF2EF060BB3080E
88077FB928F6C4D1
34407CBA8A730371
FF1759659ECE769F
E6B8003E6AC198CF
464127C606F4A761
4007076EF6E42FF7
B6FCD8230E621EF2
21E0CA004F78A659
34F3637FB3A7EEEE
ACF912A010409FF4
BE0D993A00038C76
0C6C08D76E4FE21D
023FC7CFFE62E0CE
E7603328AFC361DF
205D14D41EE3044A
056F101DE3D4B05F
FAC682527FB7DA00
AFF1092A4E82A2DA
1E2E99D1E12815F6
30D6C0C887CE5BFF
8F1068734011007A
2EEE3C632FD81F84
FEB21FAF870608C2
9F4CB20F9A898E67
F3351376002282A3
9EEF5FE682461E23
A88646F118E89A32
74624211321D4320
CA11966399F9398F
BD42AE9FE131F62F
0B7F08D5495860F2
52987B79921FA100
BBFC3101CC435EF3
50C8EA9C2132A332
08AF34407180F722
BB25FC67ECDCAD60
B7D94ABF57DF4937
C14712F66F200050
7B5095F87DCCA065
EB8F2299C7F68A52
9C00E20F33882102
8D0004C615649443
97DB57306CB28912
92203B43779332C8
AF481761FB28804E
097C083AA220AE80
13B3D9C06609BC25
5FB746A6F14D840F
9CFEBEF34068014C
7778CCDD473651F8
5BD4E844130BA7B6
28057A32697E06C6
2354B9C63154B750
06FF32EF99543B68
62CE142D6D48CCCF
B5A46FAD31F68770
43F34E1D22D4D1D4
3F8EA9648980C8C9
96509DB28B5FCAC3
F6F49340B02E353A
6D7B13466F7A58DE
75B27FEFB791BC2B
F7F0CBAA6364B721
A1DDE0CEC65CD4F8
BC733007CFBF7AC5
36BCEB5E836F74C0
CE14AE1DEDE01130
617360AFF5F77D3B
D595448CE730E6D0
21605A9C95C41B76
6103DF5F0C53AB2C
4B7B3444ECEF845E
C641EC1031DEF4E4
641EEE6BF3102D55
85E26E33BF7CFA85
AC1356A4E911EFFF
EAF94F4DF3307F1E
4E425223B43A7732
FD51FFF90DE3827B
933DC07332489519
86F7114183518770
ABE720EEEECC2567
88E0D6797C00E7B4
B8DF0B7039773F04
38CED493F35F2E04
9817CE663B82CC5D
C338202285CDD2F4
F37CF1760B7FC197
AD68E35D66E28E0F
364427FF5EB56300
F7AFBA130526CDDE
8AAE2C42C098681E
1226757647B08CC0
D2B2CD7E4DDF6894
B58B139F1830108D
F86F77B7218D147F
C4F6FF3CD3C5EB83
C709735DC5840819
FF64F14270573E3E
88782E7ED0C66BBE
E9658873CD240846
D12A61308274C471
F37AFC53DCEECD9D
0BC242B3FF82C07F
F30822F75734D4FF
AC68DCE08352E6FA
02D1EA2E2CE6E191
FF4FDCF4915D5C7E
5FC0508510BCD9EC
65E23744AC64B728
F76E0E1BD000F146
0BDFF13BDB14B12D
8E9F79BAF1340467
AE4F819ECD47A315
0D44CC917A4BE7C7
80BF3F71A33E0827
8BF6655CB7E0CD4C
349A6E2AEE04D650
D19D104C5FFDB706
F7D7D1C6EB3FCEFF
8B62F566E811810D
FC5F455A809AEE3D
A805C9A41C2F38DD
36C589B50545BE9F
18F6C9EF598D195C
961C9997F31E6E15
A9F26EBA83880FCE
C3BD9D01CB98639A
094FB78B82A2179C
6E83BCE2B937637B
0B387209A22F5B02
9568901FC28515DC
ED0200B7D775D51C
C8092FECEBE0207D
D041CAC66FFC2FF5
E376F7EFE940EEC2
8FFE908885E8D018
FEB5B69413F41187
6C061C90464479E8
CE1FD03C6994BB0F
2EF71A0E1CACFA77
C9A7E911BD8867EA
6F8DA4DE80334C6F
915BF7F067A01AB9
B417316121A0D6A5
736ECE454D5839F7
EB11207344139D96
B260F8D87FE2EBFE
001B4EBB8E84EE74
86EDEC03D4789B3C
EC4659D941B7CFD7
9B9A76A3DCCDF77D
1A64DA505610EFF7
42F685F34FAC27F7
B7D4DE8DF05A2AE6
89FD2F3F6F038000
5100C10538126B6E
555F6C3CFBB3C677
AB545F9FE38CDFD7
33DFDA5D1A22EDE5
37DEB646AABE3307
49DEF8C1F7254E02
D7E93CCE5133C9EE
FB8A9BD897AC7900
0CFFE12F5B1F7398
92651BCCC371C693
326CB5BBAF1F8B7D
6F0CA037FD6EF65F
8ECE1B43AFC3FB3D
C3900F9B7D00FB7E
5320E105E785B5D6
0BBC299857ADEF79
F27CA6244FD7E31F
E68BD31752220505
B937DFBDC6C91EB5
E499155EC88DE7FD
89B94099EFF9DC58
4EE0C7603DDF9C00
E29ED0BF983E8174
E761F88FF629A138
40FFDEEB9A6CE02B
2FEB88CECA27980D
8279FF8435F15699
0B31F01D7DE88158
FCBD6FAD872D7A6B
59EA7270910B8BAC
4BBF77FF77F8F612
D809CC3F7877DA3C
2B0CA1FF896D5481
7E9A47FFA9FB801E
66082BEDBAFC27FE
376CF7BFDCFD98A3
93906777633BE00E
993AC80E6F686437
371F6F7F95208E75
AB8AD8BB84BBA2B0
1A5BC408F03F002E
C927FB31362F7FF9
86BF0FCF26FCFCF7
DBBEA07FFF8F6786
8465E19CE804026B
C0CFD987D13C16AE
91FFD62DBFBFB022
F9BD8385709DDEBB
E90D7FB06ABFAF72
223FF8BF4773E0AF
FB4E9BE487ADB851
C25D903E5B830AA3
31A796E2F7FF73CE
9739DC3F3BB2EFBF
877F391C99F613EC
F4AF86EAA34A76E8
57CAE4B6281DBD74
2E0AEF8E2FF0F7C0
32248FB6F7E970CC
C84E0219F09C6D30
FFC181FF8805CF59
FC35B67D7278288F
4C3B48BFDF39400C
DFF3BC6F402FCC3F
C66896C0FFEA766E
62779E5F668B246D
B7BDF4F082FB246F
F7A78BFBCFC7C9BB
6BFDA09ECC1D0EBE
B6BB88AE5843F97F
829695FF7FBFDDFF
E7504EAF29C45F1F
3795666E0068CB27
5F7FF43F519F10B3
1EB50268E5FBBDFC
FCFC80A8D11AB00B
6B2673BED81F0507
68FCC2EFDF0FF701
8064DE4D92B6ABFC
0B1982E16B57FF0F
EF9FE80FB39FD878
92A9FC7FB597B3F6
E2CFD7FEF02FB9FF
F5ED5077CB7FCAEF
D453E363C05F76E3
70830F532CE92244
776E147FBCF737ED
AE8DAB117042A850
F1DA12F663017AD2
D374A7FD3EEAF522
A5E779468AFF3F2A
25CD4BFC13DFE144
EE20AC03A9087034
AF2D4FF63E276FAA
26C602629EA1B324
22AF207386E8C440
06B9E4CC140F7A37
37F508F9FC49A2E4
A76D6D49FE297239
46A2AB7EF4436081
26A96FFB3AB92FE1
0BCA2FFBB7A167FB
6243942222D7759F
A92FE75A914C60C5
1089A4133244406C
C7FB60C810E0F7B7
09D7B889C8E3DB95
7E957F738D9108A2
F591968DFB32416B
8AE0AA04DD4F7079
C014C088E8AB9100
6E7767A678CF68BB
5E39A0440C025CAE
08282DB24C8F7151
3107538DA4339383
DD03AD9938BFBF03
44E8E15A72177F0F
67465EE4126B3DC2
F3134EC9C3B1700B
22E13A8F428F05F1
8826DF8B35EABABF
EBF778F70B4CFEF3
1A8952E410BF1064
2C40A8ECBE13D78F
3878188CDE0BB978
41FA178A6D8B779F
A31864464F778047
00F446FD27C6666F
C0E09875A818D554
313D29A1EDAC12F7
F3CFCEB7E0CB7EE7
EBE6CE7CF6FE7DB0
75F013087B6EA4BE
8D1B274EB3C3D63A
32009BFFAEEF22A8
E1227B0F32B92315
D6F6B60964778C0B
8F89606A71E07900
1A2FF7C6662227B2
F8F79842591C8FA8
489AAF8A3CCE32CF
F98030830CA29AC4
0E46798091C57F6D
8FEA100DEE7E17A8
342CF7074109DE52
3E6FE1F25BD5795F
752C0C980CAF49DD
C91E9B3F800EF81D
8094F9A313B7B2EF
0BFA488CE5E62337
4EEE008056CB676E
70BDAD4BD0CA523F
8DEFE23CF3EB7DEC
5CC8B8C8EDEFF7E8
D4A6F1D3D0CD3F07
F7F6EFFC61ADCEFF
06FBBFF7D098853E
AE9D45EC00AEF7A2
F1A56DEB377F8CFE
1F6740162D8DC8CB
D46521E92711BCFE
A35D1137E088FBE1
ABE7731BD1A1D66F
A7D75B0BE72B7140
267FB73F39A41FB8
BF82BF1B1293F949
7332106B0AFF4F6A
F771B886608520DF
A5565C0BE2EE05BF
20884286E757FCFA
01F6E27F3EFD467C
7077EFFFE77427F7
849F3904BCEE7134
2E70720ABF17D028
7F9ED99BC6E5308C
4E6EDFCE9EC84A1C
109BF1C61979F6E7
C9056911256BE178
EFEDC06A1923EFEE
E25E9148E575F18C
B4D83874D1A7CE91
EBAEC041E42000E5
7D1110EB0119D8CF
8E7499ED7EBFEBF3
285FA103C4262264
0EFBC8E2F61513BC
F02F39C3B0B741CE
626BF7919004D7FF
037CF29910CE12BA
86EFDE7B732DB7F3
B2C4D88C76063E31
90A7A6FD6205D208
C0C5B00EBF73B76F
F744CEEEF0BDE6EA
729B6E6664EF7FCF
0BFD141F936AF204
80DC817E10B69237
308FF9C8EFE786A8
106AB8CCD8EF44B9
222B71DEFFBFD421
BCEF09ABB79E8881
71CDF7FFC02DE32F
F3A4FCAEAC40C7E6
8AEEA10374ECFEE7
74937B21692BE8CC
D010B1CC3579007F
776D4519E07F3FF7
384C684CFC3D5E38
FFBFC42C88864F0E
FA8453FF6BEC880E
28C0510AE2EE922D
B164208690F3BBB7
0FC7C689C5722510
5B1BD700D8550ECE
D114B08C70C68BEF
BC58F7882DCE7DE6
8F9EB05A37673608
B928011ABD1CD007
DF9FCDA31B150EC8
4089144B306F0933
598DFFDAD3328403
D5D6EDAE7C9EE8BC
39DDD0DB734DDDA9
91988075CFAB8466
D9FF747B7B71F2F1
BD037911FCDB6662
14CEAE63FDCF3230
47E8A33F89497ED9
EDFA1FEE9B1D68F0
DBAF9FAF8BF93F35
AF01F32700D21A33
75012135CD5A53FF
9F9FE77B28087F01
733D0C8A005F828F
6DF3C1C43218E845
6EFDA93A99F094C1
5087EFF8FF46D106
D191E71F93BD3E3F
7B0C870DBCDF469A
FCFC6EE8901EBFF4
998CBDFBFD77F118
59AFEB9B1E4FF632
F117417F20F1B1D4
9107777E86F1F205
DCC0DFB80400F569
9E98BC918DFF95FB
5433784F0FE6CF9E
15166D8BFFFDF888
54C8F777BE44FB8D
1CFB4EE481E70DE8
1BEF1873AA1E8467
0053E5C8BE73E3AC
6C1E5315127F587D
D81AA9FED617B108
67B09FDF7DD5F2CE
0DBC3700B498FA7D
3EF14EFBE1318180
D19CE74001EC3004
08C3AA0CFCFF16F4
AE7C55FD0755B8E0
7480CFFF43B4BA84
53D5B772B7EEEF7B
F52B2D9C7C98566F
01FB168EF38A78EA
4003CF500D80EFFB
FAB9AA8BA7FE5BF6
3CEE426C60CA231E
65E85965440337C8
024D9B3BB500EEC0
BB3F3D9E29F4570B
911762C70C230E8C
E1FCBECF886DB580
93DDED9F555BF59C
A3D2BBC8D458AFC7
8E4D0B6F2733BD0A
DD6CC0F7FABF08D4
96229E1BFC9D7701
1005939C69CCFFEE
1B766FAE78B49E6E
043011CCB3FEB134
D5204D665689DF72
1480F40060FF8653
5B94F2C01C337317
78C4112B5F07FDCA
E88F9DA6644452AD
57D8D989F613E64C
075AF7F43584F064
AEC9539F13DE778C
CAFEF1AF6085E2B8
130054BF90223E04
18CD888CDAD76F73
873EA457B957051F
8F9E0EA32ECC1F36
5140C43AFC14E137
00EF09853347980F
E1614528550EE5CF
D9E84F365BCC667F
83DA7BC81C051492
9E69F8EFD966F89F
C8C21BBB90F25ACC
9204CC0DAA7631AB
C4A118FF588FEB09
1A17DF7C99BE111A
8B19FFD60035CDCC
E9A4B37DECDEE18C
A0BCAA5C40E26749
F226581702A2BE58
94E5DD8DF96DD30C
3CD0F1B2D8973532
662B8DBD0EF9920D
925D129487336A0D
CAA32CA35EA87927
0410F8060D39128E
7467B474086CFFEB
3815DED694238FD5
1BD62EBB910DFF2F
441518879A8CEDBA
CF60984AE90ED7F7
998841ADBF894C5A
64C6DAB7B33381DD
FDE350EF402AF677
52E857E7AAA2DAE7
C6AF681CD0ABE4BF
89B4FCED0058B8BC
43CC00F773E28CB2
D0C6728F27989C4F
54430DB103ADA735
D18CDE88B04CB706
359FD732ED77E5EC
EBDE2AFFE9183C00
D6E14204FB69DA8C
D7F35884589FFE4A
A0FE800C690FB0EB
48C0FC7B38914518
188E47B9158CB363
CDFF7B8F3F1048E4
BE364B9FFA0CD83F
CD38D4A793E5DD05
50FA38FCF06770A3
37B8581377BB2500
FC8C33084DF44DE4
71B2E78D7E1A4ED4
AA281180328A160E
E21E52CAECFD420C
2F5073403CC717AF
2C4E37D12540FBF7
63E4881F31044D83
6C4D6E4508409D76
33C5C558A6E44CEC
87407801BB003ACC
511FBFC690D206CE
FE5923F1A8A970D6
CFEE000298F4B6EC
7A01660EF1BB16BA
5FDA5EECB7C463A3
E0A6E5CCEF6EE96F
FEFF10005D8EBE76
BB3C1A5EE39C3088
1C60A8C868D0C322
45540324F508CDF4
23944041A51BEA91
3772F5DE3292100A
6AA927FEEB09B766
07EE249DD447D56F
AA694BE8FA51E88B
43524AFAFBE00120
0DFA66FBBF461277
78E8346633F1F793
01B77EE9EEF63309
E7DD4A5CA2D06BFE
5338FF6555143FD4
17DC2108944443A8
FB314518C06E64FE
4FAB0827CAC6ED6C
6DFEB337784BEF2D
EDA3C373682C14C4
745E39EE335AE3DF
72C6DACC40C2E489
4176EB76FE8BDFFC
E2B6EB542388A7F6
25FBEE7A23A3DEFF
5C46FE469FECD098
571B39048FD48AF2
F7846080BB70170F
7473FF3BC46DB910
40AA13E40D02B520
D78A2208CC41B36F
6C20E4D1A344930F
400A9FF4BFEADBF8
13DC0306C7113101
B7EC6C8E70082B5A
CDFA8F673F08DFEE
DFA3E0B6FEE19EDB
93097F319C06A155
AB207FE033763ECE
1200D8E1EFF67620
FB677136C100D8B8
EFEFF7301B57E06B
E0CE376F5AD5BA21
DFC31B71C8883B17
D1BB7BF2301009EF
320A1644751BF988
C85C8A6F7320BDCF
0000000000000000
0000000000000000
0000000000000000
0000000000000000
0000000000000000
0000000000000000
0000000000000000
0000000000000000
0000000000000000
0000000000000000
0000000000000000
0000000000000000
0000000000000000
0000000000000000
0000000000000000
0000000000000000
0000000000000000
0000000000000000
0000000000000000
0000000000000000
0000000000000000
0000000000000000
0000000000000000
0000000000000000
0000000000000000
0000000000000000
0000000000000000
0000000000000000
0000000000000000
0000000000000000
0000000000000000
0000000000000000
0000000000000000
0000000000000000
0000000000000000
0000000000000000
0000000000000000
0000000000000000
0000000000000000
0000000000000000
0000000000000000
0000000000000000
0000000000000000
0000000000000000
0000000000000000
0000000000000000
0000000000000000
0000000000000000
0000000000000000
0000000000000000
0000000000000000
0000000000000000
0000000000000000
0000000000000000
0000000000000000
0000000000000000
0000000000000000
0000000000000000
0000000000000000
0000000000000000
0000000000000000
0000000000000000
0000000000000000
0000000000000000
0000000000000000
0000000000000000
0000000000000000
0000000000000000
0000000000000000
0000000000000000
0000000000000000
0000000000000000
0000000000000000
0000000000000000
0000000000000000
0000000000000000
0000000000000000
0000000000000000
0000000000000000
0000000000000000
0000000000000000
0000000000000000
0000000000000000
0000000000000000
0000000000000000
0000000000000000
0000000000000000
0000000000000000
0000000000000000
0000000000000000
0000000000000000
0000000000000000
0000000000000000
0000000000000000
0000000000000000
0000000000000000
0000000000000000
0000000000000000
0000000000000000
0000000000000000
0000000000000000
0000000000000000
0000000000000000
0000000000000000
0000000000000000
0000000000000000
0000000000000000
0000000000000000
0000000000000000
0000000000000000
0000000000000000
0000000000000000
0000000000000000
0000000000000000
0000000000000000
0000000000000000
0000000000000000
0000000000000000
0000000000000000
0000000000000000
0000000000000000
0000000000000000
0000000000000000
0000000000000000
0000000000000000
0000000000000000
0000000000000000
0000000000000000
0000000000000000
0000000000000000
0000000000000000
0000000000000000
0000000000000000
0000000000000000
0000000000000000
0000000000000000
0000000000000000
0000000000000000
0000000000000000
0000000000000000
0000000000000000
0000000000000000
0000000000000000
0000000000000000
0000000000000000
0000000000000000
0000000000000000
0000000000000000
0000000000000000
0000000000000000
0000000000000000
0000000000000000
0000000000000000
0000000000000000
0000000000000000
0000000000000000
0000000000000000
0000000000000000
0000000000000000
0000000000000000
0000000000000000
0000000000000000
0000000000000000
0000000000000000
0000000000000000
0000000000000000
0000000000000000
0000000000000000
0000000000000000
0000000000000000
0000000000000000
0000000000000000
0000000000000000
0000000000000000
0000000000000000
0000000000000000
0000000000000000
0000000000000000
0000000000000000
0000000000000000
0000000000000000
0000000000000000
0000000000000000
0000000000000000
0000000000000000
0000000000000000
0000000000000000
0000000000000000
0000000000000000
0000000000000000
0000000000000000
0000000000000000
0000000000000000
0000000000000000
0000000000000000
0000000000000000
0000000000000000
0000000000000000
0000000000000000
0000000000000000
0000000000000000
0000000000000000
0000000000000000
0000000000000000
0000000000000000
0000000000000000
0000000000000000
0000000000000000
0000000000000000
0000000000000000
0000000000000000
0000000000000000
0000000000000000
0000000000000000
0000000000000000
0000000000000000
0000000000000000
0000000000000000
0000000000000000
0000000000000000
0000000000000000
0000000000000000
0000000000000000
0000000000000000
0000000000000000
0000000000000000
0000000000000000
0000000000000000
0000000000000000
0000000000000000
0000000000000000
0000000000000000
0000000000000000
0000000000000000
0000000000000000
0000000000000000
0000000000000000
0000000000000000
0000000000000000
0000000000000000
0000000000000000
0000000000000000
0000000000000000
0000000000000000
0000000000000000
0000000000000000
0000000000000000
0000000000000000
0000000000000000
0000000000000000
0000000000000000
0000000000000000
0000000000000000
0000000000000000
0000000000000000
0000000000000000
0000000000000000
0000000000000000
0000000000000000
0000000000000000
0000000000000000
0000000000000000
0000000000000000
0000000000000000
0000000000000000
0000000000000000
0000000000000000
0000000000000000
0000000000000000
0000000000000000
0000000000000000
0000000000000000
0000000000000000
0000000000000000
0000000000000000
0000000000000000
0000000000000000
0000000000000000
0000000000000000
0000000000000000
0000000000000000
0000000000000000
0000000000000000
0000000000000000
0000000000000000
0000000000000000
0000000000000000
0000000000000000
0000000000000000
0000000000000000
0000000000000000
0000000000000000
0000000000000000
BB99FE70911EE788
226C118718C81E5F
EC6084D92004FBBC
9C67E828A1439177
33D5CDEC991D86A8
2F70EEFDAB062061
D023AF9AFA07BA0E
3C10341EB11DF744
37FE47BC888B3FE0
9357022BEB0C2002
FCA300346E3E68D1
D080AA028DE68814
0246BC328000CD01
BEC2B22EF2AF3E89
38A9F09E80DFE8BC
B2787B7C9E425C40
0008FD6E62826F0D
777967F7E038B6AC
959996B0006C214C
7C4CF20E39C85033
AF70400C08B400DD
5C64E369F4FF68D4
3B27A41729EE44E2
7400596806F78CCB
3B8E327ECDC24473
58E64E41624B10C8
3FFE802203EF331A
00F4E66F847285FE
C2097A9A5882D113
E829B7972320710E
EA6B8807401F400C
6BA274C4D20A3956
036D308A32693FDC
6C1566FD9103EEA3
20E7F84B45874C6C
D14A40029AD365BB
1246C815CABB9D40
8B9061F60C0BF51F
C85E8F39FA4D108E
E66C621C7DA95776
EF1A7A17021955DF
0002DF600F733773
1821BF78F20D780B
139E97149CCC355D
C0975ECF6F01CB25
64EB4065EC853D46
2F590E67108E6A40
33A834A48FC1130F
B48A7D7B120C77E8
748DBB57F4BE6E7C
BC0B894768CD2088
76CC094737EB11C0
250F67427323E406
79BF189DE07424F8
3D74EF73EE77E802
A06FF26500CD8821
20013A3424F2B453
1900C18618888886
378EC446E980FC72
D34227F890041E62
937720CE6000C483
B01CBCFE2221FE11
8FD49166070FAA33
F689BF36A6772616
7627488569768805
7F92EE1F8453E824
BF779206FA1F2862
028DF454EF917FCF
7BEE113A106F37ED
602D4EFF38F9CED0
008054FC7FDEF43D
9FEFC881EAB4782C
9B42723A0088CF2F
29AA73F12CC51305
03443F071E095E07
9113100D35D98CEA
F6FD7FECB7373330
E0F200502BFDFFFE
E7C4068F8CC14F85
1DEC08B39FF9B677
3F5E0043BF9FBCEC
9ECFCB5D303C7848
39286E88479C88C9
8EC6ED9B75586F68
84461519A7B26FEB
D5738004BE383149
DFFE775E000D7859
18DC441133D984ED
F7A87EBDBB394798
F175732A078D8CFF
9C334614C71CE4E6
90845F3DFCD18EED
849CEF60E7F0208C
AEE1101EE7F66AAF
C041C0DF3935BFFD
C575F26B43B022A9
000609E0FEA945FB
0253FDAE5F78F7C4
9048E7E48008F3FF
09D480D902A220BE
69B393B3005D36FC
6DCBABAF6B0C28EB
68DAEE4418EF000A
FF8C8084C8C43FDF
59392623799FC66F
DD6DEC72FF0DE012
37F68CCEE1339090
C8C3EFCE5033ED7A
A200263F64ACFACC
6FF71088111841AC
B3CC50222882891B
7723FFB89CCD4043
1CC0DEADB469EFD5
EBF5FE60AAEE9FC4
882264F3700402EF
9E8218017E121375
A5FE11C57611776F
009ED3261B18D67F
2348CE48558700E0
F9F32203F4C13FA4
77D8E6CEB39003AF
67A9E73380593E38
0008D03B106777CF
49F8430F1000BFDF
409F751F2EB32E84
C08F17CCEEEA5EFA
FF61226BFDCE78EF
FF7FEDCF888939FE
7511139E8F5C97FB
50280E781EDD36D1
08D2E3BA5BB0C51F
7FE333021CCB045C
C10158C08FE1EE70
70C7FF8FFFA20A2E
0BB80312908F4C41
77502019469C5222
C3F26FF06FD7BFC4
1503540ECB3A09A0
5EBB03780BEEB3C9
776E4939BC03FFDC
FF006753FD5273D1
FF972D775FA35685
FE35A319D7B01CB1
A70267CD10C989C1
C6D8CBC2DBF4DF7E
C090583A3AB5FE0C
27BB54011B8C7366
F03AAAA3EF394005
F91AEFBA36A68904
227DF732D3172F90
006313DBEFF32DAA
F7FB3FDA63316FF7
7B7F3216ACEF7FCC
8DB009279DFA7391
D08A1021A2FED813
FFFB244FE828FD3E
920E5CB39A8D35FB
17CC89C4751C0171
F78D716F6AF866A5
38818DC93E6C2A78
FDF21B49485C8612
F008B71A30E02BB0
F3FD87B91AA3881A
06FE05595A2CF54E
B700654037D95101
E8E19ED02277792A
A472C00600EA27FB
B31003AA4E678000
EFE53108224046BF
37378681101F8C18
F1043903364ABB77
737D8E01E9C84F97
F33DC01102576E53
B98BD89CFFB67F37
186C0C8FF37BBE09
4CB9C8E669E37118
C3393D5947B3B310
9488698B3B82A411
B1DB51D6AFFFD9F4
2008779AF88DAC08
81E21D73D6AE7D6D
D2317525C4632798
E1163F9F9FDB7F7B
C48DCEE9C01FD08E
400C00496CCBD6C8
0048DC03FBCF22F4
BFB15DCE7FBE1E28
98217538FEFFB016
DB6437F197A63390
697A1D0748339DB1
490DC400FF785800
9489F9087F3FB992
81901CB729FB1EF0
A80A6F983E6A0477
99304E79147F4BF9
C925C4005E6B5226
C9FF3104200C3708
80122663D2ED5015
CC08006F0993FBFE
98A04765711C1905
10C9CEF9DAED130E
D607670CFA789018
A1FFDCF41840A411
07DDE6D2DA016FCF
8CB8FFD6FEB6886B
300F9BDB827F30FE
B63F26705EC64867
CD00ED939F356EC5
801A89362222E6F6
C471E7C8FFEF6071
208545666324F07D
7A7E38340000E080
9106B0F944176F74
3B822C4E21120691
4DF74098090EFBFF
50BF73F76C469ED1
FDC8ED40710B43B6
9BEE502B1400EE64
86125A8576654818
16C03186E7441081
FEF4C898BF4D8FC0
4546402480007778
728E020810E06FBE
EACA9208C3731300
69B008F3281C0D98
73AF300DD9429586
D4FB08FAFCE2E008
47091FB704EC79BE
45B7FF17F820A408
404122875D064BFE
877FCF007E1FCB40
2A67CDF82312B010
102C3DA7B9F6E5FF
D88A36EF1585CDD7
751A07366B11F0F7
7418D38ECAD817EF
7CECACFFF0166012
8BFB4F25D047F245
14F07112608E045D
B0CC180A3216E46F
2C000111D000CA88
6EEF32206F082003
0824FE923207F211
491C4240A4776CFA
68998D03E259B52D
5FD4880077006744
B9C4910072223F0F
AAE6EEC946CF630A
791F55083317CCE4
FF7BF9CB0FB4813F
CB5F581F5191DD90
A7DF000B1BFBEA3D
F9CC193A10D04EE3
389904B5DB6DB257
E60EF90B9466A7DF
08D5D1ED6FB70014
96BAF2DEDEF3C8BF
82CC50F7A2BE87C7
AC600B736E05ED7A
201315DDFC76B633
267B241F3331D6BA
EE013CB5B8D7BE51
5C4832365F438C30
19892EE4AF36129C
823B941C4D3EE7DF
689BE9E127CB85CA
09925B0B1C500F83
7E739C15CD8A4EA6
ED482372AF004FCD
B88E4C41A8190460
7CCB47FE6EBA125F
B73B46AC92AD7A12
232160BC6CFE5C02
05BB11CDCC04C41D
EC82736F06F488B3
78ABECBFE643CB8A
C7B874D850D891FA
F4CE0955877F0A1C
3E97FEB6613499BB
E545E272B19084FD
22A70A7789DB7137
8775FAEA1FF3C671
9F7B4E06ABFB733A
02B8D6FF20BC558B
E53E14DEE4FE626F
911E0A048700153F
0E3BC0DC5CD04EB3
BFE6488CCFD0DFBE
C136C92F84D4DCEE
FCF680B5FCFFA48D
795C70771F09D898
E86388BAB9DD61D5
6BCE7E9F466FB102
13453B9846F0B41B
8AB197B8B5964E64
71EE7C7F81AEFBEF
D24FEEEC2B76A0FF
060ABC6A815D5E73
0311C084454CEEB3
339C36EB4039EDC9
E31D33B76DEE703A
8B67C03A9093C41D
709AD88BF0181E44
53888C4F0116A4D7
0723824D02010088
574312F304FE6414
90AF778AFEFE0C27
C8A28F2E34CF70D7
1C1CD19FDBF740CD
CDFB821D04764BF3
8767DF5B4F061FE4
A8AF3D18C4D86A2A
CB7316EFA24635F7
08F7D3A0EFFB2A04
81362154D4930B40
0D17D701D9566CA0
7CCD75ED9EC3D73D
0C1100B7571D1826
D33323FEE3D01DD3
6F7618CE803DD289
19F35072838037F7
EFCED1980B0F736D
9FF08218FFCB770D
B9032303111880A8
75336FC28810C01C
3D1503B0A1193708
22D2F901D1456299
B73ADCFE110BACC0
C323A3F716D4D411
F589B88910286E88
FBFA5DF2D1E15503
F7FF038C101F3BB4
FB00D2188A8D8D5F
675EDFFE86740019
861ADF481B161043
D88EF60CEFB959FF
8FFFFFF2E7E013FE
61042989848723E5
87D793667F04F735
686D5050E6A6B18E
B35BF7F388197204
BA9308F38800000E
0646E6415757851F
DB79418BE96613D6
4B431D0F9DDF0002
668656D840107E73
970B121C6C2982C1
1E8A70DA7EDBDCEE
2241C2D741999F2E
8B3906A10049E110
257FB4E00EEF4200
5FFAC0BDFCCE255A
EFE0FC63AEC76044
0C802C68346482CF
6FF76B2D3A95DD61
CF320556D8CF6F2E
E14E9FC43D28804F
33383421F3FB81DA
8375371850322310
5863904F07ECC923
BCF708008120A50E
C64AB18F67E877C9
2D0C0B651AEC76EE
2BB5C61B8061538E
41FEBC06DC6E09A6
883A40587FE0CFDF
9119B92F70B0FF7E
D5FD13216CF40EEC
A53B2117EB5F14C4
1E8A20CF6D09C005
7CBCB355633F6C4D
F04F46AE2AC3EDDE
6C3494961115C0D8
92002C359D8CA285
D8086B173069B1DF
760A1EF4C3BF10EF
53111F1937668B0A
125F5B4E7FDC03A0
EF525481BFFD2850
97D8BC25EFEDEE04
9F9771A0967CD180
6CE0861005012EC4
2116B13BCF662413
20549B121BF60000
5415153E9E5C827E
406C0EFC8FCD048A
9086593FD9F9C4C5
18A7F2844CE6047D
64921842FE5CEF30
1456EE8AEE6E1A3F
BBBD0B10708FCCC0
7115810847384004
47645546FF612FC4
155A1E0E898B4D7E
703E2F7B48D6B6FE
6E6E04BCAF5B7348
8D53C66B7F1A019E
538EEFE7D0227600
761631497FB15873
6F8AF6C500A10910
CFD40021986C411C
8000383F1FE54648
6B1710149A8C376F
99268A26D69CC095
F810FFFE36003804
266DCEB0EAC4A3B2
88024BA9FEF37514
FEF59DEEEB787737
1F5E67CEE2CF5148
7B00C0029DFEFF19
D3E43921B0641E25
FF7B2C4756340116
F105422B7F0F03BB
0CCC4DED5F06C101
3FCD7773AADF77E8
18078FCD0400AE70
FFEA1B34017CBE31
7000E50A54532135
63BB46067EEBBA90
A4CD37C0502EDA9A
420460EC7FC81C11
966AF6582AA7B714
E272C412602A9DF3
00029E077B0FA000
B2E59AA844006494
DE070100DCAEB916
D10450172FCBF9F7
FBF1C019E30D4016
5DF9DB0000D284C2
C412DF857966BB17
1564029CF3392226
FE9A908FFFE3E118
C93A15560116B230
6EAAE98F65641755
77D740FECEEBD900
3005EF507D8CEF28
41128C38586C7929
563053244DC7FE40
221037B712F7FF3B
D230EED94F0568DE
58000300C87BB320
8DFF5837FFF504F2
AE660CDC033E4225
50C83090CEE9082E
BAB81BF3B1075924
C8E27F04490B9092
E98FD405A47EA00C
80A3D1801A73BE80
6250597E57F41377
10EBEDCC3F1D642B
C8799AAB419FF917
DDA577A44F701661
E133BCC1F819BE71
11DF3FFFD5C41A0C
9FA8071391E743C1
1160C0074FE0C886
FB7381C00655C28D
86023C9ECEF1102A
D958712AD0D4EFC1
4C9427AF56030EE0
1A27C7C4A1183727
C3D70FE15127F8A5
3720E7E09F0113F8
7642AF9C7D15B945
237031FDD2E122C0
C80C6722FF88F6E0
2F959C0558081484
E1BA0E70BF3BA884
3214FFC87E800C0C
1F9C4EB05312CB12
87E2CB37F7A1301C
EFC12FC6F75051F9
5B0D5F056CCDEA90
B20FE1BF2499CD76
4B0690EABEC05A60
8957A4F95004041D
36486B6167951EBA
46CFC16F6C43D348
E0D77B2EB81B1DC0
F11B59DB3CA97600
9CCBFF30097F8011
4006E12B144093B2
7FC34DB613B8634B
DFCCB150C3B59FFA
17F01BF32FAA100F
C669266CF8030368
10E464CB4F773728
A202D3EE44E69906
6ECD94A77E00C899
8B8FCFB2142F7D88
3808CD0FFACA77E5
57048F74E8BD7BBE
D12CD1138AD129F2
3002D308FFD5FFE0
634CFDBCD33A8E3E
687DD109C0DD11DB
49B921135FD312B8
E7FC4181E90B8193
3376339CCFD9E2E3
501AD6CCF38480C2
03E01D2E50072B9F
1228CDB2AD81E790
C802A5D255432B78
51744E8209BC32C4
7C048942DF43D103
239A0E7FE84571B8
E7816015EFBA1FAD
8F60690847D701A7
10A0B72D872A8368
0FE9BE6147EB7CF3
270FC488C4FB38EC
35EE03B477BCF949
09810AFF879857F7
80417DEB7FBFB7DB
10900FF7599936DF
CD1483890B361925
F13DFD4B81107F7A
1FB3027C55918920
5280002180FCA38B
24BA377E029A9FC4
D3A1A6846FEF31A3
C613DCC9E939D000
FEFF48B8FB621910
CFCF277BD60A1B3B
409ADED78080CCC9
FECEDDEF136F108D
703E53E81853FEFE
5803F79621164B82
91E1FFFDA32277E6
733D1DA0CFFBFB76
D6971DEB8D6FB04D
79341E709FAF8090
BA12EEF688069EF6
FF90CE70D18F49CE
25DC601879854F18
EF0E890FCD928A9D
69D1F50BDCD7A97A
080E8CFF48186337
4A4F98AB340B992C
884BC6420B396178
3EFFA8D14CD59F73
DD9FA3C90801EF7B
7F6B3C70B38D5089
F688D492DCCC91D0
E4FDFEFF9240A208
F9AD099D8509C106
0BB7401DFBFFC510
8CFCDF3F9E775000
37F0AFD7FFE78003
43303E4298938159
8F5701084014E614
04BF16EE37319813
EED39890FFFFE981
40109DCE89B3CD4E
7C88E733CE8277FF
861DB34E286C6CCF
215ECCEEEEDF0B92
A008837ADFFF0DF3
0C92F98FDC1F2EE0
28D9100052145FB0
F92261947B0011F4
401949894D022D3A
28C88391EF6EAC30
6D1146DC39F904CA
74C59DB48B8CC8DC
7FF7EECDAFC52624
ECC7A915BE23E83F
478F056F0BFEC0CC
B9BA1959FE1FF840
F35348CAF78ED543
EFF679FCFD908C8A
7E72E87ADFAF1028
9AD4B5A0F0689EFF
BD0E89FC004508CF
2017C3BB93329575
19C212391F13C45D
718E65774E7AF233
2F99ABD66F91DDFB
ECD7708DFBE9CBFF
17EB712FF8AEF737
801AF8B03839733D
ED6F47FF71315488
96C8EBFFB8228500
9F01FFFF898CBED3
E3FF8BB5005FEE87
1BE8F5A1EE28B8B8
CFB0482FBFEF9F81
EFF0F008F7EBDBE9
E04CBD0D18374FFF
66179901B7FFE8B2
78EEBD3D0CCC59BD
20841F0ADF675965
FFD2BFF4DFDD4907
F5D7A88A88883EBF
AC7FFBEF6FF59FF0
191859FECFFF4F8F
F997F60C23DFE5BA
0DDCB430EB5A2849
A9BB92D7FB2E703B
F7A05111FFBA44DE
3ABCBE08F799DF93
3500786FCFE11469
CFDA8083EFCD91CC
9300FFED853FFF4F
4E1E28195EF5DBA7
E55EDF7F6007FFFF
40CB515FEFBD0C05
7FF7C8ACFCE557ED
37FFF3FF08DF4802
15707DEFA670362B
1FBD27BE8198A183
D7F75081C28044AB
38BFAF2A1AE8280D
EF2D5DF0EFFF906C
DBB2EFB905413211
BEAF00FF42275667
FFEF822A2FBD9EF7
06EF57AEF13DFE42
76F6FF009173FE3F
4D38FFFF40436D77
80064EA795FFBBFF
9FD5000FFF98FFC9
EB3FE913E3BAFEFF
20F7AB9B41DB500E
7FFDFBDF4FF35736
96F4D2DA3BA83199
38BEEED7BFFBDEDF
DE8102317B9CB81D
FDADFFFF3FB74AF6
525DFFFEFF58F7FF
AE0BE7AAFE6F1092
BA3E808EDFF3BA02
E9D2F31A232D74E6
91106FF420FDFF7C
821CF916FFF57ED7
F7CF5BBD100FFDDC
41405725BE387AA6
7F0567CE6AAB31FF
293B01C57F8DFECA
BCCEF117FF18C83A
57ED0EFF77F5C002
5DEB3277453AC8D5
6608E1D15867F3B1
9A6F33E820202AF2
1F70CEEF118CA71D
3FEBF7FFEA6F0481
D3E51A9E8FDF9CC1
2EF32509277632A8
EFF637AC9EA3BFFE
0E440402D18805DF
A6922051AF7CFFFE
C88818598C5C0C21
200FB9A911480400
FEBB00097FABE300
5FB1241CE3603315
7FEF18D93A8258C1
3CBFF625FFBF2D99
3F9BDFD400A06E7F
7BA88A899C7DF800
81017C163FDD2671
7F7880132245C7DA
6DECC7EAF56EBDF4
4F3B17FFF0E1EE71
2240DF64FCF2A22E
BEDC4CFD6256FEFF
D293FFEFD7FE13A0
B9FC66C107A437FF
6154AEED9AAEC65A
4C091FFF8CC02004
D39972EF09A8050F
D44CCF2751CE8842
A6C583E61090BFEC
710E381234B3BF3B
0A773EFFE3E36FF5
A009F9428492EE3C
21C1FC012487A736
30354A6748250010
FAD64FC0E051F648
EE00B959B8C7107F
D1583B985E7A05DE
01641177F3985A44
0001C430E6331B32
E100B034DC5D8908
0B310131248BCC70
9057EAA80111EA6A
9E9F174103220199
7F5E67A203E70111
4911EEE6C3A17183
F8DDCEE80B61F7F8
8387DDDFBBFE244C
6E4E003A7CE3AFFB
08C5F8FDBEEC5DF1
2455F3F98EB7E801
DF7B66A018C199BB
A220EFF7AFF704F1
EAB6C463FEE35B2C
AF5BFAA68EC591D7
46A0C98B0A639ACC
5869774858C2A265
C1021ECC00800AC3
3A6720C4D9013884
8149EDFF2112FFF8
98DF47FC78EFEFB0
348FB650810B76FF
F60A3D1B9350B180
751A2AFC3AEEAF41
1DEEC80E8C3DDD11
9AAC9FFA87CD1754
D9F4BEFC9E5DA0F4
F348C4A09AAC6317
811C867B63F49D78
A596014167FC7976
09BB84B180A0B500
ACC8209DC5EF597E
F8DE8CCB79B6A3CF
E06F960DAE0E71E4
84DFCE74B2AD720E
6DF574D6FEAAF376
3345260A6FD156D5
2F94A5039D5599C8
095C2777DF700268
C4C8403627E00F1B
70679898AB1AECEE
D43813BC64C3BBEE
B0CED1EBB7DA588E
2ADFCD2AE330039B
81C750ECB8895EC8
40AFBCEA13EA1150
3B9E0F8EF9ED55D8
BBAAB8CC9CF2E3DD
0E6133B115E6B266
0A617CFF5E64A18F
9B7A46F578AF9A43
7FECCF8671BB526E
77101CDD6C24ACD0
12EEABFB46FF3F49
DC130FDC73D4733C
D5CCDE9AEA4EF384
80BBA4EC5621BBCF
863601FF52C8FF0F
4EF773F8ABB2398D
7C8BF601280AD124
FF7FAFB2686DB003
39984410ED81D820
6969CB69405C26E9
308F8C80FCFE9714
A76CFE8C0502FC77
69ECB517F01FECEA
508B886800F274AE
FC99C582EB7FBA77
4BDF6278A3AEB58A
FC97FBB9F7E8F1FD
012E3FDAE8D220BD
B570FFB102CEA1DF
739E021E54EEC5AE
00933605F2ABB00F
0BEC0F80FE13B198
C0167384E402430A
231E7B8AC402738E
5751CA383F09C839
730A2255F74E9188
E16E3E3300060BBE
47667ECE102FCB92
DDEC658F6EFC075B
D264A2C131FFA230
EEF65E5C6BF7F2E5
F38EA86938FC5757
E773E1655B6ACC04
96EE11083A292FF8
7FF72588C2370A00
3F0F0C01AFFF1A05
8B2457FF08AE2108
728023709F6380EF
C4757301201F1FEA
BFDE088944F415E1
EFEFCA28C06382A8
4805B102BB84C51B
EEB8C8FF3CFF6FFF
22C3A2010703F476
FFFFC3B500F5F0FF
4B1F149A9FBF0438
03F8FFE0829C0953
671086643DDE0413
11DD0066CDAF9235
2B9D14217F1DB213
CC1465602734B94F
CEE3EB4E7FA7C764
22C6403854ECCFF3
6667AFF18F6B6B8D
A580B1D75C4C33AB
EE7F6EA3BCC4D85A
991F0A2010D37B31
C4F1A8F781B83A0D
EF803F802B04F7B3
FBA03DFF093866F3
7F9948390DFE442F
7E9376F7D8179116
FE1E3E0015771C04
D976C79B0F4FBBD5
DCB06672C0E4CC3F
775ACE79FF36662F
32734E64CCBFC2CC
3700ED9AB9916F7F
83AAFB10FDB7F4AE
90EC0EEDFDA0CAFF
FBD9143EC7F11681
199197EEA052050C
F190BD22008EEAAE
8DB34E607DB03676
A87CE0914AEAA20C
FFF7CFDF29328BE4
70F720ADDB02B7B1
3FC04F0028CE3A7C
C310371A100BC602
5700C7465182632F
8D5517ADF948BEFE
0EFE200D9BFFB7D7
15D11474913780C4
F56918E3F58E7FE7
33E7F6E74E0CF6AD
6E7E8000E4F92FCC
4100E6EEE951992F
013955C5000DD3F0
02F74E73EF71F77F
2AC932BBF7EEC90E
737F9021EF246F93
EE391AEEC7ED6873
1C9EAE25EB88726D
092BAC85CFFF3B0C
EFF234009C0E8FEC
E17324B5EEB916F0
E7F027CE156A2BEF
BCA9465DBBC510B3
A7644780E755793B
77A8FDEA2A4C9A2F
8C3BBF7FF301C170
14884EEFE88106CC
1FB52B4E4DC1B7A8
BF9FB33B313F1F41
9D0F8D37BB9BF8FB
1489ACCCC28DAE59
6D8B5193F41F5E68
78ABF39033BE93D5
F98D6F303D13FB10
3213E7D167B2373E
575952933BDBA313
63CC50047114E7F5
1F8881021DDEDD7A
3BBCF35F327AC88F
BF77AEC144D1B2DF
927F9BEB197BBAC9
2B5C55C4BDFD57F6
FF1F4D6146EE29FD
4C6F43A91FAA0A0A
630E1303FECC55EF
12A0D9E0DC0E0E06
981651837FD43D3C
7D83B21EEA52CFD9
1FEFDBB7E95BB789
D8357AFEC4723F89
090BBBA4A7A15712
F3088BF3BEDC55FC
D89406BCEE28410D
C7BE45BEB3BFEFCE
BE5F70DD3B6513CF
3190FFF0E3BFD609
E82D38DDEFCF7FEF
3BBC603AE1C4B5D1
151E6F55D15FFD9C
FD6D99C025847A11
442F1F9CC80C8C8C
DCCD87141E19D7FD
A41B326043FB7A83
7E5D5668DFFFFEE1
AFC8DE699514FBA4
194E3F379801539B
EA9C5ABBBE9ED11E
64DFA7B20FDB9772
8BEE256C94C4BEF0
BBE72B74DF9DE299
1B8BFCF99FF844DB
BC85BE7381A653CC
D7EEE775EFED7AAF
5DE792F7476BB331
43E759DB3DB74EDF
D5EDEEB41276A3FA
DB997F1C5D25CF01
6B77E2C4112567D0
E79A6713B7669B15
DD99EF74100B977B
9669B95C6F4692B6
27568ADFF3A37779
AD11ED08472DCDF1
73829376F7CC564E
78DE555377C457B3
A4BF674A864AC282
047487946C488004
FEBE2B7784D7623C
8C43B561EE33A068
72F89C20EC4E76CA
8BD342E56EC51767
388CBD511BB5CFCF
8BFD20F87783FC73
28A3F0296C000426
C63E77C451832FFE
FDCB5711708167D7
827C2A455FE2D91C
8623181E7C4BEECB
ECFC6D4EF77F7021
607C90013F9FE677
74BFE91A6FEC0081
6E0202330CEB36FA
880700016CBB6A40
F6718B9EF0353F18
F13A2EE1EFFFE681
0A56B08231481F33
CDCE0000F3D667FF
35777604BBCF2745
DE915C882A6210F7
BA9DEECCB3376461
F5FE821033563FF5
9510FB538FFC8869
9C905787A29A7C92
01DF4FD8CFAEC670
E4AB1F434EE020CD
84001011F576589B
D4810B9ACFBCEFF7
C7B9A8930B33DB2F
50F2000C56BE349E
F65ABA374AFAFB35
800CAAB2441F0071
3DA484FBF9161D97
981E7313EECE7A27
DC893FC662E87E8B
340FEEE784CCCCDE
BE197008ECF6D089
0329DF2BF8FFC070
ECB9DE63110F8C86
83FE6CEF64440080
846FF43115713771
73E45AEF7518E44C
3AF428E7001C0015
20BF40D183C3E81D
773FCFA060A8F400
7EF49E78E4F3D88E
ABC51A72B238818C
81106CAFCF88CFFF
D3911A43D05F1B79
549A144225EC7D60
3463720A2673EF9A
35EF05F70715E1C6
BFF73991D4C3A211
2C76D04EA49035F5
2685A6750173AB7B
900710476473C197
0802591B0661EED9
D3D16E7A9E477F87
8603D7BFEC8AF615
B2396897D08D778F
4E63C4EDE2E8A57E
F501DCACA3BA56CD
001260BD32184D72
D7FADCBEB0F71DCF
E09CDEA513317037
75CC9900F0528835
323E41EE741C80B2
B811CDE601EF38CF
C573D0FD6FE4DC0F
7952880AAD744219
F3FFCEDD19D590BF
CB48FF95B6BFEC84
988D6473F23A0104
D2F7D664FB02F198
D98BF4B7F86AB646
61505B30EB30B7BF
FA09BD892DD5BFEE
BB7BB92FC046F6E6
9D84F93457469872
80843489100950ED
F4BF62FCC8801114
2D767F77390808C2
1751CFDF4A91C732
657CA3BF99CE32C4
4FBC59F75748733F
A7AA178A1C681118
15D50882100FF3FE
42AF02709B64572A
FF63902F12C4117D
73F164E43EBDD5EF
4ECE845264C382FF
FFF26927B0149574
304F377AB7EB1010
F173AAE1A7354C97
000419A83311B3A8
F16CAE5EFEF00894
C086F77303B31821
27F11AECB8045FC0
A9B56AA8990F5FF7
54EE24026925310F
38868FB3CF915DCA
71DC0888F5402F88
370315EE3E92CCDB
320DF66F483BF97F
7186D8B41E04717C
6C8A463109827F8B
EA534FD0FA6B7EFE
71E596B8AB5FA301
FF8B716ABE0F0D40
4808178A180CDA25
FFBBEF80EF04DF8E
0162339EB1765090
B06AEF115908E6FC
0AB719BA9708F1BF
7F1121C6CD0E7775
E15208C809023F7B
56C02F147DC917DE
51C03DD2CA9BEC32
DEBF33D1DBFFAE4E
CE780029B80AA887
85FF3B00FFC07976
9959100A61C20637
203708C4C7FFC06E
8EF9DA8119F3E17C
134801EC2AFFDDD9
61AAB99A5E4C8408
D63547FD67EC32A7
0815BFDE53FFD70D
CBF4EE88167E075B
A8910072FEC4AE67
70EFDD991B7A7E27
EFFC2B09720874EA
6A77010874080020
4018DC3DFFEF4D04
9ED0C41BEFFB5DFF
20B6A88D0E87F799
76707FFD2F937BD0
0E915B3A3F9C1882
1926FA7DC0B4C033
121800C9F77C20B1
65B36501A200BDC8
C59408CB04E876DE
C00828375FBA2F09
4E53C402EEEF6A93
103D832977D80773
A98C986FBFCE8087
33DB482011C3A775
13010F0CBE639E2A
300619EFFB727FFB
5656960220EF0FCC
E0C91EFB89F6F001
A13CBFE513F860CC
2FED64544E6CA01B
9D3E4F290E07A653
F6A001F4710CECF8
4F900755FE5E9EE0
0C4A6F6E000BC94C
FFAF91181A16288A
CC3FC6586CAAB9FC
AD1E736AFF6FC038
6F9CFFC9ED043E41
424B60AE66C67817
A4489E68527EF7FE
1CC4C62716D91BB3
DE30FFC840365A80
212E93FF42944478
FF55CE78C4745714
A125813FA7FC3B49
F5ECD035AFE3DAAA
5D679A1A4A300C87
54CFFFEF207F3A23
D22B75E087F9F80F
888E808DB33B0595
65F406636657361F
100053326290C0D1
0DDF495E0EFFCF5E
330FFFFBD088FE0E
EAFD9D4EDB7EB902
5FF72060E2750680
373A03F66F2B6704
D6CEEEEE178B5458
A8A971016D1F1020
28AA188C778E4382
FFB70ECD23588998
9901C590EC4901BB
B5AECBAA5AC7378D
EEF4DD1D3918C11D
15CCF004007FD307
00270111FE736182
817754ED8CFA0290
F712E857738CDBB0
EFF650C0EE012E6C
E2C30077CF947902
457B1087107E151B
430A1A65B990F6DC
14CB10F2CF1627FD
9B6AD36999CD0FFE
51C344F1DBE541EE
C62CFDDC44F0D204
00A2D0F5D7F9CC06
E6EF4E173375EEEF
9A9DEF96F36480EB
A0D0CE6266DF7FF6
34CF06155CEE9824
14F582928B451C6F
C05B007AF698776E
40516617ACE81176
061D04FE25ADDFDA
323CFACC93767866
E26B24192DDFD7FD
79D6B0CD4910267D
FEF6F7D4809F75FF
A3D4C117645F1884
4DFD0D4D3309A33A
9D774C388B04EE72
A018662C96144D78
98869590E7C40871
E8F186EAAFDF9F56
CE8D89304137EED9
7056C150E6F80F18
F6FE90DF0FBF403B
9917E832EA0CDCCE
7F91A05FD9D5069A
5A2DB2BFFDB9005E
071F08DF2D8D68BC
92BA9FF21C757BFD
C8C96181263FA0B7
51CD957E14C7051F
267F395902A5B281
80896EEAEBF7BEEB
77F296DF206CB666
7FFA73CD223CEB7E
8C53233E005AF7FC
30B1AEF7CC7F8393
1FEF687F2045EF68
228054C01CD10A4F
6378E540D7FD96DE
05F4A9BA96FB068E
839A9B73700DA818
0001E60DA8942C6E
808C11BC2ECB2DFA
4D718808E29F45BC
4C506482B31977C4
C7FF1046060D7F8E
AA54C877148D02F5
95D367463691027B
FB32661E48C18641
816B60179FEA859F
5EEF00198013A3B6
D4482418B6F01AFA
EFF70A06FBFBBE51
23982141440C6DD6
29D7216E64CF804C
9E0CCAC1F020DFC9
8FF931D1826F4B08
7EC4773AE07ED0B9
ED9BACAE8A20EF98
CFC673FF34135C08
DD66C950B800D46F
6353ADFC0F7C594A
6C1630040A47FBBD
DC15B008E7214FFF
4BE68AF877E5FEFF
677CAF8167734EFD
B00136754B368040
2A44A8242FD37818
C6F592DD7A80A081
C12E40C7713DA775
502D08EF5382649C
6D2657D96F9FB208
99FFBA7F770DA181
4069A71816E3E041
3ECF014F58E776FF
8FEC01EE6D7E20F1
00027F0E0F7EDBBC
3B8EAD774444CEC8
90369C689C487335
D0800AF3C337737B
DCFB6FD257E74C9B
6EF7DFFA4801035A
FFD34B42889B3DF9
09A67F47F06AF115
DF84F7B89DC01B8D
1F5437A69356F403
0738067CDB077C67
F289B3087FBB633F
B12B9FC6AA059F7E
180AF81ADF1F1FFC
1024CFE5F7703240
6888010AD13709F6
F5C4992971843F20
ECA83A1E52037CC4
ECCAFDC6BC19A2FF
300694B7517C1D01
2D7CEE00EEF9BBAF
ADF4E32945030404
2342096217115500
3FD20AE88ECE8F6C
B41B3FFE726E1084
ACDF7FE81442C68D
8F808E7ECEDB4EE3
70E39EE8A28E057F
9D10943F1DF7EFEE
EEE6C9E9216297DF
9FEAEAEF8B7A7F87
00073BF1BD39EF43
B13BE116192BF3BF
29383EFCC59EE6BC
994A3314DE622DDD
21FABABFFDFF27B1
E7791015F763DDE3
DC80EAE550048776
7300CEF6B30CBF7B
F2BECCC559474643
DE35E33F2E806F04
ACC9EAFC43768927
EF17FF03A1D9C2F6
9FA94ECA1E866CBB
7FFCE1F7CF71135F
6E8EF850FFDE72CE
FA6CF57A74A7CF70
9ACE480D362219EE
9CBC448E037743EA
546723BD9CE3773A
EAF783FEC27FBBDC
ABE437CC8C126F71
CF7E7E6EF194F8EE
ECA0401F4B2B3777
7EF59E2A21F7B13B
6E7FB86F04EE6EE1
B6FA84830FF6E19E
893EF93331BE8E03
5AFBDAF60CC873B2
E75176892FEB8889
2BE44A020EE5890B
DE68026ADFFFAA5A
FFC0D1BE2DFFF639
C7750E106BFFEBF5
AD691DFB0A6D602E
E79B2CA647FA3DDB
AD33203D291FF5CF
14FF73F3C9F38AF4
638FE40AE373D2A7
FBCCCDBF5B72ABFF
8599DBF01DFBE25F
EE6D1FA778E31BC5
A33552800BCD7B7D
98EDDE9FDAE64AAF
EFE0CCC4BBBD759F
0A55335B12663FED
6FEFE32A067BC647
E6143ACC00079F65
5363802EB1C6A930
B1A68DF7302FE2E6
5FF6B95187B0C1FF
191D5370F5DA790F
76C8F0BCFF685EFD
FF7DCF6700EA76CE
8BFDF52EFD0B3AC8
E5E7AEBEE13D4603
7D7C24DB2C96DCFB
0200AAEECDAB58F7
1771006647F09D93
C2BFA90374D553EF
53E28EE447168EFE
D776F0E2DB675DEF
1606575056FAA976
EF675C5DF802E69F
FFF9107D76DE6123
522BA0DD2FA5EEDE
EDADEA9509562AB3
AEFF3671C07BA0A4
0CCC50B8BB771D35
AF76FB7D23E449D4
5526CFB6BFFE8F4E
BABBC8BA6F61696E
23F724BD25B2BFCE
4D634D44E3A5DEC8
5E2EC103A283C896
C97737FFEB06F9B6
E334FEE2B74D636F
677AB7780000CC44
A36D31886296029F
6E09FF75C4E493C4
9990A66B8020C188
EE1216773C0B8E4E
B5F400923A30B4EF
F743BB08C72A24CE
EE7BB03820C09FC4
23460001AF971700
9D0D84474CF9EFFE
FBABE807677608D4
F7F407338D643303
02409AE688E03889
57F0DEBE800530D9
48145201112D6F13
7AB4FA04E0123009
8C5A955117F9200A
90740A748D46B149
5F7737667466FE0C
F38CD0E087F19371
97FDCEEE5BE23664
2503EEBA804CBD6C
6620376434828C90
C1018FA94C633919
6FC434626232EA32
9E3B1757BF047383
971985E94C22A7DD
EFFF3C934A6196F8
FF25733220EBC302
FA9F672377EEFF5C
0DECE520463C010C
B5520525A4411125
FDBDFF3CD742811F
9C77E2C5302DCC6C
3B9B0A113A4F2774
2628A6EADF6E7328
10000C487176C8EF
5E240206B211E301
C0226E6C310C5566
0100FF6A3505C290
3580003740F00D00
4001869CEEBF9C0D
EE80D99D60C54B23
F15300A1A8444DA8
7558CFCE920099A2
140A9F647C8EBFD7
0220AFF4140D01EC
199630ECFD0EAF66
DCFF69FC08F687C0
0019CEFE4C142845
16CA9139ED82AFEE
C841FE75B7D8EC61
6E2304C18BD97CBA
9F10A675C0CEE888
6F6D2162107EAF65
10208EA2C7600BDD
27F878A251F7930C
F3AE288A7724D612
EEB2ACED29A0A046
06108854EEA0C82D
88098248462AD7C6
FEDAD33023064404
006CAB854376DA31
AA5C2018151EF024
DFD943B0D277F377
086E8D2011305BD7
B9C1480620034601
71AA5ACA820A8FDD
7E21BE88D598D082
D6CEE01CCCDF0808
60B0EC971F9B5338
311CEDFE8F7FF72C
8B38B96610564B71
C87F43F7BA4C6048
5D7836B8B001226D
656E70C8C08E30B0
86FE304888D815B2
CA552140D16EC889
C908EDE4D83BAFF6
E12ECBEC36ED4197
7F7EFF8D208DE09F
5E8E8C8A2200E3CB
AEC75400A40067BD
DEAF8DFFDEB78004
7F18F370C462B000
82AF5232EE2B5087
140308A2FFF1BFE9
FF6EDAD4C0D9B0EE
8317A87FEEDF2610
036D570A851B0772
C37FB08A29CE9B05
ACF09F3BF037D90E
0400008D008E58AC
29903642BE6E9884
F343FFFD984C3219
01804367FFB5EDD2
840FB1C5009FE67F
508818229D6CCC40
67904FFF1100AE01
FCE3512200CE6A7C
D0C0246EA719F611
0BE3EA1D4B9AFCF9
4FEE738C4BF88881
99C314268F5E4EFF
5AFF10680688570A
8D56D111EF113579
A808CAE1CCBFC6E5
03007C67F3854006
0293062053E44DA8
09BE140CBEE0D903
E196BD0D3D51FFAA
F6FAF3FF9CD76020
5B31E7C233402675
F6230D8D8EEFFFFF
F7FFC6408D3B1000
BFFFD71E624877AE
1003773803B6E2F6
D68873B5DCE49835
00016699F8CE143B
4019B944AD1CC005
87001FF3002E8000
126FCAFD4FC211E1
C55083A09298786A
9003F6EB4DFE9DFE
162AD4BFA0115010
810160904C11500F
D5F73FFF8FC80AEA
F18ABE48134EFE32
95020733F0453AFD
2E6E01103778E203
33C24DB33806E4B7
00FDD3B961658C94
32D15488F7046791
C4C22F6C01113CC8
288C80D5A3E3E57F
468C26480118D30E
220458C84AA9BFD0
90569DFFD2579EE0
154AE2BACBF7E2F0
4E716325BDBAEA8C
0032C7E330D313C9
C7063281BB43376D
337C21B8F3D36776
99020DF50094EB64
9900057BA7F205DD
3571B255084527F8
14619E800618B602
3F3A014524D3A2CC
F00A888E52EF09EE
93C94721C6631926
1FCC196AAAF051AB
36611748F4C86289
191D91D71E5E6CF0
9326048B6C1A3977
A2769AE8F84CD889
8027BD28CDDA1007
58BC86DD358DC6E5
26A744C2FAE73177
8E892088C962AA09
2A4A0C10051CDEE8
38224C9F3CEC9BBB
B3BBBF0E552C9066
18E404D0008EEE46
1C0520B5E35DE200
1DD1341F0200B2A5
8DD704E8728C5690
2435BFA5735DE000
5CCF46ADF2059313
223D25FF20EE3889
400FBE4E94F08803
7DC0002308A346AF
F448C2C7C705FFDF
09E8483613C6F37E
5A84003010C4A6FC
08B7164C216460ED
52C0F7FEF60878DF
98142FF6BBB208D8
D08A5D8105E01133
876884D7E5660F88
B5B80083472B5102
4608906B235980CE
B4F065197CC6B299
798AF6C837A72301
A06618CC210C4808
C416932D177D9F3C
94ABF87A0A2B8767
080E4B9844A35C44
60D05EEE5CA8874F
9A4DAB13308A1149
968E052A72E80A3B
F33F81FDC44C2341
34C0B70DE0A94C1A
88405B58013346F2
8876786258C60717
4211ACF300A0A774
19FEEEA89A641322
6F63DDFADF82BCCA
96E7233904DDD9E9
7FE72F11EAB12B2A
53A1A67C7F6FBE66
2BEDA19FEBCF00B3
C775FEED4E50B9BF
AFAFC00A231FCF73
564C6F180B670183
000FF7F5018888A6
B652CFBE8046EEC5
DBD4C845BC12B246
D52832AE1144CC0B
0115BCEE681CBA85
2A6A2470AECD3A12
C70509B0716937F9
F36778FC06B293D2
BF3136719CC02CFC
FFE10131441D7D21
0E58BFC110871F6A
61609B314CEB7B9D
5346EDCF4460A877
1EFAC45B0D16F32B
40145FFF3B72B2BF
AF5B843A44420372
FCD56BD931CC9FAB
D3DF919D8EA0B4C8
1F5B83A5A10940AA
9FB484F7FEAE134C
FDADC23207C73A9F
8FBF0E99949C8FF5
33AFFB527EC38C8D
C60B6F6F9CC4EE8E
AAD14C677CA819C0
9B800A7682BB77D1
967D598067CA328E
ACF75613F723EC45
C944107BEBFABD42
2A70ABB10531A3C5
4B814DF333AA6363
18420335BF6A39E7
0BCCE45CAE620141
3818CFC7066E2CD0
99D237ED9E4B02B1
80C23027DF73DFE8
06216123025023FF
402519AB5FFB284B
20FD8169ED27773E
0FEFFDDE4259EC63
200990CE7222461B
AFF25AA4DAA31067
E455A791C0FB6EB1
844E0CECCF70B15F
9E2FDE679F331C4C
5F06A0CEFFEBCFD7
6F3274DA47881CE8
AFF38D2237200233
8757016F73E871D3
AFC0605D0002AC0B
DEC28FFE22768154
70C472351D731917
7CFF6546E14479AE
BFF3EC460064EE3A
EC58CEFBD36BE5B1
D6FDBF76E466ECE7
F83BC77F8CEB8706
79CCF396B053AC44
75BEFFCB9C328610
EB457A33B8457CEA
579B602980831995
1D9035FB25806060
CCF0783F057405E6
889035C49C57FD30
FD46EDB7C7EDDF0D
0E10B24587B62E1F
3EFF4D445761B541
042D225A5B3E7754
1421B8C345194314
D7FE94CAA3F00648
BC78CA74E8D66891
3B081048CD9446B3
152F31272EB74F9F
223414E2C4CFDD77
41519950F2FB5307
02B3E6CC77EFA33D
8FDA20559C448CF7
FF751713DCCCFC93
20A854D8E6481451
13F3C24B4955E33B
8D2554534349B267
B331E301BB673C40
E5E88AD7E8295702
9D10669576B434CF
54CF204D63F36340
273672EE8F069EBF
49B94900274FF73F
FA24AB7CA174191D
8640AC12023EC294
AC0264D7A6C0B734
B76759FF20C7CDCC
727861EE4CE62005
0F4E113F8E5F92BB
57386610BE62C6CC
E95F089324EE40C4
FF733D40E6176318
20278CE8B3DBDA23
C6EC2097CD02A446
004D1BFB7EEAF709
6F34ADF863589706
CA55AEFFE817FCE9
AA888CD47CE10A68
4CBBED27F02449C8
CED11DFBD83B399E
7440E4629CA40F40
C1A79B7F128D84DF
95FE6F5329D7AAF7
F72C022CE01322CA
8C56F32C0B70E67F
33E887B0154F73F1
C04B88E0F834E3F7
A040C5A9E04FAC89
3F244F7E993FC841
91A480F142005F14
4F782CD4C3AB7B32
FE31FE3065EFCBCB
EF8C6292BE8D3FB5
81D1BB175B32AA80
670B399D69181FAA
6FDC0172A392C980
F3CED77F2DA281FF
410527CACABF15D0
144BF2F82E76B288
86EE917C0BF5A7B8
6B5CF59042F4EA0A
EAED91ED3154D190
A18AF061D7A311B2
476AA00140350C3F
7F5CDB2531CC048F
235A176F285B981D
095DF26D808381DB
C8A710EAA84CFE8E
080AE4B724B04D63
F777DA504CE781FF
7EB663729551AF40
E386797DFFF5649A
06D54A3C6114E6FF
B93BFC021CA35054
D7E855570D1B4078
80033B8FA55F881A
86F241FD6F8BEAAA
42D8765AEFA2A32A
09954995FCAE07FD
32E88D288193DB3C
CED141D1F2FFFB35
F2B9B73EC484D5F4
A0BEF7B8F09500AE
E7EE40BE848CE4BE
2F4F363BA86D6604
737302EEA7703413
39A4228F126B059E
6F60933FE9FDA10E
BDB6DE27810FEFCA
7290C885D3FDC241
115C5F8C36DF6A3F
67E09BB3A208B11D
043777E5597F7A44
99FFF5F7679E68C0
55CEAE38C1B127BC
8C9F399FEAE636A9
2BB33EDF78AE2E1C
BD0112272C3B1DC9
77ABB53728DE5F62
18CE025BF3AAFFEE
BF7E6CAFB3BF8BDC
081D3E7E557D248B
6F9F21DD59028CFB
9DD1C0A47F70101C
54BDF291E881009A
A9DF6A4F9094D92D
D8FF943FA420208D
281D21CAEFF05405
B7AF98BF5675EE77
647CE98E918CD589
E23CFBF8BD76AC80
FFBF283D2908CDC5
209BE12CC6223757
CFCCF84011DD63C4
E00CC3E0AA32CD60
82C6CD5C655DD64E
600F567FE3BFF541
80326BFC2F482096
85B6DFBF00BBE2D5
E2EA8988BFF672FD
A1D76C458FDD0EF0
062EDEFF9BF4B427
12251B8260CE7BCF
F917022DE66EC012
7F3CFDE777FFADEC
D9DF267B170C1057
D25D3F2FAFF0FEDD
210926B312EA278E
3EF3BEDE773012DB
CF81B17FF92FE4AF
DFB182FAD3FE35FF
3ED1FFDB11151FAC
3FFFC873C8343ABC
7B33E972F3EE3D1D
71667EF0CA7CC8FF
10FF326691A322C0
DC7FB16E03DC1E64
2C75FFFCAEEB5FE7
E02F21CFF6672DF4
07BFFBD6737175FF
7B3EF7A69033EB7C
D99BA8CEB8EF819F
761694A2BF1490BF
FFFBB75D3B77A032
3B7E2011E6CE4DF9
1627907C7FAF1278
FF3ACE69901AF5FF
F80FB33802CD3AF5
FD39A37C80A1ECDE
011FBB9DF6D1F912
F18DF0C677FF8A9C
54CF17B266F0A484
1E78043957F77FD8
CC0D01D23C8F3B96
05C680056115E8FF
091767F9FD1F36C6
233F21DFE6784517
EF01D9E7EC6F9497
B5007A12AEEFD07F
601470349D6F697F
EFF70D60337CEED1
D68AFFA3B17EA16F
286D1EFF8BFF8031
6B84C8A9F40B5A36
680D2FC30A0B931A
FBACE9137E94B889
0AEA7B3DC7FEB83C
E18A7F98FA4E4739
90D79CD94B83ADF1
FFF7C5CB8DFA2699
3772B2F8814B7B0E
9AEA3FFBF64B38D4
BFDC3BDF3C8B77E1
6FFF46807FFF132F
FE660C06405E80A7
947C8857CF37E2E2
134BA36F41960274
88779DDD13E6E07D
2F9AF01D9877320F
1D09D2AFABBBFF1F
B3AA3103527E175E
F6858D98391B46E5
D59106DAEFFD2616
670567A1013B023C
74182856ED6670FB
02D1163F775F4CA7
06FE43A2AD1F5040
E469160004730108
4467B3FF746B64B3
02BA0CE639F67CE9
455EF00898493210
1E6A528D26FEE6FE
FD820268FA190731
317FEFEE634591A1
20E9077CD275EBD8
C1FF155587C1B548
A06172208FCF24FB
AE062B8EEBE7E1FB
3EBE7FF4AF2C57A4
B29D0ED83F2C27C1
FDD697F7201A7F91
100B1882039B770A
D8794617A597FA16
90C2D8D743015AF7
69E1DEBEA00BF21C
226CA6B30C184284
238C7E7F10F2E667
EE563914FE03FF93
76F924651005333A
1D22425E10CBC377
801375490F3908ED
544D994214002B93
EA7E06F20F05A48A
59EBD13F7F8F464C
74ED1347AB7F3FE3
B79396F1245D07C6
44FC673260CC002F
42C8014A1A0160C7
27E8B3F607673AFB
6B25C6FF082C7D8A
6979D8BF078795FE
2BA5D13538B7077F
D4AC890A828BFAF3
2FC41027A1A791BE
71D7E6D633055820
7F3DBE1FA05EFFBB
2301989766F1FB26
F04FF90BF2AF1F6C
EFB0682893FFF626
1046EF00B3403527
F7D7F7D4D1FFDB87
C52C71F67501E38F
F27F17FC184E093B
069E6DE89BEC9C73
E370839CB0EF81EA
5055FE7E6E3FFDA5
64E920835BEC3FFE
55B81A55170F1740
2739C8808E400DCA
8FF5A738FF9FD9AE
3762FFA33FB97A3D
65EF2C55812662A8
D12DF832F66E2769
61886F806F5BDF93
CACECC05F2EB1A20
00883D835006CC36
D107BB6133024F62
6A1004BF32ABFB9B
EFED951C733C99CF
C2E3B008445580C8
7CCC9DFF2D0AEBB8
C2AF42C69EFFF9BD
DA5F62DCFAEE322B
2EFE00FDF276B3C9
23BDE3D59086302C
263C764D60CCC089
7FFDF0E93FF58363
B13719B9204CF393
81CEF475CD1EAF6E
53EE24BBD670FEA7
15FC108D10038463
2EF798C8CC624047
AE976BE2776AADC0
E7F455FEFFEFF874
46D52281C11D15F7
D1A228C50FCBC4CE
FFEEC2A28C1CD2E9
900D200B888ED3AA
84C849F943127326
FF7EF3152713AF6C
1B93C84E5501736F
75DC0A3200818884
EAE5F14D8C744844
F141FE1080F3F7A5
70C7F79BDF8317B8
E5CE004F9132D405
7DAC03B0B08F67AF
B0FE48E727EECC05
B2DC9A7FFFC4DF0E
075EF8FF3CE5237E
4CEF1226808C8FFC
F001C92787BE4CFF
DF0D73CC0007BE88
63ED9B3F337AB7FF
D01077EF7AF7DE5C
9EFF44BDFF966BF8
C4DE76FD9021BFFE
AC0E6ACB82D6B47F
28CCE7EEF8E7620C
A2572BEB00B93BFC
7FE17429AC8C18F3
DD55E3BEFA05A56E
3AF4F7AE98FD8E59
8793740CDFFE5DFE
E7226446713714EB
8AF860F0E6D66375
7EF5F3BB7A831141
8FC4DBCAFE845967
C0EEBE1CF1A4A085
203F9DE9BEF9F665
A5FF2DFB9C246EEE
2870F17BBE7D614A
386DBAB91E72FCBF
EFF76EAE101B2FE7
40CE7443AB39BFFF
DDDDF0E791EDF2E2
D5632EFFBD8055FA
EB91BFFAE404561F
BD6ED58A0F028E6B
11D6BB8CCD7132BD
38BFD489DF3C3242
F67B067FEF9C7F0D
FC8952F4AEFD17FC
C8983A94EA3FF891
3CDE4CEADD580797
CEF0CC927CE654CF
7CF9728B3710B51F
248B09B44F76ACDE
DD438F3F67D22A47
AE7F938D27E80553
983B26D90E3FD93B
27EF87FEE2D85977
A9809E8B3D039199
12F75202E73F101B
FBAF5408D7D8B913
C4902AD91D7F9F1F
3D74569DF5868F0F
94CFD9C8AF889FFA
EEEDEFBE8FFFC18D
A017F9FF98D002EA
F9F96CD0B48A6900
9FBBE2A033130D4B
CE839C03A221B91D
7180B730ABD6CF97
FFB17CB787978CC2
7F7F415411F776EC
3D0BB37A73331807
6673081098ED8CCC
45A764E94F2654B7
41D15FBB6789E1B5
EFC0B7BD1F9F98C2
37CB77D119CC5ED9
70483D9ED99E91FA
279252B8815FBF47
51071C8BFB519FFF
7771FB3765439807
400AD0E6F1BA9D17
3B87BB1208D67788
B735B61B31A09CC0
F7F7872742AF971E
D7FC9CDEB9740F90
FFF700CAF7C727F1
BBC0D4031CAB9C7D
E500BE9CEF67D18A
C761E470F47321D6
973F1F5CD9DE9771
94E6880EBDDEDF83
5D2715785305FBF8
F1C0084D899BF2FE
433BE72F6404C20B
AEE60580FF59DAB3
800031F3FBB399AB
8CA87DD080ECFF80
2413FCBBF73136FF
DDE856C3114801AF
5ABF042AEF074F1B
A7558A2D8E69DB9F
8A8CE1BAAE8C751F
CC0BD693DF97FF8A
3EF338109EBFBFF7
17E92C01C1BE7301
B30F884835D99CE6
7D66450757A89128
4DC4D7ECB5CD76D9
819E488E00D2408D
031CDFEB56C812A1
2F3736A1ABA0FE22
1473018AF52A7E25
8E9D53CA654C7009
8FC5C56EDE603C37
BAF7858892278886
EE4ED4D3310F88EA
BBCFC11CF38FBE46
F778744936B71074
8EA0C4E4C8A01006
A3EBCDB3410A151C
77FC9FEB82D17576
2088D58D0AF88D01
204F061E11EC63E5
D88E712F408F1824
332BD98C088C126F
B1BCD33C4632BF6D
9E7EC1B0F7CE7846
A8CD0237C3D85B9A
95EFE326FF8F7188
657896AB7F6D7042
1CD7FE6EC066A8CC
275FAA1EB1AFD3AC
3B113EEC96E6D6F7
4A139C5652E0CC2D
96FB78A550A75E02
FB482EF3557FC5DB
93D4DC20865FB044
10197DA27825BAFB
80ED16312C4ECBAB
EB08A7CAF05C23FC
40AC15E0023389EF
F7970906D2A9C5E8
741022E6B48059E2
8F5F1C6F904C4004
2C68C8C4C818AC3E
9B861D340CA57186
C049D28535CC080C
D8E7E99AF33A08AB
DEAE3E0C0EB2BF77
3FF5C03E9088E18E
D754D308D3073D80
6510A486E4E3F857
39142E6AB7F4D7C0
3017B18435CDBF0C
C8A2706B8EC0F64F
202EE98D644C3744
BC50130CC16F38FF
5060EB3D53D4F16A
D32719B111FF1FBA
6BCF3727E4AAF2CE
8F8055F24AD7B118
54895786A50C1518
F6C84D77FDCF9989
FD7AFA21601C5F28
0337B6CA82A3589E
6EB3BBC835BF91C0
4234F2216148CA8E
6F6B39CF8CB325EA
ED22768902647F7C
3674C5EE508E9A8E
FDCC27626550FEAB
10048CCDACDCBF32
23A6A59A108577AB
6F7BDFFF24C0ADE2
B76F03F27CC78704
BCE47F81B9273B4D
3310E7E531085532
63304AF276EC94F7
AE3E21FE2400DDEC
61277C3B0A89B0AC
C6E07EF9057009C6
999FB10CAC9F736C
A6EE378042F6BBF4
8CFFE1459B33EFFE
3BBEDD8E7F843D31
EE83501C03BF443E
5921108E21C87B08
75DC9CB7308BAF1D
64607A452BDCFBE3
AFCA299E47B217EC
F62A0900F7CE2DCC
C97D2A01BBE16617
A322B80C7BF6A9CB
FFFBBECAB0342144
F5376642E6F53EEC
EFFAB32ADEE66FFE
973AFF4CA5EEBA02
9888D54131CCFC43
330B51008925671E
2758D5A0FFFE7511
FD218CFF27D56313
0180EFC5F955AECE
50C0118391503BE6
93421760056EEE39
2F4A4D1B008CD1BB
7ADC3777710F9E73
308C857C771CF6ED
9CB7BED956CD5108
2532DEED223B9F74
57CB61A8BFFC03FB
F123B320418E7C28
A6CDA62298E9FAF8
8ACF4944C5460400
11F7E7E01614C680
B31E6E9965E03DD4
7E45E4CCC2C1B211
8CAC41037376126F
5330CFD4CDC9E580
1108BCE39C8075E9
2C008FF118D4CF6C
BB5E55F2CE605104
FCE63D6597FEC3BE
F18EEC46B031844E
7032A3746448A200
BC815F850F65CF10
377AD694F90798DA
DF40A37C0006B394
46AE09B6D188305E
44820E63B041B325
78051EBCE6C8375C
A174797ED833D114
F121F7C6EA98131C
5ED04EEEFCC46BBF
F330D7675DFE6EAA
0000000000000000
0000000000000000
0000000000000000
0000000000000000
0000000000000000
0000000000000000
0000000000000000
0000000000000000
0000000000000000
0000000000000000
0000000000000000
0000000000000000
0000000000000000
0000000000000000
0000000000000000
0000000000000000
0000000000000000
0000000000000000
0000000000000000
0000000000000000
0000000000000000
0000000000000000
0000000000000000
0000000000000000
0000000000000000
0000000000000000
0000000000000000
0000000000000000
0000000000000000
0000000000000000
0000000000000000
0000000000000000
0000000000000000
0000000000000000
0000000000000000
0000000000000000
0000000000000000
0000000000000000
0000000000000000
0000000000000000
0000000000000000
0000000000000000
0000000000000000
0000000000000000
0000000000000000
0000000000000000
0000000000000000
0000000000000000
0000000000000000
0000000000000000
0000000000000000
0000000000000000
0000000000000000
0000000000000000
0000000000000000
0000000000000000
0000000000000000
0000000000000000
0000000000000000
0000000000000000
0000000000000000
0000000000000000
0000000000000000
0000000000000000
0000000000000000
0000000000000000
0000000000000000
0000000000000000
0000000000000000
0000000000000000
0000000000000000
0000000000000000
0000000000000000
0000000000000000
0000000000000000
0000000000000000
0000000000000000
0000000000000000
0000000000000000
0000000000000000
0000000000000000
0000000000000000
0000000000000000
0000000000000000
0000000000000000
0000000000000000
0000000000000000
0000000000000000
0000000000000000
0000000000000000
0000000000000000
0000000000000000
0000000000000000
0000000000000000
0000000000000000
0000000000000000
0000000000000000
0000000000000000
0000000000000000
0000000000000000
0000000000000000
0000000000000000
0000000000000000
0000000000000000
0000000000000000
0000000000000000
0000000000000000
0000000000000000
0000000000000000
0000000000000000
0000000000000000
0000000000000000
0000000000000000
0000000000000000
0000000000000000
0000000000000000
0000000000000000
0000000000000000
0000000000000000
0000000000000000
0000000000000000
0000000000000000
0000000000000000
0000000000000000
0000000000000000
0000000000000000
0000000000000000
0000000000000000
0000000000000000
0000000000000000
0000000000000000
0000000000000000
0000000000000000
0000000000000000
0000000000000000
0000000000000000
0000000000000000
0000000000000000
0000000000000000
0000000000000000
0000000000000000
0000000000000000
0000000000000000
0000000000000000
0000000000000000
0000000000000000
0000000000000000
0000000000000000
0000000000000000
0000000000000000
0000000000000000
0000000000000000
0000000000000000
0000000000000000
0000000000000000
0000000000000000
0000000000000000
0000000000000000
0000000000000000
0000000000000000
0000000000000000
0000000000000000
0000000000000000
0000000000000000
0000000000000000
0000000000000000
0000000000000000
0000000000000000
0000000000000000
0000000000000000
0000000000000000
0000000000000000
0000000000000000
0000000000000000
0000000000000000
0000000000000000
0000000000000000
0000000000000000
0000000000000000
0000000000000000
0000000000000000
0000000000000000
0000000000000000
0000000000000000
0000000000000000
0000000000000000
0000000000000000
0000000000000000
0000000000000000
0000000000000000
0000000000000000
0000000000000000
0000000000000000
0000000000000000
0000000000000000
0000000000000000
0000000000000000
0000000000000000
0000000000000000
0000000000000000
0000000000000000
0000000000000000
0000000000000000
0000000000000000
0000000000000000
0000000000000000
0000000000000000
0000000000000000
0000000000000000
0000000000000000
0000000000000000
0000000000000000
0000000000000000
0000000000000000
0000000000000000
0000000000000000
0000000000000000
0000000000000000
0000000000000000
0000000000000000
0000000000000000
0000000000000000
0000000000000000
0000000000000000
0000000000000000
0000000000000000
0000000000000000
0000000000000000
0000000000000000
0000000000000000
0000000000000000
0000000000000000
0000000000000000
0000000000000000
0000000000000000
0000000000000000
0000000000000000
0000000000000000
0000000000000000
0000000000000000
0000000000000000
0000000000000000
0000000000000000
0000000000000000
0000000000000000
0000000000000000
0000000000000000
0000000000000000
0000000000000000
0000000000000000
0000000000000000
0000000000000000
0000000000000000
0000000000000000
0000000000000000
0000000000000000
0000000000000000
0000000000000000
0000000000000000
0000000000000000
0000000000000000
0000000000000000
0000000000000000
0000000000000000
0000000000000000
0000000000000000
0000000000000000
0000000000000000
0000000000000000
0000000000000000
0000000000000000
0000000000000000
0000000000000000
0000000000000000
0000000000000000
0000000000000000
0000000000000000
0000000000000000
0000000000000000
0000000000000000
0000000000000000
0000000000000000
0000000000000000
0000000000000000
0000000000000000
0000000000000000
0000000000000000
0000000000000000
0000000000000000
0000000000000000
0000000000000000
0000000000000000
0000000000000000
FE24FF890052FEB3
FE76FE3BFF7C00D2
0127FFC7049A0116
FFF6FFFA01EFFFF8
0393007C007CFF62
FF82FE6CFF5BFDB8
00D80256017A00AB
004F00980131021E
0000000000000000
0000000000000000
0000000000000000
0000000000000000
0000000000000000
0000000000000000
0000000000000000
0000000000000000
0000000000000000
0000000000000000
0000000000000000
0000000000000000
0000000000000000
0000000000000000
0000000000000000
0000000000000000
0000000000000000
0000000000000000
0000000000000000
0000000000000000
0000000000000000
0000000000000000
0000000000000000
0000000000000000
0000000000000000
0000000000000000
0000000000000000
0000000000000000
0000000000000000
0000000000000000
0000000000000000
0000000000000000
0000000000000000
0000000000000000
0000000000000000
0000000000000000
0000000000000000
0000000000000000
0000000000000000
0000000000000000
0000000000000000
0000000000000000
0000000000000000
0000000000000000
0000000000000000
0000000000000000
0000000000000000
0000000000000000
0000000000000000
0000000000000000
0000000000000000
0000000000000000
0000000000000000
0000000000000000
0000000000000000
0000000000000000
4104E0BBFBDB4800
5C02020656C4B44B
1858F1587FF880AA
7735FB74096427CA
86A1D938E1B3B7F8
93C9FFB6831277F9
961DBAD20A041208
8D2649BC88465CBD
440B3168BF497472
81594013E470151A
FD42F928C0A99277
E3DBA8FF7B817942
FD70955162640510
26AD0C403D031A33
326425CAC3871954
DAFFCFF740F27DC4
E541FB554F50BE51
06374342E2EC8688
EEA7DFF28715258C
EE95577288133154
B208364200D85A83
C1C45485C40A26C3
EF72011820017B20
DDEF6D2F08122718
7D98DB08CFF9007D
85AC5201D248C684
3FFBB27F88F18EB1
0280C0B6C1298BC9
F7EF7110C99CB914
044C802261004B40
D74062F7B5F9F333
20DDF872E0CBC46B
903310748D581000
E0A99A43F97015DF
050228BA174EC557
FC700710C001BA97
3DCC906C42686412
7720DF7FE9CC9911
7E62B7E50B845900
620B007D2F6419F2
0760A01D983F6047
3B06C249004C6D77
854FB1997FF7BF5C
E4F7EFFF0677A84F
DFE434C04E9DF1C4
232E1C125B74ECCA
B9FE77105E153FEC
715F09A77F350EDF
1BACE7F2EFF4791F
711AD3C2243F52AB
7BBD3274A0A32728
1761A9D87D686C97
FF7F5B5574974B13
74C54623C526E432
19B76ADF07E7CA10
60001111736622B3
FE0C02819531CAEC
6E5C02A0188760D0
BFF2948436E8114A
C241EB712FA1C116
6A01F6E47BB867FB
2F0F40115192D67F
A0470E84755B7FFF
E6562797C0F59CB7
0CE1EC0CA9FD008E
4611C8764F6FCB1B
8863F0F932EF5745
E32BECD623B4F0A1
408E1FE1FB0BDB67
B4BD83507F80CF38
00358A80E9CFE3A4
F7F2678305F96E98
778F837AE328B561
74D825E047CA178C
DF4D720DAAE30778
C044134C3F40D565
988F152647F84EE8
028A45C09F4A2939
65A96DBDE8370C56
2580ED90B837E1AA
3304D9A528C8F50B
0083F12FB1EAB597
BFE3721388735E99
F3B701C204D3EA11
68559BED3C98802B
50B50D25CF98D6CC
60B01DCC6446FE3A
6C01319084EE6AAA
CD8CBCD218F73A89
FA9A198DE2E74F79
C281DA106C7205BF
BE3FCDAE0144C855
D81CE846AE0082F8
8DD71AEBE00DBEEA
F33B7B9ED422C766
D7607DEDF09F13E7
984CBF61FE6712F2
B56AB7739D9AFFB5
5912F73C4012D9E9
BB4D0223419C720D
C27E65C4342993BD
49391E90A39FE36D
1D6870554C959244
0EBAA113CEF8B404
031AC965007BFE71
F20190012DF8FD94
C1609C6E5BF44A63
BD294E9D32A33F0C
565B1BEBD84F818D
48024066FD3FF075
B648880C3930EFA3
F01CA2EB89611FA8
DA18C325871482FA
FDED8986EC7391B2
C6546B890329E734
1042BDD434A251CC
BB60EB10EF2A9B77
84B57B2571893BA1
04A89B00C8D5082A
5046FCF9038D8B8A
63FCFFEF198EF1A8
5D2276EEA63CDA3F
FF1573BEFA1E5588
65CA0A78523CEE3B
0990D0741CABF84F
680EDC51C8C968AF
2B7EC4747619363B
FB3AB729E3102B30
4F6AAA12103600B7
5BFE8CF4098F01C5
4FF34528CC103FBF
17E44D8537CE1903
30DC56E8A1C3C762
7D2AE0CC600076FA
58A83D36AF5BBB3D
FFEB83D957972AF7
37F6A78322B1371F
ABD5173C7FC50955
6299092503B067FB
CFA07BA2C22EE7CE
87E78EC2DD4613FF
381FD12A5029ACFE
FD05F33337E63FD9
305BE5F533339038
70BFD71B101126E8
1A7F761E89908D1F
EBFEB937E0DE5208
BE77D72E6C8B20AE
1747BDAF697B1F6F
8476F2CBB5B9B783
0028943A291C1238
470B5357E58F821B
69FC191571E7DF43
A81E7A2CF1E91611
54AC33373F90FB17
39EABD94237E91B5
EA10F67E376B576A
FBCF77E33294F088
7759BD43F0A08448
FD7CCE7F3C91AFB7
1BDC37C76DDA73BA
9FD3818A157F9070
111D7F5F70774134
800464E07950DC88
AF05866D4DD0770F
0A51E5578A9B67D4
02FA1B5A25C1A07C
7B35C61A818CFB5B
F13608FF4BEF66AE
BFF93251AEC633B7
5E0D0401E17081FE
7FA33320430BBE9B
29F85998C934CA0A
3095F2FC9BCCBD9F
6581B69F0AE73536
073F23195B7797B6
0D3F04240044E24F
04A8197C83BB3753
2D9D9F0935DF664F
C7ADF41473029713
40D543DED4CCD9EF
7BA8D05FB5660157
572C3D33BBE6DFFB
A6290150D8C8F969
A73974FEEBE030D7
3B275B3337644EF5
E5687D19054F0735
109CBCB28058EAAE
79FF07DD816F00FB
9D0CDC44AC78AC00
97CD734F076AE620
5A64D226FB50F444
7F684401CF67AF7A
37FD8CD0C0681BDC
9F07B7DB109CEEDE
E3983D8FE89883EE
BC62B729752677C5
08DE0A1CAC673BB9
7D687775CCCC92C9
F53CE110FB16C952
8C057447783A7EBA
BB1EE548B060C001
ACAECCE7C830AF14
FF141B5D29AC8DED
4EE4BBB357CDBF76
AC75D046886216FE
099B510537C8F303
6B120237065A2401
FB9CCD0C246C9010
03C41DAE8A514068
AC3D829D28FFF064
CE8532F7860211A9
4713003287748ECF
AEF95732EB008E01
8BB7332288ACEE86
9757C66038540885
8E44AE5D00645900
9A85B906E0BFDE18
AF30773BC068B48F
F33D59729E6BEBB2
FA60FAAAE3406E61
03BCC6FBF798F698
BEF6B78A188C46B3
210B2C3C9A68EE99
1AABF6BD07F5F131
FC8EF56CCF44E671
081DFDAB86679DD6
523335ADEF26189E
0F1463085F04ED24
CE12FF339DB36F1B
E66D1E66D56C8DEE
F71620644805E2BE
8646F09C3E7F99EC
6EF46D240F3DA26F
999A80749E31BA18
A770EF818DC63CE6
A82A8C7DD7314435
EA6102EF0A58CC84
93007C00193EE638
184E888CF3C70681
24E617A0A1032DC6
713C65774824AE02
01D8FF01F48DAF17
8C9B91986A44C066
83D7906090906460
FFD5F0368495C206
F7250E8953E6AFF6
0A48020282CCC884
F784D1372C45C688
0CA599802699FBD9
4997101184372A25
180F678F3091A9A4
87EF0D7F9F6EEB65
4154D7337771FB1C
8F12F7845FFE5809
7B3389F4A2A8D888
BAEF11F582E48AF9
06F7091BB0336A91
AE02F533408C2213
EFDE7FFFEEFDBF2C
BFE04FF93FCCAFCE
FFF7063F4E086894
1560440182F2811A
8C9DE7FA5E79C026
900BD5C65AEE4843
BB088C0C0922C401
53AECD985F477480
26A8572009893C09
11E7EBD160FE9E54
49157877780F7AF8
DD9F3FE382CDF01B
0C02033381FE40CE
E0109D0D0080601C
62545F766D41D086
020CDCC4D8D7ECFE
0221009203C398EF
70A804362B20F756
FFFF877E02863003
D98F214066EFCF06
D677424136EC305F
6C49867B016E7104
9B900295459F1973
BFB50314112ECC57
3B1DC9FA03FA0FE8
12BB9EB6D9065FE1
AFFE99BBC088D5A6
BD833BBC5B84DE8C
500E6EDCE2C74118
0FF1FFB9B3316F12
A4D6B263BEC89E20
8AE3FE819DFDB663
773328E53FE1385B
02FF4E0F3517EA72
9EC97F6EDCE8143B
00E1ADE49B681FF7
AE254364017544EA
8AC286EE376E0E2E
FA1902C0DE7D297D
2AB3E9A6350123DF
8630EDD7304BE1ED
89CA037F1D03AD7F
CD6368F738F84337
AE10E07118EE00CF
AB463DDCDFEC54F3
FF033A24550068F6
0BD9AE43C22A215C
E870FCD656EA8371
08B172AF0E77D1A1
0111D8BBE26E880E
70D6DB5C8833773E
A6E7362E77B816F2
07CE9330228C500C
7FFF036905518B5F
48038B08FEDFFBC0
41941077E0E54230
4024CBB802A000E6
03EE323F0E7745E1
C0C5837B1F7D629A
8D934C7FBF541BEF
31592E88F26F742F
8418040250993FF4
28AE2ABE62F14EE8
C37168E2B9054DFF
CF6EAC8CF0832BD1
06C416FA10818832
E2988EA05D60670D
00228002681A134D
5E63A6E02CDD2F92
EF7B607145A14F59
99AC5DEF4A1577D3
FCFF7B00041BCF69
6F32FB77B52CC6E0
20754441AE2700FB
3BAF0208802B805D
F65D877A82360D59
7722D9EC3FF59D3E
0000FFBD427B102F
3F15EE99C9AD58B3
6CE3BBEFC8498D80
F36F876B9CA187FB
109D1CD9E1330634
DE7144412EF73360
C877C00A78013FB9
03BE211F8920661F
081098107E9D2740
00176249D0D10232
0CAE886BFABDDFC2
248FF769CB360011
0009B774489F345F
AB0EF7E8632FBCF0
E33B996CE726F7ED
D6D98243EFFD8C7F
077B76616BDF53EB
4B6E00815FFFA8CB
44EDBFEA301371B7
A804095131166F84
E18A5B772764D7F8
0712611F3A8EBEC8
05487E4C963234B4
5021BEBB6FDEC01C
C02864E74FC87FC1
FFCB663808004FC5
A4FDC67033FC8806
67F9E7B04B1B204C
7FCD090E004FBE79
5CA4C6057FE27EDC
7E5386FF2E8B252B
FFBAB182AA50004F
CFBC553CFD4244AF
488A8014F41B38E6
A4B7CF2AD2FFFF7E
C6FC7C457B82D8FF
FA4797F3FFE1FFFF
928DE0606CD64367
037CB2E30D83E100
20C54279490AFDCC
B918A71A67C0444C
F137CB1253EA8066
EEB2937B3FCEA571
5FF1FC0CE931ECBA
1C09863140E2A6D3
FFB5C8492818800D
1CFDE46B6E12BF32
8847802AF4470ECF
E9BE37CFD7FEE4F0
84CEEB4800AE3253
4ACEE5570F78247B
80CECFD1C4F2E6FD
010D9E7CF7F25FC2
7301A7BCE2B0E282
F9278FBB94D4A820
F8C40008763A9F9C
A81867B9617D4C1C
6A13F92F3DDE81F1
FF151067FA8886FF
C374875EAA9BAC9C
81665DF8C1FFB08B
FDCFED562FF990C7
B7EA72EB00474DB0
39B92E09A30CE108
7E3F21018882F28B
9A9EC84C04E3B92C
6298FE7704737204
68A602D91B6F022F
1FF7DFFCBC0BA667
9000EF3F7BA86DA6
0378FBF09031A773
4866B83F02A48306
1E5FA807118692FF
EE3CCF36F91CDFB0
9BD0910D686F20C2
333F11C5242EDFE0
E673A936EB3C1043
E7BE155298017675
6AF283B05D7CBFF5
31E75807348E605F
9B98DE7C5C2CC4F9
90607BB80FF326C3
80356300FD8F08E3
433A66A0FF79F5C1
D1110501E3BC428F
4B8D5EA11543640C
F11FCA6F3ACC809F
08E76410F212B197
9E14116F5F06C322
F40082CC7762A3C5
5C152C0818A638C0
DDBDC15C320E0104
986C2810F626C051
C099F9809189A947
E3E895271129D9C0
F71DAE11404FB932
0002F7A846E2AE89
338D3F6E1950E166
A96486B9629D8017
B898CF75400CA3A3
23FF196B82353B42
B906B75EF1571014
C73AC564100EF2C2
003168104A126C11
8CC472AAE9AE793F
084E8E8B75709ECA
206BF90006F7C8FC
EF7CD83313ECB888
F51FFC81CA8B90AF
892E733CA1DC5761
1920139E426E48FF
DBE8ACD3D0E2FFBC
0BDCBF53F0F8F01D
E6F1EAD85141847E
40E2DFEF1F6B079D
81D4FFDFDFC801DA
0090BFFA90C30216
100079FE1DEC26C0
43FCEECD9F4956F8
06CC455F7F00FD8E
0B7B80E15B91E530
0FFE21CA121F0FFF
7FFB8AF500099C7F
F7600B6D193B9CFA
73DA1E8CB3A1023C
FD719FD0D1608877
5EFB1121BECAEED1
C2FEBFAD068B9BA0
82DF4B8BCAD0E650
2045E30DEFF35D6F
BE083BE397219408
D37D967B271FEEC0
CDFDF8C5803017FC
7731200587FD7717
737F953FBF47C86D
EC126051880FB6BA
6178E316BCE3887F
FF96201F1590629A
FFEFE68F78CBE3CC
BCA3FD924240F846
C49B077FB560FC7E
F74F18CF108C16F3
D80F848B01794F69
20D184287DEA0444
E23A7EDFF4653FEC
7FA701100078F7F0
F3987FCE7D576444
2DCD3433115C2217
FF0B4EDC6160C80E
C033F4C9DE6EEFEE
ADE004BAFF272178
50CAAA00E180C869
1348FB76DF7A6680
8DAA6621FFFDB2BF
04CF4C80DF7FA498
1FD46FEE077BFEA9
2CF53C1A890870FC
2512390FCAB8B3D1
CFFFE5BF66AF2DB8
42AD27FE8C31F9CA
088C020E9B28AEFB
C402F00ED818800B
28C1EFE5D0655F1B
5266BBCA51885B91
7C56B0DCBFDB7C8F
8CAA444942143AD9
7738D7F3DACC8EB3
6E1BFCCDB8DB2CFD
2932F01346634AF2
244CACCF8FE86C64
7A9404C562E9BB77
5FF948CC8B0B4491
FDEB3F7B8160BD9A
5FAA402E14B98D14
E77F4D0C2D39A041
8E871F1374F3BFB9
D760480B0873811C
8886A14611088707
F2D73A22DA7CB8CE
EFF53E402323FABB
22861DB170373307
B305A310A5C37ED2
84B013359635A7CF
79D70F0111148C61
C284984522397737
43BAD0D4BF47A616
5C4458274017FCFE
7C400E661A74FF66
9B1D24D337F18E71
9C511904022FF6D4
0060FA00D231E208
59DBD2C26361CC03
03CC2ACF0248CC60
DDCF800AFB9613C4
3B2DB77842012004
1DCEB2E000C02004
900601A34EFE6B2B
D28F2FE2AD3C3E3B
DF984BDEB8E6004E
6F045E9FFE20CBE0
0530327018B3D698
22EAF0FFFF76202A
13246192DE762840
0036F973FE72DEDF
A354485D25261173
C6E7A4CE57F6FC1D
3435671820C4FD74
0AC4F6395C10F6B7
3126FE7526D86038
FE115714C0050CE7
1074370E9B9DD8BD
7F2202263C19E4A6
078046F91691401E
2035384093D70B9C
D0A6FEFD88D00049
80F43345100D8B7B
33F056C68351EEEF
00A6CF3B9E1F583B
1E5D9D290EA99611
F6F0B2CC8B842613
C108022006B47460
21937FFF01078B07
ED1844C689100FA0
506E02605420DF70
2CAA87BEC2008677
18323EFFA7620016
4FA48516E775F791
67A3DAC4807C3A32
66EE3B00A6555FE4
56A0D135F50C3791
0199C80400A8C6D6
3ABE20E354289A32
3E08567779FFE4BC
7CEB3C662410DE36
EF43DE700202ABFE
2BE7750673762EE1
2BEB5B930000E291
2FF60A840471B33A
854DF21227774851
0331232107211710
D6786397B0336B75
FEC08EF2FEB71386
F71FFCECB52794FD
5092FB8056918280
9FF5359EEC0006B7
AAA02224844F70AA
4848D47D6B10D0E7
10D50450563FCF41
66652E476002BE17
F37F47770331E0C8
5B4737E2E8103B65
BEFBBDCBA31E5F2F
7AB3A0EBFBD5C5DF
A4960EB52331484F
11683338C7C671E5
55DF6A2280FEF651
9FD781104E79E268
36D53077FA8CF0FE
ECB3C97777687643
767F7EAA0EBD54B2
8B677C83A17477F5
A3F0C8CE327B23FB
F3376CFDA5B068C7
FAA717BEFE2147FA
D732CF84EA31A769
200327A4F1BF97A6
11BFB40676A8D64B
48C7FDDAFF611A09
502FDD723290BF8C
7BA8E66681F23B09
111EAC8096BBA177
7FD0E33B01E5F7FB
7B9EF0C2D900FC8B
24180A85EF775482
97FD98F073966411
6C0467DC00464658
EE20B67323758E9D
67C49402B9D8FBE5
6AC75F4A2260CE88
536222DA43015330
63BBE075FFCC5190
88ECA47FEBC616E5
DF01E7317EFEE710
41682C399A754846
4F9F452A0AF3E4CB
BE78F8BEA7760788
610D73EDEE04F739
BDAF5F6EE6A54672
BF68077F002070C4
2633173113305FA8
369410ECF8E500B1
F3DDA1206738FA72
E06F1362AE885F70
56236800A0EFCC80
FE596B9B8F08FB07
E5F7FAF7C60176E8
890048D1FEAD4323
33325C33DE91E87C
10B8EE20C6A9797F
A0644E8C4AD61001
F6A4B756DD6006B1
0C10B8E34D381000
6DFF7B86E96B6CEA
C85752F720203CE9
BB9E378FDCE0523F
B3BE142C5BF369D5
A9D5BA9358DF894C
0BC4600AD803CF74
04E4FFEFF0F8B2E7
28EA0FC697648204
46EC16A8B5CA1E05
478F57465F49C0EA
625C7F8B43872A8C
88EAFC96FF7937E4
EC9E10F98197DC56
3E06DC44F27EDC80
094D5B7BDDC2F7C4
E9621D2AF6EC107C
4D9F7E6FB8D1701F
0ED284EA099B400E
30A87FD80988B500
A9C673151DBE8400
6CDC25C8A8B3FAF9
8BAC7E01060FE02A
8D80B5C887F652EE
F88C7F3128F71BBD
C41027A2C8CD0EAB
F930C882232402B3
F1F684BB6DC61640
C4599764A9C17672
8CA651E683FA772E
9001A79F02260D46
D7BF7CE67B209187
F8BD60098008F8D7
71C1FDA2CFF02C6D
2079248D3AA22C42
C4C1E21AE032209F
3FC647622F73F9C1
94C066AF8FF65873
D7A6F3E543B61DEC
11BF2241BDD2ECB4
07B17AF07F15ABAA
9281F0D4B79DBCFF
0CD2D5E0FFFE44DC
92F999D11823C820
C1A24FA3F013C3BA
20CC19F0F0F048CD
9BB697A0BF2A0395
F5439E7D8C928610
4393AB67DB938FAD
7EE016BF1559E95E
343EC45418D499C5
203FBF1D1F4F2DAC
D444289FCCCA0405
C3B1903A57FA1CC2
8A8964800306EC55
97F04E11CEF49DA8
33182D4C01C85D0A
BBB0673D85D9FEDE
D27DDA88F9FEDE70
E75AFFA2100E01BB
8E20B99C7D1E5DF5
E5FB785D3AB22AE7
680E50A21255E6FC
811B0AABBA3338DD
F14F8B02808953F4
18D8DFA8F7241C01
5D90FFEB52284F62
C21101DFA1CE0323
5A8F7F042C613667
00C49B55667B54C4
5024D3758841368A
192F38FEA73855D4
125C3BB999E93952
E08FAFD93119DC62
A3E0883D700E5508
C9334EA9B25EF864
E4C9801312F036FB
9D77B9014225FC5B
7141300085095BED
B2C39CCB47B20489
71D9008801495811
B2710228F6DBFC3D
41C8EEF60401D980
F00FCD41030456FF
34222602F64A1BF2
88FE0FE2B7168098
8BBADC9ED8C43D96
9CFC26DE28D17570
E581C0C8ED3B00CF
CFFE1E5CB33A227C
28CF2CC18013F322
20880304E89B11F3
75C4000025E41890
10DECCEE00D8E43D
E18B267C12D9B9CC
F9DF58989D330215
FD6910151C032659
8081077F201DBBE0
881AFCE7454A95C7
F264B8FB88847480
BB31301C004B23DC
A215127E23D9D714
DDFC2432009DFB33
386210E4E2334826
620D549BEDC5E901
D1ED032F481EF000
3883CB31F7E40653
0570F147FD887C61
222AF8D1CB1CBEC4
076CCE05A4C9C160
5F766CDCB20D3E00
E3A5D0C18D8E5496
1083BFD922478E44
09FDF1B5F4ABEC9D
F4775B350004FB17
9A8BEFFBBDB9AD95
009F8008AF64A35A
5F8C2EECE4A00C21
D7049BFA40590008
EEBD6FF6712501DC
A462076E89314AFE
612B6CB284081001
61029C179233CE89
0C809410D96FE9A3
409E20415CD40E3A
F6EA92B3F7E973DF
FB199B6F3F488055
7780FF35240BEA9D
0E784088009DCFFF
B91613C4A8F9FE77
ACA53F90C887B0A8
33D7ECEF72309FF1
DFA496389183E781
243FA7028B21AC43
E90948F3F60EE8BF
BFD3D404AC0206E2
02CB3057E430802A
59051C4FB2AE89C9
324D4F209B484708
E40E76471AD2E624
AA8BD108B07F6FCB
4007E78DF411BE07
2EFB223DE989E4AB
E9CA09FD537FBC78
2119CAE26371CA77
9CA0FB82AFD8451F
C0B3917210891C8C
CCA81425C148D179
350FC9D8E2A588A9
406B30F70F750BF7
E6C83AD8CC05F923
3DE31973DFDB13F3
F4C0398AC40CEF04
12249603C28A83B0
35EA8520173E1008
672A51B932FB7F7B
4F610B9BF018C056
911BA7337049A7CC
B884B02228E3D23D
6A32DD912448ED22
F7F89DEDE0992BA5
EF7F8F33EFFE5070
69EEE271A8A3E225
DD0A7005108BE9A9
37002632EF5989B0
BE902C63291C3580
74660F32E66240F7
0819BC9953CCF84C
EF2F1319EA6A100C
C0A15FFF95696BFB
98EE4C2803C38263
E0B9F9103774428C
B82AC85853233A61
011BD6710214388C
45E4EE720241B9C4
29C18D8E951479B6
AE712FF289B34088
855D4510358EE918
B1AF2F2FF7E7935C
FFEF0E1FFF7D56D3
9F03327FE2358ECA
20838243888E38F1
E0C966471F4DE620
E4DEE600D6576090
0080BA8C2FA469F8
7370CE499F394773
83CAD61819DFE7E9
9A3B2B80CB3BCB59
0449234BE2F62C04
932280104080F75E
40F28FB724378C8A
4FE6B37363F7518F
8E6C2199D446832F
831EAA04C9D26FE4
1B0F2029B8EC2156
7313A4015F41977C
097219E3575489D2
65754A37551B1765
FFB8515B9E021757
EF00A31F76F74293
104825D403702063
2CEA01CCE291788C
E3F0B6689FD8D0E1
E3706E2079D006D4
A0F175089E37B021
9128127168291138
29EF070A617D7F32
D357A6243F630177
0DAA9B1886723D45
27AAC2EA01B23C87
3EB09D7B81319B0C
E0CCC7AFDC88BE9A
4741858693BB5C0E
583553091B7E03D7
FF4D476B4C0C8B62
46282BD8E03718C0
0DF49E1DF4A1D460
C665A9B67F757F78
89025C1336755A34
19B1A1750F459E40
81F32F88EF40DF22
D1E4FDE786BE0366
70EEE22511E5A1D3
F593B699C7C8D237
314A798ADA8A3273
4791C460CF7550F5
3BCC5052C1FC76E2
A31A137203DA8BF3
C60F9F17646D9BD3
141877D789034CFF
F7E1AB321FC203F0
BB3E5E4D2443CE4D
F772E3F31A33AC71
EF1E981E01F00191
53F783F0A7D43C55
C324C00862D8A1D5
FD45F4A891729759
3EC653610272A814
6BF6F7296331DC4C
CA98354A67AECA23
0F44ACF17FB48F8A
A2053EC92111E510
D50203750C766102
B53277321D4F1677
5D31278FCDF51E84
B3D3925871614377
9920318E77C691CD
EE77EEE631C53BFC
AB303240DC06CB04
D379F7091BBFDBD3
57D03062D4C991F3
735C318BA000C859
933523F783FC183E
7C740998FF0DB5B5
7371FEFF11F98DBF
3C13FFF3F33685D7
470DFFD2EE73DD18
7BD8076EF03FAAB1
D30FD35E715C0F9E
015C1A7B9FE4B430
4517FBBA4C8774FB
337590880C4E2F37
EF2A006C713797F9
00B428C6BBBCDBBB
6F7C26648863D073
119DE4DCE57A72FB
943E5981D5116018
FDCDA6B5CE37E7E9
A7DC03CD45F18BF9
3073087CCDDB5ECC
7E0ECAEA48D767EE
0C67A70E95519BAA
1E0ACDCC9DF62E9E
3CC514B5391E7927
72A78232144DB767
F53F539AF3BF7374
0A0EF581B9858B13
7C931119FCD21018
997B5F5AFE9F6026
0744961DA7DD37EF
AE146B8F23FBDBFD
E2BBF53BFB1A94A5
0366C3467FCF1F39
38F7149F07597C9D
ADC1F7DE6620BA9A
50ACA2F77165F320
7CB2C5BF1F76EEE6
86F7F743A0BE109C
103F6E6DF6B5304C
E1CD09EA21AFB023
8033EE6908B12E60
D26A1016A01E924C
05FF51FB0014F886
2623009DEC01E295
AA5F8175EBF7604C
066AFF659B9E1B9F
B1FC334641BF4ACB
0765A7A5CE0F081F
7C714EAA01CFDCB7
BBBE0A1381DE55E0
9AFB7A7F80CAF285
676F0771017C223A
2ECA02090A3D3A19
714E6FFA8B335E8C
DAA2D72FDCDFFFE0
E6E0F20BCD98772B
3E2A196F2C0F6343
01FD004F16234104
9CF2CE64C0277FE6
01AC8002EEDA9E0D
6E68246E436FBDD4
1AFF9FD6FD48BD01
23E9D6A96ED64045
584C9BBB8470ECFF
1F93218D59465BCC
0F6AFF1E3ADE7601
B7BB5DBC616A32BD
D09F3F4C1B01E77F
1DD8AAFF32FEEE12
C797415850B7ECFB
D39F177BF2D411D4
D663D30B063691A2
A1F4889B1853A10E
3D9B39A6972109D7
118F6678F5BDAF2C
FF8BF7B9CEE77DEA
7CAD8C9849261538
DF3E0517A7E74C69
DFBF71E9207BC707
98DB8F90EF35E67F
613F3D12C5AD1BBC
E0009F8EB67FFF73
D77FFF96DF69CBEF
0B8C61F7FFA6A9A9
FF95DACE6277DFBB
771561B8B32FC9B5
CCC63F7F23B5A28B
D81DF155A7F3D8BD
6EC67380EB636033
FFC1B39CFB4FF5BD
EECFD9328ECA9E2A
BDFE575960B8ED4B
F65AAB85604209E7
5D9F2B94B75B1BED
EDCDF894A640B213
75F1661B41DA9108
E9ADE967FFB07524
1FC76D9FACF49B35
5D453FCCFFEFD641
5303AFED07EF759F
59E7FCBEBA7902BE
02C2FEE0BA2B17AF
3101EB7BFB7E9A89
6BF9C249E71BC012
C4A617775AF37F78
1D47091ED7C74A97
DCC6DE807D5ED11B
FDE548D7CEE64EAB
5F6157EF6E39C412
45752340FB43F8A2
7DFF04B6A5FFB95D
5F9FDBE790E44C88
6FF907D56935B23F
13D38EE0CED337EE
AD973777513F8077
5B2E2FF0C3ADBF58
6FB8B203ECE67746
8575ED5974080A6F
F6FBF9DC8915CCEE
CC0B10CE1FD441D0
B97D0B49DFC4D7A5
1DFE8C065501DFCF
7616CFFF3BBFCE66
87579117AA3CCFE7
7F1F3E78CF4C227F
8F7F11084800FEBF
0FA7F2F5ED97BFFD
DEFB241D073FCD4E
6BF7EFBD20E53193
61C105C7D46F3EA6
F3F36FBFF433DE89
01C46F80CFFDBFDD
B4BF6147CCFF6BE9
4191CC9B981977F0
73B2333C03D367B0
F5E2B3DCDFC5C70B
754C4FA759B4E433
9C8F77034043B98D
3118F0A11E771EEF
0F70E0CCDC067AA6
47F29086C984E779
F02B6CC0C0C9000F
0C78D76E12C63517
44C5D088DDFC777E
83A3CF4F10993745
BEFE1D18C9DC06B3
44F99D3A391FEFFC
0CBD34D020CE3BEA
B0CF7FC7FF748F53
D5E8C007BD82404C
DE451128602F7E68
E546CF30AC013800
E22010CAD073FF49
1143F7BEAF8C1046
8E71D41DC40A0FB9
EF9E7B002D8B09C9
377FEF2704DE2EE7
655F08CC015F3F26
74DD480DFF6F011F
0822483A9707FE6E
128B3AE608D23684
7321C97A57400E17
001FFC45BF7F201C
7068C2A27CB4C8AC
168E53B96EB43103
0100477810A8DD87
4007AA2EB2F7F43C
030FDD222071ED5E
EEEDABB3DDA21572
EE77704EDC76298E
BF1C003495FF1B94
738A00CD8B004FB7
9841089A90159A19
E7FF51E60E05CFBE
C11780E26514D77F
0ADEDA9CDF0491DC
6644B023FAFD6AA8
A22F773BC8CCC612
A747D76100CC4082
C6EF5EF3998286FD
8187781AD69C3A30
C7F7DBF400461005
C8985B0EFFC1E0CD
F827037E14D476FB
6733BCE00E1226CE
85E6D6FD7476410C
8C42DB2629BE1122
BE7F50093ADAD193
8AFF38A620F456AA
4C070A55F7ECDEF4
3CEE041A769CA9A3
411FFF37008B3202
56775CDEAF00F768
D7FF8D51DE19266C
2117C473590AE1C2
A0CF8F79226B920A
570C8C41FB166ED9
1B44001C0C0252BF
7F2D884C080C18A5
702D8DF77BDDB88D
C0C1730EF96A9D26
40549B1B40998C0F
4CFAE8E6437D0E0F
040602FF111FAAED
1DC013392EF8DFF3
10028AB1C0804023
164D7FB57F987090
8072628817EC2108
CA0FA35CF747A485
BEFD50A9D3BF4453
04C8AD1B0014BB2B
F4FB3DCC20023613
A001772575A587DE
3E680502274084FF
506D0008B093D8FC
175A966344612700
1920ACDE50C5B029
01916A470C905750
C6A7E42D03774D5D
2C36EB6FBD634390
32A7034308AD6590
19FF3AC004E16025
543B04007FE511C6
0216CC6CA2217ABD
0CCD72B82BA73E6B
657CFD0A7F409AE1
11108002134C0585
7DC5D208AC78A29C
848352270A0AF008
F020EBDE4C80067D
66038EC61889757D
0001EC923271DFBA
01A20456E5B92462
536A2F9AF6FC57E8
BE2340321B0E5E52
F0883735488D227A
2AC53040118152CA
FBD93004F0A1E3BA
8000549F22E4A674
0EF884D81D3791EC
6F883A11E4750C81
20007F9F1D1E6E03
310210C87990E5F3
85ED44740BEE03EE
B19F74DF17F93AB2
2D7300841C862040
6006123F9AF862DF
B8F475B294A17C6F
21CE7764CF30BECA
