EDE03E66339900F5
19B1E716A617EAC9
9DCE02314401622D
1ECC255EB1E575D4
39DCE6133A369190
9348ED1B780A1A8C
0ECA4ACD141B6133
305CA22BEE13C771
5D398E63BF5A3934
B07318A078CC9FD7
CB40CA8CE8F94E47
92E4460979BBE448
A3DDE351599E3D93
1681E4C64B1D9713
0403364743FE3210
AE8010879679F732
5D483DD2BA2BDD36
7E1DC72E0E530F98
C1B63EC01349B2BB
FBCF8690C1811BA5
7FE93B34283326F9
029F453037F63993
38F4133B19F37611
C584427C8D6C6052
33A2738CF4116D11
214E62A8FC27FF0C
B3EA32BFBAB366C5
F1B8A6C6AF91D20F
82B3866476ED6C8E
660433148EE0644C
3819612877378AA8
138C0577862A7A03
39B7A3E801BB6D91
6335003363734002
B231A3507618822B
25B853FE8E577E12
FACE0011F1772ED0
87EC3423F4D80232
0C92F6CC62037834
1DD77417C237D11A
3D9F7CF770A9DEA8
78FCA033AEDFE2F7
060BC0111C6D1155
21135BCFF343A478
3F917325361BCEB2
356760CEC2D9C367
718CB9B571776ADF
767D05C8909CB90A
37250997008BFE5F
8AD861D00BA813E7
49C6FF75204667BC
00742A8D5CECF6DF
020C86B1F2716838
131CF8BC16CA4EFD
508A33B0A00070A2
87E6FE5FF022238F
88F884F17ACF05DE
0553FCFFD8C401EF
DEB7C99C1BE524FF
7337BFCF15A912FA
A8DD81F5FEA401BC
D44D9842148EFBFB
C1DB930CB6668884
1225C85DB5421101
99BEDB11CE8831C6
51FFE64BFE97D90F
F99C38DBBC768F19
8C81FD0200B402B4
4577231C881304BE
37920419A80FDF05
C9B0593AF5EFFB0E
4FFBFE8D0AAF51AE
691F900BC177C465
8E3AC80645D40000
827FD872BF84804D
F3980E09DCEE12B2
0DF27719C8C0DEF1
0D73C80A3C9DBF11
52278A138821EBEE
9CC40A77099C03FF
5BD2AFE67FD94301
0CCB6072846DF5FE
C58D2A3FAD6B44FA
8D52A85E2001EFBE
D3226F6C20B5B071
180BA5AB884607CC
9EDA8C88D21F026D
03ECAB66F48C48B8
0C62E77FD95E13C3
301179804274192D
00234DADED3990C3
00AAFC6601BDB03D
CCED14C319AFBE71
C0CA0D4A8B0132E2
B00FA3677A0D11D4
FF7B0AA1C4A69834
DD7E5D0BC4E56875
9986D48715BCC193
FF84BFFF97FEE278
80DA289F6C3ACF8F
A9113B0DB28ECC19
1933485EA219E5E6
CF37B72BB3500CE2
6C3DF1196A094C20
4301877021A01087
AA83AE18110C9090
680895882B8999CE
E2FE671380A2149F
086CA6DC2CE0DCBC
D7CE818D13981400
F2BF3BF790F7D358
F07663BB704680C6
98095CEE606D84B9
4FD7088C00A3A263
7080D108DC7132D3
06FD392509FF4893
02374121E1CCE0AB
C86E917A0231FE88
446E0C89952724ED
4612214317FE2FBE
D81A982C13399315
C29C9FD6BD08F7F0
3F22C7BF224D5E17
E4895824CFA8BB00
91638C133DC9BAC0
1A69D801074CFC35
4F27E450BC7E4A4B
EA286DC304CBA3E2
52490C6721539932
0339D17DEFE93122
1FCF05AC29DB843B
8360149606EFC613
4D6FCDCC84B884A3
9804C886F498450A
4C8636515ACA55FC
183184599093EA91
7B0D107485316D3A
7A5910FF095AD0BA
7A20F120E84A8CCC
68F76E0B53488C0C
F2578E6891091891
4FB10E9FCC687923
F08CFDB48B689711
EAD2A88D16E9DE23
2101DD0B70CB0131
52F1851C63BBE8B9
020F17570CC5DD3F
7C1002F340C89167
06631022C8374FFD
8E334536E41D1C2E
4B4383A0D11EDBF3
C40D00B783F5106A
CC9091BAD503F205
10C6C808980C818E
00648FEEFCC30932
B733C29B00CB13F5
B4718CF382F888BA
7BFECC8594C033FD
7E784A8A0D700CF6
60EC812E36E12899
5CC593D45BF10543
EE3C04081043132A
48CFB115AF8C9CBB
0E58C9360077748D
7C12E2EA703F1C06
A6C714CE708B848D
B8A1723808FF5F00
1829CCAF06A24210
9F278EBF082E4CFC
E201D8B0CEC1DEE1
D540802323E8CC14
099C6C0DD34C34C2
11EC0D9E1CB38AE0
45EE150E408EF9BE
C16C026B7698CE6F
C5EE218B535CD110
0618E54EF18A750E
7C884BCDCEED9E10
08C06E1E764F59C4
51160FE81B27F581
C60BB816C7396EC8
31517FE4AB66B1A5
E509BAC482312003
D761192CAC8BDCD1
4808DA3001F48040
D30B4465D7FD9FE4
03DD3A24209D91AD
88F7B24F62014411
405D544C84A04008
768637613A760119
FEE3CFC901B70764
B80CBDFD40AFF918
5450BC7490241AFE
421A6422B6AECED7
40F6F67A85001596
79DC6E66B99823BA
7CF57EF752818A88
1A74F0C1883994F6
7FE5911828341174
EDEA7CD480817D7E
19385094E9DDE26F
C40800DA6544012E
237F2FFFECEC3C3F
9C6086405191A32D
ED473B18C0A2F731
166080004C02AE6D
2210456F807F3BEE
EF482C476F1C2048
E31E40BE5F8CD4A1
CF3FCC127070FADE
0D18033EB3B466BD
DEEF756C088EEFB6
70188161B1E8B048
E14090A500D8D845
7B1A358D618C6411
0808B104FED1F002
2235C8CFE7BB9080
8C9693EDE702EFC1
010077451D08C813
1933009C5EF503BF
EF4D4009C8CDF400
54B84FD0F7AAFC00
83A23E10F6819109
E53470230800E9FE
80036D3B77365BE9
CA05C804BFCFCBC3
768906F651A81A10
F14633741D10930A
EEFF0EF027446ADE
D9286604EA2C7EFD
1893C0ECAC3F0080
A1D46E911733AA87
002C82C0A28884BD
137D0406C8C84CBF
3EEEFF79FFCBB50C
F47328770F0E4513
6E91E620F092695D
0B0398C5580C0CFB
419F0454A8A21DFD
EACAB7E5A458ABFF
772E8F957950A7F7
FDF77B1DD779AA76
73C9F7EFF977567B
3804101923F72A35
D064923BFE6077CA
6510A8B012772648
300F15414055830D
E6F9852AE277E9DD
6863118460449AB0
BA264C26CACC68CC
018E7F65C8FC9389
10D11DEE775E3930
80F7A48CE7DB9F6E
3F6FF2CE873E88DE
7B104AE621F3003B
37183ED3FBE4A3A7
4A36D413085CB03D
33E8EA17FF77959B
DA61AB5F4B2F7FF5
EEC40604591EF23B
D51B3337EC7E3565
96FFE34E6C1CECED
084E6B08C676FF73
416B375C3201C561
9FDCDE379323F188
6B70FF244194EEEC
35D19B20FB81F11B
723B2089FCFEEA31
3B1210FD9BECBF78
F8B8DCEE137DF35F
4EDF1B5DECECABF3
B86C7773316736AC
CAECD8B71388FAA1
89334B9142EE72F2
A231500539F57470
3F70790DCF724578
9DA627032126161C
52CEF3A3D8CE31A7
91B0D7549960AEFF
1371EABDBA57537F
2AA5C07E7F7F5AB0
0DBB44DEC2261536
6812B7297C926019
61233F04136F0507
5F74ED00C4397CCE
3C7CEDFC8514B890
A39FD08A10FE9120
EE3BB27F93441C99
E6FF6C6E60C78A63
7BAA5F7AF7F5CB3B
C9B4DEFF59CC2101
008C80D1E21ABEE6
889D6430417D3BDD
7022E35EF8ECB279
F78B08A131BECC44
B5BE8B8C2333B2EF
84DE2FF68CAE7809
8F84B3346445936B
FAD10170EBFE66E6
AC7112AA8AA6A8AD
EFFFB7D3EBBB8833
89266B0DD5ECBB73
82A91F0088327367
F3693601B2EEFA45
84864809C09FCDFF
719CCFAA08FD7CD9
C6F20011E2A9239B
DCFE004F68B16644
3DC64A0648CBF7FD
D9DACC1370C25CDD
695F1933C0C8FC02
415228ADEB1E2B2C
D073ADDA1B7B61FB
CE87CC5C7573D536
B5D3D93607375C49
7E0D8C0A01F23BDE
CA4016937B9D6089
77F9842614E3B71B
6D5D4611F1973F76
5101844A32D0CCC1
F2556249EF196B03
8C14BBBF81049EF3
A600BBFF32F7804F
F020260730AB6FF5
E9FF7DC82481E2D8
0277DEC855258284
419E4C99042112DB
124C40A12533B7DA
8FC0C7918CF08D98
ED6711BBDD73E462
99D150EBDAE10B7D
0EFFFF16808AE999
4A59BEBA0A6E121B
468F26327FF69800
0126B0A81DC8988A
8EF13C124DB9AD7B
D57716CE6448EA5C
192A47378641EEFA
C56E9E7CF71DF16E
C581E3CFDABF8B5A
E8D380EC59D1D934
9FBB620810CBC443
6DD721F50806D354
F0B36E455087C451
C5138E014106FEFF
AD64C1334CCC2198
9C5C4D252449D660
BACD5884481F99BD
59A1C1C48C45512E
ADCF86137EB9AC01
490285353B83FDE6
D4E2E8C5738ADF5D
F0359B88CCCC9EC7
BD775137E180E5E1
0C4FC09C98BCF6AF
BDFB78D9B064509B
E4C3BCDDE845CF91
FEE8533F8032A3E6
1D3F81F431008C81
ED82FF32C2A3EC1A
C7E04D11C119972D
20BC34611B3340ED
F240F389C7C1D733
C917C821C0187ED0
82C088BB3CDCF779
C51AEAFB0A42D103
9C5B398CFE5B387C
88A7A46FFA75D8E4
5793ED09D2C2F52C
B80B7EFC3BC0954C
941AE476831FC544
A5CDCDCAEB0A64C5
A18396D48E699483
2850AE81D70E2444
0FECE361AF894FFC
B4F277C7BC9AEBC1
93E6E3B3E830820D
5D3F7DEAE6066FFC
A300F0391980F931
88C0F0361A27DC99
7B80F9F0FE219BEF
F5969FA4C7124944
C538D34BD4808F91
E59B77BDF0B3DE9F
2DCD87396608FF82
6F56FDA0D123D1DF
62B4C7C084523EB2
34F0F721DDCC2274
549B38ECC830DE87
FFF45E3567336C20
EB238DAEEFC9B770
E4867192E78F562E
691AA498610FA68E
04FA8FF965D17E66
1216EDAF3E120475
7FE8BDD3680ABDF5
D58BF46A8DA2B6B3
BB576E8A166B9F63
1F23E18345409DC4
865DB5ACFCE84500
EF96737CCE06A93F
D5848C8CE1FC9AD1
FF39E226EDC2635D
54A396469EECB5F0
FB1C7CD7FC738009
C9FF35B91B246C7B
9D8EE12CF7B3F022
53A1BA00B58A7109
D7B1DB0C46BA28F5
3D58FFF460B41292
140BEDA09EF78CC8
6CD5321195FCF23A
D12AE8DA6C4C18F8
56BC7727B1B7E959
C63F8029FF04C82D
B8C8D7323ED8535C
FE38AA00CC8C9E89
FF76FD838CBDFBCA
051E49C74965EE73
C9F4D8520414C0FE
2702A06EEFE8E6FB
815D28C8CE647909
FC784C01926FF7FB
F67AFEF2894CBF3B
A002B6BDEE001D5F
7523BF336FE0E1BD
30B04FDCE046FF3B
FB3A3D89FF3D2D48
7919CCF1AA88A147
FBFAEDEA8FE11BA5
EFBD8F49020C8639
3FFCD1419F344316
F3380909F8D79CEA
380F7F5BFB18CCC2
870F950C55D2029B
91EC11041FF9C091
70FF13B9B78701B7
8D89BF2ACDCF433D
B91F87FB4E99C3CB
A7FC379D33FE9C92
CDE01F0F6CCA55AB
3BCB69422FF08A11
177738E57FB8436F
5898539ABB0FF61E
1D0110402ADF193F
FDC5137E21CEC28E
3D2F7A473612369F
9F30008F3601E7D7
00BE8098403FEEBF
DA4983EA133F35B2
3B3F9C8C92623AB5
65B7040AAB5FD37F
171C07B8808822CE
95B6997609B80C40
F1F3EF9FC0F0C8B7
F606B444556D0D0E
17CEA27F141BDF43
7E9F3F3F59C81917
1335DFE51F6EC09F
6FC7EF2CAC0E5EDD
D0C41BF63BB2672A
031DC6EA5BCE7896
B1BCDFCF747A9335
31B78CBF6096E60B
C33D133811950B19
11B1937C81ACF9AC
1CF80BD7FEA9F662
749D2289CE3DCFD6
AF880FF7BDF50935
40BEEB4F752808A9
910F88366E4F218A
B9ED37FF625ECD4F
58CE10826260408C
5339D81B033858E5
0AFF5D2C7DF12147
EDD26BB9D1CE3C67
2BB4377DBD933108
38F74D82348AADB9
DB9EBDDF020008FC
45B832DFF8DFC927
0B5F073938841624
D994FCDE26E4220F
13A91B3E1FE38171
D9E8EF9A48C09B69
B1F1B7EDFFDF72FF
5508635F292FBEFB
632E268115489FC0
1F9B0022BEA52A5D
02DD03EC8B7761BA
0C39EBFF099E1B19
0A7084BDA53F48E7
136BDD63D7EF0BAF
209EAAC8584F8D36
1D88B70EA9BFBCCF
0F76ED74801FC047
83A5F97377377FBB
6368441D9EFF8FEF
AE330C15072A6808
88C1056B021CA60E
FB0C340D102C7697
EE40F324F771EB82
109004C71546A71B
FFB4210255C53114
FF21410116F3468D
0089300211FF0144
08A4AC0105E65100
409B25BB883F6058
0803A11008016500
A08DF11540061666
4B5FF867AF4EEBA1
40159EC21EB39012
1014AEFDF7FE086D
5800EFE7088F1918
E304FF762C8FC4D3
32756A8CA3FFC3BC
FF9B9DCF6311192F
7001013F3A317933
890B3E1488A1B022
CAFF910808047710
C7134CC4014081C3
CAEBFECA5DC60008
4DECDB1962098DCD
11E63FF600864F33
EA648E04F9B305E4
B9F0A010CD4EF77D
002F7B3BF5004098
64C70A77DCC5AF9E
9091BD406DDF3915
8414D7BC2CB894DD
C87FDFFAEFC11BFF
1CC0E600699F5334
487268FBFFCE2D8A
C9A78C0108D1F649
9640F6E6902E808B
30581C6423F9ECED
8C385BE6F6CC7945
1924206367418B82
FC0158CC08F04781
58009953899CB445
7BA2EEBB5FAC208E
FAEE874F51DFE977
3AA4174176E8FB15
E050DC50BCF3994D
91632498BBD098FF
F0837BA3FF4D91EB
BDA4F9D9BDFC4ED4
8EBF40DE0109EDC8
380100843F07879C
CD988CBC00C80BFF
71812D00C40371EE
D7EE4000E3FE00E8
0E860198F26B309C
FFFF01260111A148
808D61D9982497F3
6FEC16FF9CC26E00
8875A2F31CC4DF5C
6FF31FE3EFDE4941
849DFE15BDB8F779
21B7780494F2FF09
13333FEE77132186
C7050856C00BFF5D
391241E4967176ED
57114011E0E928B1
5E788AA204FF2665
07FD01C9CC49207C
FFF20ABD21021BED
408D5000E9F361EE
1033FFD160E71336
08333EDF7FD24B77
D70DBEB3ED1E75B5
4EFFF92A72E40BEB
C9DFFFF3B7810BFF
473C50E08E8EE848
F881217790063E03
C1BC5DFD506D88E0
694D4039E9A255FF
22C6A97EB77F00EF
ACB1C5F1081B0FF8
A99F981D62A83CE6
20D81D3F00E1557F
A6196089A501FA93
4BD3CC49D2CF1140
019C48B800B3BFCF
0DF53FEB7CF07643
5C092979F2320BB7
90100CC4FED7103C
0A43A114EFBF852C
219C806877F93809
0A29D5EE32FC4B11
0809B9FEEFF09761
58376295060BD189
564F5B3B97A3C7FB
49D50188EF9DA852
9CC860EEFF8E911C
E7C7A86B13095E2F
725118E800905A49
CCF667BA0A1924F7
1EFB49AE55431E9C
0A17F801410E1410
57317CF718FF3223
3116258DC0831BFF
20FC35C4101038A9
C5FFFF1FF911B3F7
B52A28062E132448
8453F2FF72CB18CD
C4FFB816A2CD14F6
DA8948C7370072E7
67B5B4EFDEF93F0F
EFF17478E49AD994
2880CEE0733EF7FD
FFA1400DDFC3D7FB
B5F68CF37CF75689
63195B1F8E3BEF6D
3FE5037F1CB5BFB7
899BB84E719879B0
7EF6B73603208485
5DD4ACC1DD9D9786
F791FFB1788F00C2
51588BEB073F9085
F2026048E5911077
80008014DCD177EE
75ADC0CF210A0002
972B7FF7BE09BDEF
CC424329E92798FF
0F110971E40C1E1F
ED5D057A00F7510F
20C3CEF5BC4A1A30
86411FE4CB78FD77
5881B593393BD87C
47605264698A162A
88900B57AF100121
14CCB006E39C6096
410DA164F76074CF
B73703CD426B7A64
554218B71F784684
5C824F4E5056615D
1D63A462F25D23C7
1A8861248007300C
620B8C02E8288931
BA82B7EC440096B1
C8827980207B2091
1E4A668AFF363206
B1304E636869FF01
81044CA92A970046
88DEF226EEDA9CCC
2F3DB0976641C8E0
D36882091A11AE6A
D98EAA592047C30A
31DEC00EE0093317
984929CCC6C348B0
DC6074CCEE302B06
081E0282530CB035
3AF68BAB84E16F61
37DB104BA94F0661
C803418C48121AE0
002EE67E9D44C0E9
49708E5355C64ED3
32E6036E094E480C
091FD501D6C8C84F
B51A4061A89AEE69
05EFD68C301E1503
28714F813F15626C
0010988B044C3E12
10FADF2BDBA26484
8A0708B46FC44F73
57410272A4AF1EDC
CD88EC9D0086526C
7E89370005890D00
176AC7FFE0506309
30AC4A7C139144C8
2382490FB231C423
35643DB5D5CA20A3
919B6D4FE8B744D3
096E7058F5FA2444
FB516F05580C3D0C
8FC05403FBE13C40
B679001BA061B70A
8C4B232F8A39A885
67D28D027913976D
0D07006254870D35
E053920991E0C8C2
1028B08527313B33
88EB4A09CD38B8CC
293631021647DB31
A7844CCCCC93642B
4530300162D71063
0C5B8433F7986800
C012D25F9EEF7433
0F73117400C3FEF1
07691231F9C5EA98
8FBBDF3915695A5C
0080BFF290892AF2
FFF7359EBC03B49D
FEEEB90E101D001B
88C35CE621B31086
001D1438DD64F308
0245CE67FCC0D010
9D2E282F931E7EFB
3FA2F38073043193
FFFFF5F3006B4199
2118ECF8DCBAD97C
451C13F7A1260FE7
D4EA41C8CC4B6C37
04109136D44D1010
2D3820B0700CD6DC
60FE80F16678F82E
4018C802F7787FE7
60F76F7F002615F3
4E93FF91CC3E0731
6B738089D12B8005
B1FDDC11F1F1FFD2
7BFB97A67F6C6154
952EA71E310D8D2F
2B01ECCE04078006
FB811C287F9CBCCB
119698F2AC7A30A0
3036418074FEEF68
FF687CF709DB2667
18BA82AC67346FA1
71E3C3F500049310
F59EFE86A016EF63
78302865F74BB1E8
6ED6D251793EEE2C
AC487EFE21F73EEB
EB292EBB010AD4CD
FFC1AF086DB04D8C
C09069B8B920CF93
13E476FD8B200725
20FF6400BE741180
C00D302E77CC3C63
9992F798C4684996
00AD6CF22051CC4C
3FD4AD5B3800ADEF
EE60F9DA2C224428
43BD6555D44C5319
67E3336FB2E24173
EF284646F7B87A3E
C88F16BFE7151FB0
BF9B6FE50C8F91FF
9015FFBB6EEE827B
2572794127F39805
61000AD0C8044DAC
E76BC5D8F7991373
31B716A000E0637B
5913E9C0D13A0120
7367EE9CDDDDFC00
4018CC220F76C6BB
A0E4E8C922B1819C
0453F073CFF11105
B023A8FF0D730888
08027F8051B93FF2
4C4339FD30C6F7FB
E6190EC16FFE8012
473505A1B098A3F9
F237A3444D900F67
36E5FFB9E1174BEF
C19E2365B90E7F53
EF3BB290B0B19E60
E13E1F28A724B6E5
5E794534E1B65E38
0E177F5FC220BFB9
F30E92E85BE221BD
BCC6C460E1C023F1
F64EAACC0D08796E
4E2309F1FEE93E31
A043F981EFFCFBF4
42A4140053B16756
01421DD01A224706
FE6C7E0A6B337333
CA9E7302488027E0
4F484EECA118E679
88600075DDD0800C
915FD5E4BEEAC358
F38CF9F6A0506E4C
6F8A5F67C6B28004
31446729F7134C05
A7D7E65506A958FB
724A9AEAD65EAD00
30808715F129889F
732F3B106F6FC73F
4B7DD191B0119837
67FDCC4486A87E93
7E893D4680CCF660
EE077F091E00D63B
9CE095B10762B021
4DC17FDFA0802000
92B8DD0424BC8BD0
128F802F6FB2790D
461B129F92070100
E0BF0051D4B93200
54FB25420CF74E73
EF10C2114B3397CB
FEFF1DC426A1FF79
57EADC54F3BFC22C
A31C0122F011F720
9740A54C38D43EE3
ED85EBBFFF020E8A
E051D7FD2B18BB6C
904FBC749110AEA9
B6E8A91EA08E49D8
0144936C8D489F6D
729D64BE7502311A
81A3B301EFBCFE02
65EABE7F83302201
46F0CBC1E813F040
4EEEFFBD2444AB84
91112629106CEEFF
8FA985E05751EA80
8218FFB3BCEC7C18
FED280C6741C7710
EB9F77306421035D
22F04DC70277AE69
7C7904C800726AB1
02607BFA7F65F70C
DB09B1860F2E80D3
4FB8DFB7FF11A3B0
A0102113D008230F
F88EEE4046EE3F0A
00866F00775B204E
00044355BC90F1C7
4806788887F302D0
5000FFE218CC7902
482CA8ABB10D1080
9600850E2200C008
4810CE7366DDD02C
A080048F647916FF
69B738104020B40D
ED66B01067007D44
00579C88213A0487
2398003815FF5AF8
0679E7788EF7CE65
D888CEFE84B06001
0000FF5C01E00F77
7010600C6E7272BE
00CE4CEA1603B088
41A85ADF8C947986
8A8CBEEC004487FC
A0800080FD190117
EF7E12F480237927
89EE3CC0801BC1B1
0808813FF09E0073
868181860D041510
A82E84FFE0F8A24C
88D0066000110100
9959E20101610E11
464100849083FC68
0301C27E508E798A
0000B0407F0AC133
571308BBD0A50610
3B3112000A2833C4
9317123673DAEB3D
ECEF772F9009DB33
2CD311210078411C
600C447B3DC5AD01
C16682164954E314
B0008CB4F7F151A3
29533005CC2A4089
448C904DAFB0BFF8
1208F6061FC94122
D5352054842C1032
EFE5500180C55004
30908FD2DF0AB801
BBAB4590C40384B6
F5DF1C1080043BFF
7013FFBF73AAA389
8A030000C71481CB
6FD814FC81A15804
E406EBF84111113B
ECCFAF76C101C3CC
1F824ECC012002FE
010381B004010000
5034B9116337AC8C
01140000A944C4B3
C9F6704920D02EF3
2FE2FEB3FE8398CF
2810C27237000040
F713BF304001419D
A678048C8A8CC7FF
014609862DA437F7
ACA12FF500899468
6EDED3BB1B7E8990
5C8AFD3643052A6B
4889C8EE8C6BCE1C
8EB390C0F3901F30
A010847BCAAC85A6
AA12330105ED7799
50BFB3904D8C2F67
E74AC1C5989FEAD8
E77615E9FA9F24EF
6E79DAFE3B93BBF4
18DB76E6021BE7FF
0DD1EF03F67FC2EE
8B3513BB773486BD
9F158C9903BF6D3A
66FDA12FBA4015F0
46FBFFDA77F69B20
ED1F4EEF720FFC51
6F03F78B39BB1390
7C110F5121392089
CF6E85E34E568880
7FDEB26562462679
92900265247F1CEE
35D9B0D5FE01C9FE
4105F4784320E39B
26770E0C6E0136F9
57FA91170B212EFE
6169FC4CE939C030
C4FACA108D471D55
D62DBB4AB4D9020F
F131C23FF4CD65EE
F84F220A19A391E7
F419F609F6910E8E
4B64B5F0B46BB47E
02DFAF17E8C6E08B
29BF3573CDC34635
26F5247F051DF511
1D025FF66201C90F
A01720FE93E32F7E
920F4D08E6FC400E
E76121D73712CFCD
21529B9D0979E56F
1C704E6338413720
0146F9AA567E1107
60029ECD64B7FEFB
7757081483049610
47F76D384F729117
D6F5DECFEC37A833
7B4BEFFB39076507
DCFECAB7ACE41531
15E7EEAE18CE1F5E
F774B129F7141770
2743B9ED50B00C8E
7E2D115273EEF7A0
85FD2DC6D11F28E0
A1EA88B1D80FE221
D13F35EE32001FFB
EB05ED5333410037
1F79FDFEA838D3F4
87E1BB548F152E71
7FFF303C027FCECE
5D8A5548708A8E17
F66A0CA840C6AF6E
1B90B106248FE000
0BFC06267F9D90D0
B0887E31FF18BFF5
E5035A01703CF4EB
1509DC70FDAA574C
7070001A011A5050
6FD4A8DDB3EC999C
3AD8133C89DE156F
AFFF697E794900EF
2101F3F98DC21129
E62884549CC0B6EC
F02E0383DEED6CCA
489CF030DBC1AECC
7098BEC5B750F6FE
7F202B3299DF7036
CE8EA634E746E569
B8886DFE97A918E7
CED3302498F13200
9FE240E8FFFD8EAF
7E8D40DFF49EB37F
1038C088CB5A25DE
D440EFACEF40F17F
E3212D706BAEA834
77097B8AAEAA6BA8
F860830F340D5B52
FFFADEFC3104F743
91022208763DF740
9C714FDD7331AB8C
EC1ABB6CEA283721
11392215BE12B555
DD6483237EAAA0B2
900C717366FF2B00
CEFE8FFC6750A16B
7200DBC97504BB3C
3AFCB083003109B6
3728E9BF7F023001
6E4381E4B982FE81
867EDBBC1FD6E320
45DAE10B83463F4F
F7FCAAF271123154
A707E6082B046590
FC0479FC360E7F90
BFED334F89904C10
E15FE06A91277E5E
3EEF729115707711
2AEA1922E2E7D195
E73374803BFDDDB9
DE30B619410FA688
A0AA17DE0100F7BF
F78631D948DB7387
2B92FF0EE109D984
A2FBD6C0FFEC6ECF
7E12210A780109FD
62FD2514FE967748
CA6D4532BD0B965F
F5FDE4AF7AE83862
BCFB65B0175BB9FD
3501A34415AEFC5F
1111E8816B5DEAA0
FB09694E901B47FF
F003E0FA420FB663
3280DF7F7AF01019
FC13FD01B2F8636F
0BAB79CBF3201E72
32A30482210DBFB0
EF6FAC4D3490900E
E6D031DDC4D03DCF
F71A56BD20EF450A
1DD85DB1904E53AE
A53256CE344D1054
C7D3ACCFF833DD7D
7F707A75688A5DB0
B105BA706965626F
8761412CA7899989
82DB127D9441AE4B
EC92A2495B35785D
18E058E3039B3DFD
90E2BA5250572852
A8B7730F3B1C4539
07083F81853F3F09
BAD4E62D39378B0C
788C675CE2A696A9
DD04F96423A5389D
5A1CF6EC9FDDA463
D5B4307A395C57D8
B1092FF0954DF9C3
798E7257CE11808E
22B4DFD160C1C08F
5CEC873B4A89DFFB
F0E083C433D336F6
7F0B670F64F91ED8
8DCB49C061FF5133
E0EE41DDB7BBB1A4
23FFC0017695E8BB
CD99F40B30C0FBDF
36EFF220E3406E5F
ED0B5CD0BB1720EA
934832341F7D2896
49DB0302376A5DD6
DBB67FA9D1BE7398
7B6400AFC1AA009D
8F097DCD88D08035
87DF23226A941401
215BE9B223D5BB5E
2C1ACB12F4F85413
72C883219F095501
D131B88E25DD27F1
87C281262DFD830C
144C67C16320B2EC
78830AE6C62D74E8
F60EFEC179527FCC
F6B21B5B9F2F4AC8
81230A0D1F5572A7
7C858131261A20BF
E4B92EEE818FC1D9
6350C81018FA1EF6
773D6FEF9078CAA0
12AA26AD3F7588CF
BD594B31F1D5FD0B
C7F5528BC00D2884
1C66909714C3884D
489F76BF2A91FFB9
761F1F5912D30600
B3086AD4B37F9831
B8B827948F9B7713
EC73674DB0CB37B1
9F510E70DE83BE2F
CBE684C163339899
82CB1707F59D7DB8
FD9EF7AD9D8DB4A6
F039CFFF80876FEF
2A26C62B86327E22
0909F113FF8DD06C
7FD676770CF52C85
FF67D909C45CE5E2
57E18EFF570612F9
8CC1C9DB78632108
AF11EF6A2FF7003B
902A99231FDF2942
E005BC2B810EF405
07B35B133F6711B2
007FF670BA91F790
A899D04C80561840
62CC82B6588A3221
51862FF17C670332
D58D61FFE57F6CD9
916222751CDB1F67
5600CFF7E6587F27
20EDC4035DED6FF7
34C647D7811D5BFB
72A92D1B1B01F112
5A1B04C29DB79152
14F538484045FFAF
7EF92D598B73B177
CD890AE906D3AB88
910C4091EE1704BF
EFE79EFC01145789
08DDB66819972192
9DC0B9DF416EF789
080E873279D0C374
1322F2FC7A46368E
90889996EE1D9811
EFC4F39629BDCC13
9A6CEE30FF1F59EE
EF43397733C7BF3D
D8D95FF89B7E7EEA
8BFF2080EB83FFF7
7F00EF9E21D985BF
AD04731490F9E7F3
80055FEC4EFF1000
0DC8841B65CF198A
6A3781CFBE04AE70
DBB2729AC98B7CFF
E8B5C5F6261DC11E
B68BC2FF90DAE367
DE864D00001E84FE
FF3A4144F30352DF
FE4FF6E495B87C6F
FB126D44FBDA0AE2
B9EA930102AACE8C
9EA84BDEA019B3F7
B11756F5FEFF87BA
CDB0BE5B066F170C
79733EB83C6377FB
AEDEF064371A1202
40637B3DE6B13119
F4FF084C6B10A18E
4A6C6719D25BE8DF
0F621F77A66A9080
B80ABAF85FA1116D
E932B624EF56515F
EC9D8CC1530A50F8
56A74FF774D07FFE
B457AFCC7D2B75EF
C760F03308E8C524
EE6C02FC5708DDDF
996058FA53113598
C967E915FC00D3D4
70CCEE2CB81B1C20
4314AFA3DB052F51
E09498FE3190076C
057492AD6D920F44
52612864802BCD4C
404601CDC6279312
ACF493FF0329A46E
773EA5D13900766D
D24D86E02E9C5571
0344DB2809B461D4
335086145A18F040
D3F65735183E9F64
3B85FF83083303A2
21328709FD4D49F5
754163A3194DA13B
D932A643437BFD77
89FE7DFC431003D0
900190E81DFF8D01
D03280FDAEB0CBF0
37561D53E11E0077
C971EC3013607850
08B969909094229A
ADECEB4EF88302EA
6C81DF40F380D0ED
4D8EAB74CD23F157
C94AD6A80900FB97
CF06BC0FD1A1E9E4
9CC33F80EC4A0B47
A03C76210951EAEE
D32CC20202310FC5
15E18DE201FA705E
F1F2A03E89681BA1
BC0A900012C8DF76
2BAA9A9DF70B45E8
6FE8135F8698BEE7
FF88DE637F14DDD0
C82004EE91585987
53DEDA349C9CB78C
AC95D276114FA536
4F40ABE143A780F9
6E2F811249ED7778
92720308C6ACB894
1453BFF68CEFFFBF
5930F574625E505B
FB95EB99CC33A323
8F8C3110DC0053D5
FC808580FD36EF4A
4D58AD10F2D6A9DD
77244D97334608C2
C1C774E4023E3107
0013DAB8EFC0A9B0
0B0901F6A61B5D6E
B93C06181355805E
F8B7C55CC52C447C
2106C0BDFCC0F18D
07FC40BE33FEEC03
72E88931E786A5C9
03D844F8FFAECC50
C42D7061253CF9D0
7E969C7BCCC38D83
DFBB173C4001FDD5
291248913F758768
3F31448CB40639EC
58920084048E6621
F7C80083EA4BF62E
7FB78C5922ED5324
400390016DDBF06F
B27FFFF066FF5101
6FF7B9D7459C42F7
F67D3CF7E10CEEC9
489772E6134449E0
D5DFFFDF4E7743B0
E81464C48DC461B2
EC06002DD12E7F89
F08A575FC163986A
5EC7510093759D7F
844090B97D5FA0E4
FCFEB1F7A2B7B8AF
E1BE9858083A3533
717DAE67A07C4561
C50700086434AEA9
3BF3CCCDAA779030
A00070B0E495F55B
491A37FCFFFCF5F5
5FAF2CBF68863F83
800F0CCC9E55006A
500FD9BFEF261108
91DB62283F771011
1700E4CD16E7DDAF
8908FDFA8377AE7E
123FF8D56603F18F
DCCCC3373BD5ABBC
D15D218E290389BF
1E9A143DB7BF399B
DA3F4833F9124EBF
9405C04E19143799
ECB717B72A13B5ED
337FB92200929EF7
0A92F191F6142698
5373B5F7BEFD7228
155F0013E11403F0
65A1D13F8057B898
6C837F5B61743EBF
203D2822E6360455
B67FBC7F4802CDCF
DC9EFDDDBFCDBF2B
EAF318CF24D775F6
FEBDE6EAA8FA11C4
EFF20C9CD113F986
48C296F71FFB8CB6
FF33002ECFD175FF
80931017FFFDD6AE
E92142112F28E70F
672F86687E8DCF7F
FBBBF46B70DA9D95
65F7345E3FA9BDEE
49F70DE030802666
7737FFF6E12D80C1
40CC5F7BEF7F0085
B46E3408BC3363F8
0854C09DCC365DC6
FEB7A8CE03063008
58A3FF6691897790
C84EE02AF9208027
0000000000000000
0000000000000000
0000000000000000
0000000000000000
0000000000000000
0000000000000000
0000000000000000
0000000000000000
0000000000000000
0000000000000000
0000000000000000
0000000000000000
0000000000000000
0000000000000000
0000000000000000
0000000000000000
0000000000000000
0000000000000000
0000000000000000
0000000000000000
0000000000000000
0000000000000000
0000000000000000
0000000000000000
0000000000000000
0000000000000000
0000000000000000
0000000000000000
0000000000000000
0000000000000000
0000000000000000
0000000000000000
0000000000000000
0000000000000000
0000000000000000
0000000000000000
0000000000000000
0000000000000000
0000000000000000
0000000000000000
0000000000000000
0000000000000000
0000000000000000
0000000000000000
0000000000000000
0000000000000000
0000000000000000
0000000000000000
0000000000000000
0000000000000000
0000000000000000
0000000000000000
0000000000000000
0000000000000000
0000000000000000
0000000000000000
0000000000000000
0000000000000000
0000000000000000
0000000000000000
0000000000000000
0000000000000000
0000000000000000
0000000000000000
0000000000000000
0000000000000000
0000000000000000
0000000000000000
0000000000000000
0000000000000000
0000000000000000
0000000000000000
0000000000000000
0000000000000000
0000000000000000
0000000000000000
0000000000000000
0000000000000000
0000000000000000
0000000000000000
0000000000000000
0000000000000000
0000000000000000
0000000000000000
0000000000000000
0000000000000000
0000000000000000
0000000000000000
0000000000000000
0000000000000000
0000000000000000
0000000000000000
0000000000000000
0000000000000000
0000000000000000
0000000000000000
0000000000000000
0000000000000000
0000000000000000
0000000000000000
0000000000000000
0000000000000000
0000000000000000
0000000000000000
0000000000000000
0000000000000000
0000000000000000
0000000000000000
0000000000000000
0000000000000000
0000000000000000
0000000000000000
0000000000000000
0000000000000000
0000000000000000
0000000000000000
0000000000000000
0000000000000000
0000000000000000
0000000000000000
0000000000000000
0000000000000000
0000000000000000
0000000000000000
0000000000000000
0000000000000000
0000000000000000
0000000000000000
0000000000000000
0000000000000000
0000000000000000
0000000000000000
0000000000000000
0000000000000000
0000000000000000
0000000000000000
0000000000000000
0000000000000000
0000000000000000
0000000000000000
0000000000000000
0000000000000000
0000000000000000
0000000000000000
0000000000000000
0000000000000000
0000000000000000
0000000000000000
0000000000000000
0000000000000000
0000000000000000
0000000000000000
0000000000000000
0000000000000000
0000000000000000
0000000000000000
0000000000000000
0000000000000000
0000000000000000
0000000000000000
0000000000000000
0000000000000000
0000000000000000
0000000000000000
0000000000000000
0000000000000000
0000000000000000
0000000000000000
0000000000000000
0000000000000000
0000000000000000
0000000000000000
0000000000000000
0000000000000000
0000000000000000
0000000000000000
0000000000000000
0000000000000000
0000000000000000
0000000000000000
0000000000000000
0000000000000000
0000000000000000
0000000000000000
0000000000000000
0000000000000000
0000000000000000
0000000000000000
0000000000000000
0000000000000000
0000000000000000
0000000000000000
0000000000000000
0000000000000000
0000000000000000
0000000000000000
0000000000000000
0000000000000000
0000000000000000
0000000000000000
0000000000000000
0000000000000000
0000000000000000
0000000000000000
0000000000000000
0000000000000000
0000000000000000
0000000000000000
0000000000000000
0000000000000000
0000000000000000
0000000000000000
0000000000000000
0000000000000000
0000000000000000
0000000000000000
0000000000000000
0000000000000000
0000000000000000
0000000000000000
0000000000000000
0000000000000000
0000000000000000
0000000000000000
0000000000000000
0000000000000000
0000000000000000
0000000000000000
0000000000000000
0000000000000000
0000000000000000
0000000000000000
0000000000000000
0000000000000000
0000000000000000
0000000000000000
0000000000000000
0000000000000000
0000000000000000
0000000000000000
0000000000000000
0000000000000000
0000000000000000
0000000000000000
0000000000000000
0000000000000000
0000000000000000
0000000000000000
0000000000000000
0000000000000000
0000000000000000
0000000000000000
0000000000000000
0000000000000000
0000000000000000
0000000000000000
0000000000000000
0000000000000000
0000000000000000
0000000000000000
0000000000000000
0000000000000000
0000000000000000
0000000000000000
0000000000000000
0000000000000000
0000000000000000
0000000000000000
0000000000000000
0000000000000000
0000000000000000
0000000000000000
0000000000000000
0000000000000000
0000000000000000
0000000000000000
0000000000000000
0000000000000000
0000000000000000
0000000000000000
0000000000000000
0000000000000000
0000000000000000
0000000000000000
0000000000000000
0000000000000000
0000000000000000
0000000000000000
0000000000000000
0000000000000000
0000000000000000
0000000000000000
0000000000000000
7A2EC36B1216FD7F
A15EBD98EFBD0F6F
F3FDDEED65F765C6
FED5CFBD0F9D1308
7FE93F81FEAF1A08
97BCF414F05C3A3F
F900DFC2557007DB
FD11D7FA388C9955
0C81764FFC2D3689
FBFFFB3CDC31F9FE
FE7FFFEE5B900804
39CB03E68B339119
DF9302AEFEF6F78E
CF29B3F7C9C53748
D7795BD3283FC7FB
9A30FF0EE397A3B7
FFFFFD2F936836FE
D5D8B2EF335D380F
993C31E60002DB97
1EFF607C82649214
98D9CFF6FEA1BC6C
B4939DFC5BACDF19
ED5EB3FE125E4354
9FFD7FFE0A1A670D
418EB637EEEF3396
06EF18043EDFFEDF
064B137E5441847D
FFEB020BB949EBAF
BD97A01E9A97CFFF
1FEF38EEDFDC226F
197669FC01F371BE
DB093F7977251590
E8152EB983FEC47A
220082005215D11C
DE4DDDCCF4EA7481
783BFFF43E7E3005
6640DDD95724CE9C
7D7F332ED080CF3F
E3F53A154120D846
101BBFFB937D03A3
FD3293180C503C0F
DF902B0259BE83F7
56810BFD6BE67EFF
885281F422009FCC
4DA82F4C1FEED534
A7A81FD5FFE1D67B
65687BFD9E0F6FF2
FFBEFFFE1CFA1DE0
C48D011248CD3F83
FF69203DF702FFF4
1AF6EBF8700FB800
3336E90DA33077ED
4A4B34F7821CFFFF
15003F557EAF0740
4A19004E1398AF78
3F04FFDE772F07DD
5A5E377188EE2A38
DD1778DE75F50BF3
6EDB4CED30B0096C
17455EDBFFEEFFE2
2F3B98BA79F19A2F
58BE131FBFCC301C
3AFBFB81E7E6C11D
B317DDC538FF3C8B
D1C426E2CFF3D0AF
804C5BDC14BE728A
55C143AD588061A8
9C8D31137C7E0A4F
03DF35900D99A200
C40A6F2D05A78D44
5F04A03417537834
19A2AB759D36B586
D332D1151FFE7CCA
5E06AB21E941ADC0
58903B33ACF491A0
CDF9C758FE0F6E2C
D12EAC760B0FCFD9
E48E2D91117A33C4
7EBC4B359A68933F
B702ED3D56A26300
1042EDC8E41D2750
83BF519995817578
AC8808383FF17D59
692847AF1CD782C5
F30A751848F5DF32
3A940724482F1304
3F1E0B520D7121AC
EFFD68122A42A29C
03E400653CD768B1
3B2468520CEC1F44
80DA44066E70B80B
9100DDF43E1C1903
56FC0C5654E23A26
40A67908E693FBB7
C74F38BDCD89223C
A6F28884DCE16FAC
D7668847E8949002
64816D0DCDF6A227
22964B220601E66B
AD15013B9C5170D0
EDFE06871269F320
E78383582E8C047A
2363B71A7FF16F2C
7DC50777F2CECDDA
86CF54F8BFB6809D
C40E5E66240D1AA0
D8985082D56ADE7E
0E817CCBCA61DFF1
47344CE477F724D6
8B06837B7CD1CEDD
80BF98836AC1A6E5
10D1FD2AE041F7D8
29113786B8218028
623205830CCE2D70
ED2867CDDFF6AC81
1BB9198C46951933
8C30230189A9F6CD
A0FC6E8F7F704070
80C7EE093500001D
672211FE00480982
D5230AEA5012C836
18EA6C8B0EB83C64
541B23948D823648
A46D4DC7571F8A00
4EC415BFFE505577
081177F457351FE3
471723EF91D9F28B
13813132684D6CBA
BBFEC0407D3768B9
0E5C110344F0D998
FA1812007300E22C
2702057660B463BF
AEF961E8F781108B
FFEF60008DE73D40
6E78F91E5AF380B0
A6EA9C069F77F1B8
AFADA1CD228EE532
5C7C07715861B280
6081501971002462
CEE8C08008854832
270C103008CC4E24
631A8B008C954E10
C0085D574243F304
933C53EAC20E305B
E7017EE8119C5107
5F3C88C7A08BE9F9
CEFECA84ED707691
93C2C5EE77FF5500
06AB0848844CE58D
911698B479276C2B
E63E0E77674C22FA
E8094F09848F0088
B14D8F7EB200B6AD
B335B67BE6200E00
AFFFFE990F1063F7
16003BB441EAF684
2080D19B006AC884
B9347F7DDF5CAD44
0805EEDA0C8F0100
AD806CE54099CFAF
8BAD799D91FA3BFF
62F6A2EC76E044C5
0410C00E3105176D
C6FE6958B0C76E8E
D18F1523C61C8698
BB0482BDE2F8E021
D8067089B6C62178
676BBD7306E9977F
C021E77618A28ADA
1C70F107BF7C3760
05D80CADC9FCF7F2
10077F4F772D8A98
13003FEAD6EEB000
05D4026D140D4D88
810E291338C419FE
D176F75144CDF761
76174EBF27F367EF
2010344E0EFFCEFF
FFE50C00FA6C2308
4EF984EBF2778537
641EF3E3E0F7C650
EC81672938C48DB9
C489C721C04D2885
376C0CC02F576A1B
2720463600A641F2
0426A036AFE22060
49E173B9747E3678
F490FEE740188CFA
011BFFCC7E34F918
F8896072F4042ECC
D1340FF52FCC85A0
6276FE48044C772F
DD041262CCE83F59
67DFEC2739FA072B
0B034D1125B94083
492232B155094D1D
79C0B4B76214187F
952B046140AE4691
E6C6A9633D274E45
1CAFCF8C7D9C6F51
CAE60097FAA89D37
6ED4F9EECE784FF3
96DFED069C0ED020
F793CB1F7CEFA8E4
7E32794BFBE781AB
F03759AB88EF81BE
548C46D611F183CC
5C63C0978671E644
0F6443ED038C96F3
FC68791FCEBEB838
E4FE18A879304A70
90BC1E96A529E83B
C09CCF72D5DC64E1
8BDBFB15D37281BC
5EFC632EC001A94E
48D350F5CAC33BD8
8A7A1AACC9FB9943
4340A66036BFC976
BE762963763174EE
F940553ED029DCAC
5DD72FECF1EC7DC2
6FAA26C88216D1DD
887AF5952F620EED
9B3BBBBACBAAFE18
BB38DDDC3D49BC56
A2A1DA04990EDBCE
302685A54E64F45B
47036E793D944C42
FC823B7EB021082B
73CF150F912C49CF
2C89CBC251F962E8
8E368D003BBF3EE0
1B5BD801FDBF0264
9C216BB831A21B04
D5327DBEEEB4E19D
F73411D24C726AEE
EC40C8EEFBA4F4B5
0001CC01B1F7BBBC
2FB2313BEF660DA5
C895D730F8CE0083
C99836B09232D090
669FFF64DB0AF4EC
AC8511C3998E34BF
CC6D9FB98522F64B
118E40D0381B03D9
3ED1FD136FB3FCEF
7F0FD1366DEA77DC
08623D9674E7FDB2
16096D88F7DDC02E
F79BFA6FF330CF40
A54CF7F381B35D88
5C7E1287999B880E
944810A7284A30F0
A9C4741A3885288F
D6404C288498859B
79440335FA7BFDB7
FE8E425800060004
D718FC6B8450C024
56CFBCC0CA0AB002
84D8067F3591BFFE
7A0604E733334CEF
5FEF75CA757A8EEE
88627FDA77781401
D64EDD9DCDC1762F
CB7210080810204F
5B806B7109D30FE0
0741C74567F83FE7
4000CF19C6FD4081
74495E7D032D6030
03EA8DEB7C9FF7EB
09D88CBDA128DFE1
DDEC8020A08E901B
6E7E161097815019
DDF609D35010F4E8
2D7466C69CF9984A
86C92DE01DCD0FE7
A66A40056FFE12C9
8440F8DC9AE62327
F369C773F4018000
284023D9FA600018
A6A71EA371044895
B573225DB6EF88C7
9BE445CA7EF365FD
CC0869BB00268CF7
8484B74C7FF25004
6E7035BB6FF7DFCC
804093B32D270054
4377200A143FEFF7
008D43ACAEE5CA2E
AE41C799E710CE62
A809278001186FBF
01BF3A68CF80AD59
CAA000E682B45FBC
8D8EFDF770002201
908A7CFEA16CF688
C1151B205A8CB4FF
0040C6EF4C909208
8E774B00AB62A248
46531840CCD74FD4
D8233D50173FE410
9A206801018DEFB6
7501B1D0302121AB
CBC520702A6441E5
C7304F7A5C4F000F
1CEAF7752EAFC473
830DFEFE81FEF6C8
D7A016B804CE08FB
CE6B9380CD881231
C2FF3AEFDFE2628C
ECA1173B0CFEEE2B
97BD74EF25FFE0E6
103890307107BDF7
E1D916F33D44412B
1C21433A04C33C73
10212462126284EB
2684EC2C20040013
0221E45DE4351EE6
814391CFEEDA67EC
737B50155890F000
76EF2DD68808DBDF
403A3041BFB9B28F
8450E8B04FE31194
CD2492A5E0900000
50AA20759DBBF517
0101233E884B0EA4
231F0B0433BF074C
B698203975766050
BDFEC96B7B8A6513
13838561C0119AC4
23DD2380DD6BF75C
AFC9DCA7265A8A86
B20C813F8BE6FB8C
03DF5277C13581C2
E0E05AEAA51F7024
9277A6DBBF9670CE
9BE6BB8C0815008C
00B461568E665202
C5789730FF383342
E11F81FED2023014
4AF6325496101C41
F314E8B8B4C44AEB
2B473D6721001E8C
C8BCF378720E3F94
4174B8FF015F5B50
2D002680B55FDFA4
B4B0714086F10107
A22010E1C7C66FBA
217336E44B6F77E9
78122128E026EE4E
5D64E70F730A426B
31E30007A2EC00BF
5C7E9AE51B4F2001
073022870C493086
FFF76518F9CFE334
5A2C00316B5E405B
40079B2C8F45D8E4
26FFBFF409D0282C
C80FDDC58CCC0E4F
BBFF2711FEF5EE1A
80154CF973A31222
A667F77788A2A4FD
D3E923006179A6A4
94CB25E672752EBB
1404F0205E7E2710
00018ED5A622092B
718C02A0763E742A
C6C3D8F6C62EB24B
75806E087533F63B
85B19F3B942166C8
8030B3312F89C7F0
6291668DF6B788E4
5229081830409989
AB3A73017310492A
467455488F374FC1
EB89126705E0F269
EBCCCC6D90439AD3
E85237433DD1AFE4
20EE640720014E25
707E5C4ED663F01A
03CF81EA5317F44C
535CC122CE738AE2
E0AE531027676274
22803781E8C57A67
6D3151746EF79BCC
BFDC43A6F6E433F7
0DCC91788C987279
EFDB60800A10710B
7D662373E8ECAC69
2373EE2419E1C20D
FD54FB8FE3A08A68
10B87124FD798200
7F18FABBBF26BF68
83E690440002E6FF
65A7E94000002084
CDC8103365D04BEE
476FA008B70F3324
7242240900097764
B7C68E82FF9BEF8C
17A1D8963A74E9A5
3066D2782D3F750B
EFF7FFB4C6FD3889
73AE89A680E9DCBE
BFC85A2DE9547EFF
6C8B78AA8D3B07ED
F306673264FDAA00
58ED03BC766CB906
E823B3F7F3293485
EFE881DAEBE4B002
BB15125E2EDDE84C
20016E8CF4EF7772
728FCC4AEEFF7881
0810FEFFB13745DB
2002F8B200401008
01388CD9655F5D09
200EFDFEC2182045
33319098FE9CA97F
80F0DA8F88EA3361
4C0877BF96718353
3B952D9F00109175
1AF7008059964FBB
9B9AAE338678D3D3
FF7EF577567390C1
DF7271F55D63737E
D78300E26E47165E
DFE7580C80009304
0E60E18A02BB3A72
EB4EC9EE1AAEE464
03B9EF6730054080
81209100A5CD9EBF
E2020080FF81CC18
F90FBC0D33F89FFF
747BF7754CDDF00A
113FDDFA07BD77EA
2ABC8ED119FEFD68
FFF93D25FFF9003C
FE7387B277CC800B
13003FFE01760A96
E22B1CB7C942B7E8
5D05EFC596D710D1
0EF8105C609DB021
CB01DF7E040CD35B
5306A71280087B64
440025F2ADE36A24
D1C4B37FC5EE9A00
46237574A63D5112
C901F5C2E457ED97
21BF77F77345AC21
15AC6F2A1E4E5EFB
C02AF6B30100075F
86F6518C1865333D
6703BFEF24FE19EE
6FD6A233880CC9AF
A17FCFE7A0363C0C
F1B7101B3813BCCC
3C63B549FA2A6793
FF01B6FF6885FFC7
67D6B1043FA7B4CC
FC0D80B343BD8E5F
DC67FBB366482C03
B99918F29CE7C35D
640C33FDC432D9ED
B722DFEC22470C7F
188F3905A5CD9D89
D477923AE014689D
5FD9F7CE05E8DB0A
F7FF4CCDD8059917
AB5145FF37EE4549
F84DF040137974B2
8BFC6F72893E0267
6543217F2CEE6CDD
8805FAC83500E704
CD7A32310093101B
44433003BEEBB3EF
54E2C711DA1CFFAF
7F088CC7DB037CC0
14FB73822173377C
3A6FE8C8D373DF47
82F9B2408277EFBF
457DC16806B92917
D7BE90159EE50131
7E64FEEBEFED588A
EA5D64975001474D
7FB7EE5994C6F100
F190BC66CCE7F0E9
510CAC499DF6E48F
4F7CBA5383F08685
9267146EE6F04BDE
271BD281356FF081
BF9D0C8C476EEDC3
42781757233FDCED
1E8D9BF8318C7911
AC177982E82A25ED
F3F63DEEBF37A72E
E01A9366FF8C9F95
9C09F677F489DE6F
C7B5081121DE827A
45CF393B0EFF45CB
1998007E5017221C
D9B0957D2B92E024
499761410A7F88A1
7D01ECCD23DB77BB
0AE09D7F89FECDCE
6CED8C66043AEA60
200B963ED6888ADD
B1FEE8D415F8EF6F
679FC3A6F791A51B
A3B78038FFFE43D7
940079DDF6BCC15F
C30BE9D04791F7EF
A780DABF8815E011
2290B14FE752FF57
4B377043117D43E6
B19533BE8CFDE120
028B13EEB62F5CC0
115771491F80B966
17F8D3CE2CF3BECF
B80320323DC9BF34
50EE9F6D0BF2C34C
AF96001F6FDB78F5
82E8678A1FB9F10B
C373D1DC0BEF05D7
A70355FC00F70301
00B980199BEFC389
4FE2E179FF55CAAD
0F50FED7906920F1
F1B41981BC7E3FF7
17A446F41FC88B7C
2E412A34F6EDFE74
EA200D60F6F6825B
041D77B0603BFF36
7ED7AD6987FEBFFE
E2802A3B197FC0A1
D80E1B00326E8755
15376A0954163789
17F449819F6C391B
6E210545F7B78BDD
11FDC610E08FF6E8
BF6EB9AD8DF73460
DD9FC990E67B1CB0
8B9CBC3CAF451699
3175B3801EED7AEB
77AF7F2F6207376A
748F504F6F6217E2
3533808D10D86AFC
0FF204CE600EE892
6CB7BA2F2FDCFEB2
8B0AC951A80C8018
5BFF28C9E9B17270
D831AFA626A9305B
00017FD700FD20CC
7B70E6F7DDFF21BA
3215A00FF88E28FD
03799FB70EDBA0D9
B5FF38DF51E74428
A91874AFE2DD00F0
53F5105F39FF3B77
010F750590FCEC0C
38D1D01921882D2F
9EFF50CAA3B000FF
40308147B3E0749F
4C79C3DE84730B88
6F8740F6EE1ABF81
5011119CCDFE0FFC
2FAD1BBED2DF3E4E
2A7CDDEBECBA404C
22FEB53B8FF5F5D5
57CCEBF3FFEF8005
00FE1C0F1402FABA
4549031A2817D5E1
0A48A08C3FB0F1DD
07D7E9DF07FBE7AF
CCD3580B4C4716C3
D0E8137F8FFFA5CA
8DC04F6400203FF9
65CD65052E0CD0CA
0E03601D7FB4F95D
C33C10B26CFDB37A
345FCCD4174A2601
00B6433AE8AF8514
F8A531E2CFFF6443
0931F520C03DB85F
DB5351BF14C9DD85
DB2C8E1281956C44
0561FFB5A4DD1141
5E3C5A391AC21897
6250AEC68B0B701C
177B3F60D0D498EE
219A958EF7CBFBCC
EBB3289C5C6BFC7B
98B700DD9B6C0DE6
3F64DCFA6FE2D2EC
264A768872256364
811FBBCC03305476
6F9B6D00099D7E58
B366CD13B8855211
10372CCE3502E805
B81CF1B79ADA1796
2ADC4024D4BFDF50
38C5ED1C78841D7F
A6C9A8C7D67B78F5
5A1ACC6A099F0503
29422BB300DF99CC
E8DE3A0534FEDC44
C8A2842DD8FC4F47
1CD182883CAC2E48
24F28980740E86E1
C8A777FC308AFEA9
A12D909E7CF965C1
90DFCDD609A9B910
722351BF99FE3AB5
637BC0334C22FECB
A7043580A43275DF
D0DE3BF2FE21300B
CF68F544947BBD52
26E082D5D0022500
A12280C41046B440
FAC900727CDC0837
B407077082249195
999B300756CD98CF
CE80B5178857E15A
4108C0412445E8F9
F1AED1809EFAB9F5
A0C555CCC64A232E
D02308BE1B04B097
4CA5B1558154F2B2
ADE70D84F7CBCD97
90C26FE38CFD1253
652F73C89CA1898F
98C15F54531211C4
56DE89E637040C4C
D677C5D06767DC08
E70685E2C6BF67A0
08C4468D1E58D0BC
020857EF79F27B24
35C4F352F73D9FC7
DD4DE3920CCF04BB
3BFD3BAE946B5481
481E0085264C20D9
0E8FC40684F9227B
31AA0075FC63DC92
CD4DE6F72232460C
44AE31736BEC6A5B
4CC6BDD38438EDAF
125AFC008DD60D92
4DCD8A1580B0D110
C808CC112A777C04
47637726DB0259B3
7834AA78017B7724
377505A4A16B7767
28F7CF054281F090
C4BA25D3491547FD
0668D890213E236C
06D4213284DB59C5
34D8007D1598CE89
E88BF1B32BCFBE25
B43A5570D84FE094
B097B77E4C134D01
00F1916E025745A0
204807020CE451F5
5D85903A418AC012
0050F1B6B44E0874
5EEDF7F7E0AD03BC
2027A88073FD82FA
F7E6EE766A7E04E2
D27F73D8F25A4CF0
1B74C985F72D5DEE
160A2124EBB95802
0FD912170EDA4324
7825540AD0D8A3F4
CD91DABF4208E81B
27675A3904D841E7
4ED18548690DF809
8D8613338A9E25DD
0ED8E2010A041557
57E6CE0E0C449020
F5AA0E455A3AAD5D
2A67C5D5576AA861
B2CEABBA0EDCCC82
9D7B06165249FF7D
E1A9E082810F869F
E3ED0EC90EEB04BA
040A5CC388064AF3
8851EFC4C7E650B3
D641D06A4DD7C40C
365BBA895528EC94
84BF44F736F9F486
207B0887304DEF44
22A7DE6437488970
2111A00EC3161140
82DBB0834EF68975
6FEF006FD1D34824
17D079C2605B79E1
C813C3B634E40628
5C686A1541F43562
298A4E5B80608C54
0E0A905CECC4099A
1F73DFE5E6AA4648
084DF93183FC1AC4
08323D5680894A08
183375154CF4007A
AAC85CEC1C91C822
D816DDB39031C830
C4331AFE7FF46F90
4E45D016BAD6243B
8D391FFAFBC4FFFB
76FFB2114EEE37ED
CC982DF608DA159B
DF7303A8101480AA
A022DFFBEE5C6CF1
BD3BEFFAC4CFFF39
FFFF1A108E6D28E7
B2FFF79F05023799
7BF9AF6AFBF6EEC3
EF9DCC83F53F1899
FDF900A98B7CFFFF
F918319B177173BE
244381250083CCC4
DFFBFE6B976E4000
9930984AF1FBF938
AEB3DBC5F375E96D
BBFFFFFD3FFFDF19
A882DD574EFBEBB3
FFEEBFFE98EBBB69
03357D0CBF9FB33C
3F7F642F3D43888D
19DFCAEF11C3FFFF
960A9645BCCEDEEA
8006FBEF22273FBB
3A127AFE68BB3B6F
C208BDBDB4913A0B
F9FD3DABC8A5726B
16FF2EFB0CEFA77A
D753FFD9A98F7F13
FF8AFEEF1918F321
DFF7D731FFDE088A
8A8F5CFF3E085FED
4FDFFE7B371F2FB9
D82E465EE7EDADF7
3BB3F3ADA7F77789
3FEAE2857FFD832B
37FFF57F78970009
F7BDFB2ED5421755
FE153189A0106725
805CF7FD97FB9F9F
BD5708E090287F15
00176E193FFFDB9F
FF99D377FBBF6DE9
FF380B3D0040CC0A
A5D3F91B8F066B2A
DC7EDEF75FFBBDD9
753BFDF5F246FF75
08CA10C2EF371E81
F33FC9ABF7C0FF55
08CCD8C9F7FF6063
FEFCBBF29C67FFFB
FC5EFEFFBDE88C8C
FB499DFECD5BEB1B
F3AFDC0BC4DDEBBF
9D348BAFE3FF8E7D
664C48E2FFFFFE9C
84AD3919FFFFD9FF
A99908CCDD6222EB
FF2377DFFFC7EC71
6323A832EC274023
BFE7FE84F123749B
FFD8AEFB0B10AE2A
5C0C4FD82377D77E
04C42335FF67E1F9
9F6909D4616E4222
1CE08C333BA106FE
1DC1239747FFCC14
E9053E91A36E20CB
0823BF88F97921B5
B8D0BCCA51FF6240
0235FCC5279F09B1
6339AB205C32BD88
D87D0B781C3EFF1E
12240472CF0E209E
24080DBB78C4331A
4667BF8FA20730FD
91B3A3161037B191
65184400EBE19983
0F037A0E4079C220
092C45D93BF93301
209B49D0ED4C537E
FBB16E8453336F03
A39CEA35A9052731
4C9FBA1EA8215391
155E5193A1135B33
02F96400B2363322
F14080AAF271097E
CC0FD5479313D1D6
1357C20281808111
AF8DC98110891025
44083A3F73BF7369
82C2A80A9937CB9F
E63B44C001113368
0CBCDEC630138AB0
62A3B70AD3120155
0D9D09EF20171A59
49CC00828C862560
32DF4B190762F321
1315F5589130AF8B
803512937136AA49
D37F34A9EFBB5137
C64026C4C2531113
832037578005A933
9938C44BD7606D88
95DFF9BC973392F6
013B2BB19C08314C
113DB120F2E3A06E
DBF588249E991AD4
83BB91364D796BE9
99A8903393A2C25D
610F918561412180
A3DBFD8FE6FF33FB
77307F083E732030
116C7EEC918835B2
FDC013811FDF5894
71CC21EE4D91C0DE
DBECFFACD84CC056
C3242910B3195476
0206B79DF385D8EB
1195B5A3A814ECB0
6A370AACDE083117
300F1A5B2F57E187
D4DFB28132395B63
516D7F80868F711A
3BA2152D80927336
0C5AE88048F59999
454B46EE600F134A
E89C7E8870533B31
64C795096AEF0C0E
8531122AFCC208EF
8E2630FBF66D8A33
C20A1D3CA88F5DD3
A80D08AE67C185EE
78EEBEAE5D9E44BE
95DB92CE17039D4E
41B703B958E40022
9530D2E0B3098B80
284043B4A7D2E3F0
0A37A39B9EAC26CE
2600B4002170BFF8
59FEAC4BEC4D37F8
6C901318A3E8DF2A
DF6F26B6DCF1280B
0B9418D98D67C5BD
210801007F972911
8673A277F040518D
71A77F4786FE6032
9ECAC2EF18EE6CBA
985886096F6E557F
6DFAE7CD9B33AD69
FB9FC89EB14C5960
35BDAC40B2385377
81FC82EC7B206758
D510ABA20B6691ED
80A3329089C4BEF7
C0B925009EE08373
D5025E0F75C65115
FCE7DD17477E21E4
50A14C723917DFBC
57208B44131FCC35
088F0EA0707302E0
E767DF78CC76C82D
9802F5AA0C0F5CF6
334744292CBB9954
B9AD79AB51447FA9
11000BECBB4C372C
252A1F76CCFFB4C3
1ABFE009E182946B
15E0BFFF18BF9A71
55A38C0DB0C08AA1
DBE7F0E781110118
F642A04897532933
73014E30618FA02B
007420952C452084
3FFD0E1A004AF130
5F0F9F7C9F8A7F4F
92DC9EA453B68046
F3C2BA1D87FE9BF4
85721CDA058CE3E4
0764E53996247E09
C24E937FF4BB7C60
00233AD3AB1BDDD3
83F8DA6ECFC78181
93F4E41B3703F628
94C996A6C2812697
0CE95F26008B47F4
18029C6C799687FB
2EAE83E61C80F7B3
789F93DF7FC1B417
DEB72B86FB1ED3F4
F7710AE4E770DBA2
87265DEFD108DDF3
1101C3A4EC3B9032
0244089208B3C4AA
4B3566105CD9EC0A
0C02E9C2C83A0049
03B5C09F51B52063
0F510355A7370DEB
56D09435E42B3264
11AACE829E329108
F8BBDB5F07FA8011
643101B83959E042
5C9B1659A4AA818C
5D84F22632CEEEEE
4028504BAA114274
644B1DEF77F7F084
33A08731C3FA6366
81E62B30C4440056
3146E01801001570
AB2177A41131D0FC
A4A47E89401CF02A
B08A8DAE7DA588CD
A71211C9904AD489
188D0E24C5335A39
19AA57BB72012089
B0EDCC1AF980A692
C521CA003C09BC5E
1350E1B5143A10C3
4A3C428AC91846A5
82B7C820C6021799
43C9AC6522FD7678
04BA115F202907D6
8AA37C1F48891446
4CB7D8D7DC8A2EC9
837FAC548807D008
68BFC13764BA8A09
CECD76470B372429
7841C8396BF4CD10
01683ABBCEAA1061
D5C5C1CA642942FB
C881816FDCB580E9
2FB10373326EE9DC
58D9FFF9AF939A9E
17F17ED4EC9D143A
244F009FD3DA80E7
CA285C49D54FF0D3
2224D5392F69E440
4F44D2B89599E199
B90338B3DBA8AB72
D440511AB1459C9F
BAC8E54809670221
2230D28680000006
750EECD441E81016
9046109A4A90847F
1DBF221CF8800D70
80146B871B164978
D6AA85AD50C6083E
094455F2200DB831
DF39878A126EC97C
12AAA0090877F360
1BDB019B85C19600
217779218419F822
76AAF677F48D703B
1D8362A0984B9FDB
003363E878C953A8
C29E2E9AD40AA01C
A8FCBFE7C8746900
EA278FEF4FCFB6C2
C0B00DA96ECC6E3B
9E728B18CDE7BEC3
9C3B8517FE4FD680
2A5E3DF2BBB3A05D
CBB60200882FDC32
683120B8E04C0E40
22379B748087FFEE
3912258A35A08446
2094880F4AC8604F
B185A0CCFFD05FDD
8393AE40D00CBADB
EC9490D19F336604
57385119FF7E2819
7E90FA0D16E05F42
B5033813E80B4EBA
701308BA827C2E41
D248A02F664F98E3
0AB1326567C8733E
4185C093373DFF64
FEFF73802514E755
0EBB0CC01837A0BE
F671CCEDD7B077D5
F3187F4C1FE65FE8
590D70A84CED8881
006EB5B466ED7C10
0172EFCFAFAE83B9
D9268C92842D47CF
2485C0AD79040889
C6AB21665B407F72
98478F1D8A4B7ACA
25313004A9B661CA
C280B775A36F4F30
8E76873954A09258
3866520682631817
084AE3115E7C4009
19266EF616CDBD54
630248291883337F
036B8A9C3C675220
1B6EA117020242B4
0086667A9DD86202
A9220994264FD319
F77D32F8C9B95036
17377C01AD5AC848
FBE0C02200396373
D8FD97827FB7C01E
E20D04C11A82B183
78838EC9610D082C
7DDEEA5B0004D9D0
0173DD28BFD9E75C
AD1F57B1311B589C
B818CC5E627D6540
5870E31103182442
FD043ACF473DE656
BF46B76D88809A7A
38E5D7000E98F705
0440AD6511D2E38F
BC08C944F047EB35
921193DDCEE7CFC0
7FF81BFEFCE98344
7A80DE08E5801239
2880F02EB08BAE90
8C0D521DBFB1F59D
9BFF16C894C3C0A9
94149679848849FF
CCEDFC53F404FF89
2403A016817058F7
55A233658FD61F7F
F6C5FE8DB264EB78
A6647CD89362936A
DC88753E00FB047E
81ADABDD8383100C
113237586E86B2E4
DCCCF4A6E73D03B2
A480BB74EDBF33E3
04800177C2366B4C
0CD0FB33290BEFF7
A763DB10D0AA9852
ECF27484118A19BF
B8B0D831F2F2D3FD
759485E6730D94BD
792C3300A67D74EF
EC884101D9CD7F2C
03B08F0837A77275
3050A0AFEFE022EE
920F9A725373A1AE
FF7F77E37C2FC1BB
13E86720CC863124
55FEDE2AE830E71F
8807D0E48AB1C9F7
2DAEA88822613039
2307E03703803133
BB768CFDFFE3387F
77F713422A31110A
2F20D30C477C1333
A84EBA4290104864
A72EF3E843510226
7DE938C267FB5BE9
78E74FDAA2775B12
1175994CF3041DFF
030031334865B93D
8833E0E5FCBFA17F
7E8CF9D716BF708E
1A96F32D90413F8E
916CED2830398CD6
1FEFDD0670479A30
36A91DDC6777DFCE
2566EF259DDC84AE
2B047FC59F049005
93651B4A376CFBFA
94A06FD1CF79276D
0FED00774CFF1040
230086BF82E4F730
78F1C727E0F1EACF
7F80EAA7FC0BBB98
CA73A87B0D878C26
5030553E2137AEFB
F7FE326ED506A734
22E99B8E518881BB
D3567F9F53D77367
3F9A24E056099C33
8E7700302F6F106C
426802A9FA6C5484
CFA3EA7C7EA2FA27
F2B4F224206AD1F6
6CB1E980CC4DFD34
7841F68C4E6726E2
0C46D8805DC0CBDA
C9D932011DFE1255
6819798F93F7C4DD
ABD5EEE0D4005DF1
CE029DDEF46FF976
437BA006FCD13302
21FB18FDCEDA88BC
005313B9A6518010
A0085DCEA888CFF3
DC445C0EB2FEEFEB
88AEA749499F175F
F6701C87013A1219
8C58EC532EFDEEC1
733D644EAC064892
78DCEF84471B2642
C36241D3328E24F1
3D6D8C292C479B8B
A5DD110F17EA4BC0
BE63DA9E0072DE2B
32739D810ABDF534
DC01D7FEBD4A9419
DCA33E990275ABB2
A5D06184C249BE3B
F34B8CC7D8F2F1F6
965A7D47E25764FC
89736CDD230E6AC1
C2C93B9A55621F99
D7FB47835CDBED9E
C0414CF3009C199D
E155C8579834272D
863DF7913DA22BD1
A8C52694F3B1F77B
4CADD542B5312EB9
F0DD48D2365BF95F
208F175F996F94F1
C269F7F9F88FD22D
EAC9C64D023F0012
BCAF77BB977B717A
FD199AE82280B8EE
4F94E219E518E078
F05602EF56307402
07D3C0B9EED5E759
A839CC31FD9EE2CC
D0F75B79D300ECDC
389EDB3442C04D70
891FBCB51455868B
A3F48D57313ACC2F
5973D9D5E088E544
B33766D7FB371133
C5AC5D9F5DFEBDD1
CDF94CAB7C6B0867
FCDFB4FF6030FFF4
4B489E589AF5C721
DB092212F8479E37
4113CD5481E75BA7
D4BBE4C87F53891C
0E19586183FE5183
04F7BC38FF42435B
5C7346A9E49C4877
F4C0EA40C5EA5D9F
3C9CCAD9FEBC7B9C
99DDD4C0D89D9593
D5FC7DFF1FF6E034
55324508113B9648
D28ED870A900CFEF
20F233D4D7C7C888
72547737D9E0272E
D6CC9D69EDBEE967
FCE3FF0A729E7F1A
D996A0718A5D3444
DD23262C6EE0ED7C
7EAABBD59081DDC2
9EC6530ACB2CE606
7C72CA58E3E1F781
2FB1EDBF17E07995
AB1B8FFFF955F9B3
AEDABE3F771CCD41
D642BCB33B7D3E7A
B182EDD5D567A60C
DB029E566BFED9B3
140308ED73930984
703F8663CE2BCA8B
D47CAF07F7212DC8
E7CE344A9956D08D
D0CD3ECC456573BE
57E17E281DBFDC66
6D8030C53938AECC
BC73E280CCFDA22D
B529A4ADEF406737
DCEA55EDE207BC6B
6EE194D575AB1818
D158B39E050F3972
70307582CCD3C5C5
738C7D83F6807888
FD0523F6EBEA9E02
E7F28A35A9C95D47
EFC08D80FA296924
4620029DC3C5BD78
AB4C4FF15188CA84
0B44F7BABD3C34D4
D8B99C4F573BFF88
3FE4E3BB4FAEF532
B344F808117FD738
070D31F87180E0ED
8680A496FF37CF44
DA78AD28855F6D44
4A03F6F4377A9F08
C01BA9DEC0D89474
3816BB6BAEFFABD0
E6CC9973C7DC1DC0
C6B84EE33F89FCFE
2DA30881C3087A26
FB2E07BFBA028F64
CF593AA8FD87397F
4928BDFA2A027760
CDB7B3F9947D1EF7
EC9A78E6E7810014
29310E442F55FB36
E6FD5F305C093857
BFF483881CEF7A9B
3B26FC296953EE36
5E43C1C29FF2BCFD
F3EA49FB6FF6E688
ED0F31F7F200BAB6
480E3D588E73B162
19845313024C701C
1CC8EFB77BCDB582
4BEAB851E5C4ABB4
3D027316029B9CFD
B3B2FEE768D3F911
03A0BC8031C83B8F
EAFA7744C9895CE1
95FE894FC8A347CE
607F332AE6FEE0A2
9AF837CF111837A2
9F52D8428F6382DA
EE7DB4AB32BFE1F4
D7D7D7DC2C90B2A8
1BF3F7BC13B9D7F2
B9912B3315EAF395
FA23D45B835B2887
2927026F5F83E398
C318DEEFF1157756
230593CF11349D6F
9E649D5F3371319F
3EEDAE67648FA2BC
CCF909E89BB0DFD9
33D8C5DF3F3D368E
F21A0E67E7EF1EED
79FF39EFDDF9C925
83A80013B5AE73CE
B82224FFFBCE288E
9984DBCF6CF46EFF
D9CB8733EE3E2BEC
3CFFDB9AFFAB812E
4934F0F8B68DBE1A
4001833E73FD45E4
225907B37C4EAAE9
4BB59FEFF622604C
91376AEF84AEEE45
901026DFBBB64A9F
10185FF0F886BEB3
F73DEFC629F72910
9FB4D2BFBD7A0190
DFBB413932CC6C0A
CCE7DCE3A1C6C89E
948E8E518949FCB6
7FFD31BE4617C5B7
89B6116A61FCEF8E
E9F16F2F4823BC45
51C2955FEEFE034E
B3C71FFD162023BA
FBF2A1F918B9BD30
7E556C827DDE1472
66EFA1E07FE318D3
D7DF8BB56EB88891
30D4E93612029747
A7AD9D51DBFD66A4
E63BE37538B00084
754E18B3F9EDCE39
12F7104B3512E0BD
CA3891BE1AFFCDB3
108FFF000F30311E
2AE74D8B113E042F
FC9EFBFA1B742C04
D30128BFC03E177B
3628ACD4C100819A
55EFEC3FAA38F772
5229113D252098BA
02A322F0A3FF0FFF
ECB555D5BF30D82A
158A171EFF6A8E17
023BB9B83A0CF5CE
4474FBD82FAF0089
6C81DDD357BC3240
D4C2866DB0DC161C
22924E4FFECC8740
33121F10EA8A3736
F7F85701C8AC2C40
ED1B753D50409015
2535C082FFBF1186
ED0B544A4D676FFE
F89BBE2137F306F0
FEEC45BE0FC173B9
040007CE8FDD9C0E
7545CF6EFC817631
40295251F31C103B
3CD7760400149818
CEDBF86C47F87206
C4D86DD41584BE67
5F77789EFE7F3784
3327D0C00AF41745
B9F9EEE4BB5100E8
614B59A1C15275B3
862D5FE6BCB2850F
C70B5DCE7DB17B15
FF1E0646FCBFB1EF
8C00000C18FFF301
F12117B795A7A5B9
EFFFB4D34A24ACB3
B947B72663A98813
2ABC00C773354F58
2928A776E2390140
BC978DBF3E01207D
FDCE6E4D0B741012
ED0EA0CD848D8872
F3A8E29232A32879
F6D43648C6FDBB04
140068C8766468F9
00005640F791F711
50C044D5F789177E
8811F7FF2C37D100
AE46891441D05514
6B07830400BF9484
FB0020177AC83FEE
F7778131A9E3E94C
F7335402C40E8FE9
1000BE16EDE6FFDA
A76C7BFC577F0E42
089800CD73B73884
CCEB0A556CFFAA82
0F0043F28001A1D1
00DE1B7C8FCDED7A
8700EBBBA588EC0E
6BE5045E48FD78B9
5B01BDB3C185A586
31AD09F30EEB7F64
1800CCA7930ABE58
3A91530023F7912D
DBA70895F6CC1E86
FEAE0CCDFF58C8B9
0490B954CEEC0013
C020BAA84465DBAE
FFEE0F85B38684ED
20CC941060703A10
048E00105376E9CA
FECE1AAEBAFF288C
08128C93A4798CC6
93764E0A907D0C82
9189DD9DEFA9175E
FAD90101F7C164F3
72E3C82F5CFF4893
EE73FDC731CAFD7D
D0ABC3814EFD61A5
3C1049995DF1803A
69DE2FFD7EE2287B
0056BF419003A675
618B762F69384462
9EF44CCBBFA7D136
692F60FBC860E7FB
EF7107F54633C9F3
29DD8DF933E5F770
39EE00891025807F
CC8CBBFF59DB63D1
389DE800A630C82E
8EFB09F7DC5BA819
4496808EB5B1CD37
53BF74D4EE62E183
70FFC8AE984F794C
349D1CFE7BD85378
DB7C8EED230E1310
CFFD820B91EAA4FD
83775886D57000BF
7F653113FA90BC04
D5DA40CFB7755AED
4CEAB6F6FAFA89E3
D2247B03786AB7FC
400CFF6B47B31A1D
587A03F0692564E7
7634CE2B1B0889A4
70C8CC2236713A93
5BDDF7856E111013
FBBC773CAC306F31
A4466019F38D7F3B
7FAAEE03F31E9CAB
FAE1CE3F9CF8BFE7
503E46738ECCD2A3
DFBB7C1FF546B896
17714CBD05B79FFF
FCC0EC970303802A
2FFF1F22F1FFF448
7174FF9BA05C002F
B08692C84C7FB110
FF92FFFDBEE9EC00
76AA17DBF40099B4
E3767720CBE79FAF
E7B25E80C2E49017
367EEEACCE07DF3A
01DBAD09FACE3C01
90DA43306FAF76D1
7103178E608665BB
407BE310BC0DE801
46AAAFF8CCB92833
EEEFFF39476EF775
08D03F31140DFEFF
DDFB0EAA0CFA8D07
50BA12DFE99F2239
48BF3029CDFE00AB
F767EE792C2890C8
43208CA630CF3F31
03049123140354F7
EF47490B11033309
EED78C936E2540A5
004D9FAADD778D95
1648ECD75246DE9F
CCC86F450408FD5B
3CCC3326CF23CC06
7FC53408001B2A2D
DA29C041CA0B8770
11401A63D2A3FF80
F5C9E0BA6F77BCC9
8EF256343FA990B1
0010CD02B083410A
66D2AE272C81332D
BE7FE8893C8846DD
9217805512A0E240
8A6365F25E728DFA
159B91416005FBFD
88C3DF6604095F00
5BAC931C9D9BA3C8
F013420D92C60C0E
9EC3441D4EE77F32
2704BD0000F1C10B
4C7B32782EEDA2A1
5F1990810A230944
003E04A8A89BA17D
602F3FF5F9D8F805
8240F5F6EB431C16
9651EEA0C5891C10
6EE504A975EAEB61
24D73810EE20D811
5E0C001E8059DE2A
F023F8DB277E1D1E
FF935F49604F3442
817404041888E64C
0C4B18BBEDD4D414
3E5CB3471CF177BF
E33B8AAC2ECD4C00
3431B7911A7E88E0
24034FE720022307
C00EAD43004FB80F
044FF6261432F827
79C400349D81EE77
04008242B1FF7B4D
4888481990768776
E00A21404888CD8D
0AA7FECBC060057D
40F2E4770300FF7F
03191BB33EB17558
21A04D9A66A2426B
0E7980C6CB342E50
A2DB228BCF1B3800
D200BA632FD049E9
B1E158159CD4BA30
FD1F927A91ED9311
4022430830044984
04978B0DBFE1BCBE
71BE34280A2E0D24
8A1A62ABDDCF0CC8
603006F0D8208014
590ACE930E6B4B61
7F97030813A8C602
B3878145000D0C6B
3E00170CE0206D79
48083C2581FA0CC8
FE92FF2C945DE706
FD64ECEDF47F2F73
45D9FEC5CDB9C23D
DD64211273CF6D69
0304CFFF2855EE95
C8170DEFC715FEFF
9D7F156943802835
10D852ABC99875EC
939B2BC8C697DE7F
855DCFCE5E31CE40
0118AE1B93FACD4C
07F24DD7F732D132
B8C7F6D6E2EFA474
F7EB0680ADF1D02D
E8991C729FFBE6FE
FFFE0003FE33DF68
D5FDF6517B7C00B1
A108541008914047
C6FFA3C28008753B
48E271EF3355F046
23003BCF873B9BB1
51BD837B18466E74
188615DE33DBFFE1
58A82288FAAB553C
488631A232ADAED5
8433F635857BCC5A
7D246363B6C7E461
DBA8FF60EF8CA2FA
FDC32010A5FA8829
7DBD7000D016FCFD
827937380F350320
A0003242F731059C
180E0A8B5BA3A722
D0669CE15EEC75C8
00099FF116361893
CF7DD1BF99333FBB
D9C7B54A84864FF6
B3EE2637E4F4C088
4EAFE7C4B8A5169A
587AC79FD01D45FB
F5882F6A7901CCDF
12FA10BBE2568880
606EFCD216EF1F3A
6EC8A4DB480055F0
FFFFCFF4D23E50F4
12D0D6F7C407F91A
6F9F7F783D33AE93
E4403669F80CC8BE
F7FD30326395C205
80427CA6108898B1
60032901272A1BD9
A77B6941D441BFBF
0DAA814C123F514B
BEB8984E6720FFCB
FBD56B3ED46F7773
705A27DCFFA10911
CFFD7F758899A2BB
14449E2AD00E899A
EAE59113333EE7DF
EBDD4C1B199F4807
D26F009AEE69B232
BECD60083877B7FD
CF71C5EF2CF92D89
5A4D5502FFF37ABD
9BCEA10530938721
1EE852006603E110
BB2221332B080222
122DDE2D1135C091
0E417624F50587C8
10D1C845DD511330
97485CD7AE5136E9
87AFADDE2010E9A3
D2AE2BC03F5500C8
44C710BC73100505
CFEF4100306804ED
F3EF22A080FC77FB
E45306002FECCAA1
FC81D31000481300
916992FE7EBF1752
E4C7FFFF0799358F
7F00C044B285F1B2
AF88F2842708F609
7884CB35CF7015D4
50837E11CC6D7B1C
A072C1378AC4044F
EF31775067913097
7BED4A11A44864C6
6F119941AE91A204
1240DE3696181672
780042D8200139B1
80839CB1B9BF5D7C
6690F20231DB12AA
C2B0C0E82E3352C0
A199F4E26EF18703
2F0D90917F3C2793
04023FB580F6BBA5
2BC16382FD448645
CCF1633F0000C6AD
9F028157F1F22EFC
B319FEA9BC0887A9
7F712021F7F304D1
DDFB1DFBEE6BE809
F8B28111EACBC544
D873E6402806DCCA
8743C232833F3A41
7CFAEBA0993AEFA5
24807F5808800682
80F01000BF41EBFF
2F9D0008BC82FFA1
2189AE1B3E8417E9
D4F3EC7B4C25DFE2
7E006B8B2FA92F65
63EC56C02C6C30BA
50B82751FD1166E8
FEF804726B8507A9
373C6346048322F2
1388FCD1D412AB69
8C042E0110051069
3F510094F9912061
CB01CAE4226491CB
14B72F08D4901078
6040503F9FFF3E60
E36DECEFE02FFDED
D62B753F8F30B210
6489BC02E6F1EA67
201B1FF5C3096F29
7918AD4881A8980E
20040F84DC4ECFC0
7B3AE6770FCD2677
00229A30140AD03E
2EE727980E4E0FE8
405200183CDA47E2
70DE6AD1733BC000
33394D0028500AAE
800074804E840A2C
83313EBE2000BDCE
0E838C002508A1A8
2328008D000C8D8E
908458C0CF1936CF
E33806412230D634
1C2A0080C7BEFF02
EF107A0AB7712900
67086BCC47CC168B
30033001004C9A41
DD10023226FC7E00
4120D00182188022
008A600B0802A208
C00410183223B889
8AFC5210EC717711
48291C9067F34A2B
0E63FCED337274FC
13363BC817F68FCC
4111D083AFFE8185
8024F0F07FDED010
0919ADE89E888012
BC00558000A66C51
1431C00473009401
E23700D76E90D0A0
84DA28AC8682F1F0
011A304EE280DCC7
2C1D3F3637473773
00F60C334ABB90A0
2BA0066C3141E5C6
F0C6F31D6ED0F008
006ABFECB48C2178
3E4CD81036DF33B3
90381E84E66E6C00
026E599FE808122F
0091D1EE90001205
A0B600043EC20081
331344289CCDB9E3
3371900002000CC0
9FE53050C1502A19
88D70403F7F2F418
A01800C400B2D08A
D19B2DD531088E70
14458DC9A11B4A12
811399ACAEDCC194
E80087BB119D918C
908003958BB24940
FF7FC104CA43CFFA
5410F9FE97118E85
E76CFEBF0A01CC21
A8F0CC888AC4A302
00611520300D020C
1010BE5021076B38
511D7814EDC5CEE0
3CCF636A0C8D6A02
30308D0850B94130
800478A200090400
A080D238C531FD91
9B97E2FB5C60483F
5109076823CB41FF
2A0932F2759054FE
64749D1B60206AE0
994743CD6F1115A9
7FB4187A73355959
6640ABAECC9C19DD
0230B6FECA9715C1
82BCEDF46BAF7F27
2E20799FA728A190
48971072D5745A3B
E7E1B3F0FCC89AEC
FF2AAEA35CDCFBE4
0F11AFC9215CCFFB
188F511EFCFC6287
E728536202487FBF
1560C0C715CA9118
07F71443FEB83BF9
BE50777677FEEEFB
E3EF918E773BC818
C6191E89410997F7
5029471017EEDCCD
80835887F65544AF
BE2FEEAC048087AA
C085210016550EFF
BFFD91DF423E7CE6
5EFFD11C6AA9930F
EEFACA6D70316472
E6EC199F10AAD38E
233D17A6DD1076FE
EF20A8DEEFDB6B13
4EE0CC04DC1EE99B
FB863446984A990B
307E22BB2CEC4047
3E5F335F9BD68F05
7FF7A8FF70E6A37E
B1029E0166CFFE05
1030E27877F47888
11392BA956F9DAF1
1F9D33562F1CA07F
A355BB63FFFFD4DE
DDD4B0FF911D47F9
0D894A693DDE0680
E629396BFAF2D8D9
931916EF6FDEE012
A2DD18F734D79FD4
2C0B66136000EFFC
9117CB0E63076241
7F551A8836332260
818F4C2D21F4B366
268BCEF0FBC93510
F1C9CF3221FF55D3
0A8D23CFB87B8542
A7F447151DF6FFAB
ECEC82093657D815
2E2B7CB4B90629AE
89FFCF3930274FEA
4D13EBEB6DF6327B
5697B9516FF0437A
9882EF161959B160
184CA675B679DFFE
AC8813F3B4108136
C1473DF157887127
221C3ACF9504761F
3CB1E213E054F6EE
806C126E1C7D651F
B88CAF3A10FF2C93
707DDF9B3667DE4D
FF6DEC19F213EE24
BDCBCFD4ECCD8887
EB21F2ADF5201FFF
7815F23D62AF7DC5
8634230079120E77
5BD769B89B99CCF2
CE49AF321C73AAFD
99193D9839BF1344
80462E68CB9A75E4
D6CFD7DFBFA2B40A
7E0C39DF6FB0A620
E23F55ED739273E0
FBF7F1DF010F5808
BA288D7AF300A088
F12970011208307F
BFFFB10F8008B0C5
25F0D5F7F4A59B02
DC4D4F68E7EED395
201789EF6BE3F475
BFEEB5F437FDF400
7B14FEEDD5770550
38AC4185F863D1DF
567EBFE93ACEFB1B
F143B32621300332
BB2C001EB80E67ED
8BB43301FE9A588B
EF262EBFF1B76043
0209B730F7C3B842
D0112CC91558F5DD
9561C73C120DF530
E18336691744DA0C
302967E266522591
75E40869632B7792
8277C83D98087F21
262E109F4180FFEF
DC1AEFE0FF7D2EFC
7E06F1BD900A8C07
6B0D2800DC1BF1BF
08093AC35DC5101D
B3E84EA0B75D4D00
AE4A2A2A8B18FD80
F095EF72CEE01082
806FABF9CE8E8781
AFA8FE3C0E4FC921
810E5666094C447A
DE0743A93FEEEE6E
771FD960B269D111
D1FEFF3241FEDBB7
98427BF11380FF5F
B6AC31957D6E8A9A
3F603BAFA7F1D759
D7A29314834388CD
576EBD9D0CC95490
569D1B04B25A3CED
CC839A8640057B0D
314CB2BED7FE902E
3F5DADC6D19D3844
5010C7190A80111A
D89BC7FE197706BD
11193A649B7F7EBB
863793ABF90D737B
006F3813356BA08E
095D41B1F4BC5DA7
01BD338FFC639B5D
EACE37C77F054DC9
8C968FEC039907C9
EBE1AA14A3E6E506
208C2A8D429B8F8B
36176780EB099F1F
F1C35FF3EF5E1640
160CA3098B6E4CF8
776060C71B514FF9
27FA68D739E2B319
CF97DB0118EF2F76
3F69E28D6FB62221
DB1A385A63E8D1A4
6B08316245472F54
BD2950FAFA2BFF5B
33887E479393E689
6F7EB305FABAA34D
0C1BD900C2102B77
B7312617FAFE1CB7
2E5F0A26E8509503
A8549B5C3011A7ED
B53C0437B975BB27
8D27249FC9B39605
9B6206F68918241D
76431F5C55FE5642
467C8798B8E840E5
7FD620CF637013BC
A62988B8DF42B3FC
33A01213E299FE58
FEA7DE8D2C06AA73
7FFF1083456D4813
8114003830C47647
520CFA6FA70E2E34
3ED06BAF9E42A719
F560CD757F989E00
20A787CF7C88E4D8
73096BB8BC8B0076
A33839AF2C8F9019
0405A272174BC00F
2F10ECC1BC17F690
9D64E17EE2AF3C4B
69F86947773C03E8
EAB420F101057B80
1B15F348811804ED
02D47B98FA207EAB
E79C17C5D3616BAA
FFA056CFA0E2F8DC
9058D5517EB43FD0
873A1701DB517124
2F845CDB61B3687D
B4B72EB50E42AAD3
5D73D47D507B1210
7FEFCBD306036A11
EE52111D34CC9D9B
56F2D1D02B3BC060
B8AE2E65469498A5
06D5D2D05F117AB0
018CE37A626EEEEC
BEA4E98E32E11C5C
CB03D1A7E64F64E6
2FA394EDF0297E50
6138110919FE8708
7115EEF32FE9BCC3
90878DBF5BFDD885
9520DF8CD7FD1FDF
DFA02883EFD4EE73
36F7AEA81EFA7A37
EBFD0308015D2CE7
A0BF8108777A0024
3838CA897EEF07CE
AB18C41ECDBFDF7F
9377AFC83ADEEFDF
70C6676FEF967FF6
2080C8A7FF80801E
5D7CEBFDD9737227
36306FFAF7B15873
7F93FD812C5D98C0
EFD4A827D461F677
C4096B777FF72F5A
016B9810C40B49E7
733B4BF40858AA59
B8B4DBF6B3C0EB10
A71BEF807280C7A3
05ECCB7C9DEF1B26
00019FFEDFF17D5D
7B7AFF1EE1AF0D5F
E8CE009D2DCDFA89
032C1F3717FC5CFE
772730435E44A88F
DE777BBB76011B37
664624E770809B78
3BBF232D09CE79E5
184CEF7E0041AACC
76BF05B1FB1B76BB
ECBFCE0A034ABBBE
619A2572FF7720D8
9CC97F81D7BE1949
F4FE63FAFFC53801
19FF4ECE9B10F73E
3EC464337581BF73
8854EFEFC1351942
B86E70F724D16299
2B0F8AE819EC1902
F1842117AADF3BFF
F9F5C065AFBBCA6E
9F7F821648C8BD91
5049BF9FCBFF3223
40E60DFCC7332001
BF8020CDB3BB589F
E0100A70FE12FBBD
55497933F745A08F
15CE593A06EDFDCE
650EFF7F95006E6F
6BFA1D1C537EB99F
5F77B520FF6F3407
731371FF6FDBE72A
FF54EFFB8F07D7D6
EEAD6180EF5FB101
AFBE18F53F4EE696
8E7F7FFF910CEBBD
57EC591A9FE90C0F
31FE9ABF518F8E2D
6BEF1F2DBA3AA0FF
580FF4008839449C
952181157E332BB1
4AE9DE81CEF7929C
CFAF5616468BB898
C629FDD70630CFAC
88544D491414690E
83C4EA20BF04CB61
15D0B138AF7BC619
4651BB7E73B9ED02
641132E8A10C8058
063CADEA4A370EE8
4ECE9C4C7924C810
4912E235CF3A0D2E
990C87F32749DFB0
4344F5E9D177B885
E7708418AF26FE88
5937B0F745962211
2EECB380D3341AE4
C60A68EF3F88DD91
6FF554561CF067D6
CE0DEFC1C67CFA4E
7D20A3F126A02311
CD7FC4180345C07F
3D45D62F2E8ADCF4
0622257741E80C5C
520C11EF411CFE22
6A94CCFE9013247F
000FAC558A8E5288
51E4F6A1D384257D
8E00AEAF332D6E7C
637BF9B100C326FA
8788802F6D902309
21F94BB0A906FE67
A3B754F692CC1128
C001B31C923A09F5
7F4F864226D1A16A
483EFA4260130F78
0882DFE50F51EE26
A2564159CC269150
28DC1A2CEFB8F759
6B6C3B98FEB61084
815BF7BBFFE0E976
28147F42D3737F42
73758CB08A3D1262
F790BCE88654CD2B
41114F9CFB390EC1
D143CABE98062B1C
743F77F743068F91
105479204116A30C
F5CFEF86CF38E9D9
AEBCCAAD47188BF4
3F49C57909BCAE67
6FCCFA3F6C0AD570
41C44435B9ECB84F
3D14146411622512
537FDE68E0523EAC
C1180EB6CA0E4820
5FAD77E7A8C0D357
2EC7F112C4BF0344
6640414A32E0C7DC
FFA416BCA830A271
F13D4C88F6005FEE
12BB73E0412ADBC0
AF13ECB3F316D432
01920DF48E2FFF89
210C3D9709FAF6BF
F617909859580806
0802BAED0678C80F
99FFD771903F0CE8
35C49CDBBFE1FFDF
BFFE8105F341772E
844FDC445D7128BF
C9E2CECC31867D77
1817A5817E3D78B7
BE1660097D7F8944
508E63FD8EC29060
004D7F539E806E4C
818A7684739ED846
C784FCE677227372
8005B19B8985FFEE
35EEEFB7FF047F47
7A814C3F1037B334
7B7A008F513F206A
ECFFA37D510F6C1D
390876E523334CFB
9FD6A4DF53D9E98D
0CC0110D73D0BE66
C77DFE947AEE5327
71B6210CA8775DC8
5DDFF6CAD6ED7124
DDFCCFFF732A0BF3
9DF6915EB9ED8CF4
8E635802D7741C0F
D8AEFF06E040AF07
9BFF2008BF7A80C4
74C7C4DBFFE72EFF
5228186F902BB57B
5200B308133F1410
D13B096DF9939CBF
4018DD9F4F22D18A
E04E5C0004783817
3C05A6636210BC54
DEB1001AA67F7F31
8CCBC79B6A843AA5
54238E66798CF4FE
FA8361B0F8CEE6FA
110854F24FFD3289
FD8F1D44BCC7940D
37D87A834657FE79
CC60ECC14701995C
5F6B2EEB45D47650
1B14697F610C700C
37ED80198AD7B110
F730FF78BDCF7802
C8D017D98821C088
BF2EB227C653DFAD
113E44B0D2E7811F
1799190084042370
F86B5CC33A993601
AEF7133DEE7FBE40
5749C00A47ABE393
19B3B300784F3BD4
BF9F2FCD601C7613
BEABF33800FBFF3D
081EA8130042FBE7
9AB9CBCA183BAE02
20086B5B81DB2E6E
812343FFCCEC9038
F7FB026F5D8D90BE
FB23FCE7808479B3
0000000000000000
0000000000000000
0000000000000000
0000000000000000
0000000000000000
0000000000000000
0000000000000000
0000000000000000
0000000000000000
0000000000000000
0000000000000000
0000000000000000
0000000000000000
0000000000000000
0000000000000000
0000000000000000
0000000000000000
0000000000000000
0000000000000000
0000000000000000
0000000000000000
0000000000000000
0000000000000000
0000000000000000
0000000000000000
0000000000000000
0000000000000000
0000000000000000
0000000000000000
0000000000000000
0000000000000000
0000000000000000
0000000000000000
0000000000000000
0000000000000000
0000000000000000
0000000000000000
0000000000000000
0000000000000000
0000000000000000
0000000000000000
0000000000000000
0000000000000000
0000000000000000
0000000000000000
0000000000000000
0000000000000000
0000000000000000
0000000000000000
0000000000000000
0000000000000000
0000000000000000
0000000000000000
0000000000000000
0000000000000000
0000000000000000
0000000000000000
0000000000000000
0000000000000000
0000000000000000
0000000000000000
0000000000000000
0000000000000000
0000000000000000
0000000000000000
0000000000000000
0000000000000000
0000000000000000
0000000000000000
0000000000000000
0000000000000000
0000000000000000
0000000000000000
0000000000000000
0000000000000000
0000000000000000
0000000000000000
0000000000000000
0000000000000000
0000000000000000
0000000000000000
0000000000000000
0000000000000000
0000000000000000
0000000000000000
0000000000000000
0000000000000000
0000000000000000
0000000000000000
0000000000000000
0000000000000000
0000000000000000
0000000000000000
0000000000000000
0000000000000000
0000000000000000
0000000000000000
0000000000000000
0000000000000000
0000000000000000
0000000000000000
0000000000000000
0000000000000000
0000000000000000
0000000000000000
0000000000000000
0000000000000000
0000000000000000
0000000000000000
0000000000000000
0000000000000000
0000000000000000
0000000000000000
0000000000000000
0000000000000000
0000000000000000
0000000000000000
0000000000000000
0000000000000000
0000000000000000
0000000000000000
0000000000000000
0000000000000000
0000000000000000
0000000000000000
0000000000000000
0000000000000000
0000000000000000
0000000000000000
0000000000000000
0000000000000000
0000000000000000
0000000000000000
0000000000000000
0000000000000000
0000000000000000
0000000000000000
0000000000000000
0000000000000000
0000000000000000
0000000000000000
0000000000000000
0000000000000000
0000000000000000
0000000000000000
0000000000000000
0000000000000000
0000000000000000
0000000000000000
0000000000000000
0000000000000000
0000000000000000
0000000000000000
0000000000000000
0000000000000000
0000000000000000
0000000000000000
0000000000000000
0000000000000000
0000000000000000
0000000000000000
0000000000000000
0000000000000000
0000000000000000
0000000000000000
0000000000000000
0000000000000000
0000000000000000
0000000000000000
0000000000000000
0000000000000000
0000000000000000
0000000000000000
0000000000000000
0000000000000000
0000000000000000
0000000000000000
0000000000000000
0000000000000000
0000000000000000
0000000000000000
0000000000000000
0000000000000000
0000000000000000
0000000000000000
0000000000000000
0000000000000000
0000000000000000
0000000000000000
0000000000000000
0000000000000000
0000000000000000
0000000000000000
0000000000000000
0000000000000000
0000000000000000
0000000000000000
0000000000000000
0000000000000000
0000000000000000
0000000000000000
0000000000000000
0000000000000000
0000000000000000
0000000000000000
0000000000000000
0000000000000000
0000000000000000
0000000000000000
0000000000000000
0000000000000000
0000000000000000
0000000000000000
0000000000000000
0000000000000000
0000000000000000
0000000000000000
0000000000000000
0000000000000000
0000000000000000
0000000000000000
0000000000000000
0000000000000000
0000000000000000
0000000000000000
0000000000000000
0000000000000000
0000000000000000
0000000000000000
0000000000000000
0000000000000000
0000000000000000
0000000000000000
0000000000000000
0000000000000000
0000000000000000
0000000000000000
0000000000000000
0000000000000000
0000000000000000
0000000000000000
0000000000000000
0000000000000000
0000000000000000
0000000000000000
0000000000000000
0000000000000000
0000000000000000
0000000000000000
0000000000000000
0000000000000000
0000000000000000
0000000000000000
0000000000000000
0000000000000000
0000000000000000
0000000000000000
0000000000000000
0000000000000000
0000000000000000
0000000000000000
0000000000000000
0000000000000000
0000000000000000
0000000000000000
0000000000000000
0000000000000000
0000000000000000
0000000000000000
0000000000000000
0000000000000000
0000000000000000
0000000000000000
0000000000000000
0000000000000000
0000000000000000
0000000000000000
0000000000000000
0000000000000000
0000000000000000
0000000000000000
0000000000000000
0000000000000000
0000000000000000
0000000000000000
0000000000000000
0000000000000000
0000000000000000
0000000000000000
0000000000000000
0000000000000000
0000000000000000
0000000000000000
001BFF3BFF1C0263
00D40080FE49FEFF
04C2FEA4FEF10048
FDABFDEDFF86FF2A
0146009FFFD300E4
FFFDFD3700BBFEC3
002DFFF4F9D9FE43
00B1FF410184007E
0000000000000000
0000000000000000
0000000000000000
0000000000000000
0000000000000000
0000000000000000
0000000000000000
0000000000000000
0000000000000000
0000000000000000
0000000000000000
0000000000000000
0000000000000000
0000000000000000
0000000000000000
0000000000000000
0000000000000000
0000000000000000
0000000000000000
0000000000000000
0000000000000000
0000000000000000
0000000000000000
0000000000000000
0000000000000000
0000000000000000
0000000000000000
0000000000000000
0000000000000000
0000000000000000
0000000000000000
0000000000000000
0000000000000000
0000000000000000
0000000000000000
0000000000000000
0000000000000000
0000000000000000
0000000000000000
0000000000000000
0000000000000000
0000000000000000
0000000000000000
0000000000000000
0000000000000000
0000000000000000
0000000000000000
0000000000000000
0000000000000000
0000000000000000
0000000000000000
0000000000000000
0000000000000000
0000000000000000
0000000000000000
0000000000000000
38230EF4BFEAEA48
C6E405B8A89664A1
FD6F7731E65EADB8
1099FF730D79E86A
982A7191733DF184
FDF439326A23A892
1C53FDC5006680BB
001DDF1523641263
D88BBF163E4CF994
4D01542199FA60BC
FF8ECB8CFEC85987
3C4B5EDE081F3825
F1824C7D50C0FB00
F954E520F8850BBF
9EAA19EB1D5D6706
7D4E623404046CCF
FE6E00785C0CDDD5
6AEE0033EFC4716E
814D7046E7203E60
4440A09BA1F8FE8D
08FC6F28DEAC98C7
798AA3BEC80FFA53
B8ED7DC257FB2223
5090FE7995E4B8CF
F6080671980F79FF
F7D08670108E48D9
3B0F81876F2CD0CC
7B19BB1276BE95FE
AEEE40097175DEE0
BE50145CCC736F81
9C9067F742B2FB8E
70FC93BC2001F895
D584FEBF7185DF00
3C603D5E4B02B36D
C095F7359D3E8E01
7B7FF70807FE3AF6
156D779F3F360377
A05CD324F7FFD12B
D0C72AFEB94F6EF6
999F7F1400523B62
DEDF94CA2EE50B80
803911ACFFDFE027
62F246176E034FDF
88E9AE57F64003C0
2848DE7FFBC829EE
0805A1FE80050738
33CCC9041008819D
B3B6F11F8A691967
AB1508A581B13DD2
2399572F6AE7501D
9B602F656F0588D9
0035F77F863DAC04
6DBBD06953F7126E
3939D3E62C20771D
AF8A877E6C689B79
406A0808ADB63613
00FE39F6D83FFF9E
E1610C053EDDEF0E
1001A4B6C06A5BDD
E005D7FC5697316D
06EE383714E00845
80713BBEDF55C1FE
C0847FF4C0BC01FF
F0C0DFF111E7337F
3A67267C1FC914C6
8A1305D7A6950911
082B32375DD69B17
0833E63B2898FBDA
2047FD3C01104303
D4E7B94F4A23C50E
7B56080566000837
656FFAFF5069C4E8
FE0D791A40EE4075
51D4CD9725833001
C513120C9405D83E
AE53EFDDCC7D6C25
218AEF8257B0855F
B9A201850260D9E3
D198AC000C5025B3
BF7F582030DEDA97
786196ACCD831DC6
499104647E67E70B
90916BE660955016
9EEF6628396BC403
00108C00C085EC25
5EA9B3128D958334
4C62BDEA8E0B2E80
AD39BE5ACEACCC01
C97E5281304671FE
47A0C2EF48220097
F4431930D994FC92
89C847EA6CDB15E3
1DAE00E3FD6CC19F
6EE61C4202023FD6
27C511EDC431CF77
DD8280D346096868
89FBC7077CBA96B7
C5E4CE936CAE9DD1
0063CF9923200000
433E440363440CA5
4721377FE7C8074B
348143157E6C2055
9857FB4D90014833
EF4F1CAE0E50BE64
C71D0460FE299909
D95E88B5CEF58657
41210C815A176A09
5C65FFED9A86000C
7444042410C2EECA
D6887C8BA6F48E77
7B6FEC62D88D0145
4EF7774AD7EE84E5
2CD3D3BF9DCD483D
C900378FC477044B
8F511AEF40E9286A
0A23639F5C1ED7D8
E99482E4EB688CA5
1431E5453834396D
9C0E9F4E42A6CCF7
06A20168454C6360
0058004C823721C9
F3781A4E84C03EC9
130F0D068049E69D
FCF9E4D807E0111C
EC13DE27C911E1C0
021E174A1D3C1C88
2130023D00DE5442
6F48644A348CEC63
759AFB6AEE547437
D100FB6119DC8FFE
4F5F00BC49EB7B71
FCFF880107022B60
0E5F01D2B885BEB9
368B6639C9F1DD7D

