0000000000000000
0000000000000000
0000000000000000
0000000000000000
0000000000000000
0000000000000000
0000000000000000
0000000000000000
0000000000000000
0000000000000000
0000000000000000
0000000000000000
0000000000000000
0000000000000000
0000000000000000
0000000000000000
0000000000000000
0000000000000000
0000000000000000
0000000000000000
0000000000000000
0000000000000000
0000000000000000
0000000000000000
0000000000000000
0000000000000000
0000000000000000
0000000000000000
0000000000000000
0000000000000000
0000000000000000
0000000000000000
0000000000000000
0000000000000000
0000000000000000
0000000000000000
0000000000000000
0000000000000000
0000000000000000
0000000000000000
0000000000000000
0000000000000000
0000000000000000
0000000000000000
0000000000000000
0000000000000000
0000000000000000
0000000000000000
0000000000000000
0000000000000000
0000000000000000
0000000000000000
0000000000000000
0000000000000000
0000000000000000
0000000000000000
0000000000000000
0000000000000000
0000000000000000
0000000000000000
0000000000000000
0000000000000000
0000000000000000
0000000000000000
0000000000000000
0000000000000000
0000000000000000
0000000000000000
0000000000000000
0000000000000000
0000000000000000
0000000000000000
0000000000000000
0000000000000000
0000000000000000
0000000000000000
0000000000000000
0000000000000000
0000000000000000
0000000000000000
0000000000000000
0000000000000000
0000000000000000
0000000000000000
0000000000000000
0000000000000000
0000000000000000
0000000000000000
0000000000000000
0000000000000000
0000000000000000
0000000000000000
0000000000000000
0000000000000000
0000000000000000
0000000000000000
0000000000000000
0000000000000000
0000000000000000
0000000000000000
0000000000000000
0000000000000000
0000000000000000
0000000000000000
0000000000000000
0000000000000000
0000000000000000
0000000000000000
0000000000000000
0000000000000000
0000000000000000
0000000000000000
0000000000000000
0000000000000000
0000000000000000
0000000000000000
0000000000000000
0000000000000000
0000000000000000
0000000000000000
0000000000000000
0000000000000000
0000000000000000
0000000000000000
0000000000000000
0000000000000000
0000000000000000
0000000000000000
0000000000000000
0000000000000000
0000000000000000
0000000000000000
0000000000000000
0000000000000000
0000000000000000
0000000000000000
0000000000000000
0000000000000000
0000000000000000
0000000000000000
0000000000000000
0000000000000000
0000000000000000
0000000000000000
0000000000000000
0000000000000000
0000000000000000
0000000000000000
0000000000000000
0000000000000000
0000000000000000
0000000000000000
0000000000000000
0000000000000000
0000000000000000
0000000000000000
0000000000000000
0000000000000000
0000000000000000
0000000000000000
0000000000000000
0000000000000000
0000000000000000
0000000000000000
0000000000000000
0000000000000000
0000000000000000
0000000000000000
0000000000000000
0000000000000000
0000000000000000
0000000000000000
0000000000000000
0000000000000000
0000000000000000
0000000000000000
0000000000000000
0000000000000000
0000000000000000
0000000000000000
0000000000000000
0000000000000000
0000000000000000
0000000000000000
0000000000000000
0000000000000000
0000000000000000
0000000000000000
0000000000000000
0000000000000000
0000000000000000
0000000000000000
0000000000000000
0000000000000000
0000000000000000
0000000000000000
0000000000000000
0000000000000000
0000000000000000
0000000000000000
0000000000000000
0000000000000000
0000000000000000
0000000000000000
0000000000000000
0000000000000000
0000000000000000
0000000000000000
0000000000000000
0000000000000000
0000000000000000
0000000000000000
0000000000000000
0000000000000000
0000000000000000
0000000000000000
0000000000000000
0000000000000000
0000000000000000
0000000000000000
0000000000000000
0000000000000000
0000000000000000
0000000000000000
0000000000000000
0000000000000000
0000000000000000
0000000000000000
0000000000000000
0000000000000000
0000000000000000
0000000000000000
0000000000000000
0000000000000000
0000000000000000
0000000000000000
0000000000000000
0000000000000000
0000000000000000
0000000000000000
0000000000000000
0000000000000000
0000000000000000
0000000000000000
0000000000000000
0000000000000000
0000000000000000
0000000000000000
0000000000000000
0000000000000000
0000000000000000
0000000000000000
0000000000000000
0000000000000000
0000000000000000
0000000000000000
0000000000000000
E6471ACB4CEC000A
F8103214A211E8C1
3883F1B8FC372CC8
33B4D0FA3FE86E5C
9B8004FD3E7D20C4
FCE8521124BCE9AE
F0722C0C00CD3862
802E40A436FCC080
BA3C638A24B7FFFB
1898093CCCD75773
4613231988EE93D4
84B06625700C3242
336844CC35377274
00DD2609F320DFF6
6BE04410E3394F53
08C0096051800121
280068035F70844D
AB60FE122229EDC3
1C5F09E0A2FD88F9
0F3729BC4C9D8CB0
07AD000CF0FA9111
967855F437243181
11FF0007E2C59C48
2EEFFF18AA40D137
BF7D8A8073E91F19
BDC383B23797A888
27E57B5B7490A0E5
F58F8D7192A40F7A
B1690759724BD938
24F1D406C82E04C5
8A01D65F38D63236
121523AA132CDDF7
6DDE37C852E33621
27D7F8A69E78E780
C88CFF02150D8270
8CFFC1A067E8BF37
B3A054B8E3C339A4
C6FCDC8E4A047C20
812F30C28FEDB43B
B8000A2E0B20CDF4
33E577DBB1385A00
789D92214CD90C08
BAF078A6E5F1845D
E1036C070F9EB9F4
FECB80F5608328F6
A237B4FA1150328D
EFD114312BBA5125
D75BBFA6FC8DB3DC
38AE5EF931059118
E72774C4B0CEFEEC
C3761C9646CC99B9
0F7E3FE95D644A0D
217C9C0B7E2630CD
94A49383DBD9D019
3A31B381798CF906
E03BA2A372013D10
A2EAC780B3243305
D521903B261F891E
04CDD6B90478D926
1EA0C7AC36C8276F
90EEF253F2BF2A9A
141D23137DBFCDFC
F7E3AA6FAAB8C8A8
B5B7F6ACA330DAB8
99F213B9B84DEC80
D7F63308230B8ADA
7EB3F3ED0C291ACD
DE88B0E948408848
3590FE63FE31944D
DF79B33A7D4092AA
FF518B80086D300F
349DF2FD2602FB23
8656311C22E93186
A6C8BA0F45712DB3
EF90013CC72F15B0
57AF01BF0C601A61
0E90608A00B02298
D00005FC562A36B3
1FFDF915105DC206
356E7211030F9A81
0030730589B1029F
797E13F204341671
D737C2EA3AEFFFD9
6843EA441FA39C21
BE6526A2CA4F0AF5
8A01C61046AC3046
36D23701F68D2958
24C799414D8228CF
1B4D5D8144815A8E
0ED3A60D973D3CEB
731031F31A01B1FD
8E52A05F22C8ACBC
76EF33F122BB058B
4BD022E967B7F0F8
32B8F5F057B3009B
259760A43874A149
A7E4C7EE0074FA11
8987B4EFF2C8CFC6
2399E39312B7CA52
3217502C463FEEEC
7030134904EF08B2
EF1418C8989FF16D
C41C4D917B65B737
8C90102A54197160
A80510706ECA6950
07C49C90127D99D1
D199E498569B016F
7715831DE8BFBDBF
111544CE8150CA8C
3096B23E7D8337D7
F9505D1113D30AE4
109088C5E00F6D8B
08B77E7C90B47701
20B49C8B4088209C
E63D8B9AE6438BF2
8193F41F3D60041A
04F7935701234006
53F75835992473F8
70CE343449BB7864
08A80126F5499D04
AF8D441014BC45D0
C0F209A21201520A
72EAF05DCEC22E32
0101E0F5150062A4
20E5B3C96EEBF0DB
091F17FD20B0FEE5
0914F0406650E00E
3072EFF89581D536
49C3C4DC00279443
0102175D8512514E
EC9283006020814D
20DE12FC764220E7
08D08CAC78189BA5
E3F3006FFF9C4870
1982B07E36F173D9
1D987ED73B46EDA2
7B7F700C0498EC1B
0704014FEB5F1000
4404C900338CC2A1
408BA3D0E0851E00
133E8DD73D0026F1
F6AB3C937517ED7D
C1AC00F79A0D975C
807ADAB804980F7F
0841BF448AE6D81F
3B2F21338CC29E2E
B6BA6620958F00BE
ACE13D3E221919CC
650E0A8100DDBE20
D5127EB87C9BFB01
BD2D9277668C64FD
63C04AF40188880D
1CDF1E4D3D10DD90
420B2F0E4E270184
10EECA808F8DB56F
4005EC6D0C347524
AE2434C2F4602CD3
75FEDF6DAEAF7CCD
A950EE23AD3C9879
04C19C023C547FBE
907D1E4401C15892
FC642F8E24842118
008F12508C04AC0F
219659101AF22DDA
17F58A6298BDD130
1F8B2BF62424914C
0F82B06B55333888
0E0477200DEE24FF
0FC1FDF0FEA402AA
B01022FE6AEB0DBA
090A33449F99360C
0081730BF270E0E2
BE80EDC94C64F676
7D4DBA0000933E37
9EFC1CB30ED5CD20
C9100F4109DFE087
7D2347AED7230224
E7A403791A17F5A8
2EAFA61406B40D3D
4DB40914A36706B2
98673FC231B0CE0C
3A2FCBFA1AB5A77B
539D87EDA7950924
49283A00065809AC
7718CCA538517157
1B24EC7319F00DDC
032CB9B075A01CCD
3234654D9B36B937
00494635D8E3B373
9982C8ECF601EEE4
077E474FAA7929A2
3A4BAAE02980EC30
5B9CBEFDB370A583
0048FEF97B627D8B
9040075510022DE6
C0D0DBD377F35CF9
FFFDBA86F35E7FEC
91E7F0ECFF6C088D
C92426CDB10AF5BB
2098AB0FEFF85B4E
6EC8F04CB7AF13ED
44578E0F02790049
A72C675F10C0A4F5
00197F0C700E1009
0E447EEE407EB266
42AF90CF59A7F1AF
F9B7B1F7FB30FF1F
6843753332306A30
3CDA629C70EFD869
9BBDD8B8560E8B1D
AA4374897E2AA45D
975F3BD7E4D8F885
17DD818F544905F2
D3AF6EF0F2B6C20C
30CE00ACCC212E40
C55D94D7646C3022
D7FF6479427791F8
DFB3B5DD7469ECE7
12FF488DBEB515C4
80050705A1337887
9FF79B0D3C62F930
2DC43DD3FEFF3FFF
36052F23001E727A
0004EF4A69809C7C
A4F8EDF001006F3B
7174BF801F002D90
44890F503E75CB04
5D4FF53B3620DE49
FEB00056F3282FE6
00A30EDB9B885A32
4E27024EE539EFE6
0E412029BEBF27BA
C236736AFECE6F40
8DCF1E0CAD1BFF74
2C807E44779FFD7F
4F602DC7F6DFB584
5D5DF7F8AFD26002
701C8D67F2325825
A4C060108F3F1031
401C4238BF972CB4
50C807D0114C8990
0A0B338C0F4AC75F
0F9802784776200C
04282B4C92D64021
994509C53339C677
BFF717EE76E37E04
BCCC109C578F6D2C
1522DF09086EF8CD
759EED7D5C833600
329F0A93C1F3F925
FDDC295E12505B16
377700C4D4BD0026
A90E2C5C415206EC
900B317B4A3730D7
9E1BC66E3090B90D
D11B5FEB625C4EFC
BE4FBD9DCC0A0800
D0019DAC904D91BC
415D8DCDEE327C3E
1F929C45ADC0560C
EBCF5030CED51E79
7C4F9C489E125C8C
4B7AFDC916B23E77
BEA39C897C81A95F
30488C80BC2F680E
6F808A3194BC05DE
9266BE47AFFA483C
A6A0D51BAA4ACBDA
EC913BC6F659A83A
AC90D69128D967EE
D2CFCC3BFFEF8E29
EE81C333C5D1B86E
6D850053102AD391
BCB71099B82F3CC5
547B749B27F745CE
27CBF48351FCB9E3
C9C3AD18FFCA77F2
AD6B10C50E46630F
FBA3845320661910
50FB6ECDB739153F
6CA91231B1245FED
9DFEA9551874E4C1
5C1145A38A398C93
4DB8287FEC213D73
6DB9D109CF39044C
2206201C7FEFD5BC
6D73C072BD3DAF95
8FB1A01B40B0C51D
7C43212F4118DC92
881BB0744E28EE7F
F64EB181D66F6C9D
0F4408F841229B02
E10990816B647FBC
288FAB326E64BA03
4460E8E0CDBF57CA
B484F354B8BEFF20
0428CF3BA7B58580
FF30B54A95C2CC8C
8376401B7648BC10
B66AF5D6D1DDEE35
FF776B4ED0D5DE40
DE4BDF7F4139E018
246866E0E3A5C09C
2E274C2C31EB7845
4CC29CC48A77C132
AFB182AED0333BB3
1060BAAB23F4AE7E
CD317ED57D4A6E71
EC838D61CEA9FF4C
0D93812AC4698B88
3EFD98465D0D62C6
8890DABBD2CCFB12
6CF7311A4001582C
AFECAAB466EFA73B
147FAC18C83317EF
2F99CC52F747AF91
60D96BDF0AE34BCF
F791C1BFAED8D413
AB6C21237D1A9082
22ADC4CCEE094012
E8A9FCE87F6F8051
B13B1495E4CD822E
C40482E61F650664
8ADA884EE59AE016
AA00014726CF0445
4D01931228CC59D5
C57F2F2E7DCE3E55
4895DA62CC4E611E
85406E22898F88D3
39FBA6A2B5EE366F
6556DA005CC05F9E
09D031B799C08730
170027DAF70879E6
9EA4404F90162E48
4561C84FAA010664
98570E7D7A08D41E
B8F118520439D10A
807789DE7B2E264F
01CA26D726D02CF7
E247C549417E4736
C3EC18412FAC0BE5
344C7D8AA6639A13
5488CCAE0B6AC4F5
D0266EE83103A5AB
24A02BB4FAD60EC1
B32291A058D7DE9D
C08AD394E1DE0907
8F618B9721AEC138
450E510628C03259
AA0DAC02CAC4070E
D6284C5350AE179D
71ECA64D60960DAF
00C120EEB3B839EC
13B760F45EEDDC59
5FEAF8AEEC447EE0
00EEC2C4226FAEB7
4055A07C5754D0D4
D798D16472FFDD82
06C0053594E601E7
6CEA4886888F703B
92A532BF3F58DCFE
703D72489846667E
87FD8CA8806C90CD
01C02CDCB2EFB5B0
C64F26122486D20B
52696ECCB10404EF
0459A68C0542E938
5AAFCAC887283157
44779E4F88D705F9
99048CFFB6FD4846
4367206D9BDCCD41
AB47DFEBA8CE6C15
444FB9308DE61EE0
01E9015A595C899E
17725AEC8F74A40E
B204E641C38B4739
0975FEAA001A4777
0CD7B1F703CEBF96
4CC1882CF24F9779
1019565C9AECB43B
B8AAC5FCBC278E17
40BF81EE5708DD1C
C897AACE4BF2E5E2
4397704B84872880
0400B6C181080CC8
F7B2F7A6CCC7BD3F
CDCEDEFFCDFF337F
7655DC74CF925706
BD9C011EE4FE5F3D
62188EE95B34DCD7
ED0B1DFA05150FDB
EEBF17E8590C003F
384716ABED997708
323B609825861F7F
2757AF86AF1FEC00
B119AEF33FE0CDCA
2FB9B936FF3E9133
19FB72FDA2FF195F
44CF91C224EF9889
D8360831FFD2CEFE
ABCD00237FB3DE61
947BEF49777F0C43
5171B1B200A70486
87EFF5017080FCBB
8DF7096FD3D562FF
2330310F0602FFED
5B3DDE5D08CEC515
1017463732273FE9
64E22890332BE7B7
C0CE484A7BEF8855
EC33EFF79537C55C
FDEF43C2EE45AA60
DBAF276CEEB7A655
DF07700019E9CEED
5DFA06105FF4FDFF
CB7F57788375D131
740B2B08FF3D0D94
EB030A735337F720
D86AD8E1DEED69FE
0C00BFFD560610D1
257FD3DDD9D7DFFF
71F3932699EF0FFF
208E0F7CF67F48CF
CE74FF98A03536A3
B13E0F37193F2D7F
FBB80F7E6CE3540F
13FFD3FBF5071811
FCEEE63806FC3FBB
7E6A2AFFEA01055F
FDF8EF7E017C0264
562843F2C486D913
1F8F0F18393A06F7
64C87001FC88D0F7
1F4B3276D205FB95
82186CB73081BFF7
9181E905A43ACBD5
EFA3E021F4997DB1
088AC14A033B5C02
2FEE116EC520F746
BBF2E373DE636F7B
D87B30C4FDF1AA2E
EDF65F760AFA229B
11B5DEE4301E9992
2AFD847BAB71FFDD
E2DDCCDA19FD2EC5
F66122983F4AA312
AEE03000193F11FD
AF7744EF2CBB2042
C29B080BFB766348
CC86080212F90ECE
90D4017FE0B06DBF
301559A002771BD8
10EFB81150913912
4383CCD115114944
6000FA7C2EAFCC39
28BD2A8582B93380
13270194C9FB3C3B
B8F43B79B3401C70
24A80EAF0866246C
7F60DC4E7A3D8EEC
55368A363EF78129
47119EB00877238E
DECF218C065DCA6C
D95239CD9EC3A084
5052282AEC4A84DC
205B9E7F9859E762
BC88861AF6911A50
189F373FFC5283C9
003BA0108222DF02
96211CB42D3BD4FD
9CFFCB7A8839B135
C7CB558A6672E8F8
03FCBB6000492B82
AD1C488D95858026
832E0240237C721D
01C03D7BE9B4201E
8AF45C42FF4A9CE8
5C9673CF710627B2
26EA21BDCCCA1851
2EE0011C5905AAAA
D70FC2262CAE37B0
68C1181D0660245C
08B49C30310CE047
654198177C8897B6
AAD436E14EF9B361
F703AABD3EFA2E7C
BD202906B1671A32
11885FFEE332B056
83BE04E7AE13D0B0
B5883CD02C8C8EE0
011740A311F3FCEB
EC08FCCCE81D48CD
831BC886FFFC6273
09B4C2F59209F6E8
021D198A800CB449
06EBDCE3A42A57AF
8A2B3A8F8A3772C0
767A342D6DC20900
0CD856C2FEC01E18
B8F81099D497F9E2
C8086BB78AFE4765
30CE6B11CF48027F
A1D3027FF03A0477
A83A229C24444390
62338D2CC8494179
0426B1C68FD8E844
CA2B768B21800E08
BB7F01C2529A482D
D74027FF1AC0517C
9C0CC4CC54E8909B
D31303EE810304CD
2EE201B550603708
0000447D9E8B5734
A38FF9915B825BAA
02555CCF3D0A0FF6
5C8021FCEB3C8321
E0ED3F1702B461D9
00079378035187F8
0C4BBD624A76F318
01ED3EF31111C9A1
7D8116C4CAEDE001
FADCF24B75F70609
FBAC60A49D419410
57FF4A73CDD19ABB
F9BFC892F4DEC6C9
F103DE2284500939
035F3161488F917F
95553293A531CF94
12C855AC2A334FE7
62719A88CC6719F7
8FC5AFEF5D6BFF88
44E439903FE60010
7A9DF6CA449757FF
35822CF7817AD8F3
57CC4B801D17D41E
6134010A0C879EDE
6DD07D0BD7A24A2E
401C54FD1308325A
440109175B1127A9
080E12D0954B30A5
7EF583FAFDD99F5F
FFC7FC2C0090F7FF
488E3080B7F61798
F3EE402EE4EA119C
0EE5EEF1AAD34290
FFF50884FFED8C86
9ED5239DA0922006
C66AD0DFAD7F402C
28FEDF3B183781D8
235060C18BBE80FF
FADD078CB63B0218
00431A7B00009800
EC916F4BCB77EF57
77F71EF7A9B412C8
76F7E7D7409BFBFF
9013199FA4DF36F5
09BFFEEEFFDF7399
756F88F4FFEF7FF8
1C8095D4380DE7F6
117D011260346FF7
36FE608C96795B86
0493C8C84C392112
0801B917E917F679
559040C82E7B2468
6DB5C2060185E3FA
2D50CC4AAFD5D125
FDBF801CB06AA00F
004E0066E1FC1503
ACB790017709CFEF
9AC6F7F390ACD442
6BEF716FDFBE3490
F7FB287B218BDDA7
67C8B192062CDF7B
3AFE7EED05F12AC3
1808991BFD82C940
085600C9B705E44D
DBE137D4AEE67200
6EAD51917309AD77
FF760C663408CB28
B984BDEC1006E69A
32F12C782980824F
1571367DCE01E163
54E1FE6C6E712B8C
309C1F2C1101F374
A0B8EF0A5CF40E86
FE92C203FD356F0D
3BA9EC8443A56CB0
D21B0D73CC776C43
06E29DBCF142180C
93950E8FF62CDE10
4A1738E38442A670
E74FE092BE329A24
820E333D331472EE
0BA9F9572E40CEF0
1076068A88CDF9F0
37F15601C06BF036
18F4C47C300918E4
205ADC48D10AD540
C244842100D2DE5C
1040004C44A8FC4C
6906ECA91016A26F
EEFA37F4011619DC
45248201380B627D
AF716C8E28C0387C
DE61C6BDAA15E7DF
982AF27A7F55F629
7F418AB426D65C08
048D10E4B0CE9115
C42FB0B67F1885B9
2804AAE9B0A267CD
2837F073A7D30A23
E0AAEE0606A36BAA
08D0301948CAFDCC
DCB6E82ACCCF3737
8ADABB6EEBCD1004
30E9E7F09F886113
000F5D00E236AB71
6084BD34BBCE8FBD
772235B184C1C247
1010F1F5D7EE6F6D
3016C8FCEC573200
A46B3E72917CC6DD
B4167B3440522806
F4C5BD44FFF0F00C
724E3FED220C1054
7C935F6EDDB9005A
0E09320D4C0B7E22
40D06EA32E5C90C0
82D7531E1CE7EF0B
BF633285E2EC9F86
D16C6B9F4A295269
A28E2A640D7BFE75
8CCE75BD7CA311C8
F7C8A184DE606408
9BE2336DE0BE3023
26DD23F0C0C3DCAB
3720204C416A40A9
2BFE8F69F31C7EE4
30F498B4D8D39115
C738BF92887B2214
DAEFB38688CEAB12
99DAE23BF37FF3E7
59D7B22B9F73D37C
EA1878558306BE8B
7D5C07034D899780
9F4A81739F013BB1
76ABFD7FD033D30C
7EEF7645CE756A9F
91DD19EC5908998B
BF098C004F4FDEFE
7C06E97EEE982A1E
361EFFCFFF3F0DAD
CDD8E936C8E0D980
AE2DE2B15368CB76
135C9E6D44E6A739
CAB34D383F607DDB
BF1C4EF5A52F4FFB
01877FCD50C78B36
23156B8A79A6FFD0
DF778F2FB04571FE
42743DE0BEB879EB
6A8C208ECF963AFE
C2A7D47187FDF200
F520CF05527C52E1
549C5CFFD26C23CE
352C6D371B639D20
F812EE37B4575D5E
DDB5C89AB8888ED4
83AB5CB3D5406828
A944F7CE98507CF9
12B7C9DD30C4B390
FC52CE05F78099D1
DFA4C213F7BE284F
2F0875FAD8748DCD
3168F56BA64ACCE7
C78129A99B234890
6A10C8CCD884EDF8
E2CD13F9589F541E
77507ED4A450166C
F1FE0C1149C7BF33
8B4B19889A7C11CF
DCF9F1CC005E991F
246EF5C6B0AFBE30
7F7688BE1C31BD8E
AA34BA77ECE8245E
20FF48A07542D200
1A94CB87E630B9EF
2C29CAC9CCF24C80
3F233C5DF9F1ECC8
FB33B03F9CCE4FC3
FA1C4C04E4B253BF
3989BDCBA0605747
CE90FFBB3915E46B
207E783C31D06417
9EDC4AAF7946A0C5
1DDDCC5BCEBC4FC8
E028FEBF431A8E96
F0BB6ED39F943054
22ADBC0E06112EB0
1F8EF83F2010D09B
5E45354D2F4FEED3
DC7D75CFDEE49E33
3D591A7AE765FE17
1EF1F84C7AE0AF4C
F33B7C15FEFB71AE
82789B0614FF5CFC
E18D631176C2C93B
1109735FEEAA2AFB
001BA2175110EF33
8F068AC19913EF66
644176BDEF67C520
A2C3A8DCDB1F088E
A3298994C559E2F0
A80D6BAB46C886AA
EAEB4002086005EF
07F9C648ACA3CE62
90BFC473F09A4735
709ECF4A10714FAD
4CEFFFCCC2FA1F2D
AE88137A9EE73B40
22E21BD560D6E901
00F91E0AEA097622
6DC6237F46FF87DB
08D2EDAD05F7E70F
410364148ABBF713
4E0510540A7F0976
F913CBA00451B68B
CDFDE95384A4E4EF
F41D2272EADFFE2B
A03F511EF3DB46B3
D93BE66CEA9AFB13
111B2EAEB80C11EB
E4243C4A6DD09AAE
D17E3311E710071D
C4179158CD585E02
8FE28A974B93EBD8
C112088DC4DEC3E7
EEFA6096C4EBA0E3
419C4922739CF331
CD47C87F2EFC21D7
98866FC5467FB311
154E288BC62EADE0
9E67DD337DCE9FA9
638B2874406EB87B
0ECBCEFFC31B70E2
46107EC07751C873
4E130880F7E4CEC1
0638C7EE2B774C43
A31548CF67EC62BE
BB7FE13B13D94F8D
989C198A639946F5
5035CA0F4047DC5F
CF23F98FCBF3002A
AEB259F3ACF23368
B36E63CDFEF24F77
9AA3D4AE529F9C30
FA19BF350EF762C4
2429EBBF8EDF4CEA
8B63F6D1BDB7C670
FECDF811C8D86BA1
DB33882D048641B7
0017D4D55CA1202C
C0733341CDE64233
315BF311D0179029
604955E68EDC7651
4E49DFF854D04011
D45B2ABF21CD7CC2
CFEF384C17ECFA49
66E4DF8CFE859B3B
CDC9B10389A20297
608BF90CCBC7B3E2
BAE6CEFF0323CF79
66CECC3B3FF48DC3
14483985A7028F60
677792D42ECEC42F
4DECCA8C56E1D26B
6BFAFF0AE60F3313
6E48766AD2FD4EC1
C92B004B440525AC
4EBF0846C576C061
EE5D27E839F27E80
EF7DCC08DDDB4A79
CD9D8D2416592E5B
4AEC341BFEFE39B1
9FDBEE2AA9C6FF9E
1E60E15A2212FECE
1F4EDE3DBED5BE10
18B83FF10EE00371
87F84E8F938BEA83
24C0D919E9CC4866
AECD2FBE6FD99720
B8485FCF0872E704
17DF746212909E17
27512EC0091D73BD
A3C18DCA0532EFC0
67C31D3D8DB6F9AD
A42BFC4471D0C13D
E99C431191F60110
F340A78B9DFC5F21
11F07CA23A18071B
680CD714D4736669
92282F8C2E91DB5E
269CAB9663130E27
07F7C631EF47101F
13E0CCE6CDB96BE0
BF1ADEF909F7F756
CD7468E200482331
AD9EF1308149CEEC
44554740F667D810
0457C310661D92C5
E8A3F021CD886FC9
213B066D54111241
3466B89A017D596A
911F6AC3F2337EE1
3911906A2847C839
7860748B213E4C60
8A42DDB7AFEBAD4C
8AA6C5C415609CC8
BDF410EBCF4EA7F9
BE62F64E6E6C1C30
B7409B6AAE3576CA
D30538AE904086BF
45336FEB41DE1040
DD2D7EBB3E36B23A
AAF078BC4178EB5F
14EDA0A0DE02C848
FC9C74F8AC724464
F97090D02CFEC9B7
2FAF75CD0640F29E
C9D46F4784D9CCC8
51D086FE7B779A96
16EAAE8C9D8A384E
BE7FB641517464CE
007E3274666D8DF5
B192BD3E80FF80B9
80757B071E45BEF5
DE67E1CC7733AF50
FC5684859A47C457
E3343ECF3C2B8BEF
7815318066EB6B3C
96F4262DFF381FE4
1DC78E5482844CFF
745DBF17489B24FD
81943FBA89503740
10F47F8D2F233936
CEE12BF7821EA80E
090B10DE272544A0
E31BC0FF90B05AFC
FDB236AD1002BE8B
1FFBC8D41FD04C0D
2109340142C82045
9F7FB1DF8008F8DA
0DE211F7F35D982A
077D3B87BF66932D
6157D17BF8EF03C4
12FBFDE413F8FC01
D83C867F2F766733
EBB783C7D167ABDD
84FE771A6554D65F
F77F2772B2CBE062
DBAED1DC68880475
129EF2B8EFFCD888
7FF50FED98D5B37F
10493F70C333DF44
F619A80003BDDFFD
12443E5C5B17A338
44CABCC6DFCDDFDE
10013FF17FAA1881
FBDE1157431BFFE0
04932FE798407F88
C5EDAC036284BDC8
84CCFEA8F8CF677A
313631A3A098D927
BA4C4138C8C8C81F
E1C519EDE5379891
FBECEED07718159B
FECE28B96B20EDA0
F2EDEFB641665041
145723E68742D111
DFD5DAA1BFD89087
3002B660598CC031
FF5C77C2FBFB4E6F
C771D8203038C114
216FBB0BC0BB8FD3
B8CB7A35C7CFBD33
DD3E01CF20BF89AF
6B001F64CF05476D
D9B3F77D564059F6
FA6E3F9F80EB3110
0FFF10FDCF7FA3BF
F9E01FE30008C365
589897B6FF73627F
D27719D301877800
D1BA555A3E3E8414
9C83A7FE08732677
C359FFE523FB7637
FBD17D801871F8B9
EB59C01EB1059844
9EF4809EF301DCFD
5198BFAE208B3ED9
3B5076DD75059232
AE49A4D5D6DE6993
706ADDF47F247036
D9E80F203BB47FE0
D0541ABB4D342050
B809831FAE677E1E
581CAD12F6146201
4C003008C60F418F
1FF304A06007F0A4
3ED57FDB487E5C64
814E8E1BDA11A3FA
E383C4EB9F697D66
EFAEF3BFDE5666CC
4EEE32FF2A1D37E3
2CAD50911BA851E2
9D53D9D7F567A8B1
1A93E4D8DC20280F
4A0F0108CA915300
F2F38C58910E3806
B5027411100CCD95
9125E45F284A0CC5
FFF67F3B15888C69
3EF7295080D6854E
FFA548FAF017DB2F
479CB07AB40C4BB1
3D707FDEAB408BB4
8A41384D34CC3D36
7A049A1CFF02E40B
EF5F569F3E2C1CC5
D50D72EA5A46C12D
71071466368CF1E7
FDDA198D24CBD357
C3C7221C2E0CC62D
F80C937A1337567C
E73B1E261929218A
3D6AA7041782BE77
1B6A1035DC86639A
8D7E59AE3DC13F23
063E18912F438F91
93468E061F05B53E
2C2091313F7C6160
2823635C8238BAF7
D1EABA1F2376A089
D22DF03AFE790D08
300EBFEB79152771
6EEC7F018CE9B2AB
D12979137A901DA5
1446F180F07E7B4C
D75AFFBEFAB7F6E1
01DE523CDB7DAE70
9D80380170843CD9
34777A9C3D9F393C
D88E4DF0836A0884
109D6E5CA920B7EC
2DD90E4FFF27DF26
904FF4E120C5C40D
AC3355BBBF1D8339
DCB560D6D5319AEB
EF678270113B7C7C
FFA1F86780661D03
C9CCFCA7999B2210
EA23B637A41932E0
4846157C422BCD95
1212D9469FCA059C
010E22B58760B37A
2AC7EF2317B97FBD
02766DC3D6B715D3
C8BD1D28C9BA0D9C
015A9F79F111410C
25BB44133B1B0B3C
112E3CCC9F10A810
81B9F1BD3E911CDA
F9910B8C3706196F
01045AA8424976F4
53AB0CEBEBB94022
7FD10061BE8321FF
A2130070D620F665
848232193A03C364
69E348900337813A
9810002BE9406F23
08B3B042BBFEAF07
5A2FE15CC011B299
9BE4F33B0FF63933
56F785323F397D71
A95A8FBB22031110
24065116A1594991
C5030B3790F0C0D6
D52B277AFAB10042
93544B203F27D4ED
D423A0ECFAC68E71
30E6C8EE4B222F52
6736B67A0FE30950
6CF7C6614E8C68A3
05139007F3F790A2
FF781DD3F5363CFF
F7A41090D1399C46
EE4FD1113B6119CF
004015301B443966
0C9ACEE5992815E3
78648E1D80B51103
15B2D11389C16AFF
2A0F634454EA4E8B
1FE7100E6405B8ED
5EFE4D50A5837367
516505104B2305DC
48B83013013AE22C
1E2A430087B36957
CC8CC9D619A2B99C
4DDC90334EE61027
E74420ACE23319A2
886047B0C77D7B7F
D923791A59A4A30C
53E0ECF6143C17F4
01100590A01D3B13
32BFB1F06974F992
C836BB06088FB6FA
10C5689BF4011BB9
E041570498972F93
10310111138B97F6
8AEA83790267734B
FB3822B7BBE2E183
7FF3002DEF66CA60
A6250119A0B3538E
F02804CF2AB119D7
0181D9B704B133F7
2044F8CD3F8AAF51
B0EA49114DB00CCD
898CC2B37BA74830
00999DD21080FAFC
1133166ACDD8463F
1E81EA308086232C
98FCC77F531AADC7
C37FC1877FFEB386
E711B44EC9328A30
FF8370F1A9639100
EF67C3467783FABF
203AEE0F10114EFD
DCC9BF6F7D65B58E
76BC7B7098EF57DC
D940759004B4AB05
86ECD1FE2F7434E7
F8AC7F28DFC750F0
8F57851CAF1F9E48
61243FFC0561DA82
7030EFF7CAD8EDE4
DE83EC74D595B893
8CFE626B0F91FD08
CF649F1FCD980FBE
7953CD00DCCDB13F
0E108CBF34F3FB22
CF8918AB9C3411AA
AA5790669984B8EC
FEFF3AD96B88FB13
6FEC0EE5602175FE
A2FEFD3886A040CA
778C1891D2ED7E40
FEF7CEFF8AC18B00
89988B82A000A8D0
73B4F3171A73C152
2D01D34FCE6750B2
17F82BD3FF6B2109
D7307740BE1B03EF
2076DA02B1386D1E
0C07076B7314A804
4BD6C880FDFEE909
79871F9EDB3FB8C0
DC807F2D4EB1FF7F
EE121A1228E4690F
E199C1DECE1EB257
6701906CFFC75DF2
57B2B8BFF9355FE1
0CDC0008F30409D0
FB318114BB3C0B90
42BFF58CDA8A31E8
A8C9BB94CDA62CFB
88A03E981F0C046B
7EF41500CD00C98C
6FD39DC5C7016545
FD57B18C222B683D
0003198621FF568C
7FB91D517F1EB148
B377E4C5FAB74D8C
FF6E73D33D817E81
9FF7D9ED9F852026
310027A0E1E8FDFB
0DEF05FB516F28EF
4124C1A0B32CC145
B1CF03255B94D9FC
217966F3F257F664
8E2E94960EAF5FCB
88B18CC0280AD5E9
C16EEB00014424C0
1D736E85E12AE318
0CF06FF2A3036210
5BB70B3FC9A60B6F
2A0027DD770E8A9C
92A43FF5FF855EE9
C087C003B09C802A
CCB21FBE884211FD
110B396277023F54
012F011389B35EC1
FE8CF3109EB74A0A
4C9CE10ABEFAF080
FF09AA9D92E848E0
10E2F7A98283DB88
2AB99DAEB2B12FB8
F34B02CDC228A035
5936F80EB097621C
FF148064C80F5ABF
DE6E030EB5DEA355
8C01109D63FE06FF
F79DFED5F5DEF7D1
331AF1D6CDD50CDE
51DE18E347493311
185DFA08220A7900
91F700CC971FEF16
3C9190801CC6E379
0004738E39082008
E74F3EFC105A1E49
5454CFDFFE48BA6C
179EE081409BFF59
F0D62F7443773019
2773ED6E1456F648
59EF57E7910218FF
29077C59DB9AC156
067027D4186F77F8
F70FA318645C3EE9
1AFE7F8CEE71CD1F
3AC2F8E6208EC737
020EF039144D575F
69A304D57B6E8001
933C0AFC9C884169
55F44D2F2A08097B
20FFE7E14FF37A01
084E298653347619
C99088E017B4D3F2
F902614A60003930
16E8C08F75EB6852
A6EF8363AEEB6541
7CC77D6F52EF09C1
E200FF5D1967CC3E
D6F942C5136F2896
2557EFFFBED24E7A
FE3D97BFA2D34AE6
8FCFD8140AEB1FD1
0101999348DC0043
F3C56104E18C227D
0006B750DFD51B72
3FFE39EA908DC1AC
7308FDFA3910A930
48BFF7FE03F94615
D881A236F7376EA7
3D462507CFB529B1
CDFC44AE2CBDAAE7
0807E20A4FC28C9C
950950B24EEC126C
22BF9F438DE0B2F5
52D710A374B79AAD
9B30C130749BD041
D28CC526FE62D32E
63A84C757367DBB0
EE059DD52DFDC88C
F8F28040F08B8766
C6EF79AE4C1F386C
898544AC88800EEE
37E4CC2B456A5F97
7E8C2B6010F813F9
A4C0808F4C918543
04800FEF89ECF2D1
CC0C313C80813576
3A57DC44EB0C2B03
18B64A74C576BBCC
7010C2101CA8E4CE
B889C298D884ACD9
947F7D27DF0FB08B
6FCAC9E2DB2B01F7
1B4BCC4E34FCBDCC
73D32B97003A18C6
FB842CAD58F070A4
3B11CC728877D218
B2CBC8ED19ABCBA7
E8DB01F5555EF0CE
00D2F7E68CC9C062
9897FDA71C331E76
33FC767684551828
DC9DD452808A1040
E33780E633328AF6
81D3A104C88EF8D6
2246AFE3F0890800
A218F66D0E5FC8DD
6E5F54C0AD0A2935
9C5311AD37AA29D4
4A41A87166CE6020
0043C14F308FCBA5
480A8C04B3A1E373
1B0140347902489B
D18CD38CD0FB0CA7
1501B60C6DD7F67B
3307A004936E04C8
2011508D543BD997
DC0094120CF4B10D
20ABF514485854A9
3CD57998C7EB3BF2
BEFD32D97F0DF023
B3FDABDC34343091
720E74E6548D42E0
181C872819FF9C08
C5BE4CA92C3DED4A
768E09B69E648998
F8AECC48C28C43FC
263DF6D9CA86B88E
49B6F208EC804084
2B21D32B2F987289
4DA137260093A6FE
D503E8E384E17AB5
31F0C2AEDA2717CC
4298C24150BE73CE
0BEE93F051F32C9F
767873E2379E8DB6
D96E95C9701BA758
0AD43FED8C88E580
7AF58350394D64C8
732DC414BE728004
3F95791F9BFF7589
BAADA06F8AC38A7E
AA7FD9FFD81CEB3A
AEBB171A8023EBEC
CE5918CD7C8DBD20
236E085B91EA21F6
FE8C6DA437201118
4368FFDFABB8EDFD
238EB3840339A880
766CF3AC41A69513
33AF98F245BE6501
8FD0B22F3C826B48
4DA1579F4C7A8CED
F605DFB4B2251EA3
C9CF1FEF7D39F880
627978A6F6EDA048
C132C9B21089F9B6
41C0C9959FFC1F4F
209116474F783704
DBB565E8E9DC7DC9
610D98047EF86ECF
0743389040627894
11C1374E01B8CDCF
A9EBBE9EED6DA2B7
50E8EAE5F7F237B5
EF55DFFF3CD4908E
F15E840C34FE2F99
29E05F6EB94AB0A6
A0EAB9A8CDCBE5B8
79C3135DA619AC00
DF26595D606E4CF9
BF7F3748D228FB33
044E1B62BC185BFE
AC64AB5482E8D257
8FEC6015BB4F339D
7D77D8C73DF59FE5
4281E4B37F24ADD1
A8465C500662A7C2
2436AA042EEF9C2E
9D769BBDC0CA24EA
D7DC2FBE446D1E82
7416004C2464A7CD
BBD2741539FEC176
77FF0462FFA22107
DBFECAA6931CCCBF
458673987473D3F8
EB63105C9C8CDC53
7B0044A3F78A00D1
067EA6FCFA766804
A770DEA50C8CEC42
1577891E33E171DF
7F23BB60496C720A
0D027FCF7EDECC0E
423F565E8D166ED9
E58E736255F826B6
C2465BCECF3E2E09
FDB97130C486F2AC
7FD1F8494239FDFE
A5BDF987E13FEBBB
6E89B38DF40D9E08
E797FEBEE332FBBB
DEFCF77F603B98CF
C7E3252D1114C7FD
C8CAE9FF8FD5B7BF
FDFB83FB53BDB2EF
F8CC408688768238
FEFFCB73B7FFFEE9
F67FF1CF8739DA3E
773F98E4C0A68057
7DEF8BF60EFFACA8
BB66DEFE0441B1BB
E8647C7188F8BD6F
81EFB9F3F1A9E637
414DEFFF32BFB033
1CD6BF49CCCE883B
8CFF7FEFECD3A7D8
75ED77BDEEEEDF71
0EFFE08FD1876FED
F183F8FF6B1BD8E3
F7FDFFF5C88CFE61
9002903F284FAAFE
D409D5FFF331230B
FECEC6FDB30BF2BC
EE998DEF0423867F
3FDA9E32B5DFF6EC
EEEF7FEBFDFFBAAE
93FBF71AC8F3F7FF
38D1F139777FE470
DFFA6C66FFEE41A2
4F0CF7FDBFEFC9FF
50ED49C6F4471CC8
A0CAA7DB7F06FF5F
AE19F7DFDCFF9409
2FEBEB6F98238DFE
FF9F602EC73946D2
DDCFBDFED1045188
4DF6567B11F8FFFF
E800866AFBF7D94B
DDFDBCB7EEEED2F3
F7FFEF7B013BFFF5
F40BB9EF0526BDCD
BDC7FFDFEB7ED337
E4DE226DF6BA7FF8
F911F5FBD88CFFFF
C1DFFBAFF7E40A6E
B6CE32B797FD75DF
BFDF96EEC5F5D85F
264DFEBBB8A682FE
FBFBCADD2F2BFCFF
77E7F085FC59B3FF
FC806D9A708CDB79
EEEF003DF028F995
31DE4466BFFAB6FD
8EE1DEFFDBEFCCFF
F8DCF3EEFD71D17F
3366E2BFDF7FE4FF
AEE8FF6E2810FBBF
DD6E80C97FEBEFF3
6FEB307DF7CC764F
F77489F2F75FDBFB
77FF62DFE0C8131D
BFDE77147FF422AA
082FC67A96ED1673
1C81C19F8FBFE001
89BFFF0104E806D9
1A323A88DDCBFB12
5CCCDD89BF6A3B1F
03303483F88C0001
2208C484EE7ED024
C6B20FF4EE0399F0
18551E67ABA6781B
5ADD10FFF8AE91EF
6F74018CBA933156
857020162F9B133D
9F36624FDFB25E88
E7102FCEB7117A23
EEB264495B0120D3
B5E78EEB09CCFB1D
910850B203BBF708
6EC39000F3083363
D97E8AEF64A38085
1C92F95FBEB4FB18
127D13BAF200B3B3
0009093F66F37DEB
BEFF9FCEABB021E7
1B3D2277AAF59DCC
6624900C8CFB53B0
B3EFB3B9A0E83A16
AF7334CB1A9DC883
B00A488B3A82A9AB
00261FE8F8C8C802
236FBEE70B913E71
18008DD5F0CFBE50
EF1010480052B667
5D49F70A1CCFBB75
27798FE267B9BEA1
F5BFA4D0412EE967
F31466EC77D93403
B6D296586BFBFD74
AA21F4126141BFF1
073846AF6C74AA7E
6B6799AD9400847E
0FB74009D805243B
D8880206BFFDDC69
33F0460D97454212
8B7DC200034CDED0
88F6DC980DC0F61F
01EE0A6BF771AE0B
9AF1FFFFC6E0FB90
1132F551FD31A730
CC84ED8121D64CFF
B7DF42F82EEDD101
BEEFD72F5F8C7FAF
A80ADE1050272F3D
F7363324D0032C2B
A9106F9196D21FDA
D639CCD93206C489
CA008A768C369310
30CE1F4DF7441276
EC40DEC347AD0228
59983598EEFD06EE
1EB6FBB69F9AF010
48ECED8450BBB9B9
D9F7BEF347B36806
D420F2222FF3FE22
01215C51343AF3F8
77FF362306CEE71A
4690ADF7291093EC
A8F2416009334A20
0C74FE60EF0DFCFA
B13B27FAEB6EB7A4
7FF50A1CC16D888A
BD5BB75D610E820A
66FFC6B04BFF7CE7
CF517CC8C1150E18
7FA10824CFF60CB9
00800F775BF32C02
201BCF1D0042AC41
FFD21468B6E48211
3A35334C18E75632
7E6BFEF7F30E8D08
0010E1757FF73DA5
313B46656E71F69E
929EB3EF48FA4AC4
4070F60731CB3436
F87D100CAB4ED0FE
ADF8CD6C859A7D72
1F887775E060CECA
000C4946C86EAF94
7A9A4DCFB4336CEF
100ADC7976F30009
185235B2508EBF79
095BA6CF1CC782EA
5E725FFD44E23F32
FF8FF0813104E72B
0BF98700E20D084E
CEEF8CE6AAC8F371
101EB88616E1A2DD
DECF1CDAF295B935
2986A9E0EFD3D46C
D4505E64DDF56BAF
33EAD98E48C60008
8FCE1DA284D1A7DD
F104A528FFCC1334
067C96F4FC054C44
A06C9EFFD37FE7C4
3267C7F0463E0840
E43FA53BF7DC7027
D7AD1758BFF968EB
41D62B3FC2624F8A
8EBB9CF19086299A
FEFAF774533D4E5F
044020800207FF9F
1DC3E9F8E6C85877
15C9CDBA5F8D044A
460E9867FC1BE6E3
6089451158EC00C8
AFD4DD68ED322F1B
DB7F9CDE0A570FBE
E36629F3FA3348F5
95440D670AF8CC61
0DF720167FF59F43
4100510200E1C48C
FB6745FF5481AE13
D968F586090004E1
DEB4E0C8503891CF
2F40FEDF2205FE36
2886901E0803B664
8E5FE7125DE9C4FF
EEC5BECE880E7110
F530EFFFB3409FFC
8CF4AC4C0023FA7F
B7D4FE04ADFF2916
881A02845A777DFF
C2529D7F7FFC6CB5
C86E48C6454D2AF3
BF53CDE1C88E083F
4D75DEFE4464408C
9781841107834413
0663288E2F8DFA1B
C1802F11EE594CC0
3091C7F4520A9B7A
B3F29079D16B3247
26E71AF893EC544F
1ED107337E7CDFFE
40010892F649FEFC
B47767FF42F54D76
F05EC5D7C2EED1C6
1211FC8F49584B72
A8220003377F4644
B674808DF45AE20B
549D9FDB0AAA51B2
448073D4637F0C69
FEFBF21371200141
DF7E8BFF20FC8888
585FC487E5B7ECD2
182C6150E2B220D3
777C4250FF9C8601
4779102CBCE756BA
C8BF6E4619E49FFB
F73F09BA06CAC3F1
041A2EEEC2114C9A
271B835BB1933708
E8AC31CFACF865FE
D9CF123423180E77
454F599198C5FC39
31D84BBE00470D7F
2981C463AEFF1449
F37D23D888071500
1BD8C81F384569ED
300307EDC1FE089F
46F7B57CE24B189B
FF7ECD44FDD536FE
327C3E8BDF1171DE
4FE92701913B22F0
726A73A1CEEF1810
3A2C4880013303F5
CCCE7A08E882D8A3
357FE8AEF6119019
80008E1F93D15E7F
41100DD49DBF3073
73FD056F74A83794
4DDCCC8AA3383C8D
AEAEF87A2B067027
BBF2301F90CE26F2
58FF6159FA008DA1
E900BEE204DBA333
17B93613F1CE9FFF
6EBBD510103328D1
F53983BB09C164C2
F290286CE42876FB
FEEC7010180B9BF6
3AE845D5C681CC10
C8227153949336F7
874DC480168E139B
9FB5DB027FFF7001
29803B2354988020
68059A018E3BF030
02040280E11F7FEC
FF435920356C66F9
8720DCF8B980E84D
530B94C7B78CC003
C309B988587D0F7F
63CDFFD4F1B80000
FFFFA3AA1A23733C
FF8652EACFDFCC3F
2262FFF7884C00D1
04D8D2A011AA5061
D8D2F686E51577B8
EFF76DDE0681761B
DD801800EE8D91C6
CE6BEB2E3DC2EFF3
64A640C0A7B7B042
921BBFFF8819FB04
9CE3883F8300320A
FBDCA268D3D311CE
6FBF020F89401B9E
60225304ADFF300A
2EA64010A0106775
C4138B7EFE69EB80
BF7145CE604F58CC
3F17E2C8C713CFF3
82B90021AC7157CB
20FE61106F21FF99
1F3DACBDFDE50C9B
FFE1BDB20745482B
2CB129147DCE0208
7FB5858DB3E59D64
9E370DD670DE74E0
72025FECBF6082CF
BB3D30109333807B
027576D04332DFBC
3A1315CF406F41A0
FCDF8C8088203546
DF5271D019AF90EC
53FD8BBA58206FC6
67B61B166F684A8B
57B3BD00FBEE4D82
803828CCFFE1EFFF
F100BFEE792077EF
FFCEF1557C148E7C
E77BA1108FB73507
FF50429305084822
D885FBF9F01EECE4
F223F3AD49C0AE48
6EA0C040C04D7BB9
D100AD3E4CAE2206
C831001110AAAAF9
648A126EE3201276
CA8009894FDEBB0A
F67F5E46F7FD44B1
EDD200B7FFFD0840
C6F961C5FFAFEA04
DF0BE0B1FFFCF32E
7EF37601860120C5
301CBA13E663C178
A748C2405B158200
730E7B370FF270A1
A72D49D91681FCB8
C6D7108C71983FCF
15AB5120FB2BF7A7
811BAC281015722D
ED4F5DEA31B1D499
9CC6E773C82B4B10
14799FFF6598BEE1
57FB0B930088F686
9EE87549FA6995F0
EFA16A67E7E0AC10
EEF0D40976CFC889
332EB449009F8CFD
711195817FFF5EE2
F8BEF39308C15195
766C2712D6E77883
CC78F5DC3B5F5126
E5DB3F9880817CD7
0E3F99EFBF7C9D78
7C085BDEDFFBCC8B
E8929E4C27CE75F2
8FF4B036F35F2048
E69D82187136A50A
E7E2C281EFEF1118
B7BAFF0A5589CB13
B900E0BC828A9121
CF010882F26FDC88
0B00D5D1AD3C3EDF
5CD67A0A07719B06
4054CD9F4487FAF7
00CF6156FBBB0E60
FC808098FFA107E4
01FB6AEFD81B0800
45704A1FB2BA47ED
B3BAB79A0091B89C
567F001FC0040420
78BB83221AAC608D
6F6D5ED7EF3F106E
EBB347A91AECA238
BA83005C500EFC02
EFFE0E2F7933A9ED
827D1396E3159FC2
0A38F58390FBFD3F
6D98DFEB00096927
400706CB9DFFF977
099301077714FFE1
AB390812B6BA8EEF
7277F393D44840AF
FF7DD93F5FFB5987
F6ACD05B0300B79B
3ABFEED6FBEFACFB
9D311598BBD8182F
7BB1DDF7BE1267F7
40C8FDBB3F983AFD
E0CBB2CB5EE35001
8AA600AA54DFBA92
B9D3CB497608D4CF
7500EFEC0114C376
9218E21FFFF1FFE3
F787DF7F0089B5A9
4100B725DF78D7A3
8FC1430DC26374DF
7374A106BD8DFF58
39EE59BEB719E9FF
819F50AD685C6C0B
0900B67637890EC8
72D21BB987010655
7E9176CE53663C59
6230CC5DDC58A5E3
C4D7A1DBE7FBB933
4BB2649534CF73A8
B54C630022F46E08
E239ED5577F8A942
4A4016EAB7264129
551066031C8BA181
EF61F72C5839D6A0
F2005223D1A3EFC0
69B42BE411229156
11688F7D4E50C3F4
05F06ED34AF5CE47
A734C940395086F6
420BAB31B9CD62D6
3F94CA14AB065DA6
491286FFEFBEA88D
3C60DD08BAB8CC08
BA8C47C2D601FF82
A2CE51C795B17C48
FD4311C7FF9051CE
DADB5CCBD8C46D40
E20876BF1DE7998A
21C52068BC56906E
D84BCD6B59805017
86DA8EDD629D54B9
22FABC04C4F313EE
8A68DC97EB0423CA
B4CDF0857AFCBEE3
34F9DB7478108048
76D9C43AD6F413BA
1588D5F7FBF3FEFA
2E2D73000BCE9024
FA697668AE8F0327
BCC396496EF3914C
FC46A04ACB94A0BB
AE940362A7B0E154
E861BBEE37C0DE19
B73C629822D40014
720878BEFCF0A77F
FED70EAD3FFFBB6E
837BD772EEDC6881
88D290C8B540FFE9
EA44E88C4DF9FE3C
A64FB9EB200DFB8D
BF7CD54548331620
A1AECD84EB42D585
EFFB4626F9E2184B
74C7039CF4A426B6
52FC15483D162806
83EF09F8FDB17E79
47100DAFE307F8BD
C00A0BC2A6D86480
052CC06CDA1A4D48
6E90FC69368AFB98
B6576EC06EF8C5F9
DFF5B1C00DC71500
94FCD7EFF7E87203
0FF78349174F00FF
CC464C639D09B3EC
99EAD1A0C382CC61
8830DF87CFF63B91
BA922C17BB96CD61
B3B6135DB5BBE7F9
0E274800EF2FC74F
9C45AC91130DA2B1
EE2E27F1CCCD5115
354C006F49A19BBF
A0EA07CF8B1DAF80
8ECEFFF7FEEDF72A
F23B600FDEF2B314
6896D987F843E479
BFE5F3D6FFC08F9F
7BBFC10F7DAF9FEB
B08F2BD39BFD28B6
BE5CE6680DDB08CE
3B49ED9F7FEDCFFE
FFEC44E76FEEB7E6
214DFE09FFED4446
B7C05DEF07332F31
48762F7D7B46E29A
00ABBF9FC211FF36
BFF20D4F8073CECB
DDF6EC50014EFFFF
9F1FE71F27DFFFFD
EDCAE5DDDD91A3FB
9826D8E258B98BB4
CEFB6805FD6CC823
9104D7ACBDDFD881
FFFFF6DBF96E2FC3
75D3526488807F71
7EBF424975C08FFF
F46A8FBB03DA73C8
F9343EB3889FBCD2
3ABE32FBFBEABC85
DC5294FCD4FFF442
6C107DDF33AF40B2
34FFFF1E188BA20B
73091713F71C5FFF
E377CF883ED3BB35
3B7F66FD517AAF50
DAB83520B967FAF7
719AFFFFDC409F72
1C7E77BDBAEDFB5B
644ECFDF00983EFF
2378BFF2D8DC4572
DBF96B3FCB3F1D64
BCBBFF028500ADDF
8DD7C04243F151CE
EA00898BFF097F8C
6EFB38A066480983
00A9A7C3F8B077BD
259C3DA8C6BF1DD6
C9B8C9A3E311D148
32568A4173217F67
E9D6BF597A247867
7FDFB71DFFF5C32A
1F138DCEBABF0CF3
685DDFCF3FFFC384
FB7FDF955F977EC4
3FFF919B0B1BFBFF
FCDEFDEAABE6B773
7FB0E6FC93643A37
DF872F3BD5C537FF
89C758FF650734F9
046C6E0163058600
DFF72001E5B58313
6E0DFC806FFCB20C
E21BEE2CC28CA33F
36402F708FE388F7
C051319440C937F8
7F7FB21944F7C760
8F7BD808404822BA
2D09FF4A3B023B13
0F8CD467E7F76FFF
58EF064B073F35EE
76E781EE0DF53171
4D5F916D0FCC2680
237ACF3EF694E802
C9C0C800B1190412
0BFD1254A168801D
FCFF6E119DCDF38D
CD9280C6AFD6892F
D634CED7DD9F2F10
812518C80370B777
2EFCCEEEF94F888F
2541D9DB8DF435AE
23183FE62684E232
092B6ADC0B52F300
465B84EF6133DB1F
A08BE7D5B312732F
B9301FF9150266E1
7F6C0EB35677E86D
CC03BFE779038011
FB582B0A497E1000
8B52E704976276C4
F0E7666B048EC11F
FE48D7195276E661
93BE16CC24CF52CA
3631E3082BC2067F
07A3FB20FF9EC8A8
CB2044CECDD7C9FE
DA9C503E53FCCF11
1C8029FC20780525
FD56B802945C082C
57D406DC3AB8BF02
BE53E13026608369
A363B0FCA8310B08
B1EF0B3DFF833B8D
FC66B93A18211E2C
360EFF83302B1FF8
F733A6D610C71B67
8DD102E4E23E8D24
08F2E86787FE0649
1CC5856E83700458
6760016D0D2B3B4A
766FFF77660C7C0D
276DCA8B8C226B83
E90906E258C2A9BF
4B3D2BF7086E97EA
A3C6DCE226313C5D
2CE119A119FE4B9F
0EEF30AFFF0B53EC
FD6C12F82768A061
512C8660AE8AC0FE
6C3351090F279991
0FFE3C011198C668
11C206B4CFF69F04
06E402000C7E124F
31F19734AEFDB832
CF9F06F97EB2805B
A237010B7F20CF05
9AA071CA4C4B0CE0
C06192C31F1DC222
9EEF953D0B237925
27E4121460C89931
0661208C007C91A0
F2BD3BD61FEAA9DF
E608EE3FF9F05F80
36B32069599885E1
FFFEC189F40D22BC
E90DB10209CD4AC0
F31E0609B037D710
1838F5ECDF405333
F72A2FA942663C44
9EEC886AF12A1713
2188CEF680C3FF9C
EFDFAF09671E6F2A
F1008C2F27DF0887
4618BF0C026AD11F
0FE58210877DAC81
96C209F3E77DB02E
E7228F4EC1402FEE
13562D7C27DD2689
D7527771D5E61AA8
FCFF7D9033CC7BEB
8ED22EEE9F346014
E548CF970C6B252B
00B97D6B6024C895
600D76EBCFEC0E00
BC84448F688EFEEE
0F6E00816057BE73
2284762BAEEE24D5
1B5DE11B20809A48
0FF7A81CD90547FD
B12767A3660CB040
23740BD466FBA050
CF40FBDD94C4477D
9A591023FFEAED54
4361A9220E503114
24EFD0A4933FBA20
411091AC554E2FB3
93F5AB0F91C89295
03F55833C2F2F608
B6F4100823A12F99
581E548D9332226E
0148E5E7C3F5C083
77374BE333FFB6F8
88268DECB9FA64CB
7F4F81C2EFE87F6C
ADD557DCDABF7D1A
0C9E96BC22E60040
422B56B31B554E38
C110E771F9DF3011
C4203808CB345402
8441C224C317F594
2E00E05937704044
4D7A77C57FF24231
3D27753C7C618DAA
14EACEA2DFA0E707
0DC1777B3881BFB1
D096CEE766809A4A
0CC3A694D3261271
2DE6824D0081FFC7
F710373D2943218C
A8E0BBCC8228BCDE
55C8D355B795C916
AAE3EFDFB01FA7E9
1F751CDB6CD828DD
08C35C8877F63F6B
9CEB9D032051E6FF
4FCF401D00DB9C4F
8E44570B7DE80344
B609F13C3EAD5E10
110AEF3545E62808
310D1DCF00262E73
8EE3955C09E123FD
B0A39391084E1B3D
9A60BC19BCD31822
791C9615B6271260
FEF1FE95C04A9301
816CF6F1016B0198
BFC977D5F9D1CEC9
274C1112F7A737F3
8B5C387C98CD704C
E9FC06B50D0E0D91
AB0DE07524410001
14B91F48CD2FDD27
BF2F32FBBEAD9DB7
7FDC44D61E11CFCD
008E9348C1D91F31
92F6BF108E7F44C4
77A4269A207B323D
50A20B61B0CA297B
E377D40E37FD03B5
00FD6F7CF62143C4
6444E0095114C690
A0917D8180064FDD
00C94823367110DF
D419D840B94562E8
CFB8813261081097
04FDA0C7DDAFC01E
AB0E6134BBC456F9
5C5A244021E44F81
08540E4DB76B90C8
1BF8FF4256E03518
DC33BF3A674847F9
842476CEB39D9D99
BEB08076DA2B407C
9FD8FFF98A0DEA10
4D0D1CE033CD4420
4CCE992C2A2ED493
771F12E6C685BF80
80C08FC9000026CC
DF2800F407591150
2F7108FF2189CE2C
81FFCFB234E8FB44
25EC00744B49E10C
59302307B9663290
9FF3B7F07294F407
978CAF980059DE39
05ECE11AE5D3D48C
0531B8CF92263F51
61E4186948792CD7
203F16FBEFE45775
2AE0D209EA87BFD4
15E7AEDDC205AA5E
75139CFBE001DB42
6CF44EF9AF4E3063
31BECDFF00FEAFCF
DEF7EB801F711F7D
DF779442ED5D6E32
9752BDFDF683E623
BB350A22300EAACF
515521B960A0CA14
3DE27407FF775CEE
D7DD9659451D1CFF
F74DAF26BBFFECFD
910F7F7B37A81540
84B3FEFDFF22B11B
FFEFF9F7DCE0302F
9F3980B927F55CFF
7E11FD9F111F4BEC
5D978B56CA1D6A29
902AFFBCDFFF2E11
7121111189C96004
033F1A659980B013
B972B97737791C63
666F5FEFC7EA971D
2163809A09AF8D55
0157B5F67FF17F79
5B1AF7DA017F637E
2A8ADD1598CBFA9F
7B2E17343663704D
FE63B75F366523E2
13FFF220BB0F2F7B
6F8688B031818229
7F77272D8176E8EB
9A5BBF6A830B3770
F23B8E781738CD5D
980EBF531801AF31
E02DA846DEFF091D
100BBF33671812A3
0ED1B1B870867CE8
48FB154E9800FF27
27E3A0025D72D58B
28B3CF8420151200
5B5E219EE37D2525
3801AFF2CCA6D99F
B881785CC6CB181F
EBB8000485AD4B5C
6EDEE87B3811DDF9
F4BBDFA6C87E2062
04616EED871FA013
2F8F80683E2A022C
008837739088A074
DC6C21E3BD11010F
089AD33800DDFB25
310AFB1185C28601
C8634C5073487FB3
DE7301ADE6BF3C95
6473084A0F03F76E
9AC3EF73166C51F6
EC9E39D07D99FF73
EFBD5A4BDBDA903F
FCD64C874009CE17
08700013FF772376
7B648A13499F4CAD
323E1B3D0ABF8133
3FA8D98E1173617D
117DC1672F3B31E1
0000000000000000
0000000000000000
0000000000000000
0000000000000000
0000000000000000
0000000000000000
0000000000000000
0000000000000000
0000000000000000
0000000000000000
0000000000000000
0000000000000000
0000000000000000
0000000000000000
0000000000000000
0000000000000000
0000000000000000
0000000000000000
0000000000000000
0000000000000000
0000000000000000
0000000000000000
0000000000000000
0000000000000000
0000000000000000
0000000000000000
0000000000000000
0000000000000000
0000000000000000
0000000000000000
0000000000000000
0000000000000000
0000000000000000
0000000000000000
0000000000000000
0000000000000000
0000000000000000
0000000000000000
0000000000000000
0000000000000000
0000000000000000
0000000000000000
0000000000000000
0000000000000000
0000000000000000
0000000000000000
0000000000000000
0000000000000000
0000000000000000
0000000000000000
0000000000000000
0000000000000000
0000000000000000
0000000000000000
0000000000000000
0000000000000000
0000000000000000
0000000000000000
0000000000000000
0000000000000000
0000000000000000
0000000000000000
0000000000000000
0000000000000000
0000000000000000
0000000000000000
0000000000000000
0000000000000000
0000000000000000
0000000000000000
0000000000000000
0000000000000000
0000000000000000
0000000000000000
0000000000000000
0000000000000000
0000000000000000
0000000000000000
0000000000000000
0000000000000000
0000000000000000
0000000000000000
0000000000000000
0000000000000000
0000000000000000
0000000000000000
0000000000000000
0000000000000000
0000000000000000
0000000000000000
0000000000000000
0000000000000000
0000000000000000
0000000000000000
0000000000000000
0000000000000000
0000000000000000
0000000000000000
0000000000000000
0000000000000000
0000000000000000
0000000000000000
0000000000000000
0000000000000000
0000000000000000
0000000000000000
0000000000000000
0000000000000000
0000000000000000
0000000000000000
0000000000000000
0000000000000000
0000000000000000
0000000000000000
0000000000000000
0000000000000000
0000000000000000
0000000000000000
0000000000000000
0000000000000000
0000000000000000
0000000000000000
0000000000000000
0000000000000000
0000000000000000
0000000000000000
0000000000000000
0000000000000000
0000000000000000
0000000000000000
0000000000000000
0000000000000000
0000000000000000
0000000000000000
0000000000000000
0000000000000000
0000000000000000
0000000000000000
0000000000000000
0000000000000000
0000000000000000
0000000000000000
0000000000000000
0000000000000000
0000000000000000
0000000000000000
0000000000000000
0000000000000000
0000000000000000
0000000000000000
0000000000000000
0000000000000000
0000000000000000
0000000000000000
0000000000000000
0000000000000000
0000000000000000
0000000000000000
0000000000000000
0000000000000000
0000000000000000
0000000000000000
0000000000000000
0000000000000000
0000000000000000
0000000000000000
0000000000000000
0000000000000000
0000000000000000
0000000000000000
0000000000000000
0000000000000000
0000000000000000
0000000000000000
0000000000000000
0000000000000000
0000000000000000
0000000000000000
0000000000000000
0000000000000000
0000000000000000
0000000000000000
0000000000000000
0000000000000000
0000000000000000
0000000000000000
0000000000000000
0000000000000000
0000000000000000
0000000000000000
0000000000000000
0000000000000000
0000000000000000
0000000000000000
0000000000000000
0000000000000000
0000000000000000
0000000000000000
0000000000000000
0000000000000000
0000000000000000
0000000000000000
0000000000000000
0000000000000000
0000000000000000
0000000000000000
0000000000000000
0000000000000000
0000000000000000
0000000000000000
0000000000000000
0000000000000000
0000000000000000
0000000000000000
0000000000000000
0000000000000000
0000000000000000
0000000000000000
0000000000000000
0000000000000000
0000000000000000
0000000000000000
0000000000000000
0000000000000000
0000000000000000
0000000000000000
0000000000000000
0000000000000000
0000000000000000
0000000000000000
0000000000000000
0000000000000000
0000000000000000
0000000000000000
0000000000000000
0000000000000000
0000000000000000
0000000000000000
0000000000000000
0000000000000000
0000000000000000
0000000000000000
0000000000000000
0000000000000000
0000000000000000
0000000000000000
0000000000000000
0000000000000000
0000000000000000
0000000000000000
0000000000000000
0000000000000000
0000000000000000
0000000000000000
0000000000000000
0000000000000000
0000000000000000
0000000000000000
0000000000000000
0000000000000000
0000000000000000
0000000000000000
0000000000000000
0000000000000000
0000000000000000
0000000000000000
0000000000000000
0000000000000000
0000000000000000
0000000000000000
0000000000000000
0000000000000000
0000000000000000
0000000000000000
0000000000000000
0000000000000000
0000000000000000
0000000000000000
0000000000000000
0000000000000000
0000000000000000
0000000000000000
0000000000000000
0000000000000000
0000000000000000
0000000000000000
0000000000000000
0000000000000000
0000000000000000
0000000000000000
0000000000000000
0000000000000000
0000000000000000
FFC4FE42FEBAFF23
FE4F016BFF2CFFE9
00D80102FE95000B
FED2FEEC0082FF8B
FFC5FF91FFDC00EB
FF75FF99FF640610
0331FF4D01BCFF86
FFEEFFA2FF36FEE4
0000000000000000
0000000000000000
0000000000000000
0000000000000000
0000000000000000
0000000000000000
0000000000000000
0000000000000000
0000000000000000
0000000000000000
0000000000000000
0000000000000000
0000000000000000
0000000000000000
0000000000000000
0000000000000000
0000000000000000
0000000000000000
0000000000000000
0000000000000000
0000000000000000
0000000000000000
0000000000000000
0000000000000000
0000000000000000
0000000000000000
0000000000000000
0000000000000000
0000000000000000
0000000000000000
0000000000000000
0000000000000000
0000000000000000
0000000000000000
0000000000000000
0000000000000000
0000000000000000
0000000000000000
0000000000000000
0000000000000000
0000000000000000
0000000000000000
0000000000000000
0000000000000000
0000000000000000
0000000000000000
0000000000000000
0000000000000000
0000000000000000
0000000000000000
0000000000000000
0000000000000000
0000000000000000
0000000000000000
0000000000000000
0000000000000000
7A7237EC7C8193CE
0FC02615B7560F30
00EF32B70DD6FB3E
021112EB75985A9C
F003DB3E84100003
5F47190E13B68462
F06529A276840115
A2F7DADEF6C3FCC2
7BBB71C991B64866
C7F5898EC4B17C43
576102BCFC0082AC
2C73D7CEEF7F0C31
208BE69D78DFC6D6
BDAA60031351DFE5
D0C015A3284085A2
A3FFDB7EA16B9856
8C1117620C8D04C6
FCBA88632A65EE8C
099543E7F7263896
B6CF0A1D79305519
3031EA02501D6E35
1EC88A0200F980C5
D66699A87F46E7C0
8C393C4C55E58425
AF3F7BFF704F4CEE
6780CF080423139E
962301B04EF4F880
809994E240DF0511
54D40B234CC8D2ED
CE201DCD04320FDE
22F2992FE411CFF7
5982D8F3F24E2860
A5FBFF9DC1DBB7D3
6C6C0423143FFFD7
9763F691FF6C04AA
2E0E282023461C35
533D9E77A8EA1409
54004BE7EFF835F7
2823FB00B7F263CD
BFEE1DDB234ADE2D
C439454DDF7FC993
D95A039FCEF10E51
18313403425608B9
4832E72DFEB2220E
1F64067F244EB6E1
18A06D99A3443F6A
2977B833AC080041
CE517771DBAF4466
2CDA14339C02487B
67C07FCEEE7600CB
CFF59EC400CD21EA
8A337D03FC47931C
C81C16A4ED648EB4
2031A1093F00107F
F2E0054A6996CC34
12B77C9769CA7370
0359800C081B8152
CFFCD1DE84043A68
36CA1D66D04E4299
BFF3089A0795990C
6EF5C7B2CF0510CC
480EB28E873A0868
01F26B7900B09644
ED2A676E74DAECE7
D4787802E997E5A7
A090EFDE55A713FD
133D2FFCC2EF5DEE
6FFDBBCC7785F78A
0DD726F248CB41B7
BA18610CB0F5FCF4
DF733EABDFCFBFD1
DDFA47F35D852E40
97CC067396B6B6E9
73FD57DC0AD7F3E6
1E8411E6A334B377
ECC507CA025E5EF7
8193BD87ED4C84AB
4650FE11023B80F9
E0400220EF5BEDEB
96F7C0F26FEFC700
11755A200AEAC620
0D0D30DE99596FD4
3584BF48AC36C58E
C1F09E9BA346AAB0
6D2DFD3EB2944F7B
85287247A7F1D77A
3535D6F85EC2906E
6B0795FCD72702B2
623344E057A1D7E8
677B56BC1FFFD984
977C28E33ED26A57
0CFB99308D00AAD1
8A579EFEA4E03DE0
76FCEEEFD76C55DF
D0865F893BD8AD71
6450E721D19402EF
B8B7497064F0A35D
483A4DAD80B52510
C7FF03DA2C4D81E4
418974AF58176408
0692449DA6841A9F
1873B6DCDDBB47CC
CC73444996CC6589
109E24E74380EA7F
B030C19F1DA9A059
8F6ECE167FFC1366
DFEFCFBF1FFEF609
ECF617AB5EA4F8FA
63AB0480A8A7F778
BA8ABA5104348D84
2676DCBFEFDEC33B
DEFE868F1C87E729
886C55AEC8475227
14BFDCB7ABD0CFC0
3E94F3DCE564463D
7FEBFB4658560702
CAF93DE27ECA66ED
0EF140BFB54676DC
B06803F997540E27
E6B6BDBE94CC2BBF
8F2F3B19DF5B5470
3C9F36FCEF305638
AD86740C3690B778
4EF61C41BACEEC98
74E15DD351E5920D
6F8C9CE24C312246
AF7F07122AA30D88
09A71177FF10F6A5
B8EF330B7FC01226
88137BEF51211C7B
DA150008C520CEB4
6FFB00D32CF01110
70A882F3190E437F
6ABE623C18237E15
61BC72EEFFC01F6D
648A42A0A238BE3C
FE516FD782F45FBB
B76A06C43D1283FC
6EDC541C6DD9EF86
6FC9EEC27C09DE5F
EF7E3FA2AB842C83
FD2B8D117ED5DC09
4AA7990006E03FFE
FF7276B8161186E8
ADD36FCEFE018C21
AD037508A88197C5
CF8ABFE1AA59C059
6FAA7183DFD16414
21D7C4EDF3CA1A8B
76644F7763F712BD
DF9BA3E312A081A0
190DFE486A4EF783
696CBA0C1F0C1E0D
4D7D7ADF7FFD5D59
6719C256E8375778
34CEF3D5EE003117
4102A72A8C82DA50
6F7FC5935BE8F48D
F6052D8EFD81C1E2
E42FEF817E03FF2F
5AB630E0FF4311AC
B7F07F1F33368446
0B3B8CDCAF411192
4592807F9A08D101
5F9812020F8B2BBB
00BE0817E7D4225E
A12B8449AEA56050
7680C071C23CEA01
31323BD188A3EE39
9EDC0EB01BF75208
BF7F6EE4F5157337
93E7F27D8D243794
E9343E867F46866D
8BAFFE01CCC4F59F
49ABEE9C39286F3B
BA12008D631A2D81
28830F00C4886604
74987EEE372E9EA2
6A05A609EFC4E6AD
5FFF00D3D8FF4E54
719841A4444FE7E4
2FDD4D977DFF3B97
A10D2BBD28EDE6FE
1CD19DC60754EC5C
CE1FB1917FFFFF89
7F8375CCB85753D0
F7EB12F672AFBADB
5EC821408B457588
D8085D58085FB71C
334076FA6DC534A6
6BA6B33FA58EC207
F3107723F6841291
BFFBCE647F88A40F
740FF31A8AFA0FCB
1AE56677EFFB1546
BF51C6F3E91D5C5C
000499BCBF1D930A
861F94E7A9F04EBD
1516BB5E425B079D
BF701086C02924F6
BD1DF8390E6F17CD
AD721947AFA30444
A1FD575FA819EEFC
581D262E55933FA1
8C1108444FBF5710
630069009784770B
7466AFAE7BB57120
C00234C21F128C05
88296EE7B9438FD7
E5AB9F305EFEE3C3
0EEF77FCACD76FB7
0E017FDC11530408
D12DC3744A2F81F1
16850908CB057A29
DAC4994670ED3FAC
FC70E4CE07B7ED04
900312FF577DC0BF
9FF8F4505E500B06
E27BDA9299A4F9C7
822B8AE73F1FC528
AFA8B1C3488A98B3
78F37F75EFA91BD7
B3A8DEF3281FEFAE
88810DFB86143BC9
8EE989D934DDDAF3
4331012E68C6B013
F0998EFCEBBB437D
13F20036FF982874
15D3EDE00EBF310F
B3005BB9FA44B250
D909FF59587E1383
ECE2441200EDBDC8
AEA20AA608B39FEF
5B6B6AB1C4A9F0F9
35A592BFBAFD9D67
BE9CBFEC51DCC93F
5BEE1FAEB009EE82
010D105A9021E6F7
073A62478BEA8C87
5B4753D971DDE449
93828E1DD2A77F59
116C7608BEED647C
C7FDC0EF1F777FDC
1751C5C3FA1FA05E
1FC69A905D51B9C8
10D9A7CFEF513961
D89260414D555672
0F4983C9C27754D7
18EB0AF6CD11783D
9C8807FFD40D9FF7
81B8DD4600C72C6E
13C78FB237113E60
33837E8113CCCDC6
10E91140B1389BBF
D4FB0ED55C12E939
9F3E329D973B1101
C101100BCDC9C89E
1016D732043ED7FF
F28A6001EC4858FA
FFFEC80DC1DF4424
564F684DFB3F737C
A91B1231E1FF7FFF
848C333E3C58FEEC
D7C0E8FFA00E1E74
85D86DFF27FF2FEF
F3189F153FEF90B4
0CFC5D886BDDEEEF
E7CFEE682A00BBEF
CF6012E82FFC6084
96C7A101108B2411
B3F0A648D03D9240
DBC072CC7A00B788
C0F7E84FBFFB086F
9FC3E777908597E9
FFF4BF7938D51184
41C4432450DC677F
EB7606FEE2D1EC08
92C3CCE57E43D088
5E38625100300116
036D9FAF0910FF5B
908C0BD0AE918A10
114B2821EF7F850C
447DD2CD76F81336
72BFC2A5FFA8F815
EE506F6EBACE1000
407A9F70FF7F4C09
0245240CBCC99046
8615B737D66FFFFE
1165104EBEEFA892
36B951CF91B64816
DE1798BF3681D8BF
10B901F6D8656317
56D997F6C7F17DF3
F0F87B4032C1211C
EF378107880C1000
B6670B757023B628
1558B6AD80057F7F
67E4CC7118A54EC8
85FFDFEC13113772
B86E7240CC8D3D19
C62031F446E5511D
A2A68F00000ED5DC
402B027F1131B6F3
475E8101752BFF8D
28089CD0E46BED0E
0299EE311B6A7FCC
5E000014EFF766BD
26FE003F7C3D09CA
23E94E8E04196F95
2FFA10B70FFC9867
2106F03C4000FDA0
2F4C6306CEA66F08
FC95BFFCEECDBE8E
7CFA3D303010D1A7
CE4C9A4003288041
13000200F5C09564
F31091003448E7AC
23FA4CCDEA0036FE
7EC21633FF0B5314
E7FF200ECAB51008
041EF232FB8F88A7
3C1CA8F71C56BC2E
EC3E3CFC776256EA
D97DABC41755E7D0
10FF6273004C1419
26C47ADF8C016900
277976285B041F2A
B3CA14B774C64EC2
E646B5A3EDE2A871
E3DB011974C7C432
BD81FCE58937F252
44A0FC5AF66BC4A7
7350BAC064451C23
AE0287CE4A3FEE67
317142018E803D01
CAF7F7287BCC37D9
D8F7D3C080E2CEC0
F8C5608E02B2A3F7
24E0AB7A028B8CC8
EAA8322B7C68BA84
10507C6F39753E0F
97B4F2901766BFCB
6348D369FFF153E9
E8846EFDCE003222
7737C4C1AC018D71
5C486608FEF9B89F
2926A2E13C46EAC9
008331DCF4F898DC
EBEFCA1908E25CD6
775BAE8C1E0013DA
4C0A07CA9288B429
AFFDBE315D9A8E6B
D9217059E26891CC
179E46DDB9741651
B97601E23ECD1A44
8090305F14C0C4E8
7484ED1D46150E42
493EC8DB12E626C5
8C298C4AF72BC899
F6EEA20D4F54467B
A1B0D91E77EDA0EC
01AEA68042C78E57
CEC664513297EEC4
EA921BB00706B59B
02AC6CC02002100A
12B3FB2036D1ACD8
92AFFFA24BBF52C0
8687A60927000AA9
D4E2EFAAA7F51607
0A37DD57CEFA20C0
803890D13C040608
3921BDC249CC6AAA
C071C97F85CA4AF7
CAEC08B0960E3800
426C37CACAAFC36F
90935127DEC0E5E3
1A885A93DD709F37
C6481E60297766C0
061C1C848EF0DDF1
8C585BE374F24FDC
FD6F07B0D9BD4B8A
45BB0140D03786C4
9567A6C42847DAD8
0A2464BBC1CC26DC
93179E6562D37997
50011EEEC9C9DEF7
79FF7A8F2FF4997A
DC4771155B020955
DF7C8C76CCB3C9F1
13CDFACECFA466DE
DCFEDDFE3FD05F24
2427CE57E10E956E
E17FF31F2777F8B1
3B72CF09F157DDDE
F77FBF440085B07E
7FFD266F9522A88A
B710076BEFF7EC93
35880824911319FE
9E7822B6EC9E13BF
8AE7CCFEEDCAA003
00EAFF71C12203FD
A333FF3EE22E8C88
FA32FFF291933899
CFCBEBBE4864E1A4
FFD0FFF609D31BEF
F888B5EF011F9B9F
F721DFFE8B118AE3
79F5B28288874F88
B733FE2392898FFE
AEAF336CFCCF4ABD
BFCA24DB19C8F66D
97F9451222811D6A
4EEF4B2ACF704925
36F68E41081E3F47
E8054CB74F7B437C
FEE2C498E50E151A
71C2D8059AB7288B
E084A3520F0BC0D4
A77CF62FAFC8630C
FFD5F7FADA5E1664
13F8DE0BD77E5487
7BFF0A8D7F013FE1
F0A8AAFF9F4ABA25
08CECF08ABA70C7E
077A58F439B7FC61
0A664FF2129FB8F3
C46045996A8FD088
10BEC76C0F943F33
F5CFD0382CC8EBCC
08938A1B1DB3B0D9
1D5F4B36CD11D678
7F76A377FC87DE46
020186B00FEA0709
DC76960CF8C6B8B0
92819FECC02E7EF7
1BFA7F53F0C92F33
82E74A0FB976CC88
D6B2CB5B077A6718
20A9375587EA01A4
73367E93890F0362
EE06FF7151F7C03F
6DF2732B56CD2C9C
4EA90B94134AD9FE
0B70054B0A613E70
06800080EAA1E438
072246AEE4B210FB
FAFF848068753EFE
651212BEFFFCBBE6
844D205B362C22EF
2D57442B63BFC06A
A54EB77594FD000C
E80B21FF807FCB13
C7CB38763AE0B5FD
D777AFF9093A106A
EF98BAA5A08B182D
F74C43670F9F02F0
FAC8AB9F8F6D0046
FBD608AF422D4745
00DE18E535BE0E32
C5F6927320D02052
044C7EAC61677FF2
830A6A896FFEBC88
2E961EF82B010B18
531B7F6C1CB7E65D
CC0477E8B0ED3391
423C2DEFB7FFDC4F
113564CE19DE96F3
20004473BCFBE1CB
13070EFD1222C8AC
EEEF38C8B3D040CB
5A7BBC016403166F
E32A0B47967A1C5E
7992061E24A06B00
7FCFC88E2087C68B
B37545C106FFD17F
0895E5FE92A64016
9599F41D110E71FF
A7FC538A6267B4F2
2B7B61F8488F5C6A
02089D653DD58408
A9DD017E092A8AEC
135FCFB832F0590B
C92782FF4450787B
93AECF7D890E8191
8F7E288A88302661
FF7A73F433FBD66A
07406811F634F442
13719F3A47888541
106E000B25FC39E0
C80188C79BF99B8C
D33AE98B517E626E
F655A273B73740C6
206EE77F098013FF
9E7A6FC6770F7EC3
7632285AEB937482
103EB508421A35BC
B0F61063E1A38DD9
AFC8B0C4141D0C6F
DBFF30BE14DB696B
70074CF6B6E7C0DC
49AC16112E80D304
A07DF22E688151BE
5ED59046B6B25075
8FA740DC6CD0DFF6
F4FD100E8AEE1A10
5220F25FFB761D31
07F6BFDBEB705708
FF4BE0FA94674706
F0057FD556CED4E3
8A27A7483BE983DD
967F225D5780F711
AFABC6FA261FD53E
88C4060048D5C3C7
0247D4FE02CE2AB8
C824138D7A8D107C
CDD2366E4CD8CD29
6DD32A67D62E393F
5EEE954728400B32
C104A025DDCE513C
AF796B300FFD24D2
F1CC8134DB0E0AA1
764E877C24A2C625
9BFD708E9E6E1395
263B9B9490154CB4
81046663C9B09A6C
82651CF0F6D21D35
2796CD49E46CA789
4324A8B6AFCF49CE
24F2ED69A9B0E000
8BB1E7C34D5543EF
EB194F4438A489EF
10709DFF84C726B0
41864411FF00A671
9A5D0122D3F8D91E
1FDF00E5DD89B93A
0F74B7EBD5E65A91
800601D54B8C9B88
A27F21B5EFE733DF
BC55DFF71750354D
23D7CB7A1B8404B2
5B64B6CFA8C260EC
8F85F1E4871A95FE
8CBF19EBDE6B0167
319A8A08F65E2F02
CD27EE2A78F2043B
AD580DE2C3BF607E
C1CE17DEDE6DE3F3
08E39DE213EDB21C
8B6DDE97D3898DE1
0F13A2A8C71260CF
0C5B79E2FDBEDA8C
0E9E26F6004019AA
8DB61108334C0895
BF0A4D100E9CCEE2
53F3CE153B7E86C3
CFB1FFDFA99AA983
115D01DBB40DFF20
DF473D61B4C857EC
9E79DDB3149382E7
2F1FA18E04BF7B3F
921226D9A0126310
CF2B9E954EC01FC2
12A0638EEB11F6FA
4CFEBB375EEECBA3
6E27F7A9B7BF2647
2A174C9BF20837CF
FAD09378F7920828
BAE3D97F99B95304
9EC3BC97C73A3397
3DF2CB342BFB0EFF
FFD4B08F1E314401
CEEE5F7FD73F7D88
C0437CD44826190C
EFC9C7B7386F6ECE
C00D4D7FEAB4789D
A07D65FE2E4061FD
971A1317776FDC14
F08F65F537E594E2
9CC5DB305B4AB1E0
422A48400214A392
4FBD33C2874DC778
8459EFEAFDE7F7A1
770AE3FEF33D5363
F86188A614184D3D
E9618228CCCEA7ED
FBAA3FF01F7C81EA
048858707D93FFB9
405ABF26D8727640
FD79737EBA29D3FE
7AAA3F9BBFFFEF9F
C9C78926EFB20151
5602FFC87C093EEB
F30CCD6FBE889F77
7D3C5088B9EED834
F177A1C7AD398D10
B8C6CF2CFBB012E3
07430CDBDE8B3BA6
A4442BBA37893FF9
EC60B7323FD596F6
EAAA7A8C0725FE9E
41A633D8EEB8C201
0F1524374F0DAFD3
FF69F2FABB895B2E
BF7AFFF580183567
FBC4E3591BAAB742
F367772006A81F03
B6E9CD79A5DD1162
938BC46BCDBFBE68
A3BE23E0F34A0BC0
CEB7FFF963FF9AD6
F43CCF7EEAEEE1BC
2F7D7907FFDDEBE0
B1993364AEBA1498
F7AFF7726A13EE62
F30C428DDEFBFD58
BCE01B2ABE9FF5AC
F7AF2323C59DBB00
EF1322992B407EC6
E60D16B0D764271E
F8DB3B0CE6267C18
DEA3DD8093D3DF12
BFFF66A876FFA0DA
8E02B6A8AD10FF75
15B7D9012F25F79A
A2B42D51B9CD871C
D94E0C44DC8A58A1
7E8588468F1C093E
D6650E0E9D0A8EFC
FAFE8BC1DF0AF0E6
BE8C6FFFFB3BEBFF
F8D93B28DC41DDF5
B5B26D723D6AF74D
DB29969A16E3791D
D008404FC1225927
B66D5DB77A4BEBE1
EE59BEF148E2B12B
F499D70972DFCFAB
E4D11771A262BFED
76F9868A72C3C6A3
D702CF73801B0B81
F3E17B0399C69A9E
285D98C2D8A873E6
B741B38A55D9C0D2
A36431265BFD4BB2
B8FC93EDC70F85D1
89CAE6339DAE01BB
E3D172E9ECAA33CA
ACDC4043FA708732
DCEAFB42600407AB
37A6516858239182
3354B8111D199BB9
1A1807C8EE99AF7C
3A61018D69893FDF
9C6491B0636CCAEC
588A0A22B41076B9
F640084632037AC2
279D093B0888EC0C
DCE848EB193190CA
8C07878DD5638371
6D06188FEFF8910A
B37803B0EEC0EC6E
AFE67B2A31806A40
B1D76F8B44FE09BE
F280CDC8A574A807
8BC6730181C84889
34B3AF5F1148B918
12346DAE158E50BF
6F8B5FEE0E086EF9
546C2EE33990C338
0BBE8A8BFC507410
690901EE708A063F
B9F736FE80900679
536136A90FF03394
CF13CB2AA86D5D6C
19B779445EECBCEE
55AA50419EA3058E
2B84347F9C418F23
0E862572B51C00AB
E0110D02E96F93D9
85AC10C96071CB4E
F48F752213604D8E
7CAE3E22A3BBEBDE
12BF88542D22979B
F7D6BB978586E8E6
087C03312110D000
F8D3848028F6DF3D
FE8AEC9B808C0BFE
27022D9C18DE9829
180A17D410042078
999D64CA0723600A
21D33B307CC1E091
B04DAC2A48481B62
AF9BA967F5FF506F
BB800D130E01BCBE
732A2680BF09F6EE
1356082CBAAF623F
6B9902778B003403
1CD1231801B39240
23AEBE9749B14F82
11ACFB2F169FF1EC
A4FCAFDF9B1B0120
32C0F19FECBBD4CC
A556275507980F02
E371DDBF61363F2A
8E084FD375B83015
19102281C637C578
7B71108EFD4B4CAD
103018EB321088D0
400198CCB8B04620
EFF83CC420DE15E5
01C8B9A110FB103D
027F839812997D0D
E88EE741A4C0A1F2
80DE22CC2BB4284D
28E04A0C04D12CC5
7DBAEB9F515C4770
8954A05CBFB23924
2B99218068D6CED7
5ECB2D18B3CE6C4E
509333C6089F3130
313510FF31B4EAE7
6E0B200FE88D9693
03EB20D9708000C1
21597CBE0EDBF1AE
C062ACB8429B1DB5
BC0ACAC8A5DB7A69
D0602119FAFF52BD
D92857FDFB893913
9AE690CF4D6F5DC5
589146FF15580113
784C19E7EFFF110E
14F1FEA137720097
80837D171D916988
38C14C3183F3C88B
3B1C09F6F03BE00F
A019E7718BDCAEE0
3B7008832112439A
B704C3D410F42989
71030016496B6C79
BB8ED006203EB744
AE0E87313DDE000D
E11D8090C91DAED5
3960DB48940F2014
29F9131237FAD366
1B5DA403000C3790
9C8921FDC00ECE4F
777D37BA00F15934
0AFE9A4F86A680C5
E3D879881312CEB9
000A7AD1C68C7790
58C1B39B739A3577
5A1EE88E39113102
877F05D39805590F
B418873FD2D5237B
FB3A314D9FDB38F7
4079FDCE8233A35D
D8B56E14AECA117E
35BC36D028412359
1C1876F9840BDD01
151F208412CAD0CD
093ABFFE3A883B5F
FB19C6BB0028973D
73E7FC32139FB9DB
A09E2EF7320B7781
D88648B1101411D7
80AE30CDF01C3A30
900A7766000333AE
BF80044039C434CF
3EA9CEFC3FE44006
C1BFB02C00DA003B
78EDBFF7285DD462
BB05DE7BDC08AA4A
2877DE745B3997C8
46903C4A60956EA3
CD2EA32866DCBC25
6E4A18D32EA20CFA
EB9CEBB70CCC75EA
CEF291321CEEEE75
67D1FBBFF97D2EC7
0739FC2745F61D75
8DBF6F72474BB3F0
2B4FB3E6C3EC5109
CD92CE441B315596
190CA43A1F240D00
EB0B04E730D59D94
71C808C2EEAC6B12
12ECE59072DE46F2
5CCC7BE4F348B187
CA3283724FFD6312
7668ABF2FF886FEF
DE7E9D409E2EB726
8BB82AB90717F34F
014F36CAF6BF9A1B
FBF8C263327B3EED
FE22DA5CD0E0F347
812972FDF913ED66
FBEA380D4C4E91F0
EE73F5F0FE015917
66D40B7E4597FEC0
989034713DADDC6D
2DFADFFD2E9FAE56
FF72C1AE5BD32DDD
30203F553AD5F15E
127EC645FFE828B5
CBB38413094C050C
A0E697EDFB597618
A00DAB3F3D7D093F
B5EBCC420BDEF1C4
BEC0A27C0F8FFFA9
DC036EC8CEB3D273
3281A1DBAF911D06
0B3A9FA3C2CD0D3F
A8218FEEB31F0813
2DC46F78503B4B92
4ECA5B8B06BF887E
872A19F43A0DF495
B01308AD4FC5FFCB
BB2674C0BEE9010A
5C71064B275BC987
4F21A45167172B45
1AF524A7085211CA
90AAF7E78B62295D
9DC24E35BF7FD666
9949AFC4029B44F0
18BF3770AB30FF7D
4ECC84DE8EA58F3C
F3999408105465F5
1313BEB2BF042B23
231B16B3429769DF
12FA6B79F72FF37E
1DD34B46B4B49090
1F7832ED9DCB744E
00F210D780A39672
F64CC7428A0FFEFD
2F4C004DB3FF4244
1F5AB36C5C35BFB6
4FF90999BC0AC1ED
12FE3BB3540A05E9
BF4BF9E56B6E400C
4A10CEF3DFAFE074
1C717E783FD7ECD1
FC8B8DAB3EF67FBB
BFC04059664B5038
EDFBD4643900CCBF
00EBDEF9027240CB
D880316D0C225995
AFF7ACE8A07C9BEC
990F9A04483BC050
D97CAB7490A147FB
D3B86F3F337BF5B5
25BEFFEEF772037F
D7531B369A315179
DCEDCE333910CC00
400116E5187D1016
89375FE9B376D5D6
885AB9019E72F557
EB006BFA1782757A
B7F68ADD269356E0
BFF2DD0C92289FFE
D94D49901090FE08
53BD7AFB95A910DC
CE88C817E968D7F1
2F2F38944F75C832
C48110DF964B7010
54DED92E8DA55442
881CFBFE967B4456
566B3FA2432209BE
88CB6FFEA5E67E2B
72E328FB94296FFB
36C26E7F0DBBF772
985838F1BA065766
9A89C57F98F414A2
3DE80C8FD40C7CA0
BB3770C2FF0DA9C3
C3FC7592198FA13F
EC6D6CFC78311BA6
33623BEFD4EAAF2A
F676000C8B5E39F3
1EBDC36477E54AAB
AED164F2DD2BFDB5
21B6E9A01EFA3132
EB3D0381262B568D
CA447FB633F3E17F
2115CFFF0EEAD7E0
6B88F9EB76631011
74E45B7B8853C736
0E1E10E6B57331A0
4676037F03754B3D
46D4B27D55983889
0EFD13F98FD53D0A
6B4323EF2911DD09
E535C0C821EB7BF7
36F0EA3576F08DC5
8D12D24D608D187C
BE8024F792BB5FFD
BD4BC6582FF11EBB
3891EE14FA0291B3
9900F63E73F793C1
2ECCEBF5E92B7704
8F90E884EB21CC71
337FF1F6D8090EE5
9100A8D1FAD2F7F1
D4995D3201C0E77F
0F75332F3107678C
D00E19C78196B5FE
E0C1B36C388B62DE
3CF5D91C822228FD
D25823FE9795AF91
989F2E3A8C143BB0
51CB030103937C1B
729DE18E4D9203EE
F805BEC87D5C8007
536438B710568113
CC3F0F00DA2CE650
AADDC3FCAFD33F89
01360BDC2CDDC5D1
F557D97631C67315
720C0EF1CF039804
3ECCAD4F390CED3E
11C0F5FB110145EC
FC9F2E88BCAC249C
25C910898DB5E2A7
D8EAE6833D81C713
BCED7FC00807AE77
82B29D0FE88C0F54
CBF3403043C6FB06
07C1E48728F9FFBF
4886C09AF3DC7BD4
EDBBE01F3EDD2A25
4C33371CB199648C
F23ED8F8CDCE4387
E9DD0BBA0F447310
23BC35443F6D3D84
31E55704FBACE1BD
999DA80D74081A9B
40E19B607868355C
3DA7F8BB2BBDFF65
9EFFDDB829883AFF
108095EE1E9DD8AC
16D9DFA8C0DA113F
49FF5AB2C8CB1F82
58377482DCA567FB
7D4700F7ADD5800B
B1FDD3B13E0CD97E
120062144CA68231
BE5FA00833EF3775
D706F13D0B131FE9
3FB07B0A3628391A
6A8834B62F4CB09B
C742B7C48339368D
1C12790A1B501230
FF67F3BA0006439A
E323EBFCD0917D9E
693C378FD50ECD0F
08CDC11A78F67A6C
F39B0B5C6C3B0FE3
9C80480E1783D196
A7F204C89E65ED21
F8DF8CC80CFA463F
0D9C27C72F13FB84
9E93E73F77C88EB1
75084DD177B1C7D8
3F299CEE991F56D9
01B8880C9A129309
E558C0CFF173188C
0C0CEC494CCE8029
2F9BF9E5808108DB
122F124CDD54CCA9
AFB8E103A0C4C1C8
BCFC265EFFBF2C0B
A0290265195808D5
59FDF39FF47F5B13
CC362E3DA8D5F106
23369A036FFE4503
54F31F1FBB9C3D3F
42FBA20010BFBE02
D758D1F1D9DDC72A
5ADF484DDA9FC87E
4073018AD8FA8093
62586EEEFB1DE1AF
4ABF1EFDDA3F4FB1
2EBB1B1CABB3D93E
F070DC4BAEBD587B
E8B0977720BD7BF6
B3BBA05EED775CA5
2F69661D2199D9DF
F07E13E5373F7079
6DF3361CE91EB5D7
99AED6790683F197
B8044022C2F109FE
939ECDE5A7F9F8CB
FE41C6E0FDDDDAF2
109A195E99128DDF
B33EFB01673473C9
C99100CCFBA62B3F
88EFB4F4306EC771
EC0A9150B145770E
F77492B631B12575
3089930DBB74B306
33ED8C9977C97708
BBBD889DDF884DC8
988B89BD006EFF41
3881729AAF7E2C08
6B319AA987F489DE
E33BEDC8819C5991
2FDD3798E734AD10
7137D18BE3CF211D
8A14A1EE3F16012A
D8320E10B805501D
6F7BFF64EB89CD2E
FADB4CCD556C190B
2BF8A01CEE30DB49
EC0D66622DCC169B
5BB97A8A708E532F
3ED3DA139A55B1F9
ECD7066EDDD1FFFF
13158BFCD8882835
9F08337F08297FBF
A22D443AAED5B48B
267A3AA33EFFE109
B795BFF95016E15E
4DCE9BDBBFB93FBD
BCB9668EB0AB1FB9
FEEDF777C1008084
37E905316808A7EF
EDCF7E33FFBE70F2
09C1FD6D791F7D40
B34F53ECB039F861
16D33A81CEF18CD0
31DCFF6F5FC66233
8A4890AA10CC385D
CECFB18E79320BBB
EB452218D018A846
8FED391E08E85E41
4DF5BCC9315066F5
E115643753DCE754
08DD650158BAD1FD
6F7E0164387E54C1
FE9276F2EFDB8628
741833EAB8DF23B6
D902C6FF145D9EEF
7775E1F5F62DCB35
F0AF480F2EF9CBFF
7403AE54F9C84E63
C9A2057DC0CFFFB7
ED2FFE0139371000
D9FF1402780D7F72
EF735470037CDF70
CEE251FFE8E62001
291D4C0D48B7174D
EDDECE65352B7F62
0041E77F1D560495
7D855E33110EF77F
A9091AE9104E088C
2226F8FFF3170E63
D23B9264EF3E5931
EFDD74CE1DA0E7DD
EFFB5BE0D17E7FF7
DB84DFFCE83C767F
32F70FFE184DBFCB
E66F00002484735D
D40233E8843C973C
EA449BDAEF6974FC
1AB4CF56F7EE7100
6E00EE3B63DC0930
FF8BC9FFD510EFCF
2CF1FADE307CE0FB
6BBBF6B3E65D40DC
FEEFF0DF81565EAF
7F0A4E47F764FFFC
4F723E54FCC830CF
2163B2D95871D3D6
94AE7D69F31B08A8
ACED108465D8DFEC
3FFA2BEE587171FF
88F65D65FF26DF45
6C414F360A0192FC
61BE30D601CD7BE6
5BEE4333BC513811
3897557CFAF3AE8F
51ED55C85F01A3B7
800062DFD9B08EEB
76E6E26F73FCD740
BC3CFE7CFF01F2DB
5DFEDE66CB4CCC77
8D0D0001B59D7EFA
B7F559CD3DD0BF97
FEC32274711B2B8F
335E2426D1F00A71
9BF109F69FC3D894
FF5F1EFE219BB399
FC85301052D96533
133417B8808203B8
39FE4CFD9448BC87
88A00840BAFF4092
98BF5E8035105553
7FF1DF8F7E76F1DC
2F644CEBC1478C7B
EE992372002CB5BE
AE9186FB6DAF8CB9
E781221C8CCDE7F1
E99EC0EF819C23F7
6F70FBFB4CBACC6F
09FE30FA78CB466B
8041938C808A7291
A9DFBA2C046199F6
DBE8C98E20445939
D7FF13AE066B0C81
08315918159757DD
61F032E300D611E7
B08FAC7B07712D2A
6896B3B37CA1CD04
607DF6A3E3642EEF
EF26ACDF9C9680B4
95BF048C9C1DC453
000990763BF76062
6AB0AD988DB5A236
377819B6D2DA2E79
80F70D45BEBC689B
58E86CDC61B39CB4
B49FF7503DD62655
4DFE00D02B4FF090
81B85E41D1BC6216
0C822A50402252D0
8CE02ED966C53399
F3FAB3018FA254E7
D8BB75F0446D0B2F
B7E95ACA9199863F
23E7013036BAD066
886E50DD74561BB6
589BC629B00BA095
21397FAA4B482407
1DCD00008A73ABF7
77DD0ACD0EF621BB
155DA92C0E87CC99
19974730B6CCC5D8
1B65ABBB4EA4D26E
844CC7BAD0BD0E39
1F93FEAAC86E49FF
F89B6E185BFFE6B1
03CEE0522DF0EA79
D880C3D820B6CDDC
FD6589EB1767FF96
84D4A6BA8DD921D8
EEE3B1A201BFF07B
BDCFDEA98BD9681C
942F48B42DAD5BF3
14F78D480BBD3137
113F81D3FBF71105
0E85826741FE2C0D
CC395388C4DC16E5
482A8394CAC04581
6295EE497FEE1002
C5112BFEF1AF83BB
28DD9B8787735A37
A7F665F6FFD709B2
10BF176DBBBAD913
202F7AD5FA889C66
C752FBB8A6BF4F72
063E1F0C397BFEFF
F737F9F847336EFC
EDC093D902F1039C
72D08EC7CDAF9503
9004C105D8DDF086
83974F1A7723BEDD
3A6BFD8867F1B514
ACF79DAFE9076539
ABEACDC12F90AEEE
C0BB5EDFCBB3E911
F307300CE0EB06E4
47D137618111908D
08BB4000FF76E804
8B4C98ECD8DF194B
C4252BB37FB3EEFD
CC8057E7EFEE88ED
84020002AA8906AD
E2641655E6C9FA5E
1EFEB33A55CAEFF2
18ACA1C9F05DC81F
DF2AA99448078F7F
73EF8956FD080017
24FF110E8C8C7BFE
FD84672100AE9F79
6B77644E9C4298A3
4B2280817EE73AB3
D4476F1CA0DF0C93
B03F44149C40B1D9
DBBF0123C6E91D46
3DF119DDB69FCA37
09B70251420A6740
F3EE2212EE321255
FCCAD3089DB3AF98
DA91B880100FDEF3
9F68CE8906BFA690
16FFC9E67E27EEEC
DF431CCCB3E2DAAB
B86BDFBCEF6F0200
C157A12551D06777
55D7BB9BFFD9EDFE
A998DF220905E5DA
70DD829C86B68F51
D724E00FFCEFB109
8044B919822B5600
5E7CADE4115FED35
B2328ABEF1FBB8DB
0486F56DA724608B
7000291C04AC475F
FF0C84C7DDD8DF61
8A18E63EEEEEFC7F
D88B902FFE4C53BD
63B27110F450684E
5FE98F378A6EEEF7
DB8A4B10130BECDF
F618373CFECCE7FF
876F8059EA068201
B338FF52CFDF841A
F9A579C8AF566B80
660143614BE43EFF
8C4E0157C7EE99CC
FEFE4A7819F9757B
2E3F29031A20FDBF
9FFF9FBE861A9FFE
BB416FDAFF6E57F8
FDA46864EBEDF672
010B9F7E8F26AEEE
704874014C21903E
2EDE874AEEF3470E
16670275D80928EE
9766C3BF1137EEC1
43C0A27814531032
16E8CA11B2087341
FA604F3D506633D5
F677DF6E0FBAD857
960257F1D00406A8
9D87BFEABDC71DF9
CB3A995441161D74
B2C82EC750A0E84A
814D2B1842DEC55B
CFF3694FC1E1E5BB
22F4A8B8DFEC1712
BC20F77007382036
957713034FFED5C0
07FD009B896F867D
7A1D0082401197CC
9C5B595EE98E7110
06D58046CE24F445
DC002333FFEADABF
7E9238C206409C4B
7EF78089BB7E8934
14C47173B7108A18
7669A0CE978899C7
D7010DB4C6814052
287EC88C562A8AF0
AF1A4A7D07463228
7F6030E0071CF726
EC0F19EDBDA29CC3
C9531892C006BC7E
6676DEC1515F6A68
CFFF7E861B2F37F2
11CEC0DEBF704042
1042DEF76FF04134
C2C10201027C77FF
881493BEDF01CFFE
FCF7ECEDC3E8AE39
EB86E3F4A6F03706
33005701786E4CCC
1949601C69A60F16
3EFF56FE4FF7D124
EF0B9926E4BD8F15
9F7DCFFF13F064B3
C1D533DE0775A28F
78003310BF1C4285
EECCDE97DDFF4386
DCD05B6572DBA992
95111BF7F52AC261
C2004369EFC6F06E
F284B0057FF44729
E8517765FA0112FF
7E0D58FB82A19B33
38E9EF9BAC25B2FF
7C27C887F678415C
E0BDD514195F0FF3
B0F3DC77CFFAA27E
AF779DC0751B63E8
2FFF4EF3F7F8C55F
96030310E0998E68
7707E7E74C7DEF62
5D14143A201E3BFE
474B4BDF9B38DEA7
F20F31186EF10336
4D56F43FE7B3DED4
C423A8E26A1E33C7
DE2795FAF745F195
03A5FAC6C5E13652
0B74B026F9F7DF74
D78EEA8F60C46FCC
B2DF40817EEBE127
BC413E80D4F66354
722F0C6C73D538CB
E7E299E1D7AAB8B6
BAFE8267F601E454
AC18FF9832666DFD
C31193801608946D
03C7620D07023EF8
48CEEF628EE16015
4CFCF71D9F75DC82
1FD5FADB9040BB67
B76CFFECD203EF7D
FE4A0E8E3D787A7B
C672C486123BE02A
FFC4B1B3F903CAD0
A29C951358BA2EFF
2EF78676C6CDD952
3EA7F3D4C13D663B
DF601EFE53A385D4
F3FD5647FFE89855
10C6C84BCEB369F7
A5976E3E35436888
76EFC2B70994F629
5EF701645086D35E
D8C2B6765EC17FFE
1112CE42DEBDFB84
8EE7988F7EDBFFE4
F4C484C4032FA973
B8BABEFCFF2CD034
0F06B310111BACD7
C8C412F7BB333DF6
822ADE11709FA6B0
7013F1200878E4C1
FB1160433FCE6C07
545CD550B7DFEFAF
57238840B21AC81E
E23BB4AC30037068
9EEEB5F3C61A1097
F90011A69A6FDE4A
7B0CC1104B12EE0C
DDB6168BEF74FCCE
8CC3610CA7873BEF
F110B90017324575
410C73A2E64837C6
E6AB9C1166ED76EF
352D7734F622F7FF
DECD048AAE371877
B16386E0E63A1811
F3DECE033FC531FE
D88316E484FE96B7
32E86882A6F41360
30FC740057324149
9F94ED14340451D9
11D7BDF0E8301CBB
FFFFF146B73005B4
21E7487739C8CDC5
8CEFAF76FBF2B5EC
1F11E81F83DFE132
E367A31544A5903F
F40BA2640EA10886
3F438680AAB4AB18
300C6B019D1AC066
8A6419B2E98C414B
822304F30C99C051
5FF87F71C4E09BE3
093E7A9EC23DDDA5
9AF4D677929FA899
6E8037FA09A4BCF3
EC76B76E49C10967
4110B780CD12CF98
268C0122A198A7FF
7886927218B7EA4C
B7331B09BB2AE577
37E7FBBB335648AC
2703847002FA5FEC
DF8804066248DE6E
146603AACD80EC11
17F134203FF9E745
AC5016308FF8CAD4
7DC3EBD18DC0E166
F112E57812BB8405
E8C53CBAF26AFCF6
775866037F2DA3D4
ECF0F3B7FFDF7676
3C6CF236335CFB82
B7ED0E9D4C4070E5
F0B0BFE71B3A41C8
B1CB5DAF03092E66
37A8647175ABDEE6
8BBECEB067BF1863
84BB41357E8F3982
20E4E7F87C04BB53
FCCD11E4EF61E78A
849302130DE69118
9D90C324D7D1FF50
0C573B66B2ACD84F
62ADBE0EEE766C07
9177FF5C0A9B1319
02E6EEB6A0AE7EFB
1378E713FDD9FF63
A2F0E48BD5760A1C
E494E57BAA6AA4F2
74998F53B7F93FED
E87DCA9389F677FB
2E0E9EFC03F1C080
CCF913FD06DD69A0
A02208858D889876
4011492107F85873
620011E46B9C3BF9
8B37E731F58614D9
E1F31480F87767EE
150A10FBBFF867E2
E42BFEE67E9358C3
DC23BB3BC8D9B615
2CEFEC567F16FD4C
BD97F7423FC29150
9E56DD042473C8FD
8309B04763CC3F18
187E5DD65760EFF8
0D05CE4E2540DD8B
4023380F325699C8
73816C19B0C617FE
E34BFE090C1531CE
CE373F084FA31B41
FB2096688D846433
708F013E1C45B967
FC0F7496F8BE323F
C5ECC8FE4448B111
1820F8E27ED4197F
872BA6446E3EAA00
90CD7F90B1892503
CBD72B9DC910253C
ECE9C4A558CE18C7
70A88721910F1BA9
FDEFD7BA37A0BB74
797E76EE20075119
07BB9E83DC9FD1AF
BBD917A8FC3F2011
2643995F09CCC7A8
0F850665EE01F639
77DFCB28C9BCA120
9A41C8D987CDE307
72015F8FDFF63E48
EAE2788BE7CE00F4
42C889167B8E2518
A7A16D060E2B5EFD
BB71764E108E650D
78CC1B8BBBD03F74
F867D60A16685C86
FD81030DEB094D12
C835DFFE708B6934
71FF79CC09F13EE3
EB3CF3B1399B1D14
AB26C3628A0E0CE7
8C84F7DA788EF8AC
1A6FA77ECD6F1303
5CCDD28AAC53F98A
7C8346EBBFCF42D8
B5DF2324540C960D
BF6273F7E78C7F5F
462237BA6E22DE3B
9817DC81ACC60019
82C28F0C6836B399
AE6A67461CD3BF37
60EE0FCFB77F1CDE
5436EF0D943020CE
2988F712F5AA1261
FB73DD9BA06F61F5
F6936F79D7F9C177
ECFC3223108A7536
DBE1D0B3C2C357FF
82B041593FB19C21
4A0184AC6A9077BB
17216F9BC8B490EB
F0DBCC106CF71DFE
DD133A1DADF01246
BFEE0089F9F2B10C
07F7906B800DE8FE
FBFFFF00E650CE43
2E5DBFC5DAD90A2F
906417B4B368455D
CD1EFA328011CF4F
2E7F7E088C28CEEF
1A5D18B4D0031502
D0857FDC09189ABD
EBBBF0BA5A3283FC
5ECC2C93CEBA9F90
B51A03FC7109EBEA
EEEB9CFFBFF97F71
C47BC4006128DFF6
9B3961217FC85E2C
698A4F164F83648D
FADCB11E67EEEE40
D1EE00084DD85252
0AD9056DD318A008
0A4D20B6C0109209
894FFF77F7FE85EE
79CC7BFFA44C6E4C
6F1AF615129A4017
D5C7976DFD194B06
3A6C001240FAFF60
E6C1ABAE07FCC370
9FF0EF0DE728B8FD
6013F97AFBE2CF3F
FE8DE2C8F970FF7F
5FFE8CCFB6F1E798
F1F02F9D1F822658
EB011F398042C298
9E69BFFDCFE17619
ECD2730EA0400631
110D5DE600FFD883
4F86F6196763FD1F
572C2339416720CD
70DCF415EEF9FE09
DCF56EEA006D89EF
B3D7A3008012CB6E
B7F24DD4F663166C
26EEF758FFBFA13E
C3DC85A5AC3B21A8
A768CEDC1503FDE3
CDE0ED11763074ED
615BBBFD201D100D
7B9CC2EC923F8DD8
2C68E91FC6C39F81
1444900F4BF8BDF0
B29152F63146715F
C19FBF75FFFC0F23
5DFFF9EAC30C6001
A7FF13B0E09B6340
5F77865C8CD5068C
373966CD02EEFF7E
8170B001D30C6E00
1FEA8EB7FC6DFE09
7FE800986C17FE98
8BBE8C9089A77BFD
788FFFCF4A020A87
DBFF295E00E70BE4
00607BAE7415E10C
DECC33819F77B075
3DF95D318D3CFBA8
373C28C5B3BC2FED
91BB5AC5108A2110
DFFF1DB64453C007
F990800E179CA6A4
EF88C532E81FE9DE
7E850018161C00F5
C1BB1E7D0F187833
D5FA501B1717E241
57E1D3E740FFF32E
1774167507A64C89
920245676FBAFB38
2CA53CFB03BE0917
3136BB54A45917F7
659AED0725B32D5B
8311F10141D6350F
85D71462BF628118
8E040018D88C6188
6D4C890C8D7064D8
67CC0C1AE3B6DF9E
FECC3A3762019817
0523FA14DF4E0413
2B80939EAC88C6C0
AF15E5D802B49DD5
D97265E49B1980A4
1FFF21D59177C4CD
EDF94E7DE11D9A34
3732240777A4FA45
E35AB9D8AEEF9FEC
313E24300EF6E973
F42E2B12FEF2B971
CCEB691B77D97610
3958DF7610F1E366
5897465C4456FD55
00028104F747D5D0
8EE47A2105D7BFCF
0D32EE3F46E40CCC
0000EFE2490A7842
B7FFBB95C87286DD
19154CEB612B0109
137FA16401177BBF
FCFFC5806753854F
F275D1ECD7711014
5C029908EE35E501
71413F83731C4673
59A9ED0063F0FB7D
163919F7C1718803
D011E84A017F7000
CECD020319FA1424
1F658CF6ECDF504F
CCB37BFBB1B74ECC
8AF74F79D76F6DA7
A977C008FF8CD169
A49F3A660110E7F0
2031E000E8113B8A
FFBD00859B7D837F
40F82DA201983333
788248F78C0F8E08
8B6F3FF3FEAEF49B
C1BF4D0C44DB3EB6
5837AF0500F389B4
6D5F499FE3FF4010
D3757FFB65B0610C
05C0FBCC8957EF63
582F45A7E730D08A
C2994DE47748B519
511C032E00F5416A
35795511F46209DE
0B30FB8E0BB391C4
409E19D7BEFD571D
AD603B7808C75030
1C1EB259223243F1
000CEB9290003192
AD97EED0BE60FFFA
F5D603C513795C9E
ED701C407FC056E3
DB98DE9314564BD6
CEE16E77A8BB7314
2284A79C96EF0E0F
C5422FA4F93B1C38
E78143C44010D7F3
41808150FF5928AD
1EAB0084773E122F
A1321008022376C0
11CE6CFCE1844360
92E64A185C8A281C
4B9CEC88D513FCEA
BD60BB27B8935063
59C1CDCC77531D20
57C6020FB41D6F37
91594DC60C324473
4362D0C4AD1050AC
5335C60AFC9CF035
454104AF75A97681
7A91480004F177A3
973DD165271222E7
12E6E62C17048EF0
CEF28A0A938322A1
BA205FEF800B4098
41355864F78FE08C
777F73E1081B7F79
9DFD2206BD328513
E15788B0559909C8
88ACF00C7CC63693
6CFBF3319B28371D
E897188C5FE059C1
896C6832E99CBEC9
6D636C8D48E20F68
886D33B8A282BD86
8271D7FBA356528A
742AFE174E0F5ED4
3425734FBD08073A
5940F1B680624D01
0788EE5C28B3775D
0E7FE600B7E0F20C
67336327DCDA108F
0ADEF77504609B61
FB536A737EBBB04D
DFFED6E70C59B8C9
4233974AEC01EF3F
2830D82F7FA4D8F7
0851EBD0DF664097
5D904009F7D12131
08D1F931D31FED4E
A746F749DF771700
048CFF99D45096EA
EF63F182A2156382
5E088455191D69A4
2B00E7F771B17B7A
5DD7F846BE24F7F1
35584B31F9A5CF27
9EFF40BE20AFFA8C
C10EC0D010709618
CFF8D1723987EAFF
3EC1805FCB75B0B7
DF68FCEEA3AF50B7
91CFF8F33F995405
FEFFC13D74CEF545
2BFE4FEFD711C82D
C99E67F4DB8C87EB
04F3A8FF027FDD1B
6575F93FE8ECD657
BB33FFFDFE224AF6
3748E15FC58CAD6F
2F7F502088F7FE75
F771D090C76F3280
465F20771029DCDF
F1B8E04B9FE03FFF
723C77A27B287773
42A1FE9AFAAC1AB5
0F70929B66EBF9FF
C8316D67FBF19DF4
8AF611B67FDC36EE
3FF3D13EDF7CAEFF
8CE6ED5F50C11EEE
547E2F00160D5622
3D761996F3ED65E7
032B376408BFE8FF
A80A5372FF3A22F3
19DB8928AF7BC0D6
3CEAC26309FDAD1E
E40E527243160CF7
84D2FBF4577F981A
7EFF8848AD26F4A8
AB246CBC01F71448
E808FC7EF75FD243
BFFBD83F60A64CF6
2E4D74C17F3315F6
FF4A38F37F16E736
F1EF623BA19CE55C
F906F3FF800E1313
EEB2FF93083FAA07
38840989FA7348CE
19F7FD52657791B1
5F09300CFFF6FF0A
444759B26FC4F305
D50067661FF4D368
17FC6957E0AED047
DF7FFF47F31C7EDF
1A7F0088D86728FF
C0997507FFFADFEC
E024586FFDE1EF33
D00512382037C991
7AF59DEB77D9846F
D07CCEDEDD4D5BFF
F96DA888977B9B7E
933BE9FFAFFA3840
F00E60CAFF5DFA2D
40F29D1D0AE77915
B0666461D3FCA16F
DA2EBE77ECF71808
AD035B00C0BB9FE6
C846E287204E02EF
7D6F8909D0AE0FF7
87EF6190904E7316
9B1D2D3385B6620E
410C8CE390F8F7E5
FF8B0E70484FB542
58FEB13C0E93D83C
60B3847FEDD28035
FCFF8BF96FFD4046
11B6FEF601B84816
4D074A3BE13AF233
D97EE5138EF4599B
B8AB55DB0B6F8401
328BC98554DC9A3F
4428107EFC09F7FF
100159D355471C87
28031823AF6719DF
880C261CD98C4888
514D89FF0D507EBB
3314640757A5BF7F
7E36B2638A2A12CE
320BF23ECF17710B
01FB866BDA801046
34F9F8914174D790
37B31930F7D4D00D
6F61016F098E6C13
58368CC2631CA000
B110040004B7198C
E0CA91085DEF17B9
1F30F70C57F9CFE9
0DF5D316E7DCE5B3
60D869B95E83EE97
B9FF37AE92D3E30D
DDB7667C709DBE71
75462CE5F313566B
EFCE3340152F9BCA
5F30C8F367E3B0BF
3204E7BA189138AD
0EEA7607CCF2C61A
80FC6C2311BFFED9
01B346FFC878D337
6DD1640B666581AC
F6709FAC7C7A0023
C822FFF3150BABC0
E201ECD779120544
3940894C7C82E6FD
9FDD11EF28688827
EA00FE6293C8C104
EB41550F51FFD418
FFE1B524EC333870
617F3F3FC27FAFD5
DBF59DF34F798EFF
DD3FFDFFBEFD96E4
6131F2B97089E364
62049020F0851BC2
5FFDCC1EFB3409BD
42EBB2953AB8633F
FFCE08748811D780
2E81FFD726FE2A44
4156AD4F68708B81
D11FCD95CD930276
037FF8179FEC10C2
B3DDDF87C6776008
85DCFB7D11618EE2
5007B52F4CFF6173
4DD89D8E6C004546
3660E6D564FB7E90
E1E071019B465DA3
5A2B3BC6E4242838
76C04A8D57F4FDDA
3134DAE8CE063E83
C57F23A840768E61
FE1AAF8E2F6B5CF1
EEA18A29F10CB152
42BA4FDC34F93ECF
EBE17F86BB311043
EF78301092C4DEA1
F10BBFABD6562840
BB412E1880A08681
F1B3AC4C9E612EE8
57919DB7373708BB
DC50BB75B9D29CE5
D7A8F86365CDAF63
B9FFBF14C4F104CE
AC628CC15188269A
13F5B5E13E78EE2B
503DF7C98DA42AC0
B37039C17017DD08
37398D41D4CFF865
CD801D063466C50E
F65C49B77A0DA7F0
920FD260CDBEAF9B
4CBBA7093C08D471
8DC90971506E5519
B349E7E5FB175D0E
664D56E0E0230951
DEE9DA64DE0C194C
57809FCEC87365DF
DA2C2FFCDBC8296B
C9021F3CE265B8AC
27E1071373CDEEA1
63B4629F2118DC00
D824DE5441FFB331
7C423B6A208474C9
E9F9E409E66E1458
6ED4883C717B84B0
D7BA5A6AE531FC30
DC847B55C0135C69
592CA5EB0EA69B6D
3628D8A890D1A59B
AA265FF0563730C9
BAE69E8374362DE8
D72C42601B2A3029
C40041B3E1AC81BA
48A4100DDCD15320
9E81430E2A58B71F
29536B25BD1648D9
5970A121C6478BB5
4001745704DA6D6F
310FE822FDCF0728
1C1108C056E0B065
7370D774E7410620
DD7FC49C90A25EEC
BFDB266852CC1C01
3C131BB0DE04C77D
73E2D262FC1AD84E
490F2B2839C190F8
82EF74E46F554C18
B728B45BD32F6FE3
5062026B5CBD26EF
5CFF0F646F02EB11
16003332058DAC80
D193EC932F78159B
0440913A5DDFCE43
B42EDD0F1823C617
DBF6E006EE6731B8
EFE30773CFB0CEB5
CD223111F0EBD779
015E4DB70409823F
759703D3FB0B8F16
2E4C2721CD3BA911
699CE72944550FFA
FF217E42E59C8067
4E0EDF016400F55B
063527BCB6139E32
3F006FCCC8100040
3A00EEFD04602D68
D810DDF398644AA4
EEFA82CF3F2A472E
01FFC91D7CB1892B
676622A5CB99B034
140BA9B2B6F1DFA3
D6135CF322EAA900
447C8824F90B8A78
2927F099DFFF0106
33C71525380A1A3F
480435F2666355E1
B13FAEF36117D5D1
2A0A4C03FB800257
3B6099C6E00D4EF6
DC8374F2AB78BE61
FEBF36830F9A0300
53D2FEFA24F6BD42
0C71A293F965B908
8EF68C42ED8E90A8
A30A6692F035AF29
4BA2C0CC61614496
F14C78047710D0EF
FF88DE61CE40F4D3
A6AC0640EC39BB00
CE1051B11DE947BC
8D19FB6ACD1D5906
CB7427D33CAE8199
4E543E0C3994F67A
40A0CAE8EEE0DA9C
16572F35FD8AA55C
C2D32C490F7F38C6
F623E755DFC5A5C8
2A25F50EA7394E66
86A80A27B085654E
E9D3278FDFD4BBF5
5BB508A1E0F45FC8
4107EF72382E012D
D898BA90371E05DA
0A452BB5E9DDB9E8
F6AAF1042BF1F9F1
6029000F23A49054
261D2034EE8D8098
996BCBB91BB8B719
E82ABBE36F08FFC0
D7ECC703A4F4F814
7B60E5A8F9C2840A
F30C90C8028B2E7C
0F9DECCF5162DE32
0E7C2BF3D9C491DE
F73F5DEC26B3CFED
1F38748805006F82
EADD977F98080EBF
2A04689C053562EA
FAE31C67B1107AC7
C9B65096B505D049
CF764641D012F32D
6B7F6674CE3509EC
6AB2BEE58810EF7D
CDD205D7A37FCEAB
3EF390ABE569D37F
35763F9403336CFF
06F95136C7185C2B
8AFF3F0BEEEE1A01
57FD4189E76FF788
2CD790881CAB32D0
EF718F49FDB9A890
EE5DCE2ACF0CCAB2
E745FF95C67D0FFF
2DF08EA90408FFE4
3708CE078B3068E1
C3EF9F36700D766C
AF77D004EB71ADF7
C0026E66B1B0C5EF
71FBAF0B7300874A
EEB2B99F876D7ACD
7BBBDF317AB8BBAE
77ECEF3737FC06BB
5FCECD08AF704703
3D48CA7311762EA7
122B545EC650BDCF
ACC5280CB4A51451
3F94AC9EED524090
0808EEDB44D2C10D
1E001F716140940C
F1DEFEBDCE866F74
FBFD1DFA43A6B1ED
877FA050F108EABF
F6BD67711D9830F5
AC6EE67F7762813F
70020E78F47FAA00
73D61C180AF67E66
DFB77D008731E74B
508BF82FEFFCB908
40DF3D6FE68E7C10
154B0A6B3604974C
4C7F103A80B41665
907FCB3ED005DFD0
3BDD15DEFD7F4445
FB9CA902DD08036A
203F1010B988FC32
8340600DFCFF4810
744FC54BCF55EDBD
E8B594EEA94C7F7A
0A00609BB7EB7FF9
972E3AFF468F180C
D01FA800011BF3FF
7FF94C0DA0BFD188
F9ECA1D859BF9831
0931AFFB5EB8DA09
FF023B01817F8519
CE2E089700C08194
AF4E280301023019
1BFE00BEEAE8A7AD
F791EB63A3754BF9
0119FF99CEC627AB
10251CEB80434251
E966FDFD54E85AC8
00E65CC9AD1CBBE9
00FFAF10F034770F
3A77EFC968048B1D
6F9FD2F8930C2BFD
BE6BF2874688C9F7
D7FE5DEF377F16B8
F3160CE61EC889FD
7155070C1120CD76
4F65D47DD56EAAC9
EC027BB306085FF7
28DE091CF75CC5FE
C9FE700CFDD978CA
EB1A897D4342B081
007F0A7284BD0EC0
0BD7DC8CA507A5FF
77E6C063315B0333
0B99BCA5EFBFE07A
198ABBA3DED651B9
9F572D9671661DF6
62030CC895C71030
16AD6019EFEC00CA
91437FEBD77C2019
423056EE32102F21
7F795CCC033FFD64
11356D80612ECDEC
DFEC333F6C37EFB8
BDC3BFA5FF21FBA2
D7E82244203B95A4
131FF779F470CE06
258491480130B75D
DFBBFF779F158665
30F78D1CE7DABA8E
009668F4E30323A8
E275E611A0F4C62E
225FD510E7F177A0
0CE8B710774F3AE6
A1112738FE23989F
07742E7063D8FF53
0D9529DF6000DCC8
C441E5DF2FD705FF
35FF8FFF4656E6D0
7BBF093EA6E6C110
4DFC960B1C64F7BD
0085063C612C1131
7F8E3F65CED79A92
859ABAA3C060688F
270652432B7374AC
2E88C7CC22CC4E9D
7721AD671028FF1F
C5F54CD60286AFA2
0060FCC7F3AA7737
77F31CB06F7E0900
6A9C8BD2FFBFF9FF
3FBF768CF11920FE
50ECE87E0860BBAD
D7E480CC25037002
D278F7F7E1AD40C7
68405930C8EC5DF0
0000000000000000
0000000000000000
0000000000000000
0000000000000000
0000000000000000
0000000000000000
0000000000000000
0000000000000000
0000000000000000
0000000000000000
0000000000000000
0000000000000000
0000000000000000
0000000000000000
0000000000000000
0000000000000000
0000000000000000
0000000000000000
0000000000000000
0000000000000000
0000000000000000
0000000000000000
0000000000000000
0000000000000000
0000000000000000
0000000000000000
0000000000000000
0000000000000000
0000000000000000
0000000000000000
0000000000000000
0000000000000000
0000000000000000
0000000000000000
0000000000000000
0000000000000000
0000000000000000
0000000000000000
0000000000000000
0000000000000000
0000000000000000
0000000000000000
0000000000000000
0000000000000000
0000000000000000
0000000000000000
0000000000000000
0000000000000000
0000000000000000
0000000000000000
0000000000000000
0000000000000000
0000000000000000
0000000000000000
0000000000000000
0000000000000000
0000000000000000
0000000000000000
0000000000000000
0000000000000000
0000000000000000
0000000000000000
0000000000000000
0000000000000000
0000000000000000
0000000000000000
0000000000000000
0000000000000000
0000000000000000
0000000000000000
0000000000000000
0000000000000000
0000000000000000
0000000000000000
0000000000000000
0000000000000000
0000000000000000
0000000000000000
0000000000000000
0000000000000000
0000000000000000
0000000000000000
0000000000000000
0000000000000000
0000000000000000
0000000000000000
0000000000000000
0000000000000000
0000000000000000
0000000000000000
0000000000000000
0000000000000000
0000000000000000
0000000000000000
0000000000000000
0000000000000000
0000000000000000
0000000000000000
0000000000000000
0000000000000000
0000000000000000
0000000000000000
0000000000000000
0000000000000000
0000000000000000
0000000000000000
0000000000000000
0000000000000000
0000000000000000
0000000000000000
0000000000000000
0000000000000000
0000000000000000
0000000000000000
0000000000000000
0000000000000000
0000000000000000
0000000000000000
0000000000000000
0000000000000000
0000000000000000
0000000000000000
0000000000000000
0000000000000000
0000000000000000
0000000000000000
0000000000000000
0000000000000000
0000000000000000
0000000000000000
0000000000000000
0000000000000000
0000000000000000
0000000000000000
0000000000000000
0000000000000000
0000000000000000
0000000000000000
0000000000000000
0000000000000000
0000000000000000
0000000000000000
0000000000000000
0000000000000000
0000000000000000
0000000000000000
0000000000000000
0000000000000000
0000000000000000
0000000000000000
0000000000000000
0000000000000000
0000000000000000
0000000000000000
0000000000000000
0000000000000000
0000000000000000
0000000000000000
0000000000000000
0000000000000000
0000000000000000
0000000000000000
0000000000000000
0000000000000000
0000000000000000
0000000000000000
0000000000000000
0000000000000000
0000000000000000
0000000000000000
0000000000000000
0000000000000000
0000000000000000
0000000000000000
0000000000000000
0000000000000000
0000000000000000
0000000000000000
0000000000000000
0000000000000000
0000000000000000
0000000000000000
0000000000000000
0000000000000000
0000000000000000
0000000000000000
0000000000000000
0000000000000000
0000000000000000
0000000000000000
0000000000000000
0000000000000000
0000000000000000
0000000000000000
0000000000000000
0000000000000000
0000000000000000
0000000000000000
0000000000000000
0000000000000000
0000000000000000
0000000000000000
0000000000000000
0000000000000000
0000000000000000
0000000000000000
0000000000000000
0000000000000000
0000000000000000
0000000000000000
0000000000000000
0000000000000000
0000000000000000
0000000000000000
0000000000000000
0000000000000000
0000000000000000
0000000000000000
0000000000000000
0000000000000000
0000000000000000
0000000000000000
0000000000000000
0000000000000000
0000000000000000
0000000000000000
0000000000000000
0000000000000000
0000000000000000
0000000000000000
0000000000000000
0000000000000000
0000000000000000
0000000000000000
0000000000000000
0000000000000000
0000000000000000
0000000000000000
0000000000000000
0000000000000000
0000000000000000
0000000000000000
0000000000000000
0000000000000000
0000000000000000
0000000000000000
0000000000000000
0000000000000000
0000000000000000
0000000000000000
0000000000000000
0000000000000000
0000000000000000
0000000000000000
0000000000000000
0000000000000000
0000000000000000
0000000000000000
0000000000000000
0000000000000000
0000000000000000
0000000000000000
0000000000000000
0000000000000000
0000000000000000
0000000000000000
0000000000000000
0000000000000000
0000000000000000
0000000000000000
0000000000000000
0000000000000000
0000000000000000
0000000000000000
0000000000000000
0000000000000000
0000000000000000
0000000000000000
0000000000000000
0000000000000000
0000000000000000
0000000000000000
0000000000000000
0000000000000000
0000000000000000
0000000000000000
0000000000000000
0000000000000000
0000000000000000
0000000000000000
0000000000000000
0000000000000000
0000000000000000
ED669610CD0B6591
D4207FFE200C95E8
00E6457D38E1EE4B
46230AC6DFEE2026
249E327562752E7F
4CE0CF2A7E78FDA4
882749CA452423F7
AECB570848206E4D
2A49ACCB1131010A
D591CC330D573C43
304C8B243F80EF38
21C2FFD4DE11A058
4D21110C11229ED9
3CC442148061BE7F
8FC70AF9EFC09C73
7CC89831BCB39EEF
E800840156C0367D
98526625D0C99C55
51CF44D1232DD5D2
F26E6E2319407B5A
09A4714167DFA7F5
9E3D40AECAC5B259
512DA74100624637
54B34068B33510DB
05F4C63340280054
4966B0B1696CC386
7D03CA26A379C857
8866807AAE350482
7FF4DB698E7D3640
76C331BDFDCFDFB1
F8B64622173795F2
9B2F011BE6CC0FF9
24E922E6EB08CC93
2830C807CA750888
DE6595CAD4F77CDF
65861D10B4A08783
4C5D10117B616DDF
03003712AA0198B7
008968461103206A
EAD4BD74208E5D22
05A8019C5175ECE7
8A2065CD4C8E648B
5EFF3D96F26B2912
9E57D9C4B4693726
48D7738DFDDFC4C4
C4FC54C811006045
132C662EBE27DD11
C02D08E23BDE73C8
E0C310464A8A5822
D04120ECF633F9F7
C8609FB0EBF4F868
2F3181408FF7E00D
6BF58CBDC5081C59
01D0C51BB5493102
34BE993C7708B58F
CC26414FDA8C7FCA
1922691BF6E0580B
D14DFED78821A3B1
A7300407E88A8FD5
BA799813A06468C1
F1FB08A6508F2FCE
B6ED0D2C98263F4F
96DCC531382391DD
773584CDB29168D1
0CFE6EC0739468A6
FBFD164C5837ECB5
E3689276F58B32B8
3A58B7EE0460AFC9
4FB2C21EB680538C
99BF8AC410E7FEC8
5C4A8A499520DFB0
DEC1B83A866311FC
BD95F34E8808FDB9
8F1D6B110E48EECE
46B4CA9751B077B1
BFFFFFC3CC56B6DF
ED6CBC724BDDAE69
2856C594065C1BD8
898FFC86B2DE3709
463F5232FF37C470
D2BC24AB27C90781
B7FC9F4BBBA3090B
A9D09A1B45B6AE79
0F8057C820F8DD29
85D3109DF66C74B5
66829507386CD867
6F429C2004F6B2E3
082717AED665FAC2
8423947701579EBF
C19E3B93EF561861
FCF1ED5A66E05FCD
8E6457903C5A7C78
4427B1FB5EA1DD96
0178E78E59581F0C
04E3BEDA6C5BEAE2
D6D00E84EF60A74C
4ECF311FEF9B1AA0
7D7786D5AC6BD42B
8C363E41009F53E4
EF608A6E96472FB4
158ED6F5CC3FCE65
535CAB1EE730F6C1
D93EBBFAFDD35F8C
5ED8F8BC2FEC9CFD
05764F7717CBF270
8EC9B2FB3F508E51
37E587F951860780
FC2465D851930F91
06A625EA66888274
1038007F041686D0
0C09299B54A0705F
2052B2BD61750EFF
F756AAC8E7F454E2
8352A2675DF7EA77
D8E5C8E25210E7D5
9FF30CEB02FCDAB6
D4892AFE1D21477F
1F4450341FBE69E0
DAE477C418DF8AF7
3EE256A515A3986B
3EE3979CEFCF08D0
F7625826A5BE9AEA
448BAA7277F113F4
B7C631674157AE68
6FB742CFAEF14DCC
F7D1B370AD088FC4
543276745657097A
EA2A9E783E6802BB
FF9D600E66B1BBBB
AFFF502DD0F2E28C
EA82A200F32A40EC
3FB3CFAA2660EBDA
7EDF1D3BEE33D18D
3CE1EAEE6E112349
EEE23CA870911A21
EBCF7BE2C691D7C1
DF9E6F78E27A2E1C
BEECFC033FEDE459
7B81A25AD0457FBD
7EFDFA58904C005E
6E6764218EFF2F60
2BF9A641BF6C6588
6B1CF921C9DAFF11
A208173F62E03E06
F5EF77DF6DCC011D
EE3398B284747F19
AC927CD87440FFC9
2D07279B77B9BEE3
471DFC9959289066
5BA6C0E43F6750C4
CC6A2F39F7391B01
FD8FEE31DC80068F
3FC2543908988483
1EC09F9E0B3E4ECC
79DF61DC0098A519
F198AA3FD9BBCAEE
26153070120A0AEC
0BE353288E988701
EEE5BF1BF7B62A47
FF01FB817E06ACA2
EE4E536DBDF6FD83
27F3AE2ECE18DFD7
3D9D4FCFA2C8FF22
FF8214CD8EF08830
B9DD2EEF2C09A6C3
3FFD8EE6EFDBD645
1374EB8B13DA0310
BFEE33236688EE1D
67E733106E875F90
AD1F8C2C1FE72BD9
3C0EBDCCBF91DE01
FE89EEB323103E5E
2FDBA0C86FA97672
BE5D90E52BBAFF8B
8C9F0F1F69D037F1
074AC7376E0F1362
0A1686FCBA70EF7C
E2FF11C985FBFCDF
BD076FE2FF090218
53196EFE7437CF3D
942A31367E7327CE
37B67D1741C4C08C
9580BB8F92892206
DCBBECB12F7F8D04
0F07EF31E66081C2
1409C988474113FF
C618BF7DFFE17F58
31B6BD2F1F08ACF7
2A8F6726E940BE75
CC87CA778004CEA6
D0107FFF0E9308B3
36E7EE1951207A0B
D54C11BA06F7067A
CC7541DE5F733948
C8B3C9B6EFD0070A
30E58800146900E9
090F9A0A196F8772
F04D46B2D99FFB0D
5B303510F34D3F49
3316EBFD8FC688C0
D69300AE7F7F0BF7
15FF0DB49EB9E116
500341BA19F989F3
CEE0979D1BD9F97F
07D8AAEE61887FD9
2CD8B8A7ADB32EE9
A6FF2837FE775895
A0228E2860CD6122
E2C8395C827F0F34
BDE42002E59D5BF9
FCD0B578354C5259
FE9681CDB78A7082
9B19FF0290BF55B3
AE8D8021AF764FF3
C91BC9453DA45111
BFFD833C8DB7CDD5
2FB5A05FFECD3AEE
CC10A9AA94B39980
C4C313F513CAFC53
BD8996628DF26B3A
BD17F2935B0351BD
884E9305EF4913F7
6F6F45B662F85723
317189947BCDAEDA
AFF746CF8FF4D475
A4A3910B84892D91
9FDE77B0B29DE4C9
9E3C7100E97BD848
748A6469FF7A544F
87F112E595766777
06512CD32568FB56
0A0242F771F359C5
0A8DD7D7071D259F
16579508048F0E83
1C1B27874DEF3F7F
37959D332FD1C60A
51917F1280EC18E8
488EF9B8FE8F3701
882A2AADF81A2B8C
F6804EF40E8FB196
DF6E894A0FF21EB9
24FA009303CCBFF1
D1F115CC93EB4756
B7EBF714FFEDFA08
A07F8C2C0332938F
C3573EF5F1A9A77F
3A770F7514F3B97F
8C4E90DDD99E8880
023BED7505D0956F
4E92D6C7733DF7BC
8812418C33E41E59
14E53FFDBEA4176F
58CD9B36BE68577B
FEBF830293E51F1F
8A3E85CDFF28AF0C
930AFA7999969BA8
BFDF53037E7D6170
084D4C221DF60183
1121080083710545
88A8DFC0142BAFD9
3AE60C9BEF099106
9CCE60064D7F183D
73F40AB5209C523F
60446854AEFFB34C
EA09A8C172C93B71
CE6D47E7BC6F2D89
416CFCD89808227F
FF6EE00C809F1573
CFFF0068AFDD70B6
6A044545C0F2048A
88086DEEDD3126D7
813A81CD32AF7030
F1EE6FFD008C809D
6E0C902A1310E5C9
8ECBF00096004F2B
DDA789FF543F8104
4FBEDFFADC709911
93AC483668F8418E
2407392AEFF11F7B
7F6D9A6C929173FF
D31380FF804E5608
8AA956340F2B0274
C3F77BDD39F9B307
BFC83DB7D9B84A1E
1488081710C8C87D
A0D43EC2BFFA1186
A2CD7DFE0E4F3013
00886D666131FECA
7A1551C110B2E67F
487D4D642FE8C81C
04115D6F100DBE00
F651E508004CAD74
F163246FE518A631
9D26C8296B1A74F5
5E6C3F9643689FF1
7BF11FAF0F784CFF
572F8E784EC81602
EDF36011CB0C5179
C90480E0DDBF77F9
12607CE7DA94D812
BFFF0F307BF86CA0
909E360D96C07307
8085A91E97616488
B6DEF7FF3EAB6868
D3333FE63326A754
F2376D80A5EEFFEA
FFFF4840052F9100
BEEFFEBE6B39FF21
2600F39951BEBEFD
C610425DDC27D937
41006E11F0CAC091
0411F4B82F06C00C
CF200EF5802E0010
10FA987DA7B35162
E842BEE39A3CF244
2953EEE25ED888AE
06BADEF736173E14
88317911DC99C81E
D573FEFFCFF80C28
F120BEE1127F7F0B
6866EE476EC430BC
1B2884405AA54027
802832F7D709EB33
FC7326FF4648E223
C833B627F0B7745C
593BA357CC4D3DC4
D35BE30A8EFA4620
3F8D9ED230C349BF
8C85B6608C8C7400
2F103A82B72B322C
EE81C0A741F484CA
4D1079DCF6E4EC01
4D76C5BAE5396FCF
001156DC22CD96C8
1647CCC6E641DFEE
5C16A239BBA20459
F210A5E71059238E
ECC304CAFF386E51
DADCFF773680AA2B
214FD4C06A3E5E36
600D0006B74B7C0D
708625C68912ECF9
FF08DEF01A608367
006E17A58CE49AE0
A601AAD7D6141437
943FF7C3E8C05441
ECBCCA4CE4891E44
03568670780354EA
9F0445D64B1054C5
91F8E7873B516E04
E833B2464533D601
D57AE2BEEE6B878F
1EC6E40D60BA9BE5
3440E0F13D7F562D
83D15820BF767F6F
CF6473F326FEE987
4E8E2D905E9ADD56
C440262DF9780380
B6911BFF8E6E5E00
F6FBF8CE10FFE22B
06CD1EB3740B9263
CC587EE3324DB739
4C7B45E9FD6044C4
12E234CB126C2BD3
0A62AC8A3EFD0328
102AC3FE9F9B85D2
6CC9BD9F1602F616
AC86203A007E2FAB
7EE5B17C8997ECE9
ADE084ECF9394C63
5262C722771C5741
4A04C7ED00EB0CC7
5DC07627263446C1
164C8A89192A6D8A
D874FFC637D8C6B7
B335E7DB0051556B
4CDDD8200F37D3A7
3115155D28D974E9
748020319938B331
EE40F527E07F6413
6FC58F48FDBA454E
46BCF37046CC7FC0
167B4DB5020E09F2
22AFA2A80088BC6A
9811FFC0EFE23399
7DA3A68750C5FFA1
D05F4147BFF56F34
082768839CBE9583
C06B68998BDE519B
EE08778C8BFE1505
A6BDE77F3D01CBF4
3B890F6CE0994885
8DBDAFF6F1094723
C660C080FFE4ABD5
59BFD1A558C58D0B
6EF0BD70BE1BEFFF
3F7781265FFB874F
B3B2EFBF215BC80E
4657E4CC6EC6B009
F7BBC7F2FF6FEF7C
D7B748C2384AFF2F
2343912E5FFB0096
BCCA83E733011F46
C2789E1FEF5E23B6
508BBE7D87B7F114
DBBE03CD813B9643
9C05D818017F43FC
141C3FF732FEFFF1
E010F5DDF2DCA571
488659299EBC6F71
C07E6814B0CEF452
7765ECAA9FC69542
44185A82E834EFBB
112B761094088D11
4DF588DCDFF49F71
EDECCCDEC386DA4A
F713809695BE4DA6
63000F5B7FEEB81F
F772BFFCBFC85087
EF525DF13F076D86
4CFE3ABC78C7B40F
37DEFBF76DF61FD2
F73DC3A18EE00BB4
4E7CCFCD82F28F55
52D076249B2FD6FE
B332E27EC8E27F2F
207793BFB4989018
2AFEEFB4341E1F3F
51E03BBBEC665137
EF5FEB45215E3F61
60BEF9942D101DBF
0DEFA8D93F34C10C
373360035F712BAC
BF8A2B39E6AD000B
003C4C7F21B17605
D995AA4BC2AEDEF1
DA1ACEA876F7DFE4
905EC04AF7142553
AA8E0F7BFE0117C3
CF54CDFDBFF446E2
5917E34B07F33EFE
20DA35F4BFE2C368
FB9B58D82FF491D0
3BFE9178BF53DDF3
F7BA753ABF20B101
FFD0E980195DBB13
DF5A4DFAFD65B71F
C8C045A7767F26D3
632F0038215FCF5C
077F1318A7FB627B
100D44E1FECD34C0
7798420FDE326FBC
A2FAEE23BFB66F48
9D347EFD501D2D4E
DCE7201C21FAB462
00F0400A5488B54C
7FA2B1802BF9CF54
C1CF9E295E629A3A
DFA872EAA9F63A6D
A102A2F62FB33F51
40AEDECFF46610D5
C186153993F13A7F
3138602AA7E16A0E
FEDEA847208A90AE
84CCD8A5D574607F
987E33B130EBEFFD
D509DE44B1DFF089
6BFF21049BD0924E
361ADF8E40265DF2
85D0DED753E66FD4
0DCE2334FF938588
AFE77BEC3D80A20F
7B14906E05F75FFE
BCE3E46F69BDB600
0610BFD73B3A7D8D
5CCC0BF649FCB283
E07B119EFA33C4E7
26CF61E134EA31EE
B3794AAEDDE268CE
F371539C12496779
F4AE27683E6BB2FB
BEFB28A645EEB9D2
791C830B1099094C
949D42EE8777D438
75C0CBFB97E1B0B8
8DB3ECBA4CA4D233
C0BF890AF54DF533
09CA0AF0B13200A0
ED77EEF767F98D91
4447866047E74081
A4807F23DEF1F46E
9C01B1779D66ECFC
77FF48CD429CCBF6
13D2567653A173CF
089DFCC28529466C
5B84C706B08EDAAF
8C106F7FA242DDD7
54FFD8EA04EE3241
8558309D4F4EBFF1
81095E75BA001002
07AA1E01461DE0EA
7DF26DF911D6FBA0
7D0114FA0DF9A723
57E64B8F4F4C1F18
34B910B49CDCD951
C60EBBE662BD0843
EEE8CFB6A3C16919
E171C0505C9E7BF5
614FB1F300E74AD7
0AEB076DF4FECCFE
388342AD728EC22F
214F88FEDB8079F6
43F066930472001A
718ECCC53E3FEE39
FBA22975F1F79056
193807E05FDE4BC8
EBB0BD1FA01440DF
135730F0422A4C0D
DE87E240060346F5
D5E647B3C4FE0CF0
5EEC341778E883BE
4E3A6C038D79F3C8
AFD64FC41945B594
DCF0D25FE60DCCA6
7A2F4B1D7ECF9698
CAEA15DE9266B980
091704EF76BD1BCF
48554C150F730600
1EC001DD33FF455B
F6CE5759F99D6903
96D2EC1F595D2F3A
CEE01BF71211E8C8
88532DE74398D4D6
2FB360B69732401B
CCFE018B84252B18
08610756EE4BAEE0
8A2B2E7C7DF3330D
CE1E87C6B63F8BF4
FE54792F6CFC144E
EAEA2B7364045F94
7EC2275D0E0F687E
4CEA838C9C0655C4
98F3770756EA4EF4
8FE5A83B2EB12EE1
5F9FC5F7EBDD8910
303880C5D9BAB2F1
EA368031C8EFEC82
2948E7626E8CB4AE
5EF31FFAAE317E84
FDE7243EFB1808DC
882BCECE8B2DE41A
0B92055B6BE23E51
997D80162B9A2004
CCEB0F9CA3E0DF18
930CFBFDC483C9C6
CECE2050707E2BFC
DF5D08624DC360B1
5810A40BCDBE33D8
07A27D32C0ED55FF
5651032CF800BCA7
5818A7B84850DAF9
F63CFF004FDB8664
0FE468E68E820683
E7A8927803B48C02
01CD4C05DE50039D
5FCDDFB277933A58
5338F1D5758DF873
027E2DA6DCF32800
10CD8FCC7F3F712C
8FB11EEF08F0C516
19E637DB4590ADFE
4E76B056DFF3A94D
31B3ABA5CA7A6D70
6DC85644AEDC68C6
CE4EA4313C4C86EB
FD298FF75C3989DD
17A8A29EB954AD7F
8A895FE88FE23923
3EA0FD80E8EA3361
BF7AC0CAE87CFC63
86BA6F83F85FFF00
7DE1991BBFE26D0E
DD6039159128A322
22113A7D3469B6E3
7F23C15C81A6BFC8
D9192E37F080B4C6
BFBB622681E94DEA
F08F484BED42C20C
070DBE78080EFCC1
BFEF3559BFABAE00
DCB5F2AD56B2FA18
EFAFFD5C037670BC
FAF67391ED2B839D
6729CCAF50178630
934AD74B50EDCDC2
6F0B74E1EDCA61CD
F730BF3ED5F22ADC
9DF53DD1B5C06356
0E0A93A8FB218238
FF5C794DD02C4A1E
D2E45624FDEE7FE1
1880363BFEEF0318
7BD8D7E6ABBDF28B
00CABECDB274F829
7E3D5B07040C077A
76D530E185AC709D
4FA903B8415F0A22
214A7A4533CEF7AC
136B7F7789F0F73A
93802E4AA0A0EC70
8196DE0F06AFA394
906AD42EE046B248
198FC731CE7D640D
A7B6A9DFD982E508
633BD79DF008C3DD
03D8DF3C3C32BAE8
EFD10000A3444306
0484073A28CFAE33
A8143C445BF91E19
F118BAEC27608687
C91F3FC8B1DAAEE6
6382C8E55EA90993
DDF52A5A3BFC06E9
939B0E648E682100
D5C5FCDDFD0DC05A
0F1710DDF67EBF5A
FD31597CADDBCA19
BE54DF619562113D
72091AA2A9F9C251
FFACEF91EF56BD1C
DB426E3DCE9AAC75
F3A2F220C1F0979E
8F68BE206C47FE19
867282C02E6E78E2
BFFFF3C27187F948
3280D35CFDE98E28
C3F3FBF01124DDD4
92023FD282081F18
A2D576AE41521BB3
4F57F2313626B792
08C8430400A3CAE1
F375C32B888BB8A8
672052D0138F3A86
CCEF95FE719648E6
9750D46E09C2D8EF
A4F42362E9BAECF2
3CDE2F8F31193767
C675DC2E81F6EEEF
D9ACE407DB881219
07FF8B81FD0760C7
F9C0B21E6FBBB723
61D1603207F2EF50
5AA398D32F5C0FA6
EFE19723778C80B9
4338656893027BFF
A08C83436136964C
375FB3D933B50101
1F4E534028D3B2FC
01F07DA99C3E399A
27E051E635C69FEA
9B918657CDDC7EE9
6CCD70DF3D81A900
C3AA8D26F788138A
A0A2003A27CC980E
1E00E9A259F6B02B
16C0521A36CA59D9
BBB8FFD65C80EDB3
A33748E4FAB7E4B8
440AFB7F29CB6556
B269F4C20CD8DEEA
DE51DCAF7623667D
91DD92D314AC4844
7A49965CB3676815
F300C7E9FB09A6C0
F3E4AEC60AB6ABC8
112E1ADAFD7BE5E7
BB39D8BBF18524C8
FBFF586ED7CB291D
569E9841EE08DC8C
9C623236801B4FE9
6FB42B0A68A8DF88
C94F6D2E9C67CC93
76C8FA5DE8B87384
BDC638382AE473E0
F6C401A88A21F96E
BE1B359BCF8B863A
97EB2DE07EE205E3
5E563B709C43AE88
D890C8A690C8D755
57B54DD29F3D7E21
7338EF7E14730242
A5E388BE2466468D
332E79034442DB9F
762A88EF7470A8BB
4DA8FF226DEB3286
3217799253323D61
829E7FBB194C8E56
91D9ACFFF89926DB
7A2CC9F8DB73345F
7532ADA08821B583
0837E605E7AB28EB
65A220620ACE63E2
ACC44B90EA71562A
30B53F0292999958
4459607D31768010
408A195C4D85B916
10D8C3D64003A08D
8ADC5B56F7D5BEE0
14CDCE7191855B91
212D204DAFC625CB
40A2FEBCB08816F3
21992CDF313F0099
77A31F5D8176ABD4
D1D523220A98D006
5001FFE9A8389BC0
098B98C091997F14
7EEEF2CFF6632F3E
48828045A09B4FDC
7ABC611D5C597C21
683A5228603D5F7B
F9F8710354885998
A2C72C48089B2CE4
01601089003F3019
1DC170EFAD996A00
54102138F2BB3655
5CBCC26646808312
68C0104773F10986
FF70FD5659EE3882
31387378DD7248C5
401DF207F96998FF
116A42083FDC1101
011AE76EF2DB02C4
2C871308F7762C8C
000E9B1F7F2D68D1
106B3BB000B96377
CA66D990A7F138C2
847E2CC59091B119
1010891E511781B0
E719EF0205552937
D0C78086100205D1
F35DD371136AC777
8E05BE997C0DA481
B2BBEBF55B85E0DF
47D9A810F9EF11DD
7264801105915328
AEA845C0991ED05F
4C27078BD5C15491
1D192E925588C582
361300A92781DFEE
B3D502C16FB04059
290E08009EDF0290
737BFFF28CD01025
0084FD660264C768
FF64B24D77E03F70
7950671932740814
AB500D15519C53F2
B0EB3C452180441F
03BF919B00FD058A
1DD020468A75E01F
676EE2B3D1D10B14
AD45BD560099C0D3
46436FF600B73C9D
10C4910203033A9C
71593058A927BF62
971322F4E83444CF
210A91D4EEB14844
7F33D59A7F43629E
731A0EDB92A9693A
F528145C40E710E7
D62F603E07DD4338
CCC4EFFE8C94F156
F182A90B1CD786E8
0810BBCD801F0A0F
FB5DDFCA318CAA22
F319F518D6E74A00
6F18FEBA31CB6EE2
AFF604518E17E4F4
3DBD1926810D88E6
5BCB38B74FFA1FE2
5C810CFB1E9B7331
779BE7364182F7ED
BC5001EF9DA70A85
DCFF798EB37470F6
A0132AABDCD13011
02F3A935DF690F15
731E6D9A1896F8AE
D561B5FD3C44D480
FD2E73C4B71912AD
B13BCAA672E8129A
664D95C19F7638CF
ED5FDF67FBA0E585
6F6090D86FFC4717
3972FACF30EF00E7
24000AC4814ED886
59CB376B08CEBD91
FB00A2FF4A773DB9
793FB662573CB5B9
0EC691476F11DA9A
A3FBEB75203D1740
9D7791B57EE88C53
8CF63E8E8EE3FB12
8400279B029D53F5
68905EC088C178ED
F837AA97FC31CA41
A50E0EE17AFBD031
9FF8B06CB9C18105
2E4070DBBFE5D958
9C1375E6F0245944
A349BC69021BAD8D
3B188DD0480B4FB8
080B7BE67CE2E522
331E9F60A7E5CC9D
53123D028AF0E6F3
01C1B5F33FE0359B
434A03DF731CAB80
D8E03EE6C00F0384
C909C94087193DAB
DC8E4E0BB9931D2A
7DC2116892E3AE07
1B2E1793CD485C41
804FBC7886BC56FF
D96E7DE911B686FA
7F7F2EFF0F718E0F
533998D50086B0D1
0A3F4CD1AFE6FF7B
490752F0419378C4
5EBEB018F7AC5F28
069C21E1C0EEC976
9F01132CACE153B7
A3AA85C2E7A2BFC7
2C128D7E6F36A82D
976CEA11981E39EE
25621C8B4FF9EF5C
7F3776FAAAED6FE3
98B8103F7B770CFD
CA15D0807FBFDF56
1096019EF7EFBEA8
5899C7FB417FF1BF
AE6C106AE84DFB3F
021FC36D03798009
98453FFA7BD113C2
EA5F165A63307739
1E2506FA0887B477
BA7FD43BEF30BFDD
2E69C87C7FF480F6
115B70B36BDB9414
F31128336FDA60A3
6747BD73FFFEDEE7
8FFF88399D67E0EA
CC18BF376FE72309
43D37B07C3B1DF20
5031D37CB89A6850
30C4B37BF301B924
AABE27C38291D6D9
1D2AD5D9FDCF9F75
0104003BD64D5FFF
C1E8DFFAC336AB5C
F3A680AEAD0992A5
6E5090219839996F
EF73D1C7EFED9016
1A78EF3F6E56EFE7
1529808F50088137
57FB7F1CFAD2FFFF
76E14F7CA258FFA5
2AA3EFF2751F9CF9
0271C8AB4DFF6F9C
FE3FBF78BE6ED206
5123D614AF2B4022
2B68FBBCEC012A8A
7099E1AC1FB93B7C
CA5FF205F93B3CA1
CAF287F9AF525553
E92A00B9DC643FFB
0BB01CFBDDBA19B9
73A83CFE693B317F
FC04DABD09BB55BF
0FFD63445952198D
FBF647DB217C7BBB
B2F3E3FBB70FE4B3
