FB8A7EEEFA095DEA
11D87FD5C08DA124
377ACFC3AC70BEFF
3378536D8CC9E13B
8C88416369C8EE77
57D984EFFBFC46FF
1763ABBE2CCD398D
5660ED9FDC8E6516
A2EA637DF38C190F
37F7D003C823EEED
66EF10197FFF9304
8CC7300910B38BD8
2F0238793512D00D
92A868A8B3AEA4E1
BFB5DADCE01E0C48
20A07FFE776FE01F
C000DF6D35F1287F
20C21B3E7AC466DA
71B3E367D751EEF7
2A63CFFE5F79F57E
0D1C7A00129E1266
770F8193E7C9B9DD
4B6257EE0CA00A03
105C6B221FF92A7B
5DFF9900A5D8D9F5
2E6EE5403131FEF7
785F0000631E001A
208E50CDE43D8009
8C35113995106895
492120148C64114B
6C40F779FCFDFB3D
A3FB007F78906A71
EE2F88953F20A090
E774B1FC39CEC216
F3ED5BB18081C4DF
91FCF4BC00C81208
EFFF57C5363AEE75
204D5A20995F7E3C
79B9E8E06EB19110
92A89211D916A03B
244717EDE901FEEC
53BCAE622A15E28D
2F3D4F18803E4805
FFDAC6F37BAFF79B
700E8011FCB769BE
FAECC008521CFC58
A339D006DD8EC411
A7CD41FFFFFE9903
485135F70844E959
E25CB4503D4C6E72
050DA899FFFDDE6F
5FBB727F70BBF18C
C008AD80332BAACB
40E88A89C97E306F
1000005810019377
FA7AF7FFFF148D84
0E037A1BE2838212
F3EC101B1C468019
0DEBCCF6BF1153FD
5FE21709B3B5D010
453FBF2E0EC31640
F000918A1440B13A
EFFCFD9B9D533857
6FB4A6186652D131
0F2BCCF1EB2CC0A7
209B90F2E1B05620
3A69D31A7FE03130
63BC0821C7BA3C09
190A7262DBC018E8
807FB82F402CF513
AF24F975EE58FF50
A2313EFD6CDB8F2B
C48019939D69E804
080D7E32FA21001E
9374B1A0DC06E246
70A16821360F3073
FB70E00A7F307BD6
6E496B0A75509B79
00B7E7389D2ED777
3742989F9A0D7928
C121681041B48B47
BA78282756FC9122
97A3A30E9832ADC3
B28048BFE0B318F9
027EA0160F864F49
9B53F1FADBA798E0
08B761851039D7E9
D010487500138F66
183EE9B557421A2B
0E21D2AC09293320
158F0FBFCF125FD3
30D0792C4F473819
0FC17211FD12FFC0
8A0B7A1C212E1640
E22E000AB5007101
74FDBF28343AB182
4093408A29623FBA
00771B19ED209406
CFBF0D8864F18580
E020C07DC3F59B72
D8017210CC126B9C
29689DA4C1404914
8592AA5DB15241FD
8608D9FE8419B600
209DD86C7F0C721B
970027DFEBFB9065
93E66F39DB016ABE
ABF596F287705794
9BB23B8C4FC148B7
20A1D10AEFDD8464
CD229210AE809219
1132FB22082DE939
FF718C047FFD567B
C60582FAF7AFB9FA
B1738EC0919B0360
4E028A4C0B55A102
1E0F6CA8047FFAE9
80A0CCC90C8B9F48
99A6D0E2B7F65175
B0208AA59BF40800
89C06DCC98FF0FF6
00456FD37C20072A
C37733A40087BFEF
1F76EDB3D2137A00
8447B65E60EE922F
FCCF2B6E1CF7AF0D
BFF9EB2F444240B4
10EF0526732B39DC
F8E10C5C9DB74100
F5827B662FEF02BE
513AF15A57FF5107
64A8EC8780BBB322
D37714F25246F733
38818773346F982A
73CED01A10D4CE5B
815930FEE11B7477
397A0BC304491611
0264EC39F07F18D7
0973838D08D1009B
C083FFFD02324FED
7493FDEA3CFF3FFF
2F3A710B036F1BCD
363DE3D31336A30B
154384075AF69102
81AE0462F175FFFD
17B9188903F206AF
7D37EE781102A553
8192A0025482354D
1B758400158F96CF
24C4918B802F6980
6E30BA3384FECF7F
8E2C93763C80D477
80AFA0B87E41B13E
14ED1CD68FDD5509
D10BF64F3DBE545B
48CFC0E25F259E33
8CCEB25017AD17B4
12081CC8918C88FF
2A6EC08C0682F7FB
5FC26E088420C9AD
2F24F576A73EB76F
920F10F9DC72407A
00CC15B5C76EB189
E744110D5CE86B22
8FF94DDE3E8807FF
A080F7DBE3656E6C
1C2E5777548CF17D
BFCC6920A85835FF
3B20C163522C5267
F7C526EFFFFE6C73
BBC7CD50F0BEE8C6
446E13DF0A3ACECF
085BF5D871819678
B083D3F97DFF93AC
012030E2C2F6E723
3A65013B6A2EF18A
27AF9166FFD032A2
3E467F77AD584122
FFFF001D1111A1E9
0487BB184FDF2CCE
040435C737699820
D728E01870227DFE
A7688506FF764729
A39B8037EC466880
16C20BF792269EEF
20C7C1C978763BFB
6F30F8C9EEF49C94
AC8073971187D7EE
733E08B147731366
CC73B3823786CFEE
6F5C2142F98B15BF
ABE871C4A01CD776
3B8B7676EB814BC4
D1E261CDF10E6F30
E766EBF7D924CEFF
325E4774AC95E033
3C03CCE2DFDA6E3D
DFE30CEA76DA48FE
7E72ABF82F6CE117
44ACE42F97766580
334C431DD31E3B71
2FF7440082A6F641
CCAD9010FEFB5A06
3ECC2B0CB23B85F8
E782FE78B13EFDD0
FDF0142EC324F166
E328FF26E69A0AD9
2B027E30F756F77F
F48443FCBBF01EFF
09C6A38C338936FA
3FF3E740EF61A3E5
7FEF0EDEBD7BD002
7F762063A71C8374
F69A00F6C6E870BD
E67CD5A28BB232A8
005F294AC7727273
D54E1DCBBFD9F314
735CEDD459B1EFFB
F5B321026656F126
A81412CF0536C410
8F77B822D6208EC5
253872F78C41844C
0050DEEC6673D93B
31F7813F7EA223C5
FE39C80B5E812A81
76F810F52900E748
519FE3950880EFDF
F37CE43671AE50EA
096E1EEB1232F721
F2D53330A22C3EC7
19B5D580FF211320
12EBB00DB366F7C8
03E158FFCBD1EF32
FCC38B85402DEE8C
EF7D05FAB44EE441
B3FBEFF1E73B6FCB
B65C3374FF7622AC
F76CB14CDDC055E9
000B11273188EEB1
B7E101A5DB460886
7A6879DE8BD3F749
3DC6B7B89D96FFB9
EC984F5F9CCFDEF6
9E927F79F33AFA90
808B0B8C1410102B
2B77608920FC7502
FCC121CCB63AF23C
436976DAEE7A8FC6
6E4B9283E48B8980
2CAA608CCB10B78C
DF997C43FBBCD7A2
CED8B4E40C0A54B3
8F72D3BF84071FDC
22C3680CE104CF25
C2461657CA37C73F
9884F900C16ECBEF
A47FFAF701887CB7
D6F602B7B880FDD8
45B8B3B53A8CA905
7F7BCFE5BB7F88E8
8B7DE2F7835D9CD3
0B56F91D8B3AE716
F99F3252D565D53E
26FE83E0C536352B
91F9A02AEFA7C8B9
80FB7FAA8FE12D98
7F8863C3F6CDBFA0
9CF480885C8F337E
D9D3C49862F61898
3F11BFFCCC4D7385
6546B2F593DEBF66
3BDC7DE7E481F6A4
FEE810A28989C170
7C297FFF90CF6FB9
7D3F3080DFBE84FA
F39830C153C56A4D
3C605BEBEED4B3AB
6429337EFD4459FF
BDFFEB0136EE403C
7AB53F9C4FA41CDF
971F4D89CC4A3004
37F2C1359A84EFEF
A33460165C6E91FD
78D79903C0947697
309829B2F6CFEC88
8C8C467EF05B3D64
410840308EFF45C1
DA37B9D753B364F2
7745394F909F88AD
F27E84B144B8F4FE
43EF781C7DA2F991
EDD7D22662FECDF3
D90182DA957F6E80
E6F35235E6B7CF7F
40FE7E88B91CDDFD
915FC5FEB0C0D8C8
C5FFB2C142F3F180
D740B19A2CF76B05
E86FC212A666CCBA
94679AECB393D29C
C3BCCA3ECC75D4CA
2367A180FDC82315
FA7D6FF698B836B9
6B3CC7003EBE8868
F8B3D81CB6D6FF37
83B4E775988BBDF3
4284E1EEFA663DF7
BEEAD5DF6CC4CBBF
B554B3C24AE6BDF2
83B879738F1E9100
DBD1D7ED001CCB56
079B7BC7DDFC1EFF
F5FCC880FCF711B9
4EEFE63EC1A080C8
065E720ADDFE9294
B538FB919F2116FF
6071EBEC78075FA5
3FFD150362098390
C0F79AE3F233C0A1
080CC670D1A747BE
733A371AAF1E33DF
CF4096FA1014EF8F
FC5115A1E030066F
6F62A3D28AF8A7C6
4CE86DFE828FE74C
732C992FFC6846EB
0E775780710186AF
264D764535306C58
7A19B625E68E96D1
73732C9DFFDF3F61
EDBDCFE702B35700
30263F8CD9A35B57
EDD9B3F730FF0888
8ABBD94FDF8A0223
767E9592A263278C
BF507022A6F84EED
8FBB1325DF80CDBD
1287581C0225CA2C
0177FB046F3157C0
CD17718B12743FB6
56EDFEEA812B1379
7E3BE81F054479C5
F81D77789AD73D5F
232EBBFF5D3C74DE
EEAC5D8320FC27E3
A511CA498D216EAF
327716309ADC21DE
EE9FA919C5E55614
12DD3DA6C89BC812
1E6D10459E57D382
9D060C73A428FB99
80A30DEFBB16EF47
627A5423CFE2B179
FE384A51650544B4
733B76373B594CFF
BFFE6E3922C07B16
C0FFCF6517779634
33861F0B43E7BCCE
2AA51D801F7EBE18
2AD165007FE67FFC
CFC132BFA0703E33
95FA1B59379FEE98
0ABD2D3BA5279375
B7369C382C8E71BF
308C35017FA62FC8
36E030061A820D87
7ACAC1D6FE8871F3
82F5052F273F0E89
13EF7EA95DC0F615
8F14E3FE7000AEEA
9F308F0973F964F2
C09F0CCE0D3BAA7C
C7049301FFA5C565
DFF96416F3AFCF9F
F03BE7C2113FEE89
3B19542BE73BBE15
BFF80A37A7B2E900
C2350123071B0900
ECEFE5B7AB6F8283
E57120384C416767
9AE70017B7EB4DFF
A1DFFFBF6DA8A6AF
2DBE2101DE46394D
EEEE8736213F4B4C
D422F040A9EEE00F
681E010389DD5306
919F5B42964728B4
A233BC39E948CC07
9B43C09E07CE9AD6
E202116B2CFF5EF5
57E97817998E6401
5978466F38EE70FE
B7530EB9D6392467
3D032A040B2F66FF
4C20F45DD14C4435
11EB41EFF9B367B6
0393F57B762AF6AF
E84038403574F9CD
A9224D2036069457
D9CE198098574C0B
99436F510030C1D6
DC6DF4ACDCB6D25D
B6A2232A9CAD7B82
33D9040BAAFFB04F
9A319982599DEAC0
13170920F4E2170A
BAA809B4CD075989
4538000F0456F98B
9C3EB89E0E027731
7B27B8BFF6FC7B91
8CF6459BFBE90313
7DEA782F5D7A7365
46AB9CC0133E9CA2
9806DA083976413E
0C459B09DF8A0EF0
08C65B0BFDB198BB
E67574F231FC9A4B
9F00003D4B607223
398710B1B9824B3D
786D800F92096968
EAED18E73B03D6E5
F9254EC3BF5B4D44
BDF9D26F55EB8059
8189F04C8C29C746
809747E6AE8A4255
82C07196D0AB1F79
BFA2C5DD33E778F0
B33F14A9031036BF
89F1E949BACB0089
A85FF7BBEDFD3319
19C4F787A239025D
6EC67D6080AF212E
818007D683D42F00
006BA62E2F8E2014
EFDF0DC6581F3282
EE831A2FEBA5ED6F
C14E700F2EBA3017
012EC88C51D51E80
E266280FFD519FAA
222C410E6B618EC3
8A23CCD71A2C1475
B447780B6B45556F
E67C40C56A768B8A
36F51CCE8C024AAA
26111E29CC43CE6C
37AD1DD1634EE233
F83B27B362E00806
8B31488225B15FE8
207E0A60D5347EB9
664F6031C22F4666
808D1C56817B110C
EF13C3DDBB302F12
114DECCF80A20821
7042139A5C578029
2EC0240F5A282FCD
08350881603D76F5
E813B8E31DF767B2
6846CEE12F264500
8C503FDE73EC7598
1C6AB706FE171158
AEBF86D52803EE01
840F007D889C7810
BA6F2127056F456F
7EE56B6E48C0C264
2EA63E07C4BA808E
51DEA31D04012005
6E65C7C5A0004CB0
F0EE33500FEB6265
B1402500C765E4FE
92B8F9FE20F73608
F6D40211B9000FE8
0421920F4BF15410
775EF4188C941CE1
2B1801457A264483
81A36F6D8FFDEA2F
FC916217E005047B
800EFE960E0F1C86
ED02F66B278E1D32
4180A08F0A510408
3040FFC53471AF97
C4AD4F6186B24DE3
25750130ED0380A5
240674897E63027E
263603E1A6B74064
111AE0A7DEA3D14A
05A08E7A24564EF7
8DF7471520A122E1
3C0B00E76A1B0165
D750C40B807FD280
407EDECCF71D0899
206E1136FFCA0DF4
600220EE0AF2A800
5377B5BB1FC28633
57B368C20104662A
8179B40860903B58
300CC516C0FDE812
EE82EB06EF751124
A05E1088C24C0288
FE74BE6614AC9E14
5EE9C591F6599B88
D6A21B04820D4CDE
090F6FEF541026EC
CDEE1F7F5C6928A4
2254120A0ED1F280
E8F80209076CC531
A77938A787A1CD00
91B5730AF96E3E82
208043AEFF54FEEE
23404C84D7EB3185
04738B060BB440DE
737FF1C0888D9429
A727BFF099F114E1
E798B8FFB0636EEC
80EE7A9500B506F0
BDB0E9728F6F2377
30E9CF449200DE9E
0037F2405BA9532B
DADAD8982FC9CED0
77B944078AAEF88C
D7E2BF3855FF6E47
B6E4C39C93843F56
F767078053C2BDFB
A7F45BFBFFEAFB2D
DBF3B1B5132CACB1
90A677C71D121D88
F11AAC6EA5A8E770
DB040EEC0088C3BD
117C6C85835F7BFC
5FD2E7EFB97B08C3
73482FDBEEDB1D04
77C4436D3714C6B7
F45F88F968661728
613351C6019D88A4
7C7C21B8CEC5101D
955DCDF233289006
1111AA814C65F262
B6491DD6665EF17D
F6CFB8C013187BCE
001711010E56B324
793156CC36FAEDD4
DBBE0162D7348EFC
173D3714808BA70E
3EFC99EFCCE995BA
710B827027CE7175
CEC6C1901E17F7CC
654DB357F64EBEC3
B82B5D80D19295F6
8ABFD137D102F5CC
E32D34B3BB7BEB78
92561113BE360A77
53AFFB309CE91782
11CEF68526C3E530
FB369FDE4B053FEE
59BF012EE27D7B48
26E1E07ABEF6E59C
EE458EA01B2FDB2F
1BA91137AF4B18DD
6C6FDE76C0E8FF7A
722E064DDFAF0EF5
67D476BF1F808D23
1832EFDA4C07E89D
BAB746EB7FB16FFF
8B3496CEEC5527D8
BB5256B3515B1595
3A0EF76FB79C4C47
A2EE11E9FD7E6453
F7C8EA3D7C4E3BF0
35CB54F2D80857EC
6C658459620DF48E
8488A41E002F9BBB
2F2008FF8D68A977
9E2385C26F92D994
8E803F3C039FAE0F
C1DF40A200A3FFED
8F4073181007FBD0
18BBDD1F3B4FF88F
7FD2719182D30097
70766B4617185355
6E67788CF9CFF01D
5CB78C4B5411DF01
7D9D0B7C3A0C76C4
A8DD651D01EBE8BD
3B8EE8C7D0CB5D28
8D163EE307EC4FD3
6ED1D5DC68A04E9F
20777516793B47DC
DD704281ED1E40FE
C18691F252568C57
6A48389FF37C47D1
A40CF0661367CD80
48ABFCCAD477D591
207375C6F07D3090
710BD097EF74BB51
EC16FB22D271FCC4
943A00266D86DFAD
ED20CF6C709B0F41
35DB752F4C997C91
DBF2B352742D452B
0028F0FB657C60F8
ECC60073E87E0431
1EF337C586CDCB9D
DDE8628922B07785
D19F748DF5026F45
C9E87EF08575D1C8
9C607ECC69105E0E
C366F8F124FA188C
F61177B89807B10E
0FF0E6B96E8276E2
D9BFB033B9EA4A37
F5DE74058405C60B
75CFCC884830D199
8A2501FFFDE7F5B7
F911ED506374E3DE
F0BC4CCE2DAC990F
67509D853FD2293F
8320C4B76EA218AA
D10DED07D8C47D15
BAFF2651A778694C
6E33472F47C46EE7
0FD5BF3EB1059540
B783F49F402A716C
F09F68135FB07135
E167A2416BF0B399
789CF3551066794C
7FE904ED92F5586F
D49708F11CBCA06A
0C22F42D08BFB739
A16A52442EC5F41E
F0810836E5C70877
E40055773136001B
D832981345923BD4
C10689F638E44A84
AD37F98FFAE612A9
518E2E000043E7DF
B698C4417FBC0008
CBA6360CEEFE7401
37C85401F9D54C20
3303E23DF92550D5
B00F50C427375F4B
C3F719E3331F8E34
9156DBBD1272AF64
3E601A0D892A55FB
AB89BBA6277FD80C
F08191347DFE377C
F32052057EFD08D3
02077A0517907300
600A453BD27B6298
8BDB79803FD6B705
96E2EDF8D1B3D7EE
710E55FC0F248012
68026EFFB806ADB7
CBB89135C6DE34C1
42EFC7F0EC9722E9
4CC60DD45A116214
914D0F625DDAB2A8
D0AFFDF6D811FF52
4FE2BFC609EA5001
980C6FCCE3499115
B8051E78249F9AFA
6FF8DFEB860CAEEB
EC43D777C1CCD812
9395EF4C581667FF
37D51090F14CC840
52D1FDCCCB9DFAC4
EFB97EF648D6D650
D8037388660F91AD
64C0D8371CDC8025
526427BC400A6ACF
8900D537E0DB8F39
BAEF4BB0EFBB2BB6
C5F7950509B90080
FCEF0AE0F281F807
718EF39E18AB4E13
09D8CD14A6FBB9D5
7EFC9844B880BB22
7FBB89ABF939CED1
B311A30CC0C09823
C77AC96000940347
F688B2EFF4E65D8A
A12FC4B2540BC209
F1342A00C492010A
F06D3758C10DD032
C40B03800EE21DAA
77243AE77FCFA128
CB40007F9E5A1F62
3E184B7181257E14
FAE6DFEC227F1BDE
8012BF4C8A20156D
A892FA5018F4550A
DD280140E3FB7281
02627EFEA3A43F18
FDECC0E270404737
2EF3E373DA0A47C2
A98697764F1DEA6A
67105E2C06016894
05F63378F10457FB
D33A804960D6F489
97BAFEFCFF7765F2
1B59DEE197B9EEF4
567C0EC9DFBFDB10
0C01AEF23C1B9FC8
59900001C8094880
EE7024149F9349C9
0A1014C31D5C802A
2F788134C1151897
282B62CC5DD059AB
EF4C402948C2E1C0
18FF238D84E4EA01
40034EB99E199EC8
733AB31752DB7610
7CDF7774D04D57FA
8BB7FAB6AF579BD0
B88FC7516E30D81A
A77C33700B67B77C
FDE8A0B0B8CF0888
350EC8F58A0BD57E
3179F00640635D93
FFEFEFAECF0913BB
401111398FA65FF1
0E53333B2CF329E9
920CA511FB027F7D
EFB0CCF41560FCED
986F106C4BFDE600
C370F6FD68808DAE
C0BB1F6500077F1F
27F8252671154E66
E8CE6F596EC5E6BF
100C733B5CCF0A3B
3EE78B65D76234C2
5D68BC93ADF179C4
011E130E943A0CDD
6C8F550FFEFF7FDD
4EC0540C6BF7EFF2
1732C2307FF6E174
FCBE6DFAF8C1DF5B
1500DB6CA238847D
E1155B91C331006F
5BEB1FEA77CC7F4E
F98D881F02892D11
E91560F72061FFF7
7C01FAF1177C7E95
6EA43728F2FF09FE
FEFBBD18137B2113
FF3076D1F5A5FF4A
45011C500CCD7419
1C88B1C8FE7081FC
BE7ED3A3E805536F
DF5DAFDD3ED9DFC0
DEE7090A206531CC
D8157100FF5AD9FC
8C10AC7C8F80BBFF
D1116328DBFE0960
3AC34B21DF5B19EC
E187013CDDE9C9EB
614B01181BD3F9FB
9829F9FE82387F0D
21B07C6649CABE20
0076FEB16F820131
1B739CC3A3FF1547
EFDFFB73F73A9D50
0D945D0A0DF03FB0
5337CBCC7C00200A
F76872810AF28EEF
EEFDBCC4C01224E1
8A40E3337D558242
276D5D9B7A95E7B6
A4E093A9E7970AF7
2A88E227B282379D
8BEC022BDC1C2253
CF8C44725F22267E
40817540693F46AA
B22E2E0A3B2AA027
3E169D99D942E65C
6B04D51198AFFEEB
C66D900340832B7E
B9ED4C7AF878CEF9
91920A2004DA268E
802A8AEC32134222
CC8BF50B0A894E08
A8E76FDD51919464
AE6D81EE8B7FE33A
6602BA9DA44A428B
B1300132AF61AEEC
F7A367632A003708
6314038A501FF3B4
BFDF9CED2D28A003
BAE4BB0102EFAA40
99208CA9EA2BA55D
E6356EBD8101FB39
0A0FDF654DCC231C
F9BAAEF3080B2728
23BFD7BB1C81F519
2187D19CDE493624
A42344DE38E77668
1B61D633CCE43211
6F90A92BDB246FEC
1D8F9B943CFF1107
6D18BDF23B27CDDE
771C60692D81FBAF
CFF8F612D62D390C
82FB9DFB096FC9FD
088C4274E61908C9
100E7300E66824A3
66082C2802B66FDF
863FC066DFF3F739
7FD9FB83054E6784
23602500530C3A14
3AC72AEC004EA68F
EA82FCEB00EAEE33
B105349D5C8F2A89
60DA3548EB05AE68
D08008CE1522288C
158477B140858785
666F40899A104009
DF910D88C088B1E6
033188173F0331DF
F7AC6E001BFF62EA
114E2132D4DAAA1C
CF2111062753B848
A890A91C4D1A0BE2
97BB04C0CBA12F60
100BE6CDB5803098
ADFE05CE2F6933A0
00DD0847C7BD3110
35061F7377F8E991
9B214BF4A2B27C00
6F6E3F32101222EF
FEFF9D17D2D314F1
86609AA2D814E5BF
7F81000BF3CF51B9
74CDB2C88A6350E4
16FA04581B80FD30
00A800B0D6ED7FDD
EFED309F3FE33BB7
D6EA508769B117CD
06782DAA116F9B00
609359EB3336766C
23B67F05BE38BCC5
677F20244CC107FE
3976017ED11024F4
FD929EF6FEFA5819
9130A8DDF707D7E9
8133EE052DAA4509
67C57FEFDD17CCC5
B79EBD04A8FD1B74
E50212ADB41F9F22
A1231563B267FFF5
F6EF400227A09900
D88F0C4422C0BB8C
4772BF5D227CF0AB
A2FF2F6BE7470900
099F85CF06B9700E
6C2DDC05B8410237
ACAD764F1A6B5990
C612B27692A06661
A32FDFBB17AFD09C
615EB214F401CD9E
4837CC5CBDF9766F
DAEDE78F5AF87A9A
5FF620D3DBA6DF79
EED84C69CF67F7E4
3C3398D0991E55C9
CE8FA4DBBD8577D6
8D347C5202B722BC
90C9FE539F75B77D
59B03BA3F7DE40C4
3232AAFFE3F7ADCF
DF79DCC60082EFFE
0CFCFAFBE97010F4
7FC267A297EDE08F
AAD010F280D4C811
DB938DF96EEDEFF7
D543B4129E7B1031
60C646F47FD21642
DF9B7F36FD0020EB
08EE09901D318C16
2464C90A356EF7BF
0CE1600430B2C06F
9690643F964CA3CC
3DBB1466372F99E7
4ACEFA90315B7612
CD2AE37E8E91A26C
FCDBF3D623803913
A011DBBC89200270
6ED1DF6BF3E0E764
417E25C4B034B5A6
9FEF80DBFD3FDF99
B1CF8C8BEAEAE881
4E663EEEC570AB00
20013064778874CC
73E684653AF9037F
27EC279FFD027010
E8FF9EEE0035D403
1105FFFFF7713EDE
F96277BE774158C0
5D44E19776580008
FB6BCD59002D0012
2AEFF60CF5FDCE89
526B7083C8C65114
4C27B02383977FC1
DF123FDDDD229016
9C39B13119AB4190
289FFD29C0037FFF
79F1DAF6F7E491F6
DE2B198A4CE3E532
11D41D337CFE9911
5E0896B418045788
31AB6EB96F65ECBA
4C5F44CE5765BF7D
79FB204F3B3BF999
4E53C711DCF71573
571AB97E0955BF76
BFFFD9EEB16CDF38
FDB9F053051308F5
5EFFD403D06FF17B
8284230F20802BD1
FF921D77998E9CDD
FBA31E66E8770FEA
70FE0B98CD77FFFF
FF6C11FF088A2FFF
88F152E9D8B40FF1
F9800C9EE84C0009
EF88EFF4519A7FEF
E9E6DFF0F6193FF4
00C4F6C1587F0722
C7F47EB22BAA09BC
D1156885626ED389
0028566DBC7EF597
58F26FFC2D6FFFFF
818D3E8488F1C06F
ACCC0542F7FFD000
B30C3846FF7DE977
880098BAF486C989
8730CFFF29E8A484
7F4C0C43A04AB667
617165FF20349939
1BFFEC30ECFE8985
A8FDFE7783F58CF2
DEBF4811791710FF
37A31106E1842190
9999FFFF07018053
7900FB96E70EF305
0596211130F6399C
8812BF48B80B77FC
BFE5AE71FFDA17F4
223909B5926BA1A3
71FB802011A2BB38
00641BC4CFF48E0B
23B5083FF8D55FEF
FCF75D7C079988DD
EFFF37F6FFFF08C4
D01C430137FE6140
01BA19FC44FAAD6E
ED983FD924E1FFEB
3F69EF4DBF729212
27FF331BFB4E2311
BC6E77EF0FFFA712
88053FE87F7E9B8D
31F6773673B61F83
60A0A11F179B8000
F7FAA76197241A13
586F918B8FFD6C80
F38EF126C0A0D900
1AF7F18D0DA36705
5F0A82EBFDC9D802
948040A1F4CF74BB
21C36F3970CBBF77
2FFFFFFCEFF083F7
48EB0887F3C2F77D
3B1BB321158C8F8C
2CF9030F0881F5D0
2086C08C3EFB7076
0C6021840F71EE7C
ACB9A091FF3B9808
4B33817CDED495E7
2D273BBEA7D0EEEF
FB473F72D7EAC0AF
F280EC4CC52C28EB
AA77A7E651DEF0E0
FEE037B301005FFA
9AB2BB371904F891
DF63DD41A1C3FFEE
F7FF6082FDF1177F
F7FC5D0FC08823FE
FDFC256BD0CFAF71
6977E4C4AA7BD885
3CA0FFF90122FDFF
E467FF0C00CD7F63
30FEFED01CBBB343
7F2F67266FE235F4
110E2C59FE93D909
ACFE7171063F206C
F1A324ABFE7A16EF
9DF617821970038F
9FB188BE3F7F1168
98080E0EF77BF334
1B00888CFE6E0009
6F71A75D316BAEEB
390FAF5EFF33A4F9
E33163FFC0748B21
17D17C90F3DEE108
98C80DEFF5FD0051
07E5030F815F1D77
F3657745C8C5E81E
98DEFFF803A1B80A
4809AF6B0246B9A0
338AB87028E039F0
9019BF486987730D
F6F00E09FE6C56FF
97C8C3EFD45B526B
017B172B9222E97D
8863884AAFF7FBF4
A1AF111CFCC4F7DF
F1FF7FBF06AF0683
77FF77FB977F8006
D85C7F70D879FF54
C9911B0810E60441
1733DDB532192373
008C4AC4267E503D
791306FF00FD5EB7
23D8EC007B4C1D6B
FA777FC251075598
B1AC08AE448E50BD
BB4DFBE128807C07
9666FE4E97F00070
B2420977712CCD9C
8803472AA37850B1
4D8B900125D9FFCA
F7727B1D463EC017
FD477C7409D929C6
220B5589C6290C98
13A319D0173E9066
BA77FAA83816F1F7
01CAF5D0E01BC02B
F3D2367049307946
CC3B734E719896B1
EF9C3EE6931D2298
1DD4B5148D163414
995FD74E3CD2092E
41848D8D49C5EFD9
CFDD9BA0A4616BFE
7D57331B48A56102
3726C643300706BF
A7AB903BB24A2631
F28CCEC294D075DD
D4FFA2B06005C86C
CC5D8A99C7006100
76F53200A01857D1
B0005E98C5E2C230
CC1FF1DEF70E014C
70A18005BC170408
C20316DAF0AD3101
FBB96EAEB0177906
4FD1171E4159FBB7
4CCA30170159788C
7BFF079D244A83A5
51A8BB4E8A5DC813
015EC401A27E9CEA
07A0455368ABFC61
36369ED1233DEC69
81396705F0975062
D50427CE1CE73781
F282188844ACE08E
009F06B3071610D9
19E6623D4D95CAA4
FE26C066B22F582F
6ABFFF334F6EBEA8
F676811F04D8337A
D1C46FBA63ECEE3B
3A425E0271596F65
EA71EFFF676E0A9C
70056B3D916E8492
009A4FF6AFAA80A8
94255A99864E8241
E606E6F803715190
DD52B3ED461FDE80
E6D261809A0B095E
03B1C1322F60CC93
C5001BC250817118
233DCA82C88E9BEB
82EA1480E875753F
5F807213D7844B82
AA1A68F2EADE1018
9081F7E610AEFEFF
FF4E50114D6003D0
FEF77B2204E60A28
1AFE28C0B10C97DF
BF774730A8F11DFF
22CCFCFFAF6A97EA
D0C018A503EF2F2E
15F2AF58AA33FEFE
310A814578C1D19F
AFC4DC1267EEFE27
3446CEE09D003EEE
97F0929B2D8DA001
96C9ED9870CB641E
03ED3334700F574E
58EB76015088EEEC
87FFD811F6FA232D
8ECE07B6F1202BC8
0F429E61BB106CEF
C2F8D0329EFF3EF6
BAFC6ECE5140C4CC
E1846BA87E6EE6DD
64805B6F96326C46
08CCBBB9BEFB7E6B
4400E7629E30F3F7
DC62C064B7FFF710
2E58E1C8A86AC2F0
5B5ED1D206E0BDDE
CA03DCEEAD280000
5EB988044F617E20
D8C0351029ECD1F1
04EE43D80162FFEF
3E7F90403F27E900
2119636F3B410008
F367392A8408D8C5
4599B79FC63B4003
3EF8DAEC1E32ABF3
62FF04197DC06B02
6EEF80F3E8049B10
FECF028D11370F6A
9CFB37F0C8807EFF
427EEA60DACF70AC
87FFCFF07F0377FC
806D014CFB063F31
8021E7FD7F2157CC
9247980088560677
95CDE3EFD3002EFE
11D0412445ABEF4B
4084AA540AB8E600
9B197663737E75CF
6208F510FFD70EA8
F6EB8EFEC17FE760
63AB71AAF6278442
A6EED9FF9F784091
05B03BDE8864E109
BA0CAB058D02C613
0C54BE03F6FDCC26
7CFA3041684FF104
D40AF2C893B3C9CF
FB00C90D6978D76F
B200E11CB42027B8
1378767E2B018396
BE683A3BEE09406D
A5A40009CAFF9034
F6E099CE61D7A2C0
02F055EDB68844A0
53939137DD6FB9AE
6BDE6354EAFFE9F7
7F6009EDD46C3743
DF670318EEBA9F97
7C08A9D11FFEC08E
C254FF4BC2748390
29BE0BB017162B16
0AA1BDA1637215BE
9F6880F933225C32
3D6E0DAE88F91714
A99BFDFB13B2AC01
DEC8A447F0CBFC2A
07BB3F49802D8CCA
FFA9C31BD68854FB
95B669D69021B52B
EDEADF98075A3F20
13539F2F44B0182C
06CCDD9637E86AC4
FAEEC714154AE466
A54EBF73533C0116
BDE27BB187A9A3BF
718FC4D9DDB2C35D
DC2923B2A53809FE
9311DEFF8F471411
9F41B0FD5F23A291
331D1152DEB304F8
08843BA85471188A
C7B62CCECF50EE67
966D638C531C022D
62B8837E2EC55918
8CC6E6F877B94F32
1C4370F2DBBAFE31
22A52700F6790276
C300734A26B17B07
039F4726DD9A29F0
18C936688FDBC7F3
C57681E7FFCE6DDA
C3185FB4822D27B1
5BD7156AED7BD7A8
C898C142EFDBE9BA
41FCA69FCD4373DA
C1144776BDCB0314
846322B5335BEFFD
EF91DCEFA85E618C
1B38A5749911CAF8
9996642FDCFA5263
8DE325DCA1FA2FFC
0D1DDEABF3A080F4
CB63FF763F31F550
C2961B7602EFA331
D116EED80E3BFF0D
5724D79610E27674
3F2251DC79043EE6
AFE35F856C084102
06C93FE6802E0017
7A99BF2E7555B954
750DA3EF932D88D9
D703E7DC8F4B7FB9
DC94F2C70C000638
BCB17BF70107429A
EFA3F7B6182569E4
10F14CD8FBBD591E
0E9ED51DFF743412
65AEB9137DC0DFFE
6715DB8C9B6A6050
22758180F11F9110
E0BFD5CFBAE6BB36
08191FD0D88E3400
77A3E288E17F78C7
3010106CB0A1BC28
EFC8D266A009A7EC
FFFF874B963408CC
79ECCFC0A199F7C4
50C80045F43E6EE6
EC702E3FA540F9F5
362E0DED8FF724D3
EB6B32E2F596A9DD
F42A7F4B04881FA0
B5A1C5B17F69CBA7
37460089BB8EB31F
D975219A8D7EAD8E
C9716CE3E75CECEF
FF2E901CE6CE33FE
A658C9F222E8EEBD
EA1937DDA3C3D85F
C6269160874C7BEE
2D6FB48EF6F1DC43
DDDAA7D51B34BF8E
537DF87722392073
A723E8378202F91F
D76385B34DA89D8E
717F2BAF8AE5227E
9D8DCD6169FFF9A1
7521C845E1E4EEA5
762F42D11C64BBFE
E33829AFE1EAFB97
87BF13A4E8B26A86
AEEE9D7FDED943BD
D78A493891678100
E1FFBD8E5017F86C
76AC822AEA8835BF
70F10CC2773B6700
9D7F72260D9D45F0
DEFBC82FF146BDCF
2AEF466E1D4FCE04
1A477A5B4A2FFC54
6DAF8DA0BB3D5413
181A35C2E7648230
844371FFED5AE5BC
03195C4A280766C8
646A224BB1AD5419
3354FFF09C99753F
4CDD01EB35A21855
22EC880A537C60F5
ECEDBD123D88B47A
ABEEE0277A08028F
7E5654398F57F8ED
B13989C4BF52FFCF
DF30AE9A38EE7C35
1D1C27DEFB5B7BAC
FB1E050EE9A1EB68
556DBFB731FE5231
77AA0D5851FEC102
8050F77272D7FDCF
F7D5200A0F9BA083
4F2C39E7B8108900
D1B4ABF6583AF351
7EEBFE13CE2DA542
B7FCEFE7989FBB08
90C49834082B6EEE
FE36F5524C87A0FC
3E8FADC37D4C88BA
8E769C3014348893
92DC194D372DD4DB
28A79089F0328855
4E3FFC01C5E9FF80
D967C072D66A08F4
183B983482D1C9DC
F01368CD344A7777
DC52F276CF74116E
24805CDEF870F0BB
A5408102E569801F
06269221E05A76E8
44F8A1663FD75C57
B0659C93CD67C72E
A644AAEA004CFAEA
FB41C82A7CC781F7
438E34C97C22BB83
ACFD5F18CDD3161C
6CF205A0367D0CFD
B5F1E475C9B3EFE8
C501DD8280C4CBB9
91671D2217F9088C
A3E4394475BFC6C3
0C4640C4337FE5F4
88C86B4ED0CACFF2
85FB7E2112D2FFD4
7B869A7F894CA9F5
B5DBFF87D4B8FEF1
6D4782E44C087828
F493766BB9BAD62C
2ED9F78234ED4D82
D127DFD910153CC4
7F474685F8A844A5
CDD49914A0C14EBF
89FF7EAD9011D43F
60C1F623F9F2002C
2AF373DF8E05C52F
70AC1D410C68C4CC
A0303C920C68FF67
94CD4D5E60A82D96
0D1949CF40212CE2
4C946A6253CDD85C
FFAF8C6A9077687E
5D7845DF138798EF
FBE09B15C7D5FF9D
C7FB84F6382AA9F8
9811EF972446FDCF
AFE03041AB92C89A
08721AFC6046D62C
DFC63A03B3101DC9
F209B6187231EDE6
51167A64CF911436
826CCE1AF6E2AE00
4844808ED44BFBC6
C0D732A0564E1A1F
C1FF7AA2F3B54D1C
F1BDB93A9E604E54
F05DFECC10F03B3C
5C4C6CA0434227EF
7F9E6E32F66877E0
7453684459413308
1B7377EA000C5111
888D994B1946BFB4
D015BA22AFF10632
184788D6302686F4
EBEE0BED9D5C7A82
BF1A543818508909
2E638180F0EC9629
1FF7706046A6CFF3
699871DD191608FD
182413D5C307C37B
B5F2F7B195A2123E
F5081E3226DEC1DE
EF38C62E51B264A1
E570D90FAFF92008
6389211B92EA16E6
E0F618D05FA1F808
0890078CA776B5FE
02D274C4DC9538AE
FC19BB10867F57BE
2E943237A8F0AE50
3E214A0AB1DA5368
97FA1D7692FF4DAC
8C5F24EECBE3A377
AFE4B21A90697E97
2198AF73183F684E
732EBB979D548ECC
FD974618CEBAB1F6
B15973B6FF1D1337
1F934D71363C7104
B8DEDDE8C9D4354C
12602332844C3EEF
81178CA0A060705C
B0541AE2E45BEEE2
8EFF2429066A8090
B09954C598610AC2
11D939F753A4F8D3
A4B9026B8BFB8815
5BFF2868B806DE9E
2AAD49574759208E
A8D3A20007604BB1
9A3383216EFF8CFE
16863E9C6020CDBC
89E43DEE89C93CF1
1208B79881D0AA6B
866BB0AB98EF38EE
085091EF1A7293A4
A874ECC1618D5329
B77FD3FE89AD5684
23384BD2C145A895
9341B90AD8EAB186
18DF305E818E48FE
E30C082F671E8A33
7E350BB39FF69ED9
F290EFD9906F0CFF
91C038E3AFD93CF2
556928F58EB28FF8
1A1BBC4C42A2FEF7
7AF1CEFFE42880D6
6D77BD5B81AD19DE
C962567C1EBD8DF7
D5C89A6218F8963E
877F2C81445C88A7
E0316CE9577747F2
F20B5EE1873FBC49
0CCC65EF60BFD507
BCEE0441C5136C49
039CE36035CE65EB
010DC50541B3F51C
8F64236236FB95B5
F1E080F70BAC0E3D
CD66032853BF6005
9EEAEE0724EDD004
E3B1081DDE776217
641130300400AD0C
B6FA713B410C0257
26B31AA303732105
E90509125AB86716
3E1DA6EC307780D9
2F236745C0B23901
0113DE7F20E79FD6
C35738763BB549BE
F7B8135AE743D42E
98FB13633E827863
809B3F96754577EE
B49EC06293308175
68B6344331D5E577
80C47AEF418A3205
87FD9CDBAA625EEF
E7C0020010051317
06E7371620088331
A100BB514E0EEF9F
3090FDB73E4421D1
0DC661BC14CB8023
041B24042041996C
B1211028D4FC8441
380E0FA139BE1CF5
A5ED26913275B566
0CBB23B5BFFFDC41
028F90E63A8123FD
FF29A23DE0C4C4E7
35253C078F9AF793
FC0910EC77372483
74194F87CCB3FC1D
C73290EE0C08D757
557B21E0D28FD0A3
F820D13850070FEA
726F15E2F52EA330
97DC53017270984F
FD72750059279846
861A6ECF472CD4E7
9299E07046F60547
5F2522530AD904C0
02EC6DB8FB2165FE
BB234C94F0F932AA
96F876AF614C1933
9C4B2539DD1FDF67
B0BE53B46B170402
9C313B38CC16701D
77CB123C01D5BD29
548D71FD06DC10C0
274C9164C54E7022
D43B00B30D20FCDF
92E29191E799E55C
A2EE3FF1566A913D
0FD3808C7042D909
3F2A234DD36B7E01
97A28080B20857DB
7811F37E3AFAE6B7
8FB8620B08DA33EE
FFBB27F856DB02D4
DEE5FC9674179EC6
19AFBBACF9CD048F
7FD4E3777315DE32
E16220AFAF629668
7AE8DB2DB308DFE4
62F7E942CE7FE189
97A83200F633BA5C
825FE1FC3BEF1E2F
6662842801BB701B
10BE06D67C778947
D1F639EEE49E6CBC
94BC1F1F6C3DE9DD
5BE9E7D855CC3BD6
F36E2E6364F6F22A
D8FB5A96B7EE2DF4
CDDD667FFF781DE7
E9114637D5094DAE
A366011FD7089DE1
3D6BDBBAB72667C3
1AFC18A799776467
9C4F77873A8C124C
4C80BDCFFEBB9B22
63EEAD9419EF6313
47C291F70F0DD23E
788EDBB32EDC6CCE
1E899210F9BA6766
86720F01EEED1FFE
4CD3F83E8F6CFE0C
33A8B9A71EAE2DDD
4DE0BCF88D4808D5
D6F7B7C91098F148
1EEC67CEEF3210F3
7778883C199CBDF5
BECC82EC15C841E5
F29FE88F1204EF0C
0ADA08E965EC9D57
057AC1646C9547FD
EB5ED9F7EB083CEF
17216BBD1CCFBAE8
7568045C3A64FF26
0CEE0B70665B6686
8FFA3390E93F2EF2
938C71EEC101D1DC
FF95106E4D051B46
19A6ACCAB7BFFFB5
6F5FF35BCFF7F7EF
00F717EEBE2ED21D
EB3943FACCC067EB
03CCFFFE31A49977
A372E67AFE7368C4
0F8F9DE85B1C1327
916683FE3344CA63
EB0C109CB6FDFFEB
80DF22CF469EEA82
FFFBAF8DCF28B0C8
E0A05FD0E6BA5047
BC81F771619C608C
ABB7F67F14FE9C78
F52FF398F93AA1ED
E23F1CDF40DE11EE
997A06E5C485927E
0A09452CAB1A2314
DFAFCD931DF6B19A
CC9A6AF287FAC7E6
31FE010C694DBF6F
DFF7023337388E6E
FFD59897B6F6D51D
7D9F6A80CFF5E29A
7D985BFEFFB1091E
C1907E31EDEE7F08
F32A74A2F6E6C038
ACD64B48CDD90001
11006EFA5C6F9984
D850FB7CFEDB0304
758ACDDD4165D396
2A81133DC54900DF
A0010DD8B16D0008
A0DEA7F708501408
51B76F335EE67EFF
BBBC118546E39314
D004E204FDB5F848
903B113658CCF998
82A15DB9E5FAFF8A
101C8B21FEFA1084
EDDCCEF3D1147B3E
F4CFCFF6E506D375
0101011046778517
D08D00DA45219EAA
1638ECA18E08C838
8894FC5EEF9EF122
5DF63670FFE60008
108F278FD290F108
85849188CBB72D50
1052F7E3FF90D800
868FA000DC405C95
FE329A6A67E6324F
1B777F0C1C1A36F1
FFFD3558452256B2
02B4E880773C9E32
CF02074F887F8CAB
11CD1D809066000F
5701A7D69A4E8088
71BA5D97A8C419F6
A428A005FF980300
9156867775012F74
C4558989A01BF23F
F6802942FB01585C
4291CC7C9BF80080
6F697AA815CA3190
E5A26F674AFE042B
C3FFD0002E63BE7E
5DCF51FFEFF799E4
3300D2080EF0F235
200F935CB9B3D734
8FE4B5C4572F15FE
9FE47B192E4014E0
56F6D6E78DCEF344
8EF3FDE53255B141
40535DE6F02EC88C
E40201085DD7E476
800CF0931C790130
E0EFFF6E11376D08
0081F779918DBE86
7C9EDDFAF627C5BB
DE071A62FBD3FEF0
DDA5BD7AC904F694
08EFF9BE6EDCB3BC
9DD1C98D0EC40D79
BE5ECFDD88B54EF1
BA0D54CEE444DECC
5CF7A3FF9E24FF38
A5939E15E5C4BD5F
610F8B0F212E7B94
3100FC559A46A95F
AF4FFF18C46BBB9E
DA8D3C4C3502BE84
77F30E690DD5C097
1CDF88F798073F6E
FD8F584EEEB078E9
89CC6CFFC200BA15
3121DE204B0437D4
395CD8104C2E7C21
EEF2DF13224BE193
CD23BF74C9376418
70B0D943C84C1997
70C0C3D7652EDFB7
ECD3CC7E175CEC82
7174BEA1E8378380
87FFBF71FF1DC43E
8B00A4FEDC8A30B1
EECE35B6059CC72E
879D719D76E93B7F
2EC7036ECB878D14
4C7EAC51188A4B6E
706F46E4CE604E54
EEED648284EE3F9A
77621DFCBADF981E
6487E0F2CE045640
2375F7893D4C8081
2014ADBDC6DE54E5
3378FE9855DF568E
C3FA8D88EB68FD80
FB0F56EF090BCBF4
08CF6083ABBD0E7F
2E83FBBA8CF4DED6
DF1C721284FEACEB
C8809294EE95BA88
B388E52EAE07F73B
6EA5D2B0EEB0E89A
6D8DF21F05DD812C
814F5B004481D6D8
B9607277FCAE6A4A
0A8081104EAB0235
54F7D90FF9F7B5FD
1424CF6D8B0B06B1
264A434ECB02BF10
84CEE25FF1766CDC
728E83F9373BE2B1
2099370845FF277F
67059F9EA1866377
02927973FDF7B3AB
64F62E237C9FFC0C
5EA941A0C796E87E
8C71F56A3A257830
0BA0A581EA20F1BD
3431E52FEDBF10F5
FBFFD880FB77FD37
81043A5E9EE8C6E5
F46049B4BF39284D
B3BE750A82B86710
B1A1B44FEFBC205C
22164F77B8EEAD60
BE3852817754A860
04FF871B7FCF8B12
01881388887E3407
CAD9F368E23BBB9E
927998445ED98313
A30FBD8369C876F5
FF14D09B7E4BC282
0230DF36BF803798
0C270171198C3828
DD7CF448FD4CDFAD
6D9DCAF71B25E18A
690001F740C3882A
0A122D5391357FA7
F7F8C835CFDD5F31
321F49040CE7602B
B0A689D3C181220C
10992410BD036CF8
F80F6731FA74F400
1230F11050EF3B0C
370FD74D077A9B71
DC4D017B340E1812
5EED9C66C216FC51
AE15D3F425EF7C0D
134942FD47087CE0
97610901F5097469
9AB5C14DC047DD7C
F8A0FBF678064E35
D00014BECE00F212
77F5FFAE190B6D08
DEEA65BB8B908274
F887AF355F6D897F
7777D000FEA47EE7
B1870583CDF40163
DEC4F566F57D191A
F298F1D78357F47A
8FBC5E2C857F99FA
9E47DE32C7F76D02
32B90467DFA9EFF1
27FDBA0E498900FF
972FE3C6F31BF142
840882FFB11588B0
EF121973805D5C9F
FFB0FE54334A007F
FE7310FDD17BEAB9
038BFD11B8D0FDBB
5BD82F20230AA028
E66CF72727489083
44526F75A833BD36
BB5487505F7BDB47
0737AE5E61DD006E
F408B014BFCB74E0
3AE2234C9AB78246
13FF326D6214AE42
8BC1E1BEBA11FDEF
DDC25C7B318A08D1
9C8EF376FEF2203A
8D3B5E2F66350134
BDC0BF0093CCFF3A
94278D7757D0FF73
9151EE78331F773F
F099FF5AFE9D559D
C09C7DFC3EF5CD7A
18C540D2D5FB11E3
9D6B08023B0759FA
4EDFD0CFD7319E99
00A17EE70DEFBD35
F794E1AEB3C36779
1008BEEFAFFDF4FD
F772E900FFC1EF6A
B04C3FCC0C854C66
202502752FDD6763
5252C803C6942A56
361C673AA011F88C
DEC3FFBDFFF3048F
E4F68FCEB3073125
D67370E011338FEF
95F35C73923319A3
AF136678D10A8AD9
506371311D0118C4
F7321F8E9F6E2755
EBB4886E7095A841
12556334FFFFFCB8
18009B6EEEE93DF5
A2284C90E8EB97FA
F8ADBE7D9F542A79
1D7E90192F20EFFF
A40991F10003332C
9F2D609DF388BFE7
B5C699F3CF0FC098
381264200C00986F
FA09DD708AE011C6
96DFEC8687AC7D46
62730004F0DA98D9
532FDF7377EFD9DE
F3F9280BEFC1F3FD
DDFB1334FEDD4E60
A0DB98CFCE3A9FF3
473CC86673888074
7B1E731FFEBB3F95
7CCCD02BBFFFF112
DA012B9D9891EDD3
B901FCAD9006F4D0
7FFFDFD41BEE9F67
98C61160B23D101F
FEBFF3F0DBEF1132
CEBAD3009C83D632
CDE23B93E700BF2E
D18B25F60825E27E
13997BCF948AC40E
FFFEE488FEEF7107
0002080A2905380C
0A2026073231BFD7
FE03CEFBFDE6AE3B
F7FE3FF7DF3A4923
C010771288906081
FE85F9F3ECB3FEF3
205A361CE3F04943
DC1BC80F3288B137
BC433265F7C62823
8A5C1B3054EFD737
938000A17038977F
AF4D3F59F8AC9DFD
5FFF6472E202B1A6
831CD4CD521F2AEC
540C8136C08CEC71
87D668F919C9F2C2
C3B30F3D376446B0
DB12DB5B5110279B
FE05085FE4C9E631
5CD8980D9CCFF1E7
72CE544E0901F3BE
299112487C9147A1
A6F2245274F04704
71D40A7BFA008CFF
B1A27812DE04E8AD
DC6FB5FBB0C677D3
585D95447EA4C8DD
F3C49004CF0C6783
317267DD255E8CB1
1413684EF1169B90
22A4C138FE4C7DE2
D6F1A121EF3C6ABE
3C776B1FB46F3511
A235AC477C00A9E7
147EF4198523CC5E
4AD1FE4430FF9092
6924FCBE9FFCB2F1
2A276ADEF237FFF5
0E7FC8122FC0E9F7
AA006FF4D2C79200
738EBC6ECEDA8C72
30D76F8DC7FF3BB2
2E9444A02BBECE79
E9474E11B2582E5D
E23CE883F341F47B
AFC4EAA78BF3551A
D7DE37EEFF12621B
1FBCFAC54E2B77CC
BCC2DBD5ED026605
8D15EF49A000EE4C
E5F8A2E8E0F4F71C
DC4B27120B4D0778
5E96C39C57E18488
7204AB22F8E81860
90367366CC5CE080
A1089176017D09DB
E005DF3C4014CF14
75F57CA30DFC6414
5771C1094C480CE9
BFFA80DF9FDF748B
60BFE27D34D67F09
02F89B5498106BB6
E6BC9F20E210F88D
F482EBACC438F1D2
E6162E74F5CEF175
D0FE539F1C9C5DF3
CC451AC0AFA1F735
FBD55C01400E456E
0B7CBCABD5CBBEA7
63F7747FBE63FD14
81106C8075F614E3
E7106EB339D0ECCC
2E6FCFD22BFBD1DF
11F6B0CFBFF7AF91
857D8BFC88B2DFB4
5D01FA4284886D18
36C41037469DFFFF
FCCDF50C0D02DC54
B3DE633598EE884F
96E7C04F303F2E31
AC0EA903CDD8269B
9947CC646DEEF769
19EA7A69F14CD648
96EEC63E7E018B1D
E5DCD0B1BEE6A71C
FB8FFC4B0AE524E7
B48AF1B89B7D1917
81219C22B90BD135
F89DCCA897E1DC9D
82847E39DF8DAD05
D5CC7014DFE45EE7
D96BC34BFE0992FF
F4419AD8A0C97397
23612FB53381DCDD
DE6BAE7E88058DD8
E269DFE7D1D5C999
6A7DFFBE9485DE6E
5FB909151EE898AD
70493B2C3B81B341
F0FF37408A14BB17
0082CAFD7CEF0447
7F710909CEE69811
5FC14EE2CFFC7E6C
41548EE3CECC1011
AA0F979258AADCAD
3E8D11B9E3F30EFE
AE0062E7917D9091
84D79455DC24ADAC
80303F6078C3BA16
E9F7FFDEF24B51C9
199C606D3FFF3C61
A0C8DE675B1BBF2F
B0CF4E809F581181
77E29803F709D89E
69DF400BDCBE2CE7
088964408978D207
95C37DE5E10E4FE2
869F9CCD086F8C63
BB109583F1FF3E2E
46A5DBCD12DF6B84
C7F3B78F3B114D47
EA22C9FF9B92A021
A90C44E734E9A2FE
D99569ECB0090F67
6210EE7112FE8ACD
B62375C9C7EF9CD3
82E04FA65E7979F2
F6CC071B84EEA949
18EF78B493A58E6D
22AF56FCA87FF79B
8374FA38C6EE029E
E91F9FCCB5C1FB67
9386BBAEA1EC2345
2EC83A1F866A6280
B8EFBD77A7393306
6FFF473B58F4C8D0
16A473F3E8EE2903
D506C35A2D94ACEF
E2EE308F8EE1EBE2
D1FD87CCD84BD1B8
90AF5EFFF964ACEF
1199BE0963DDC26F
0000000000000000
0000000000000000
0000000000000000
0000000000000000
0000000000000000
0000000000000000
0000000000000000
0000000000000000
0000000000000000
0000000000000000
0000000000000000
0000000000000000
0000000000000000
0000000000000000
0000000000000000
0000000000000000
0000000000000000
0000000000000000
0000000000000000
0000000000000000
0000000000000000
0000000000000000
0000000000000000
0000000000000000
0000000000000000
0000000000000000
0000000000000000
0000000000000000
0000000000000000
0000000000000000
0000000000000000
0000000000000000
0000000000000000
0000000000000000
0000000000000000
0000000000000000
0000000000000000
0000000000000000
0000000000000000
0000000000000000
0000000000000000
0000000000000000
0000000000000000
0000000000000000
0000000000000000
0000000000000000
0000000000000000
0000000000000000
0000000000000000
0000000000000000
0000000000000000
0000000000000000
0000000000000000
0000000000000000
0000000000000000
0000000000000000
0000000000000000
0000000000000000
0000000000000000
0000000000000000
0000000000000000
0000000000000000
0000000000000000
0000000000000000
0000000000000000
0000000000000000
0000000000000000
0000000000000000
0000000000000000
0000000000000000
0000000000000000
0000000000000000
0000000000000000
0000000000000000
0000000000000000
0000000000000000
0000000000000000
0000000000000000
0000000000000000
0000000000000000
0000000000000000
0000000000000000
0000000000000000
0000000000000000
0000000000000000
0000000000000000
0000000000000000
0000000000000000
0000000000000000
0000000000000000
0000000000000000
0000000000000000
0000000000000000
0000000000000000
0000000000000000
0000000000000000
0000000000000000
0000000000000000
0000000000000000
0000000000000000
0000000000000000
0000000000000000
0000000000000000
0000000000000000
0000000000000000
0000000000000000
0000000000000000
0000000000000000
0000000000000000
0000000000000000
0000000000000000
0000000000000000
0000000000000000
0000000000000000
0000000000000000
0000000000000000
0000000000000000
0000000000000000
0000000000000000
0000000000000000
0000000000000000
0000000000000000
0000000000000000
0000000000000000
0000000000000000
0000000000000000
0000000000000000
0000000000000000
0000000000000000
0000000000000000
0000000000000000
0000000000000000
0000000000000000
0000000000000000

