24017ED64679E208
44217FE72ECF0002
A006CA9B804E204A
C322AB08048E02E9
5C1101395D521100
C18130200F7C0FED
D3107310001004EF
0159F208638A2412
4C11640740620002
F606020E0E66CE29
5F61EF5A96760280
820208F7543A3132
00004FD5E8D18AEE
C6384810F6C6AF00
A0EDCB5C6708407B
63C77FD50D888291
408E48A30459AF66
12081003AFB9000B
3FF6DD386E9A5140
5C2A305480023B30
80101801605F6060
D80842011A0C0282
6ECB2A797FE08004
086802695A108400
FD444010105C2FFA
2040004036111F56
379082EEC5975FDE
4400BA247ED89538
47CA188FA95F250C
1BF8EEE89CE12AFC
40E26BFE731F27BF
DECE45953DE063A1
79930000B2444E40
0002C9E3255D98C5
1932572250028612
58C0E5067ECC1229
82468CCCBBDE2100
04138AE7CC0067C8
A9857716ADD419C9
1F3688E78C9D2191
1764806809DD0985
A5281E6007C84851
EBB59502640419A2
C5F7A8A049A264F6
D802FFFF2B65DBB4
CB4011140DC187F0
EE3006C7101168E7
93026374A0061F1F
DE5F0CF16A371FEF
381426064088026C
0807C1354002C820
00B24E14437318DF
602140F5E4010FB1
CB6CD28608C00C7B
3F60C76B4ECB55C9
8C060FF21F8008C8
4609C220C0B3FCCA
889C1837018C95FF
A0790674AF503FFB
67C96E704D0E7AED
3E004CD73210F110
3C08383D6EB00FF2
F55F9AD0F76ADE66
10111180980B8059
B002F01B13738004
2404FDC810077102
0209CD9C118809EF
004F913EB194C708
7E17FEC17210E672
B57455FE12082EDF
0062FF4360F02DE3
4B6AF7F9627662FA
6A27ACF97899F317
461F2A9C6E160706
00633632FB9A6025
C7F6712EC4A83787
82DD40C8F77EE6EC
7F1F20887F22E16A
AC61604825019680
C04DF662CC04CED5
C736A899C66C4EBC
ECEEB088B533AE2C
C440BFEFEE9EF000
1A84467C93890F3B
ED2A570D6A1F8F41
025168DC003919CC
0278BEC6A68C3080
81B61F72FA7E117F
2546C0DC5031FD06
703B490C02FF4B0C
5458C447E032F1FF
0E6EBF2521A086E0
4E3368CB1102E2AB
7B32910CE46DA09A
78849126369F7E86
E6C6E414001FB727
FE8C90443173840F
3056909261979D48
6E0F0B1A72DA799A
3276B38037587B1E
F2ABF27E2CD847D0
11CA2433801757D0
2F0720D0D1368D8C
26AE906126EEE391
2AB0FC08E3700488
130A3FFC6F870498
C07F17EF67C8283F
F80E590A82043769
7040370FB013DD0C
C6FF4006332C5121
D9F08027DDED0046
C0E0B109C008AE75
64BB809389C3CC7C
07BA96E04ADC701C
FA01C4670889D057
FB70C4C27DB7E6E2
0000C49FFE994677
D72024C448AE3D37
49690CACDB177FD9
11CDFFADD6F30389
5B098C78703E4FB6
077E69CE3DB18E16
E30823497E157103
6EC73AB40888D986
EC074EB10997DB9E
6BF5B0B992742061
7BEF2281F7B0E9D2
02126579E9F13864
57367B19338AEB70
ED1E9C3A3B536CDA
07C94200A032E01A
3C34B35043710074
76153E0A23383596
400A9EDD00082518
FED8C193EAF6C61F
2787E7E4AFF86B91
0A25EDDBDB1FE898
FCDFC509B06C3B37
DB06F93733AFA348
DB50C8D3D163D3F7
E89005436DCD1CC7
D4FEA871961CBFB7
C6DDB225401E7071
C44B610DA9A91001
FD9AC5002EEFE8DE
6E3FCF70411A2E63
0D5AB836144485C2
73489BCFF5735D95
5BEF4A79E63A731A
5D204CE7F7112A49
0C9F0A1A944E5EC8
F11BC920FB9D7B93
3AD63DE050194E5D
AD0540D96C1DD021
EA21B15899E43523
C8324F2E5223F35A
5012FC9E0145F916
060343D51F050037
F073F019AAF34D6E
4571D15CEFB97AC7
3FEABF0D0D9EFD71
9BF4B57A275CBBB9
5632F5D4203F9EF9
2E0C55031AF39EF7
D3431B81D9771400
40098B12E09C007C
C508BB26C10F4533
8649A45332D719C8
1571621533B68755
C09CE5BEBC3F5C13
1B18BEE290B898B0
B40A617DD86D36D1
63FDDE2D05603EF6
8F8923F5446E7017
E44EF006A6F09111
0714CD25A271CA63
1652D1D32E3D9C62
1CCCD4516995CDFF
A19B3C1A3930FF12
BE5ADCC617707703
06C1161FD0BAB442
8162D6748017B317
D7EFFBFF3073075C
DCAD01483833DC30
002E543E26713531
20A12999C14538EE
1BA37721128DABE7
9590C971DA0355E5
0CCFD974FF418CCF
01162B6E35BC8FFD
00CF59764BCA7205
DBAB8154240F5479
062A20C212A0A8E8
162F4E1F5FF6B55D
35D8684CC92F36F3
99097EE00D5BF87D
1554C41B8F7FB6EA
54601C694C90CF0E
4CE853A5318C1E66
60A4A4E5603C07DF
14647BA610C143DD
C6A13FF47EC9115E
66EF9FF48B4C7347
E66F5213595704EC
B2FFF930EF3B00FD
1227165301F1CEDC
31747831BCD28CC6
BBB19D62BF8339F5
AAB1AE5A32BF0C0D
0456239A397FE8BB
C20883EFB6C828DF
F7EE891D0E1FB2D3
2822C6FF8713F33F
E4D3D34167BB9DF3
84DD2B620A130BD2
7A7590930052AEED
8807006F4914ADA2
8444F9066FF74D67
FCC2477A23E608E7
2428A08317203428
B8A80880055208C4
024043ED7E2B0800
C533075A4C02C083
59B39595EEA68242
14FEE8CDD3AB0E77
3BDB5FBDCD818A7F
65EA23E56F400530
FCD167FC1F1E0816
BEAE2677889C347F
33461ABA0145125E
A7FF3FE75A37073F
0CED19D4FF78FA08
4F3F039447E54290
D78832009C90261F
2E6A37BBC1153E3F
959A576E0F07F2F3
1344EE4C162E1456
1BB67C02FE4A4FAE
36260D59B81F2D30
7A8BFFDE2F17EDEB
108998A66DB36E43
B7EFC4B3F37255C0
4DDBBFF7622C2009
B202BF93C5F407A7
C47F120174EBE075
5CDF7C4763FF3440
910427DB3601F5BB
F73B17FF52621D33
801444193FD81FFD
EE58374D7F7C1CF1
8C3056BF93B3CAD4
F0079EC2AC40846F
848387F5C9531AEF
428B577EA68AFAFD
A98C120365F1BD23
16DDF7FFDCFF2158
357E88719007FFF3
DFEFDFFF7FFA1C9F
FDC1EBCDAFFF8338
9093FE00C7FDF67E
18B3FBBEDF3F0AB1
C888B6A38BDF17BF
BFECC218FE6E6022
BCFF44FC8CA9ACBD
5180EEEF53E0EFE1
F190D082F5EBD1AE
BCEF8FCCA04FC1C1
49045CFB250B04FC
58FE3A7259312BFB
F3BADFF76FE8C588
45FB3F2C66FA6FFF
18DF1113B6EB0C73
3BCE7ACDB011B06E
60CFB3FB4EFF9592
0FDE4CE260FFEC67
34F901039FFBE097
FC084DF3631C37BE
AB87C2B2AFEE9B39
5DC1559837EFB8DE
7356F9EE4380096B
091DD9F7DCD81590
14D88677897867E1
209573E7FFBE1AAD
C422C2C3D64D01CC
0DC3FCA97FF74F60
40DEB7E67A8B5C8A
33EFBF30D448275C
DBC95FA8E3E5B2E7
3FFFD284F6BAB3E3
1A83060D1DDAF8A3
68BBF120EE4A7F42
8889EEE0B8F70CEB
4C531DF878FE9CFA
9AEEB99BDD1920DC
F3FF1FE46B0953EF
C905E25EBB905328
B40647FF54EAAEEE
C7EA7983B8DA02F7
BF380BC6D3310FEE
A9F9C4B7D2B7D82B
DBA08068B7E8B3B0
5BFB839118AEB3FD
18837BFD8F9B56FB
F997DFFFCFEBE5A0
73EE088876F38307
FC16BBFB2572EF44
4538B5DF69A030F5
9A6FFF076E574222
04EE8B7D05BAE006
EFD977287ECF8018
858F33F73C6980CA
ED1101FB95716CFF
C008F016EFA04020
FCF5D6E6828348A9
307B54FD300462E7
75DB57DAFBFF8FBD
96BF5EAAF46E5F97
904E28C5114A07F7
233B94FC007D5BCD
46F580472386532E
1E5308F288C90116
0800445E45F4F6D3
FBBE2B7E9CCF3BF1
AD4AFF760C478DA9
D3D2EE659CFC0EEF
1363537A95578CEF
AFBF044723803D90
33E7ADA3C67A4ADF
0C717F92E99198DF
46BE0766C07A0D67
D37AC852A28C2BA1
C7FF800AAF8672B6
CFEF30033FBAC060
AC251C4605BB8B7C
3DD88F4E3DDC8586
FAC87F2CCBE521F3
65BBFF74F5DE452C
AFC64A2E2F4E33FB
0802CA8C9AAB896E
4FF5DBFF1D4FF61A
06F6F0CF5729C5B7
EFEABE315FFFFD81
8774C8C29B3B0B78
A07FA019FBC4A8ED
E806DEEA0BF6B9DA
C56863DA3F712CF7
153E48FAAC4C286F
3058D833B925BE32
93BE2BF4C500889B
0C0618CFE7778013
E3E702FA6CCDF5C6
48E72CDE14609141
289C0F7AC161FE47
15D911BD19D62175
9E77CCE9DFE7D5CC
9CFF2DFC110E63DB
74EFE9772908EFDD
EA9662942666DB03
C6E75E92BFDC8CD7
08733B655E6D0E30
C1EE558DEDD0FFF1
1EACB8DB9753A4C4
C6266EEB8DD694B7
3E2201EF8E16E200
E0714FDB66A74712
8D5EDEF8FBECEEA1
FEB4A750EF05AF99
FEF5999CBC1A1142
40BF2106DDCF67D8
EB39C03F3EFC09EA
7E50FFF3AE564859
E3D6FEFE980E27FE
199FF5C3FDFAAE71
1DAC37FF987645BC
908EBC4C03119CEF
5EF77453081C0C13
FFCEA5DDD28E130F
9B5890DF91BE8867
4C571EFF0ABF8149
C62C000FE0D880C6
C4B0C9994D6E6610
2BDA405717FD097B
F104952198837306
E63A0EB0E03F479B
C0AB300BB66CBB8A
74F6F9FD1C1BD4A1
330BE61980FD887F
5C4438BAA0FD6E8D
AEF47EB0CEF9AEEF
DFA411D2473DE632
59F60061F7F75030
8612D8B1E74D21EB
4CEFFB95E22B3A49
EB32368AECF8C380
E331DE781B6FFF84
7B33F77404F70E7E
E6CE484FF3F5E80E
F69448A77DF1F753
59C4266FCE70A668
70B844F7B6CF124F
C50FA2EC2F906E78
AF377A44E6F12EC8
4ECCBA117AAF535A
860B4953D1F86CF6
0AC001442CEE0711
7766D8106B36075D
F330D00FEC1B2C72
D8E2BAE39192D082
D180BC06744B1EFB
FD61714B6937A5F3
8D1AE018709DF533
011DB72C3BABC0D5
301DF7F84470BF49
9F7A87BD80FB1B2F
C62608BA6C335EF3
DBABC2657C39A10C
EE9311772A33A379
831B357E1CD7829F
A7E7251187F610C9
EC60CCE7145ED18C
DD50040F6641C228
28B9CCEFFE405157
3B27ED0F83402F6F
E403188970BA0CCC
25FA0D4F55E7D720
CC700860E262EE07
CE33D8DBFAFF2927
50DF9C804259B4BC
F1F869EFB49EB1FB
6B4571AC124D4B23
49DF38B214B0DA75
EB67DD7A74BCC0EC
FB1155A60C007371
41FD78A7720FD635
55FCC8DDDA1C7C74
D8AB21E16C09DF87
E9C9908F8B489E88
570B94D48D7AC803
11B4AB736DDD3701
F74F041484CA068C
607F7A6209DF8CC6
72574E143243FD0E
15E3715F8689B283
BBEFCD633C0B050B
8D6E03B2AFF3F360
C76BF008EC869E33
00ADD404D6750880
E3F736D3ACA5D48C
FB7EC80E0F6CD865
BFE3FC82CCCBCE3A
8B6B893150ECF8B3
08144848796024A0
6ACC1EAF0660D9F6
C41F78812F983EA0
57FAD016DDF359EB
C38B800082FE01AE
CD811BE51C9AD886
89B20036A8FDD766
D802586A3FADC003
C080DB02F98EE09A
D0CC01D8DDCDFFAE
EDF85164CF44771C
1E62C00A7F10F756
0690995C018158D7
400367301FC6C77F
11CE537BBEBF3F3B
7FEB7D8080886806
F8B3CE21DDCC9D94
C3EA262E1D865820
D2880CFFFF8A1B49
E6922AD646C0DDC9
875C8BFB1518CEC0
CFF8BEC0141475DA
DE7141998C01EFCF
30F67F919372BF88
E2849A8D2C00B198
BDAFED23CE315795
D5B125E5A906FCCC
42B1FF77E8A4EF26
02B867BD6697D7B4
4ED261080D5D7747
E6C47E00DCFFFD80
C41F600420DE4C72
80B1E631AE6C8B63
1D41E3514FE99788
4039C942EFF9C82B
12325C40C402FF9B
BFFCC79980C06733
C6C0AEEFB108DD9B
F3276C90F849B1A1
4AB4D7513780FD9E
6B01FE48E8F3F5F4
01483F1103095D3E
C29B008046F0E891
CF02E676C7F9C9B1
D73F7F4A3CBF4C0A
DF9C9E80CC9A9980
5B92B34CD998B3E6
AF7E2548BE7D1FF6
EC13D064372D4588
FE0A4EE15AB2BF11
4B60C0C0ECC5AE8B
DEEF6DEE0432D2AA
100E6FB05ECD548C
C5365CE6CE7C7984
3A843BB385470A20
F98A26D61CC1CF68
0DC94F246C007362
16AD3276E99174C0
D60C1C41DC09E63C
78CE204C78619901
2E887846B4034CB2
DAF7F627643166E7
0044CA8026E5C360
A75E19021240BFA4
469C4CC58F59FDD9
09BE1C0C44C653C0
AAC85D9093631CEE
7C88139C00610867
55D000D8F254FF0D
5312CD2A9FD2F50E
4B2F2DE0A7770DBE
ADC527267BB92AEF
35EC6FE555193130
B9FD727E35267EF1
23AE025A71E3082B
F82387A06DC9C619
90372F08E3146700
48FE6CF1D1FEDB24
50CC2FF9AC3A32D9
BE22E31D11C86927
682ECE2387068432
9D885D910B4766EE
F9014BF1028229E4
FA40C9E068C0EC9F
17F1140802D3815C
B1D90BBD2B3A7E0B
D805CCE50106590D
B6DE7CC6EB757F65
1353F04C0CDC7B0D
420AB840AF2672C1
DB9F2F9366E7E3EF
1511709488ACC520
B0C73F88C0FAA6A4
851F48D4FC670D00
64F6CEC06B89FF0C
708852EC2880C614
49063D0CEF103F16
2F6EF9D57EE2EF21
8DB620FADAC6FD34
C44C51BDF882C408
DD68BC3FA4041DCB
E7B1E0108353A4E3
0C9D424D14E7D8C0
21FE7F804221E710
5F308056C47FFB23
5E2FC91E0EC81632
5BB60913FD51139C
27802630810811F1
828959C048006F12
00EE2E95ECDC0510
4B3E74987548F728
28693DF354E24427
359D687AF3772068
968D1E70C0DF72E0
F17644C17C90D330
FC310365324E19EE
68C553EBBBC9FE58
FA838ECD6A1143D7
04A23EA07BB0BC70
E84CCC0463767864
0738BE5A3B892EE4
AFC5F10B50140008
AFFEC0FA37F41364
F3319BF5FB906FFF
0227989D8B986A77
0208346292E22601
EDA840D9180ACB21
004022010808A25F
8EFE8B08C01913D6
AAD464C46F80C6B9
EFCE92D39B204BC1
0C5458E046D0AFC0
DE0CDC54C87A1776
CC9E0B1B9F1117EE
DE22044447FCF708
F009765D3EF3C288
B41238FC91013FB2
A4A681CF3354E5AA
F5DC6009FDDD0B06
E93B011C20889001
30148E8764D14F3F
0547E809A67B477E
EFF5C06CA6B1E404
211CF810CC0FD018
9E02937C76C41F33
86D431B9E955D880
380F44C19170B312
503CDBBC67B03129
B9DB7FFD0E741817
BB97E64F36005AEF
81BF34D502FCB88C
74BD29184002F0C8
C312A3BD6E0F6F82
5F5727FFD960EBBD
9FFF637C008CFDFE
20BE69FFF5375E7B
9985A0195880BF99
8DBC2B77E8800006
8087BD4EC0FD8B50
87F6C7100C06EEFF
E934FA1284EAE3A4
B245BB3647F023F2
0C89AD0421FEFF9D
6217650FB9F10A98
3F9F30A0CEEFEF98
AFC88B8899021C89
8C1A67D7EF41CBAD
C40234FF01FF21B4
2BCC98096CF219F6
C5FF554E110493FD
44C00C3E1161A933
FD9630080FDDD943
CE7E902D00806085
4C484BC1CAB9F4EF
0FB3A4C666DD1E46
F24860295089EDFF
09BF54CE0BE9BCD4
03302DC3A42226F2
3300C9800D3083F9
F6DEEE530BB7C621
519FE684F8D903AC
9D5FBEFB00AADFA7
F4EC00C6A165EFB2
A7E897CE3781B001
00654D7001341300
5F83CDF326015078
882F279F0C8A35F5
E65E127FBF4614E6
534C47F111663D40
4E3A96F4C3371295
8ED8CD12729FEA56
A02E69FC51F6715E
9A21378A94F69773
7B7304A9CAD6BFF3
5B4B12595FDDEFF3
064F1377A2D11EF3
972D7B6785329173
EB9EFBF841F15825
AF1788D6EE89D922
F12FB5E183F7D827
3BE0CD1E58FC4876
B21F67569BFD94EF
C5081014ECD33FCB
89FEE4057E551056
DCDB5751B50F3BD6
E6FA645D9031FE21
28F8FF9BFBF2B6FB
CC24B560D924737D
12F634519BF6F3B3
EC298ECCDE02AD80
DEE14E8787743DDF
8FDC08259E703ED2
D375FCFFB1199FC0
A763B30E6D7D64BF
CC244134B7D2EF04
12FEE16CDF7DBDCD
12269331AF09CD19
AFFEECAEBB8165D8
53332C37F33F140B
651303B9A581EF07
AFF84D1D0F747DB9
F1A7304373A2C147
3CCF5F9CD0179D52
F179F36757328803
DF14DF30BD9E79FE
4BE8C27EC911F7B5
7960C1DE04144833
8FE7BB11D4F1D9E6
41EF6C66FFC761D9
8ED049EFFF1BCCF5
6715AB1AEF648BF3
20FF015FCCB373FD
D90E9DD3831000B3
9B89DB34F95C4D1E
F5BCF680EF5DE053
AE9E8CC1617D3037
FEB6A2591625F0DF
FBF9DDB69912AB4E
13AB0CD6F9774510
CCDC91FFE62D4C1D
F64339FC9C075570
D84FCD65B9BFFD37
EFFD8FF45EE7EB79
9583D854C60BBBB7
CFD97F72BFB51057
D8335C178381C841
B273FB015D39EC57
49907966CD3E1E24
EF775EC0FC6C4454
4997F56F7684FD39
2610699B77E7950C
77C088FE01AFB665
C48A82A2425FCEC8
D7C8145F3880971E
6E772CC6C390C704
70888843E7EB5F87
D5EFF7D1F78FF3C9
F7FFC8BFE470FE9C
0EFF2B6FE631C90B
C09B06FF11A011F3
81A281FF667F4C12
21176919ACC1F3C7
3126F9ADE7B24F16
7C4D15372804F5BD
2777F101B3B7936F
BCA5D793A00AFAC0
3A44B74A113FB89B
DDF13153FD9CDDD7
F319464BB73D8CC0
17B39BCAA29F1621
AF74FC3942E3D936
E001B601E77DBCBD
C982092677ED54E8
B1F7F7E76910BDD5
2096BFF08501D2F6
5C1EF101BBBC068E
FBAA811B00012326
53A6B51CAF83F89F
3002670FBBAC127F
57DFD591650B811D
3DCAC6421BF56480
A117A00653C28BCF
01CFFE4535FFB9D2
FEFCC2CB4120E3F9
E1299114227895C1
A8239F543DDAB07B
F7DFC9F702A6CE76
0C08719AF721929F
32A090B2D9BA5E08
F23D48BB0194D3D8
F9C1371E40121225
F682551970FEB897
6C84533AF33658F0
19FFFD5B490B1E11
DC4A000DBFFDEFB8
6767381BECD5F90A
C8CB9E6788C040CA
9EDD4BBADC165047
7554CF909DBD19D0
1177708D89EA0F56
C98C2C265FB3D5CA
A8025A5B7DECD8BB
F18280027BA7C88D
5CF73D2F9D57D77F
D7FF9EEF3CD1DDFF
6A7DC6B511005179
9F2B77FFF9EE1987
88802B0E7FFB3667
67F9B801887FEDB3
7001005CD79F5CEF
F801F7536EE31C80
C033CE218089C183
5104F19B7C1883A5
3286ED74FF7FC530
50003A9959C49610
18AC1CAC376E1444
F01086223500DCFF
4BD7B3167FB6FFDA
22052862C49D9011
FFB23F7433911813
F1A3402D7142CC49
4F6F50A8608A51C4
20F10B2895E16959
41085225FFEDB9DB
9154A00AA26F3C02
80B2DF79D0F8F920
230FFFF2EFE6A583
867021083397192D
3AFDB301CC34A712
FD603230CC000284
0017F90A02692040
C85362880F1E9799
EFDA04FA7F55E104
6EA02FFADEAF3B31
2054BEF17D0BFFEC
F551B77EAF714C97
C6684880565F0D34
B18EF626E92BEAEF
CFE272332003EFEE
32262F6700AF2710
16302C88E0007FFF
3FE629092EF0CDCC
B66663011CC2826E
FFCF07778EFD24A2
BD43FC058B3C70DE
7406009C1000A66F
D00CFFDCE4AFA810
BED30211EC840428
8FFFD58AFFEE0C45
50004008E0026008
D5FE83DDA33AF065
FB8D90086ABD8288
5B7E06A28208F7C7
EFFAE8432D9937D0
8033707E57741101
3000E9A0C449B280
0B161C2D60200893
71E63F4A67702A11
030E130A4723EA00
40BEFD08C700B911
00019F62B14F9100
EC00FFFE90215302
FF67F704A6C74EC4
90808A1E40650104
E10203006F08808A
88D7202B85CE19BA
F1007700EA461008
68DB2E9B027F0577
D13A35F0F77FB163
A103067891EF63FA
1C45404B72667330
991F02882E41F8EF
28F915770EFE8202
77C04BC0E3BEE401
03883F72FDF67FF6
CDD10C00E8A604CA
73AEEC9180D42016
DF0E737BE3A4F812
5150B3E0F5E5B7E7
771F1A5F0766CBBF
92E13B00C440AA01
90ABB097ACCA6211
FFF619B030C71AC0
E003DD8828A9DFF2
80D70C31B101BF43
9AF37F49DA70EEF3
FEFF2111F311A9BE
3FF8A8E6719CCDC6
FDCACDC9FBF78AF3
72BD8CE9EFE128BF
B040A68940704142
EEF9001784CE6E29
6A76605B8852DA85
FDEF5739473AA250
38A7B003D8E388C4
CCFB3D7032009840
8059C8724EAA6AE1
EACFB880606F07D4
37C6CCEB407A415B
298800FF8B5FD85D
C8CEB3ECEE937F8C
503FA502FF352CF7
02020ECA94AB7116
32BBB6EEF737BCC9
E1C6C4FBF669711D
017FC486A299395D
5448CC8603F1DF7F
C2171C8221397175
2D9DFB750D664EE6
9876B00AF9247387
1B9D090D290C81B5
5339B8CF0402CC07
108E24138837F373
9BB0D775465284A7
231600D674CA6F73
5E77F8E74EA2C021
7341A111C90756BE
4773D3B81EF076C3
18EEB73B41D4302E
A767867738F3AFE0
06ED284A83D7F4C1
2921DED0400608C8
82CABD5D7FC0157B
19EFF1BF6C73EEF3
B0FA9B3F8E1D0B06
3CE107050B900115
881EC2F62B367393
57B5B151CFF9427C
52F9BBC200FA6C9D
A5BFD4D7BFBF6061
AE6C01F3969ECC99
0419EF8B08C6FF9F
E8FBF6CF9806DFF7
00009CD3FCECC77F
73952E53DDBF282C
F01583C0FFF118DD
65FF98CCA01FFDF7
1021857A50629B2A
C52A80A620070626
B20A7BB7893D1037
C8605811ADC4B9B5
2C4B1CA327813041
89EF684FEED25443
DE0B18BF1FAF8C40
6B1191BFB98ACBF6
6342B147DA389004
CCE68C5AF78C8930
0239D037193E314F
8A1CF7989043D680
90AC8147A680A788
23C40B8CCC287EB1
180BEFE129003FCC
0102D8FDE6A838B3
19484D245CDA7AA3
4C7DF67FDF40CE7E
3D9E33D596CAB0C8
4636C9107B08729D
12888006FD2DE468
F98903406EDE6BB7
986E488B4141C677
0110AE69BAA58B35
22828C1BC4AADEB5
6EE6C022B7823468
4020ACA77FCEEC16
FEF1DCACE0BCBA19
9C6019323B085300
1A1140E41023910A
2C3D9AA4CC0B7B03
E3DF7DFBD9EF4CDC
1F2EFDEF34455B8F
A86160C6C0EB199A
C65A3BB320405307
7BDEE0C0EB27FE83
FCED88C1A8208996
37BDC8EF2A87732D
E806118DC884ED91
5F2A086881C245E4
B62E7F1F5CB611E7
64449F2EF3BBB118
A60662122F633BFA
20A4F30588C68A40
808BF2AED3D487A8
D900451C00F4E8EE
E3036C054FB82E96
8F939363BEEC8CBD
EE3393BF09138007
1E42BFCF780857AB
62C3CFEC3FA967BF
D907BDBD426323AC
8E5393813B1138CD
4EE040EA868EDA96
6E81B0079DCE8952
4209B1010201B745
B62020121ED8FF5D
6AF89DE010469388
624083A882981D45
77CDE38B35B4BDAC
1039689876285497
A1000BBE7D0FD763
4C94E86276006CE8
41AEB760618F8326
39EF046BBA7ECFB2
3CA48000A2C19C8E
2C9E88E3159008B6
CA33BDEE0458B142
1A56303EC011F001
827FF172B723E2FE
BD1EA81AC0E1235C
48CC8815964F7DAF
00B067F0228A16AF
AEE6221DC630D148
0C93C443F90DD9C2
94F7C0F8DF6EB10E
F16A96E7EA275616
73263FFA8B1A2903
9E8C09EAE2AED921
0881C1EBEF3E94FD
7764D8B411E4ED0F
046B9FCFB3994446
4EFC913DC15F6695
72FF739946296EEC
10DEA91881ABE670
00D790EC887110EC
7F80DC639976D065
6B11127842BE4B45
9DA20CCF5024C75E
6876202676730037
200974F4CF736073
408D93BF2CE023F3
FAD7AFB0F15014F6
7036B5CE94CED919
0DB4210D63728057
727611C080E1316C
522EF603FB342644
D378310613620EE1
80D309801BE9B560
6F6EA3328133DFB6
1414F540578F7C70
E0922403200202EE
B07FE28144A6807D
7888664F0023964B
056851A9FFE62BF5
006622CB8FC0BF2E
06B884E4A21C8E6E
939F014B4930461E
938373919605E25E
39E41492FF030BFE
4AEE4561060D53F7
A2667C54A2547E67
AB9127757B311044
5440C104BCC41138
54596D8EFEA2DEFB
209C6F26C0E413F1
1344791E98EA4774
469AB6BCEA98E382
67B8FC64FFF20C00
844D8AA8C044FC72
2308BF4BC26B6D22
C47CE02033576F00
276134DDD360E59D
704E7DB22D1F6B28
8643F42B1C36D851
60930620EF77B8AE
5510CAF1ED30C85C
AE384105E09F7536
FE3DAC4CE484A125
FEB8F4D44F320280
F8412308E38F00C4
48EE83FCD8EA3328
96310CD5378901C1
492A2601AA2F542B
2C08A773BAC948A1
B3197773C8314012
1570182C8737CE54
4148FFC10E8C231B
B506E3BF5173A222
2F00C00E1470C889
C803823BFD56F900
DF822D142F6F2659
D7FB3A11B7239279
5775B33019813F00
6D0A164D43771520
63C9100409DFDA29
1B300EE88E77C739
408C88DE6C7CA120
6C022DFF31018577
F0316D60467DF501
587716F0FE772310
46C73FDCB9502986
185347F11773AEA1
5809F785B91932C2
9FEE180A98053BF7
FC9CFCCBE90BBB13
98881019248B1028
77B9C01567818ED5
A3CF85FCDCE8EBDF
933526ED7806DECB
B0F83B99404F8EF0
FF75D2F07DC31900
2F10D2EF43359FAD
98002AC1ADC41059
2FF80F6B9981072B
5B759E2A0F497BC7
0001176E3ACFD33A
86FD57F6BB9F6EF3
F9933002E0D00D8D
9D2516AE2559DC9D
9154370C197EF8C3
28817F640EC8B981
6EFC38646FBFF800
D51B89CBEFA5EFF9
5908B08801D01588
993F057EC1893125
7644100AB8762FFF
245647730468AAD5
99FF3B19F445188C
CDB490B8D32CF937
E803A85D6FE147EA
132310803D11396C
DB61CFFF1048F9FB
F3B64F2404182037
C96C2FF1EC1219DE
43135E04082584FC
9D3FC244713B5FE3
80637B55C273241D
313177E5C131201C
C84D80C29556C737
67F8C477C0E5B3A8
A380FF7217400211
E3125EA202924D9E
0586418392B390F3
3D730CC48D7ADFE3
87532E57211F3F58
E2F30B1482F313F0
B6EA09FCAB0E348C
E40F664208E1FE41
FA4077725FEE35AA
F93226B1444ADEC2
73BF930B2FAA28DE
6874CFF9777E09CD
660D1F002FE7E487
22411F7E7B127807
5EB0B881D06EFFB8
D70CED9037A23907
091C7EEABE98A2AA
F68872EC547EEF79
B87D307EF10D307A
D989E9484C60C296
9AE4A031FF6416E1
C0AA0F189CC40628
F8C8FF72054639D8
ACD40B247F9F6E6C
4CA1B9C2E4433C00
7FDA63761577A0D5
D39E74070B049F56
8FCE62E545ECC300
35D5921BEBFEC107
86587ED9FB0AFB3E
936CF160378C6F71
F380421445749486
2299D37F743B1080
AAAC238966776EF3
1DDECDD2A7D50FFD
29B76A26D9A20E84
19B0FA34600AA345
688DFFBDBEED37E7
E5E37A5F6B800031
22DBFC073A0C3300
EF47EF6A057B0894
59E4389ABD06E3E9
B62926AC3164DB88
60EF7C6713C20EEA
A39E0D25E26C827B
27C4175836EB102E
6B60054C3A2F9031
318AF2A48E0533CB
E558FC773889135B
2F0102FF66F0A7DF
8DA169F120CB016F
DBB96A64C47EC288
F343FFFFF5E380A6
CE410FEC67A07AB2
083C4EFB60261219
FA446FD6923796F9
35998FFE2EE97621
9B50A50CE0F3A8C4
1845BB4E7CF9361A
D7FF5716F52C3194
67DA4BD182A725DE
E6F0196229FC7E22
24F7BF405CD306DA
0702606E58537B5C
AB24974E0FB1D86F
06FB2067CEED2382
BA41AB4D5DF34002
E3E73DE812F548C0
44732FC847E1B793
77E3D8B1C54E0333
93BD81049FFA64FB
6712A127A051ECF9
B3CC042D7E7EDAF5
9B6890D502871544
8B8160184CFE6EC5
075783299D38EF48
D9D9CD71133F537B
C11630C1281CD2BE
2B31F1B00B2A0101
08842C3347BCDE0F
0005C85E933983CC
DFE4A4A7FB47A757
377D470BEBA476DF
039EFB23127A7214
1D3106D13331EEEE
098EFF054D2A1239
03CF1003E8B30BD8
FB01119043366623
EF0612B3A1156EE6
813E0031B93F67DF
9BFB7BD1F101E408
8B8228C71CEE0399
952D2FEC6A20328F
39DA0E139467F190
02F8147BD82CF853
001427139377008E
023A2059BEE80ED3
3673A2DCE937B302
6FD7681F5ECE6291
C231AA007800FCCE
2BFD23DE88F76A8D
801E96E9C2F96032
04D2A33962EF5FEC
9814656410F49133
7D1303327602EEFF
0E54F6F4ADB19A56
007722E3B991ABBE
D2DC4C6C8D51DE28
BD3F03A77237EEE7
8256E4C7168124EE
FCE5EC1026737B56
8B9E56ED26239F34
758983941F42ED53
B9F1CAA7C6B40843
B3A773F13C418144
779168C8BF0AA278
C0FD0A3C0545224B
3EEDADFE41C406F7
963A76ECE730A144
8F75D44B45492E01
84EC46968B1DF813
FF126E45C0972DEE
66BFF8295D028B03
27EAEC2F806AEDF6
8D18212E109E0A96
EE345863E80FF992
5C33ABAB2F90C23C
C7591231ED78B947
1A3FFA012002B6E9
FB6D0BFFA623A265
EFD466C3267F8322
4004F794E5EC2019
01713227A28D5601
3F2E4808D8769890
5D63FF4C101E2BFF
E7FF0F10C650CF6A
477375C061837B28
3F740FBAD82E5F8C
EB0A4080B0913EFE
C17A66200D00F5E2
80FE01FEB80E9F06
83B4CFE4083DFFFF
5E869150787380DE
DDF6FFB5CABEEE47
D7C58DE8092A0BEE
F7721C90BFA9A4D1
4CF3C490001A2FFE
8B611801D6DA5FEF
13E8AE327F884330
F3FF000CE7E6E158
F8E6D08EC1B07358
BFC08E642B8BEA8A
48E091104A96B034
FE7CF5CE7FF61D5F
E7820A27248C4F73
640C608638128802
0FEE937E70190740
3652C2029C23C6D5
7E02156F3FF76010
67C6678B7B784F61
F3E291B3DFE8FACD
6856ECAABF721B71
57FD9DBF1FF77600
D9EC2B991A5CC571
C1376F375823EFFE
59B3FFF3A445F911
E601081F0C480434
2F9B2EE8D453D942
6818E6EB5C59D99B
5418D6FF6DF7EC36
A8BF7B9A97776B09
B3661C6900960929
B47F69D10000CFBB
16FBF7340FEBE6FF
02EC661176F91036
0D7FC9E89E11A730
236F5E6C0C06FF75
08804D00BFB0D6DC
1BD330FF09158D80
D59CE1EF91763F30
6E22090D5C45EF80
1B4F8219013CAE55
D0827FFF9B26A7AB
091C9F71D7746689
77EFCB4E50106053
869B3156F09B7C28
8EEB8137B7F60892
7F382DEC8EE8F775
D8387C80921E2E91
6F80FD13FCEFE7A8
E59FBC002426DEA8
910B988005B789FF
4199EF8F600A1A15
B9E7095EB9AB3239
1179109ACD50A312
FFC51B8C8E750E65
BE601105C6D0C490
3B761B7C80C2527F
0EF9899CFD239100
6BB2AF2F0227FF9F
14C467F976EA82F8
9301A7BFFC932202
5A4FC18FF7C92088
6C7C1C616FCD8114
A4FFDF91F76CCC09
9F2752A7E1248111
4EF7E6F293142BAD
FF9023FE30009932
A58711D7DD7FC921
B093BCCC64C0CF7B
FCD7DBF7F1398BF6
C47BD13344DD77A1
1BEFA533B86FE0D3
C9193212000236C0
787CDD3E6E77EDC2
DD990A8EFE2DFF5A
AB7D312B0EEF8C80
445BFBDF1C7317F7
C78B340E818513B6
2717CCBFE7FFCFFF
ADB3D0233EA740CC
17778C8361CFFFFF
C70682CC048622BC
D19235133F20FCDD
DB999DFF2C672A00
582E44808474FF7F
FDC88ECF0998FEFF
03CF558135BD8EF0
FDE24EBB61F70205
B18AFF3ED430667F
604B3040BE498EF1
05FDE7C19C442D03
AE88360311F2FCD2
9B027EBCF81F6B94
3B19C4C98E66CB33
C939FDFBF75F0BEF
9329F693E12046E6
35FE45E83E7E9000
8822775E57B9A177
19108D07F8378981
6601FFDF377276A2
1C5FDDD3400AEEEE
6B0DA9FF3DB9B929
97DDED30DEECC900
3E40EF7FB7B20CD2
9BFD54C90A7F1077
8C53DFBCA81001D8
3FB7FFFD573D427D
8102BFF7574FB723
0192A019F7F6F8D8
4103A7308E8F7798
F66DCF93FB6C3B34
83B62FB9A84C83FB
ACE5C56D15AE7939
05079BDBC7FC0C08
B81A0C87E5D70F7F
E7FD2401823F6C11
7DFFAFDA7BAF480C
FB2C8C020D7B4000
C9BA5738987B847F
CC899115BEEC037F
B116CCE6B326C150
C1E484698CBA4690
373335EC88647EC8
30A0502E6586AB0E
BB6697B47C162642
DE8A11087E740453
6CE7490598102834
E24F4E8415468E69
286D0824173ED108
5221CE14F8482E77
1D01F39DDC4029D0
320976DEFA58CA01
B13A852F2122D65C
EE3AF70AEBDD427B
6B2FE282F9EFE4F3
C8828A633F808332
602AC63EF146F46B
F89EF004EC4E2B1D
ABF09B1523382408
EDFFAADCDEC4662C
20D38900847ED5AA
74CE8FE5002BBAB1
AD66DF2A8D0F0143
31BFA2A3C003A124
820A3898FE22553D
BB20E63A9A80EA61
130975216880F959
9972FFEA3B760E75
0AAA586074FAAF32
1111BD77CA1B2905
769733E4643D4D91
6DF9EEB9DEEC1214
51A6CD44BA087311
7A2D8CBEE8806473
89007B252AE90F0A
6454A313FEA86CCF
B711C6A76899DCCC
40B65141C215B107
50F0D7E00B8609D0
A1C6EE168F7F2EF7
A7D72344B1F30263
883C8DE09B67E9B7
E1814004FE038000
55EA3D7D8EFD3B39
FE8490085C44380E
BDBAECFE07831808
A83A495A05069488
8CB7217BBBEEB1DE
8D4BC44665510066
40329AAEDDD08320
DB849FD8540C154F
9B20014D18147F56
CDFFC561E04F8ED7
4A80EA08A4F6667A
B118E5791A7F1D65
26720ED4804B2053
06227D6041B74528
A0638420A818400E
ECE6C404DF2651AF
18825C470AC0DC2B
8A3AD66688F93F1D
050482178198E848
01C01048ED75647F
412C281DE1F1C153
66838940F8827D21
B84B786109615E4F
9C9F2F2289B40CF5
D7B997431D08EF10
098238A30F6955D0
DFF7FFD3E6987D6C
4ACF5206C7941D90
BFFA01D2A24C66E1
CBFEEFB193B1A7F7
393746A99EC1C397
BB2189230122FCB9
DE76AD9BBAA7C68B
CF66C002BF26969B
2533FE71A1B32D47
6FEEEF17B3957551
4491FEAD8F334C9D
60C153CD6E39FEEC
1835A14BC0C060D1
067E434465F00CC1
08A860BB999A00B4
1B90BFE763D31AE3
2477E9CCE5B36D5B
227D462EEF2F3C25
6DC76293E2976ED8
08A1A0A5695CEFD3
6BD304F01FC1D800
3DE66BC7C2F829FB
48EAFCD890C174EF
D6EF7074A7ECD194
764B0402EEE88013
FA4293B2A2505EEE
6CCDB5CDD0D2F7E6
480342F8E69F008D
868F1EC3B2B584DD
DD887376EB3335B3
33F172405A8CEC77
AAB8897489B91629
EF23DE97CA02EB51
3D4A778B04338201
CDE6E3E84BDDEA09
D7894DB05EE8B675
6DF6A7B121934A3D
FF7374C3D6B1AF4F
CEEFD7570A31DAB3
848179CC6DC8E642
3A04F3130D95F881
CB07CEAF33310452
1A11628227BEEE78
917300121A3E5F41
9CF2E9E362C6B7CB
1261B75CEBBEEFCE
F7F3BBCACCC31A9E
26996655EE85F2E6
F40896E19F21FFDB
58030FD7FAFFEF2B
32C9303243DE70B3
AC02F7B8FF0200B6
15B176334F6C1144
66BE7EC4A7102C35
7A31E7D1EA32AF96
9809F7FBD0422FDB
5B5BDE615E5693F0
EE4F1FC9EF3966BB
1E04C424AF150F5D
76D987124FC8633C
BD579044551C0568
C45388E05F131E65
A07088107319FE34
80C8EE63E304BEC4
6499CC5AF577F564
2BE342A387103751
B9C5D040D057DFF7
E3F4E8870CB037CB
904C916C15C7CA73
29DD288631BCF55F
4514BF434E3B3751
FBDD3A01C9153C8E
3157940CCC95F2E3
A8922823BFA0C411
A43232418D10BBA3
AB83EE113C765624
4C47100A991790CA
BAE91991B909D238
3C3AB6EA73937E24
C106812087EFC90F
D9FD2EEEBC027CA9
F8307685B8A9D8A8
E7107426763BAEAE
9EF7DE9045467621
01ACD7529398E11F
EC04E22268770961
2C29A255FF67FBD5
FF621D662600CA2D
3B5F738C24025E9A
E812E5605481FF63
AF77FF478DBA135D
3A4D8A4ED4423935
9C05071920E5BD67
341999151127F18B
2432E041FC3459A5
DC12C6400B464C90
44CD3C12CA932F98
63549F530A019E93
5163FB2106DBB377
3635E29D0FC18AC6
D540F87328065E69
2C1519D2EC75CF30
3E002C81D0FDED5F
54F65F12FF7D5D19
1091CFE6FAB1DB30
E082B50988FFBAB0
F57AFE735750F4EF
C358CBF56C04C8CF
7AC2F99695F77442
4C738C2AD29BAD71
2AE0245032105A0D
ECF3FB27BDC30567
0A8FEC0462BC9811
F15CFF21908CCCC7
3B0820C5DC307CFB
BBB1DF123355F743
20238C131DD2813F
1DD79C10DBD22EB3
187CB334007FB6A7
8FDE0DD0118E4FA6
BBFA7E0DEDC68310
05DC6502CF061C23
C016B84D0422CD42
D4C00158C96DF0F0
C6894016EB2BEEEF
A281218388C3AB75
0C12F93F7DFF3D4B
58EC4AF9D79D8B63
DD3E977D6F6A0CF5
D08123136DFB43F8
4630FD2388E7A118
399B9F369B1B1F46
ED28ACC3AB695338
99DE185E3EFA5120
2851C2C41DB89EB7
951DFC63936EFFAD
B211E6C991093119
CCF385F12C1DE4D9
6B08FEF62F005CCA
56A6FF75DA9239B9
D7282FB801C2170E
53D74C317E25ECFE
03639DF274C72C40
ABC4AB34B0C9218D
60D561431FD890C6
BFF35AE1689F08E6
50CC3388F8ABF991
EC18CDFBBC887122
6234B04546499B31
78C94FB4D8E502F1
620946425AC48831
0A502980B9D6C00A
9C947D780D030DE1
A228C41C5995D623
11220E06917D114C
28C0690B7E674841
1044846C49BA5C03
C200393452A89769
CF79FEC0C21A3A87
097F9827F63E20F9
45034F610DD0DD3E
59E0310DFC7E9D9A
4C89DBA1BC1A248F
6F6A0D8AFC4AB262
0AB63E61FE19F808
E6FDF7604DE69BFF
9D08D9FF3B138E9A
3C59C3B95D4AB535
D890F807D85B57F4
6FBE3BACBB3987E9
F99DE5BBE579F9FF
1892E87CB5B2FDE2
5B91404E2970B0C4
7E672AEEBF3A3E7C
5793DDBB90FBA59A
7B1ADF10D6392781
40C7DFED8318DBB9
94F0105BFB3C088F
AFF85BA34B1153E3
C12EBF766998F5C0
3FDDDDC774D19293
1F54FF3F3A7FAA89
CFA2217CC11B4C74
0AD9F2098CC2CD59
FCDF2576B6CB73B8
C52ECC5D5E8D6847
CD99AFF25F239CAF
BEF16FEAFF74300C
C71272A673100D42
3C8181D5DA8A8D3B
ECBE85BE3B9C1366
E0001FE529D71E47
ED20C0D54F5DC044
F78C9B01C4A5B23B
CEFEB0E891343A33
CF8111C2E63FEAEB
BB46D2B8340EA2DC
AE4D5CAAFDF34140
A86647DE7E1CFF1C
EF35635A5122BF2E
ECD2CFFFD3E56F81
5892EAA55B00AE0C
67988794B2273B17
670FD619A21D2C04
BFD0D20980D36466
0721229E487E406A
016CAA01FF6A4608
13018901AE2D2FDC
87220334EE842E21
9098B7994E89F82A
0745E19C76817F21
CECEC6216854CF8C
64B95DE0CF2BD773
C99441C6FD380113
EB390BDD0F6CD712
DBC1726EB2ACF27F
28054058F8343AB6
FFA6D0CEE4EE672C
C20C093C4E20268C
1E1AC932E56E1A7B
CCC63556A0A2F901
DD96C914C490D875
1013A02741272306
C3356B8C488C3307
8827E867C23D0503
EF874E0EEE21C4D1
09148F4AC97A939D
924FBBDE47542900
55FAEF8E2443C198
6F06A18C4320D025
DEC98027B6F4EB8C
CAAEEA25B9BFCA47
E60DC1F060005C97
D1EAAF8B1AD80002
ECA8404C4916B7C0
055A91BD8DC4C6ED
EFF9EA33F09DE414
8D7D19BDCAC8F206
4CABB9C189058472
1ED3536C5BD8F6B1
1D7754C476E25B8D
E17548EE0CC08F53
172CE162E0448204
8A30EECB7EEA2E08
FB4CCC08F0269375
50973A53A1114E98
07CF6796DC7C6660
CE5C06CF55417C07
A4BF76729B6BBF87
D7CAB10B0766C001
0EF5FD641307C9DC
0012ABEEE84C901D
E0905BE237F5DFEE
534F419885E33A34
44FA81C204C35FE0
1FBF89D30A8491DF
AEFF4A3CF9B919F4
1C11B9C6EBE95CFA
10303650C9DC3334
BF7ECF7AFEAEEEFF
307619F58810F94E
264C06EE3AC0D623
DBDFCEEB7DFE24F6
1332538E6E68E980
C6A0ED01141A0D16
0EECD3DDF00D09C1
3FF7710140E9FECF
47FDC2119FBBE204
0EC5B03F00F20F9C
E79636F13800CCEB
A338592292761C61
AFA40CCEF1084800
2176598056F6C1BF
00093FFFFFD1ECF7
00C490037EFD56CC
F991E3E5CF18BFFF
08E7BCCE057FDEFA
0CB8E01B66371230
5B18D1924291E863
4643F6269FB0A00C
005261060FFA8AE2
D8AE870029EAE0EF
24CE46921563EF06
B34F8040F35688F6
208E1A5135878001
C97E0188DF004AD5
79191110003DC043
0668D2ADDAD3BF7B
23BB007B02800A78
AF0CF8117EBE5B04
FCD2B1D349A6AF02
13BB11820080DCDF
99FCF722410AE398
6AFF4FEB702A37F7
A0C54058B2301E20
8833EFF57E231048
8E8C9000BBF6F76B
163C02AEFB107F7A
F2934E2269A0E388
2F956FDE82FA6C00
39DBCE01DAF3D4C9
226DB1406EBF088C
CCDCAE3C4FFFDDE0
262AD14FBFB5EE21
A7EC40BBDF6ECD21
40D431FFCA05E159
FAD5F5EF0D44D771
884E9B9BD6ECD2C7
3DB35F7D30E93884
D0001E842C20F00E
77740108F47E2176
3000ED50F4103738
FB33F733EA040484
BE25F277E20B1016
79A5C19FECEE0339
5FACEFA75944CFFC
30B7B75DD1419333
75F33EFD5D1D66EA
FF053DAAE3795ED3
E10DF46A7878D2CC
A691A08E88342608
907204E27FFEBB17
A6BE87BB6676210F
60A6B09B45F41175
0E71571FC08033DA
11232F07C3349A3F
8B370DB5474C3384
7027A029B799A73F
3DCD21D463351FF2
E41898882931A831
277FDBC4AD32B084
0867AE8A09363330
31656E54B8E738CB
6B6BBA4EC964B736
E896423D620C9A22
D6452072BF3F6777
C6AAE04DB722C5E7
684736BA7604DF51
5923391C16090366
CF6CF49708A33651
E5116FA390FCD025
B1371562BF122837
80882E59BF73E111
D615336E32293981
BBECBFA8C92ADB97
C15A73D5F40FF557
DF58FBFE29AA1ABD
DBA8F20F5D10BA57
F32FE3962D4D3CCA
C276D02AB3E6752E
EE94C100F0127771
D92365E3A5D3174C
C20CDF948AB3E196
10C7DE4CF7F3D9D9
5776AC116EC09CA7
B004B07773351117
1DBACC1C0080979D
1B3A91ADCC946838
2122BFB25876906E
3FCEFC0889F0B9B3
B7B8B6FCE7EBFB62
33463222159F3101
953F66FC1E720073
BE47E436BF073A8B
A4E2FFF7F6FDCD79
8934B8DD1466EBB9
0F243146FBDAB8FE
8A908EEC10667BFC
5332A372A3AE4878
BE00F9A2FC2A0213
5570AFFEF3F60718
FA28EBE2BF04611F
DF48CFFF8E38F3F2
3ABBF93CCEC86ABE
0CE43E9B8E3F2A9F
67CF06BC4A9EA802
D9357CE1E428705F
F5963F248920EF3B
FD7CE6013F6CF0C6
F321CC707F61CEEF
D91E242C8EDB6E13
0C4ED322BD9C0810
FB10BF66F8DC8C75
EFFAEA05277CE8FD
4CEC11C76A4E800B
BFF4CBF2D1460018
2B00EA890AE254B4
CD08B1183ECD51C0
193629038CFBFE09
3353611F5E4F0BF8
C035D311C681F408
C903725750195FF4
EB9BFDFFB84EF940
39BD6CAA2AA48187
600508F654F52459
4802E076888B0DE7
E2234BF557544001
1064D1C07EC75F77
26974B8C6BA7332F
F49101700D64F340
48011338DC94AC53
02E62B4350446F31
1AFFECC58574FD2D
D00F424D9B97D822
D9F8C13D5000ACCF
ED000FED900EAE9F
231C0340F18F06E2
B8CA090359BED4D0
A2095135DC81D930
CE9110FEDAE65588
D0953180468891D1
1118D7978A804626
5D718F734F46FBFC
5C48A272CFBEAF60
14FF08B7FFAE1A74
21DDE881C0506C83
5FE0FABC91351D32
E003F7469973DFD3
DD8248BCE4D47D0F
2BCCD4587ED2492D
571100C6E8E4EDD1
68E2E28D35C058CE
E8F0A160E10D811F
50409AFD13ACE313
7BE0860080D06EF0
EFB7BD0351E9F28C
064718D4617DA923
AA0EFACF9390F93A
2F9DF34F564D2E4D
82C342372059B9D3
701477B1EFC2D917
D885AF7F84E48BAF
F019DB064C35B46C
D6C59278EF3B10C6
1203027B6E7140C5
F4D300D4045509DF
886BC901F3C8AFF6
57E114EE40F63A13
0A044BF757B98845
AF8276A5EF5549EA
088D4B7DFBFF9FF8
D1920CE3299EBBFE
17FDFEC8341F78DA
0000000000000000
0000000000000000
0000000000000000
0000000000000000
0000000000000000
0000000000000000
0000000000000000
0000000000000000
0000000000000000
0000000000000000
0000000000000000
0000000000000000
0000000000000000
0000000000000000
0000000000000000
0000000000000000
0000000000000000
0000000000000000
0000000000000000
0000000000000000
0000000000000000
0000000000000000
0000000000000000
0000000000000000
0000000000000000
0000000000000000
0000000000000000
0000000000000000
0000000000000000
0000000000000000
0000000000000000
0000000000000000
0000000000000000
0000000000000000
0000000000000000
0000000000000000
0000000000000000
0000000000000000
0000000000000000
0000000000000000
0000000000000000
0000000000000000
0000000000000000
0000000000000000
0000000000000000
0000000000000000
0000000000000000
0000000000000000
0000000000000000
0000000000000000
0000000000000000
0000000000000000
0000000000000000
0000000000000000
0000000000000000
0000000000000000
0000000000000000
0000000000000000
0000000000000000
0000000000000000
0000000000000000
0000000000000000
0000000000000000
0000000000000000
0000000000000000
0000000000000000
0000000000000000
0000000000000000
0000000000000000
0000000000000000
0000000000000000
0000000000000000
0000000000000000
0000000000000000
0000000000000000
0000000000000000
0000000000000000
0000000000000000
0000000000000000
0000000000000000
0000000000000000
0000000000000000
0000000000000000
0000000000000000
0000000000000000
0000000000000000
0000000000000000
0000000000000000
0000000000000000
0000000000000000
0000000000000000
0000000000000000
0000000000000000
0000000000000000
0000000000000000
0000000000000000
0000000000000000
0000000000000000
0000000000000000
0000000000000000
0000000000000000
0000000000000000
0000000000000000
0000000000000000
0000000000000000
0000000000000000
0000000000000000
0000000000000000
0000000000000000
0000000000000000
0000000000000000
0000000000000000
0000000000000000
0000000000000000
0000000000000000
0000000000000000
0000000000000000
0000000000000000
0000000000000000
0000000000000000
0000000000000000
0000000000000000
0000000000000000
0000000000000000
0000000000000000
0000000000000000
0000000000000000
0000000000000000
0000000000000000
0000000000000000
0000000000000000
0000000000000000
0000000000000000
0000000000000000
0000000000000000
0000000000000000
0000000000000000
0000000000000000
0000000000000000
0000000000000000
0000000000000000
0000000000000000
0000000000000000
0000000000000000
0000000000000000
0000000000000000
0000000000000000
0000000000000000
0000000000000000
0000000000000000
0000000000000000
0000000000000000
0000000000000000
0000000000000000
0000000000000000
0000000000000000
0000000000000000
0000000000000000
0000000000000000
0000000000000000
0000000000000000
0000000000000000
0000000000000000
0000000000000000
0000000000000000
0000000000000000
0000000000000000
0000000000000000
0000000000000000
0000000000000000
0000000000000000
0000000000000000
0000000000000000
0000000000000000
0000000000000000
0000000000000000
0000000000000000
0000000000000000
0000000000000000
0000000000000000
0000000000000000
0000000000000000
0000000000000000
0000000000000000
0000000000000000
0000000000000000
0000000000000000
0000000000000000
0000000000000000
0000000000000000
0000000000000000
0000000000000000
0000000000000000
0000000000000000
0000000000000000
0000000000000000

