0000000000000000
0000000000000000
0000000000000000
0000000000000000
0000000000000000
0000000000000000
0000000000000000
0000000000000000
0000000000000000
0000000000000000
0000000000000000
0000000000000000
0000000000000000
0000000000000000
0000000000000000
0000000000000000
0000000000000000
0000000000000000
0000000000000000
0000000000000000
0000000000000000
0000000000000000
0000000000000000
0000000000000000
0000000000000000
0000000000000000
0000000000000000
0000000000000000
0000000000000000
0000000000000000
0000000000000000
0000000000000000
0000000000000000
0000000000000000
0000000000000000
0000000000000000
0000000000000000
0000000000000000
0000000000000000
0000000000000000
0000000000000000
0000000000000000
0000000000000000
0000000000000000
0000000000000000
0000000000000000
0000000000000000
0000000000000000
0000000000000000
0000000000000000
0000000000000000
0000000000000000
0000000000000000
0000000000000000
0000000000000000
0000000000000000
0000000000000000
0000000000000000
0000000000000000
0000000000000000
0000000000000000
0000000000000000
0000000000000000
0000000000000000
0000000000000000
0000000000000000
0000000000000000
0000000000000000
0000000000000000
0000000000000000
0000000000000000
0000000000000000
0000000000000000
0000000000000000
0000000000000000
0000000000000000
0000000000000000
0000000000000000
0000000000000000
0000000000000000
0000000000000000
0000000000000000
0000000000000000
0000000000000000
0000000000000000
0000000000000000
0000000000000000
0000000000000000
0000000000000000
0000000000000000
0000000000000000
0000000000000000
0000000000000000
0000000000000000
0000000000000000
0000000000000000
0000000000000000
0000000000000000
0000000000000000
0000000000000000
0000000000000000
0000000000000000
0000000000000000
0000000000000000
0000000000000000
0000000000000000
0000000000000000
0000000000000000
0000000000000000
0000000000000000
0000000000000000
0000000000000000
0000000000000000
0000000000000000
0000000000000000
0000000000000000
0000000000000000
0000000000000000
0000000000000000
0000000000000000
0000000000000000
0000000000000000
0000000000000000
0000000000000000
0000000000000000
0000000000000000
0000000000000000
0000000000000000
0000000000000000
0000000000000000
0000000000000000
0000000000000000
0000000000000000
0000000000000000
0000000000000000
0000000000000000
0000000000000000
0000000000000000
0000000000000000
0000000000000000
0000000000000000
0000000000000000
0000000000000000
0000000000000000
0000000000000000
0000000000000000
0000000000000000
0000000000000000
0000000000000000
0000000000000000
0000000000000000
0000000000000000
0000000000000000
0000000000000000
0000000000000000
0000000000000000
0000000000000000
0000000000000000
0000000000000000
750A37EA839710F7
F716ECB6BC19E771
E4BAE20C44C5B012
BC076FB51FBF6326
65381DBB506EA077
683F0FB6FDEAEAE1
08BFD1E6F54D37C9
11FFCDF3F3FCEDFE
68F38E7B04606E3E
232830928A0B3869
9903558A761BFF02
090F08C722284F46
D0A300EC90009BA6
983910EA47EB74CE
47E05F6F08215ADE
9AD9B91DFED11FEB
101AB1DCFE4CD7F5
808A630543670C66
71B8C0140004109C
7C20FBF683004D4D
283045C5B897F403
78DF98C9EE11DA72
C1FFF7761B9FFB84
7DE815154B0F44F5
1D2BFF0FDDE1BA01
2029B0EE2EE884F6
C00520201DFFB877
012A9126FF85079F
829B2E247A3F2229
6C6983FE220DC0E1
99B061DE702E1C7B
D07FDA7B34E93082
04565EF1CFA950C8
F589D61E91812198
7F7019E700706CFB
780000D102BACCBA
DFF7EB392850573B
17EDDB05B0CF897E
28D2087DEE2DB003
2A6E00F755911F92
5EBEF68B75010AEB
000E3BEF3395E74B
1E6F33E8AB95E07F
6B16DEC82F0F136E
A03A00134D2533F9
1FF1E112DEB8F073
79299229D8F7DD82
F0E0759800FFB09F
40C85B03760C8983
F079FF2BF28591A3
39326710100118F6
1824099C770000A6
C3723DA5D456019F
425A58E1F7081678
E7107062F332B038
DDDFC31299FF47F6
9666C7CFFE48803F
901B370408CD250C
06AD83AAF883F4CE
C5FF7C1B01F6DD9E
3D79208331980019
62CAAE0BCE63FFEB
F60B8A01B8CEEDFC
B70C4976388B9D53
FFCE9DD84E220457
D63726DE8819D5EA
DDAE06046AE1FF41
9F41DA97EB86A204
8DC7103062512E5F
5DD8CF2FC728FBA6
8E607DD8C32F3BFF
AA27C58945148F6F
41686C0286376100
F51A447211812C47
1062A9867FC64A78
35F35EC7FC110AE8
64219F0E3233743D
C0550007C87AFEC7
4F838AAD2BC42691
7C919C71ECF6B321
FE02182F1240273C
1C0666491C4DBC85
100F45D822A704C6
766C6EE21D451F53
C9E721410A1F6154
AC3BC0400C4A3079
5D05F75718EA4BB7
108982A8AF37602B
21D4E63741A80000
03F60BB0290589C9
FF4090033F33A8E7
88EA6C9B86338404
F2BCD2673F5D2302
E48610303EC57A38
44B54A681053DFED
F351013B86A83D10
00C2C4AAA2226F93
2C125853C6070C09
98DEA8498CD47C77
75020402F620D683
444C84037B66B4FF
03086612E717C226
0210E849BC3605CE
75D7AC5CD9C6FC23
0709419463056DAE
4A135FEFCD80CC87
FB1D391C624E5112
AFD65924BB7DDE2E
00DC662ED9976EDD
D9B00E1E01100474
1E2942001F1B1710
82ED40F71BE8217C
CC8B0E00C98AC026
840600D4E60578F7
08E499CC06D9FE18
6577464C0DEFE261
6B3200E644802604
34D0ECF3E7D97100
2DBEF9442E0923AB
B9B70103009ABFE2
78873B9BE622DA08
F1DE67CD8CB98311
038A949D3B821FF7
E67B9837C18DEC12
C8D3198A4148324C
B24189AD93078F09
0B7CC533316913B5
06C4CFCD11002CD5
DE80CC55F1BB4CE7
804810805060198A
9029BE4620F807E0
6098C8971B33DB3A
FEFD4D9B20B24100
8920003284DB0010
4061B1EF22A5DB3B
3801B7FE6DFFBBAC
DE04966FC95C2A31
F87DE9D5B0042639
E5DF479448028530
980C7A1211A0000F
D9DFBC79778DAFC6
020AD43810CA0188
C8FDF1F5089FA767
107B35FEC022E2EC
3D0CFF9E002388AB
3FFF98CDC26900F5
A25406633148A848
5FAF55FD2EEFB41C
869D48C5D80187FD
C2922459A2C1C087
6A0E70893118D7F6
F030B02784CD9216
C084EBF5CE3A0222
5A7DD1544013F7FF
467980086921624F
9080D3A201D19104
CFAD000CD17EFFCC
8139FF228EE13602
2962BA31401B0318
79CAE751B1DFC000
8331EC6720B82FBF
E2EE2A617FDA1004
4A051C4CEE041484
D02BF43F224268B9
29C9401551388E58
561489B3880A5F77
DB3C19083796DC84
46FF4EA73BF9C7FF
E4089CDB4AFEDC57
ED5C2D7FACD367E7
8C971EF5513FE46C
0600AEFF56C09D2F
2C5ECCF6FAAE410D
A07D4EFDDEF1C447
889180075C844FE1
73FF2E5F9A10AE61
9D00809EB30088CB
3A273000ED6DEFFE
64A5F04178270011
37FEC0EF4EFBFCF7
7402EB107084C3AA
FDCD2B317F3C0D71
FB464A10B8628004
265DF44528CDC116
CFF2BBFD8AA1EE26
5CF8E1FE91FCDE6D
7032F010083340E2
B3DBAE0CF12889AE
6D5F404C58088E60
90284071515C3802
D673BBFFAF1281F3
5BB75EE980046E33
75261423C0027DF9
F0C8AE1583618567
59EFCFBCE0470E56
D6FE4F33C395D71C
7DFC6D7DE0B78BD0
8381A835D1405ED7
1023CCC8879F02CF
3D059367C0280EBF
5D5BDE29E429EEA8
123D09326719386E
DC5CDFA66216EE8F
F10188079920ED47
C1A10A2D7104BC1B
7AB7F0BECF8C946F
F164118BA8EDA0CB
9BF7481F651A02A2
001695BF57D3A3AC
D1C9BB59534C7503
5D2051E0C003C057
1C7FB3559B00B9D9
33F0A19B6F575042
6A3B97267DBDD2FE
617CAB1800121641
149AF7F32A38E001
9923339E3DB1C378
00897D203A8988DE
0710BE408113DB00
71038293C063D9AC
828A2B026606BAA4
5F2DA6C251BE82B3
B7B0602C5251E45D
547AF3605541B110
B904BFFA7679093C
1F08C53BD953FD00
64A03746D4FAE99F
F40197B79770EAB6
44D1DC2918D90FA4
6B20053CBF025F47
94FF0D367B3DF20B
280E4FF97125B7A0
6F9AF489208CD558
CF832F685192C907
1CEADE32E811FB0C
0112CBE0D63F2628
EEE018F58F19DDF3
3E6B2FF6CCFF1A6A
7FF1337364B6C701
67A100709E2CC03C
1F80DD52AB08609B
446FB3207E0112AB
11324E312302FAD3
113BA1123F7000B0
C3D218E31600FFA1
B1986154400ED22C
2FF230F8148A777C
FAC4833571F92FF5
10FC188AFF687DF3
C72F1E6248593E3C
E3A40C335E02D8E6
20E981F2C3BF6488
08080F1240D10A01
C21EC80FCE6E611C
246BB051907FE97D
5F79CAA52CC918FB
81609901137A0400
F5B1FF827323128D
5605BE23ABFDDAE5
D8614EAC1399431E
AC000576FFD220EF
8083B530CE7A173F
FF4ECBB31CD768CE
83FE0108D151C128
440C61BAFEFF100B
869094DFFDFFFF7F
3377EE8484B77635
36D11FF7CE7DDED2
0CB25BAABF85480A
5B756FFF81C48029
897B65F0F16697FF
8B3F36A780088295
C5CA0001DCBBF7FB
0802724D7FE0E987
1EB7EDE2DE2BC4C0
92B18BC97E6CDB33
2DF70EFE8F124431
A703F8971133E6CE
CBE447B38CCEDE76
1006192D9CC37FF8
0CE6AFB348A39038
8A4EC6F80F91A045
FBB9BDF3559406FF
F7FF20524EE0A88C
DCF22F79B84F2567
FFE726CC90AC8B7D
5E634305377B94EC
F05FEF6B02C4D5A5
FEDD08BC77BB40F9
6D9F4A64FD8B9F46
204658D3FF77EFFB
275C3F7FAFFD724E
ACF4513ADCC42C2C
098D45829DF4277F
1DCD270336DD0DC8
6A24FFFF2135F981
00010BF3F2FF7E38
FBBF413DEEA251CD
3785D39FEA31FFFF
FAC7022599E2BB7F
FCCED3EE4A33E18E
740A7FFFA07C63E7
773352F68CC6D13B
CC86018F71AF38DC
6FDE4215AA3EBA95
185B31EEDF6590DB
85CF9F2703027A4F
31ADF2DC86626E8D
6FF1C438D2CCA1B9
8EDD5088FBED649F
A36B17A4EBEFF1A6
5006ECA3EFEF7456
10A323C1FB74042C
CDFE184F3FCDCB92
B9FD9EE93230CCEB
BBFBB772BB114BBF
B92AAAA350DB766E
2EFF32F419BCA3EA
D5CEA901C0FA174D
C34FD1B46A63FB14
9EFA6B20F34028EF
B36E108240461DDA
B7691ED5B4EC1BEC
431CE9B4430AC3AA
FFED64E7644C21C8
4EA023C08455884A
6C76B5EC6B22D7BE
2B0122FFA47FFDF9
1F86F9C4E3B82273
C87701FBBA2AB628
440677C2481010F3
811F3B468955CC19
CBEF8AE06FAD9F8D
16EED680710E0F7B
A17E7D840F842708
80FA3577FB26E6FC
D1C2F24E21133728
17FF804FD7A1D1C9
22D02FE304A6BA14
AF36514CFEB6EE90
0C9BACF4C9B4F74E
440E250519FFC897
FF80A09087D0476A
9D35BA0C1249B3AA
4408C1E7CC0A82BC
DEFFF7F04F8246EB
04DFC8344D4A2D8D
D2BF03CCD188C8DE
DDC4A31E2B8DDBF7
11F77F81CCE83706
0F68348143CF3798
F0C8668CD7D55404
3F010857393A77EF
73FF0EE5372C1C86
9A13E235BD447604
7B2AFE3F8D831325
6988544FD43ACE88
442403337B19D770
AA3DF78822B77A84
6FCF4F88F0DE3B7F
F01D7FDF3B2E195E
CFDC33B9B75CDDCB
2CCF82F1C1A5E600
8600E8FA50DD3529
0EC04DEEFAFCD125
B36D2E73C5C7819C
181C330F9840197F
B75CFB3FDE722EEE
FFC4F29AF8E54860
3E1244E4CC636F73
6765E4C171043045
B6FCEEED5279DEF5
6400F3812BD6D44A
A3C588D81F7E0981
DCE3CDC0F0E08421
256EE64409702041
0D63B8BD1ABF4EA6
14FBCCFDBFB88031
F9D06A6B660140E3
F0082EF6F399FB78
E90F455DF33EEC6D
B609E36815C87B02
57EC8467C60611C7
FB3BDF6C344E0679
F9DF72B3ECCF47D1
2F72C82B0E6F571F
FDD3D8FCFEE82F7A
F7772BFAC0DB88F8
EC1D6685FEFF5C0B
5FFFE924990F4ACC
6AF634C2B2BE465A
F34DA9FF008D5D46
7117E4FE600803FC
1CD322044CEDEFE4
A2DCBFE250CA53C1
C04330C8FACDFDF1
05641198DED2F33F
8EE4F3CBEDF5876F
C88FF9CA7741DDC8
8A94263D9237F0D4
60E4205B209B688E
6CF900BEC039FD4C
652EB3FB0663ABD6
FEFD9881918B6BFF
FFD701FA7EFFF1F3
0A8F11334FFFC3DC
6988CAC4FFF7773E
CEB1FF90A8EEF7BA
A03082B6FFFFD643
50028A41DA83E74C
F1F77FE5E49B1980
19D9CBD3E72F7B1B
18DA1A940C38CAFF
30B5FCA9B7EE0C88
C51939DE02E2D710
C12FEE7FF9137D6F
1D11C980DFF860DD
E0014455CCAD081F
762BF3CB1D606C7C
64CEDEF819491DC7
880EE84797BFD920
A734AD7709BF22C1
73355FA6037162E3
A3E19888AD57FEE3
A76FDFD409BF21E1
D70833513FFAFFFF
937701D6DA566188
963EFCC652F44040
C2A5323D11835E3F
F32BC1BEE3D071CD
AAF9DF4FBDF1F0AE
FE36CC7FB6FCE813
D9663FD4DF7FD945
BE41E371DBB3FFDE
F26F6D4F5BA2C182
F73C41918A77B38F
0C826D2F7473BF60
0CD8671F8E0258D2
079CF6BFF6B2DFE3
E37AC4F7E8908E02
209DAADD1033BBFB
05C4D476F0D1DC77
10000CEFD6EEC5CA
B800FFFBD124E471
73DFCDB0D6CB99FC
7C8077C8BC81809C
FA13E0234FD89E8F
DF391899FC63E9C8
67BBC289EEACFE2B
8AA919418A63BB9A
662137FC3F489AEA
66443779C900E801
98DBDF2934803EA1
6FEB074A222713D8
77403A3CAEA32627
2646FA82EC05B623
FF3F61DE8B979EF7
59B60B67AB500BC7
76886053A72A527C
F7D65772CD24C42D
0B7DBBB008DE2280
ED511600B685EE01
088B2061F71CADA9
9F2E32EE41680419
F92977492F879801
6FF74CF404868F01
EF1E77C3BDEF2771
CBC339A767DCA768
E73D2F7DE38CE6F9
0465701257DFF8DC
6E1114ABA4081EDB
8C72A96C14008B07
A68450F1847B8FED
FBD3B6F59F779609
1DFFC6D5AD3B638B
77DD4AED172AE6F2
EFEDB7CD98C9B106
33917A19CB2C6F8E
CFD296F76BD77204
F98371E7FE295EBF
FF2CFA0B7D93D337
930DAC6012AF76F6
360FA608A99E5B7D
03BEEAFE8D86A42A
398CB8EE643F49D8
5076DDF66740FA03
730F9B199A179745
11CBFD3E1E7F8FFF
E5748B6F3FFB5A80
88DCF5162A5D82FD
A159C068D5E60B00
94893998BB34B5B1
21077BFF37B8B260
02D75F6F180F0F80
1B7F3544020388E5
D12BAE76C77DDA33
FB166E4581F3E768
CA9B945FA0FF0EDE
E689D1C84FD03163
C2E013F602FF1CBF
3607F2BFAFFDFD64
0EE5ECCB14F3FBB4
FFECEE71BFD4CCD5
2231300591F37375
A7DB7ABC32A867C8
73BCE9E03F72E061
FEFCB15DE772E108
E186FFE6981E3E57
88B7E8656E0B9DC6
DD981FFB13984726
38D657F503DB33A2
EE1FA6E91404F73E
36807D63C1053200
C569941B251DAEA7
13BBD8AF618F2036
6105679D920F822F
7422EC02E28448CE
B59073E571F1EACE
3B9F261655CA4703
C24FD9170E525199
6C03980ADD470095
E0BE025E1714414B
4D4E3F03588AAE05
211FE34C62376E77
72EA01289A2C1B26
04654EFF01C29003
77DA07F78817116E
E27265813ED99302
79DBF6270965FDBB
199F599C2BF378F4
63751189080FE022
D7891F54AD1836D0
F47E006538187C8B
78AF8BB25A1372BB
E54FF526D7E3F104
9D0BA095027F4353
74751C861C8DB13C
634076939532C1C6
638C0A6F08F6C7F5
A41608917835D00B
125BA3C9AA215AA6
439FCE0A55F881F6
0890F52C5709B877
24613B3AEF2917BE
F8CB9E700BC52062
FB9D51DA77CBD25D
F5351447FDFE32EF
F60300F7483CAA5C
94767B6E2DEF1162
1513A26C360C4C75
7C4F01423C282D0B
03B3FD8C834A6984
7840C98D8C079C07
28B96B83FBA9E24E
14CF03A00A28E76F
F2A28E3FA68C200A
DEE8E21312393989
F506059B04AFF066
930AB220E1728303
DE8717BB1E8B9054
8EEA79AC0A8648B5
3023670039CE74AB
24D157008F0F289F
8028F202D305F630
D1E61FF559CE933F
B98F3F25888BDA46
E01F91A695C7C78C
4014AF3A643CB521
D2CA058BDDCCB32F
51AB17782116513A
7828FAA80E0904CF
3F77AE81558EF00C
FC12BF1319482A2F
6B0BFDD98C0F6ACB
D53AC606F4CF7459
F1A60F827A5EC3E1
BC3CF00AFE09212C
7D32400685737306
346C62167747E004
069C4F67A110A308
A20C6EDB8CF310FF
2504FE80D4886FF8
3E3F0150571892D1
BAEF4442390703C7
788FECCBE601E03C
07AC01B4A4757F00
00C050827FD55E22
AFF08824ABFBAEEB
61A9929E8C8100AE
C364A2027FD0B973
2562760479AB4709
FFD1166B691F355B
D38040398EA4F313
CC0464E7A880B95B
CFE05EF2778F16B8
8A40C10417FC4F63
662F2F0055A5C889
10F8FD03D88458F9
ADAE7760E305C02A
ABB3222004059201
75698103BBB5298D
71109ED9AB044FAA
EF1C2FDE211B2488
73DF801158F0D499
6E1C77A6A2B14104
6E4F3B6F004B40CD
9C2ED0000966C711
EAFCDA960061E957
7BD6F47B9737B050
DDEB622E084874CC
03114154119C8163
CFF4108A7A0BC3FE
D441AEE09FF18615
76D071BB47F09193
130906D153738F38
5A4EB422A282D17C
7EB1F6CF2D042C28
93D1E9539B0CB008
267F03A9FD643760
9877115AFA2FBE70
A89740404F0FC6E2
2161B28E400B5884
F3081CBA28A0A8D2
44800A06C8E50EF3
97DDB1AABEF776F3
01183640040412A1
0C1102E08D8A7F6D
126A28FF42BBCE12
CE763273DC7130C8
30844E0C003BD259
CD208D7545D5997A
00ECCA937B7FA7F5
E6AD866B52BAC88B
0E80068967472723
CC8F8AF5AEF1316F
4D218C65AA8E5087
64046C172E707787
1D20A5082124AE26
22F90E3A720E42E5
77388B8A34C18008
30554DB7EFF6D233
400B9EF8BB32D5C2
11A753E6B580A5C3
DBE548D75EAB5EC7
BF6B50C073CF73F4
987E833FFDE5111F
8AB58C472815D33E
3024F3973FF4F955
48ADFFFF6EEE3AFD
446320001AC8F208
0794C6B18890913F
169E3B1871CCCD8E
CE6FFE80E89B052F
702F1143933ECA9E
BB32E7F4CE03EF5E
2FCC7665603E4CF7
6084DCB93333ED67
FBA9EEA77FEB329D
17C779A1AB12F9EB
B9761F763FBBD69C
0E18818C4CE12D74
5BBC244CF2826B85
09D6A998C1673EEE
943422CBD18DE5DE
D90B8175965A7E78
FF79DBF766715CEA
2213F8DCF2253B4A
8090D38CF50DD1C5
EDED111400ACE8FB
106A6D609C753EA7
68971CC090937623
800546C3DB2D7754
847016D31911FD71
D328FF6E39E3BC99
CD03E97A6630B710
1B4EE42E22E25CCA
751B6A37511AA661
404066C37697C3E3
E27FEAE56F026FC1
0EE9A038BBDECA7B
802A77E25F62F473
CEE291FFDDF5B532
0C7885D656BFC3CD
4B3017C752BB9FEE
41CD9671DFFCE0CC
EBE5C03B4B311905
9CF87934DF7232BB
E0C813321AC8FDFB
3BC0C5B251CD9C38
4A8269CCE13D7E76
D10EC61533368104
31148CDCBAB740A0
4BC0FC5123928040
E7F11EFC737E1EE4
4E40F594F2024816
FF7FD4C9A89FDDCE
7F848A75031A9ED8
2C75885D98FEF378
F75A414676177937
E1576D48D51A9FEE
A5F76DE2218A31E9
181FF37B58011932
301E6EFF9C812737
79089F27A37C0EF9
1F0F91F9095F4574
8C95395D7B47C178
F9DCCE27D0B769EC
1AD541916DE813B5
B912CD9942FE5E30
241BCC2D7F844316
DDD90C5F3D4A6BDF
9FA3D7F7F7974903
45EE1099C4DCC104
6C60F0841433B865
3CA3DFECFA9450DF
90904E025040EF92
30914ED522207138
D8F717D9C85D22E5
D7D3835A0589166E
77424BDAC88DD36A
00DC60DA78112B80
655D390C075C5EB7
701F59DA4163D0EF
165FBF8760E07C07
E9E831813FD47464
B4123BE866109A51
EC97EABDD17E519C
409D7D206FA8038E
FBC8D5CFB4291400
9D6B7D9820DD875F
86489BE2F4579193
086B60C6ECDFDF76
2B60E699069C8EF6
6B9489863E091473
37F32D5FF01149DF
2A1D01B89A7575A0
0C8773A6C548FD8E
CF0E7893738DD9E4
E7BE75938FF0D586
F01D44729EB066F1
031FEC801B73F296
0BF934FB080F02D9
40D75E23E6E7644E
96974C18F166668F
FAD8B8970110130D
F09E1ACD45C1004C
5E74FB647FCE20D7
6F1CD4419FFFFFF8
5B004C4561936D1F
4B7B4F31FD9C2269
60FD7FF00D14B208
4E007185522BD67F
95E00798FC08D9AF
6A3F736F768F908D
E88CB80D3111A803
919C1DC571C4AA70
D5BB148C72C7B7B6
1CECA7C3E5F91744
46B3E942800BFB72
594B201314504379
3DE325D7F8ED8E81
C65EA7891011E099
03B39D27F1915AD9
DF72E91B7FF4ADDD
FFC4F2D1C1DD4836
C5D380DCECEDECD7
0239205401E73C76
50667D9F63C1DC45
91C977B48EEBD6FB
1C4E2FFC0EF836E9
99E0C00B7F90E111
17A6DB821EF50655
A10EE8805C4DA2B0
D44D8A8CADEAAA35
03B4AC52D20C405D
B318C9A2F3A84848
83FAD9F2064398DC
900F062E2B80D900
C8FA117859AE83CC
CE6A013EE62B73FC
BB61C14691225B5E
7E0E3963FF72266C
B68062985FF5D8B0
E603670CCE173943
9675E5F8876C16D4
500054A6AAFDF648
CC9A502D6B8875B7
589EEA3BBF2A8884
F108FFF93EB32A12
1EDD8A3678100E1A
81139998E7F721EF
6FFDEDCB67306CF3
7F1D775F36DD3CC0
158009310CF894FA
310AFA68AAD79890
980034EFFD74B903
A24988BA5A00113B
0C2E0984740FE239
A7C44457CEBCC381
1405B18A5FC54BFA
9CF23F85C04E1810
4809F70A03112A33
F7FCA7FD0001881A
C8F7004802244B47
E7322FA027F8B001
47313E61797FA0D9
2373641A4163237B
188610C34FB5C802
6BE78828A300D5FE
8636D08091956C03
2A96AB87FECEEE73
43F95F4E42455A96
C33940110553DCE3
0FF5C888ECE4EF3D
03F8A896AB3B2E8E
51B4D8896CF47118
C9336D4B6C731300
34F86D9773031392
119DD5FEEEFF55A0
3088171852C69149
22309C11423632A8
92330C356509367B
6010ACB19E332918
471929CCFF0C008C
5A008B491A3EBE31
001C0E5259407076
8B385D44AFFD582B
43FB79795EFF07E6
9C0EFFBCA7CEF012
7094EC80E02B88B9
019F9000DF88ED80
9808D9DC43FFC980
C5B5E67DA000D14E
000252FC1FEF3BAB
E8C8EFFD10F6230A
5DC88AEEAA519F17
FD1D07609BF6CF69
1332AE4CEF01DC67
DBA3EE01533EE05F
7F45297D716BCF66
1F44E015ADAFDCC3
F7D38202471B8576
FECD7F360EF7DAD1
9903AFF68CC7B111
00407FD60600F5CD
CEC1D5FF8809B909
B0BF7963B51E7CBD
78D3C20120165298
18B799DE4000FA89
F3F5FCDF530ABD01
D030DDFD1028C045
3D1FF448B08A32FF
F9F4A7665EE0007E
E5ECFE63CAE6C6BD
7526BAAD503A4605
1E19B1C616727401
1F3A670A846F50B6
8CFB8DDD5A657B1D
766D8FE0B3A3B018
6C7FB675A344A1F9
5972830FFFC1EC37
23BF89F177F96BFF
776B23F0912C514E
3733DF78BE4B697F
304922B29F40F99E
9C00C6D7803CEE28
FE3EF08CC65519FC
301C3F248E635FC0
0658088C79778D49
2B7DB0589804EF33
A287005F6C90F8C6
0C58EFFE691F1A08
BD9E801863790100
7B049E0BFCFBEAAE
9A815047EE6F1526
FFFB90F222BCC70D
EE767ADF9DD187FE
6003DF3C6FBD3CA6
5A699BECDE3F0741
16CD08E2AFD74424
40C91C690D4DF921
9E9DCB7FF4227A30
49CA991DA3F3D0A9
7107FB17A97998CE
AA47ED761381EFFF
7FF41CDDC53FA518
3EEF04D74C71FF7B
0084AA7FC262FBD8
B9D9B5101863DC23
630719CDDDEF2C93
AFE3884C10444BD9
3700C47DEFF54010
A01884D41144CCE7
B23152EF2FE02445
2B85F3000277DA01
532F5341F33BC9DD
7EC8C34264188E1A
73FB9245E0E10295
4709B982636E5290
E9BA8EEFA488654E
2C843BFDCEF70AEF
74E9B002EE3A3FAA
5BFF030937B90700
EEDDF818CEC24669
AF5F6402BB109B39
4FC5C4D1EF6F6EFB
9FC1A81A6332A7FE
0471F1BF85DF11F2
E8C7104F2FFC3CD7
3FE38D3476335011
6950F88BB339EC9A
224C9B25A42AB019
758D67211378F319
9A0A98D47FF3AFAF
177AFB9EB906451C
8121688946089F73
4EFD4EFF1D4D508C
2DEDDBB761C5D093
46486FBB8688E100
10030EF08A657913
0B0748A31BB6B31F
40413F00221F1998
79B1C5FA2993E7F7
773D8A7B0A2A662C
850373B9B8490004
F67203A00CFB9108
1F72B5A38F6C42E7
999DF5F708C8A6F7
F84D970C1FF64A27
A0BB86E3375EEFDD
000028856316EEF5
0FB43B50EFDF1F94
FFCF067DD9C2CCCE
FDD77E76C5E3FB01
0488ECCDA8D94C3D
FDC2BE02040144E9
2753013CE298CF04
9D6DE900CE23B54D
EF7DF85BBFA10000
81A52021AEC19301
0BC6801018238EEE
A415BF0D2B3A9FBA
BFA3AEE58EEE1176
8F437309000C9A0C
CCFECF6427D7E677
10A584CCDE7C566A
56698A6D552A43F6
B223EFE5CF4CC40D
AFEF73130D2A7A97
D3031BAE0862E8AF
01BD6FF72C0F09E0
2067ECF3E322BCF0
332C5E335974F14F
01E9182DFF0B0473
CE64A6E83F70A76E
0312E632AEC1F597
08054A010E0B1A9B
EF60391A0B8AEFB8
F04483B5FB77DB00
27E93608082D828F
4E8A125844A0CC89
147D574905DD4A8E
4C4FACE1404CC204
AC5E86EA53D098D9
AC88127AFE784F7D
A75AE5CAEFCCACEC
3FFBEE900272ECE8
B6DEB10875C22372
007CF000F2BB0047
4DC4DE484FEB59CB
376C752177F1FFE5
1E651D3A8FF65030
464CBF620FFC6C18
6BF0FE7B14D1D5CB
51139BF1F335727B
7FFEC9F200066D34
FF25C8EE19EC3815
0FF60537B8C6BFE9
DF136E7AEB66DE88
020926E4D1F316E7
B224192A0FEE02CE
054CFEBB54E233AF
962A8767B4408508
2A608568FABA312A
BA537C032025C128
98D92A493384D549
01F0974A99E3A6FC
6E739D93006126AA
143DFBCCE7C10D1C
EBBB60DB1FB7FFAC
07448121972D6041
8D89FD8400D6C927
FC8B810997077BB4
7067B650F2102376
A008449067FF0EAF
9E3A3BD0FF4F7FF0
1270006DC07E1FBC
9FDEDEFAC670F500
C484B4EE97F47FCC
C4113702B40149E2
D250CB7753F46100
07678C00662A1064
B381A30021C696F7
8CA88712F7FDCC49
36D7601BD342C62E
740F97C401002613
13C15EC9BAED10CE
56276FDF171BEB9F
DF69E2EF1BBB92FE
678CED925DC7075F
EFCE086A04E2825F
CE41F2D10B68AF0B
F6779BEC7728EB9D
8B6556660CDF6F38
756F122F8B37F1AF
102389F60148D955
099575326DF1D928
CAE033A4F78B7CF3
77FF44C893678FBB
4A44EA80BE020006
0B319240E7257C46
FFC2993487DFC4D9
215859813D35B302
02A727109A186962
80F33582088EA0F8
77B3E3F734893F79
FE96F67E48F4F37F
DE637D2DC9D705C5
611E667600772FFF
EF3B1FF39336CFF7
24FD53CBDFF72AC0
FFFB5F6100047C72
29F303FFFEA0EC8C
BB89BC163912F336
DC931826E7FBDF82
C8913677FFF10BFE
300B8317101EDCEB
FDF01A2A0EFBB475
F5FF124822EC5092
52C56A909DD18CCF
8491A0E37F6CFE67
4573EF552BF5683E
733C4FFBC0EF3042
A076920219847FFB
717200E1335B46DD
2C18576B1796FF78
D6EBEFD5312CE88F
45E141E337231D4D
2EF00E84BD0535E5
00C672F382C25918
7D887FF740C7C5F7
2DE7604FBE062462
E345A6EA7EA13703
FF2D02B44115457D
51BAC446F770DCAA
D77F98B28AFE1933
1F56EE76676D4CD0
8F9CB3D3F05B4636
EAEE10F5C9F6D1FF
A1E50BD673675BA5
135F3B90E8CF20E1
72459D12846BAD2E
2B90C4E9A697C848
F2546490609C5701
1F46BF9EB9B765EE
F221CB6A72F1AC89
D77EF50EEA4C5033
7DDF9111AE6B7BBA
A3189297C0301DFF
6EE36F98B98E9371
7EAA5BE307FBDB37
08090000411703FD
ECC39949ECCBF126
818DEFF7DA048100
100421B71881FCFE
2C041104348E898D
F3FD1C868C451986
1351DDE023DEAF0A
FEFFC9666D2DFFEA
BBDB7197B7B3FFFE
38DF6182EFE8A2EF
E1049CC108C82E96
37B50938E5EA03DF
FEEC013DA1C16190
F34820B21FEF8BA2
7F6BF4F4A728F7F5
AD8C30004131FFFD
8EF50577AFE1E1C4
E92377F58200F37F
F7D4F1647B137FDC
FF995ED0408CF32A
7F2E2D713105E128
1178FFF9117E22FF
ABB117FEB01096C4
108BF100D7FF0784
1FEABCF71000BFFB
F5FF240F880CF48E
A323BC93D511A2DC
FF834831677EDF00
C99DAFF3F5EBCA0E
100BB276808ECCCD
66F01EB6271DB907
265E5307186ED886
DC779A968DDD5807
86F9FBFFFFFD36E4
31766D41844FB8FF
10B4D3FB7DCF53CC
F8E070008B205EF3
F17367610D4B42FF
AC00D97B1D8E98CE
6FEDF6F7D19A04A2
8B2001D04C17081C
6C91710B1D81A1A7
4CD27FFEE98C9B36
7D0886EE1E0701A8
084EE0EA117F7FF1
2A47A6F4C01B9B02
7FB9E9B8200959DC
D4FA8FA622A8484F
F73710A93CCC11F9
057C6EFAF7CD9008
DB89EAFBC011C743
FFF5A8FDC0D145FF
8116407FBA5590B2
97E9CF41183A49CB
53BCBDF6A10100C7
00D77358FF33500E
ACEE10764DA6F101
AFC9488C516DE9C9
8015F5FB43399B8C
7CCEFF3FE0520326
AF9F199AA2DE67EE
E232F39E8C33939F
A41A017FFF938FB0
6FA9D5B17A8577EA
80FC0110419493FB
7D8FA99C6E8A5F86
128DA6FF52011000
8833B359FB022EAE
4DA008F521C000C6
36E750E58FC9D29F
AF53FCEB9DC4F1EC
AECFED5B6531F876
29801106C17837F4
B1FFF990FEECDD6F
D1166F86C89D1C9E
378C2131EFE2D4DA
A6E6393FE3B59220
E3498000E7F887CF
A37EC668A7436F65
2098D5017307EE7D
84CE0B20E71DC14C
B201191FEFF6BBF3
662E646788B1BC6F
E4784DB1AAC76C0A
1A275506AFFE0FE3
407BE06248271888
6F0D7A3CF9977820
332A082355C7E890
320808C7B0150004
A8BDB2F33227A398
6D2738F9BEE02B06
0FB35D9E58DC1102
764177C6745B7B0C
A97CE3676BBACEDF
2336EF0827E6664A
5650CB8C5E820011
77AAA246DA6E1452
80894DE811EE3797
4151E7A296B56238
FF8E8DEF30A13A22
4A30E836FEA76A37
C80EE75D8886F9BF
D85C036434D05813
162D18847A8010EF
F608EFD7E116FF87
F84092C411580585
0113BB79E59A4028
E0F07B2E21C06A05
C1E9ECB88F8ED9D7
F408020728D6EFB6
0021463031067D71
63D9225AFF10CE1C
46CC84850CA8FB03
F2F771DB887E6485
2D690216BC66BC2F
EE8E078C39BB300B
AE46D8FDBA2D0922
7AC43711BACE9057
3F45FD87EF347D7B
BB0627A8762A2908
423873FEEA1FED55
9A85D0A81817C0E2
1614DA8E819B7622
01718D09FC2C6288
4080DF183A7B831B
31E90333547D2CA6
ABFF50FD1F10C783
E019341FF10B0EFF
A3CCB18D2200B1B8
7736001E5F103C23
53C22383370009D8
904CCF8626B1537F
899F77AA4A0C9878
581C463A6EA673D4
591F5ADA7D268D1B
A8827E8B7F44BDB7
C7F4B04DCBB94433
54F3403023267FD1
515017F5F0244344
717394357EA53A72
7B0AD17804FD8DEC
3E92F7A286001100
7F906182D99D103B
905E0B77E96C4E03
846470B1DF0220A3
3FE34D42D0F7DAA3
89BF940AF132C743
B3214008224757C3
611F479A431F4BBA
666CBE9173325088
C4E92020047F8812
6465F8EE2548D1AC
21AA829E46FB7BC9
BB19ABF35A5C1231
C27C19EFB92C1088
79AA72DDA00D913F
B66C38859134A826
C9FE41696AFF8F65
BA3964A2A0000B88
4C4057ED8833A6F6
813E5DEF7FE0C4F9
770A7FFC980F8E77
3289B203DFF390E2
28B7BA0200096F1C
CDF607FDF92FB098
B635C65F0430D808
5182BC506430F823
38D7801B65DDBAFA
5D063237C8CEE2FC
8043DCF740D0E010
326C7BE2E4096376
02FFB01E4878166F
22BC01BAD995C00C
C7C9405B3809F620
D8D8FF348CC80107
80D7BE9F7FC6BB99
2A485FF3E11AF590
0B40D47DE0BF1FFD
10EBABAA3FC68DCD
85D48E7FBFB0F642
A72BED4E2D2B44F6
ABEFFE359008E602
3A8C60BCC9B7C47F
FF7C9B18A00439B1
77EE0E6F97F8AFFD
40070E4ECE0228F3
85FA79B59EBC7FFD
45FB46F28DBB17FD
8A407ABC988158E2
8C4944B032E64321
8FF56C430DF10F26
F192B887C000FECF
FDFDB766FA048F7D
F30067AAF300AE71
5AE33F88EDFF6F6E
EFAB2201102E1083
3CF786FE67BFF2F6
8534FB188B668043
830E8B74FA044277
D000CF18F1441CB0
7E89CD842DFCC58F
66008EFF8A0EA212
3CF5F8DF0FAE5168
1808F3AAB3BD7450
FF7B7EA651CA9DBD
3F3A65C7F988B43D
CD6CE0E81065BAA2
D467AFFE0CD74CEC
7854FF212E461711
B9C277CAC3DDBA0B
7103EDEBFD488DEC
EBB7810E77EDCC52
F4297BB9570F08CE
0303F017400530F7
58EB33A674FC0AD6
0EDE15B635CDD7FD
9AEEEFB6A2382BF2
4831DBBE46EBE22F
481619B483B62B6E
99022E10905F670A
DD7F770F66EF8EEE
F9AA7207162796A9
802D178001C6D5E7
08EA17D89AE65B9C
E835ACBD7CFDEE4F
3D7233374E690671
BAA97314938D4171
33CD1C19813F139F
E69033F43BB5D9FB
68007AC6F452EFA3
FB33A0958FB3C037
F6DE1BEE9E0DF92C
0D88B4677FB15FFE
1B37DB06D11AD124
CD262D2B2439FDC6
F534025E7D28446E
9806C930FB290098
46F07F6EF2241962
2DEA80D0C46BB3FB
AA6AF50A7F21BEF9
234FBB7AA734FE4E
2858CEB2DB95F2FE
FF95990C97466BA0
F4F033F4CF6EF7FF
9B7580F3B55544B3
E5FCDD9AB4CC1EA3
717F55C2011F48EE
0CE2916307B72313
BF32015591809F80
4841051FEC618A3C
7DAFCF3B60B13B2F
5C8A3F4246B023FD
EF769DB3709BB92E
0B61C0239FB1F6F3
E214804ED273633C
6E02D89AFBE2F7B3
9653977E94A2ADB3
301349B8BD1B088D
B7551111DB0A3780
9237DF829004FFDF
F624B8C66F0486B3
53FC158C505C379F
228AF5D7E719C050
9C3FD02E01C8F094
DDFBD52A8D39CCA0
548A5FD2FF00D83D
FD41FBE93894CDB6
00D9B7337993EDD6
3DFF630201EF5546
5D5A0A27A9E9EF79
014956490FEB67FB
FE2BD32A70B08EFE
295C07337C5C193A
8D50E491E575355F
18EC33482AE6ED19
748AF6C0BC89A5FB
27C831104000F9ED
94F57DBF34438CA4
B12559B023F5A0CD
6618A510CACA1E32
7BA4F8FFA38671BA
BEAEC59DADAFFEFF
566503608388A008
CA80612600481CF5
001B10C2E9CFFF0C
13CEB0F8C27E1FE5
FC4DB159B19710A4
D08FF8267BCE5580
E47E526ED11F7286
FFFC735DA9FF5901
37678925500FC418
6412D7C955ECE0B9
ED18F642B3AAD3F2
570E4F3BF1C414CE
9C655A50AF9CF8CD
649081D06322ABC5
8F5EFCFD12018519
F0A53174D5F2D9EF
3050BF83D22774F7
FEBEE6C58AE6738C
915196E4252BFAB2
47ADB99FC8C9C0CF
B3D3D91B24A0FE4E
D56D8E3EF0BD028F
F1C038C19DD9F6A0
41966A2395E9F1AE
1B84893032C9E714
E715430981DF8104
717031FE9C053201
988E9C57425E440A
DEBFB8FD708D5748
F1FF713CE00F435E
8F0963F875C2623C
AF1C23BC37EEC527
0080F5FBBC11AC76
1980677173CE8318
30042488509089A9
430FBFEE95B9F005
BDEB10E6DE134D98
9CCFF0D2514EC85B
11F3AE74C640A102
9584FCA19548234C
13D7D81A2CEE1664
E762B155E9D0003D
DDF41862B7BE1BF1
3C83FB9D6C817408
BEEDFCA5086DFFFA
1FCC8E4CBC3CC85D
79CE366DC1F91AAB
BFD61C760087E757
0D24C9D020F3D36C
763A3021C0E41008
211E74347E3EB20C
F1CF594EFD3157DC
A1715D388280540C
80B617FE934F7EB6
FB08F271831ED2BE
7000DEC3226E18D8
3457E9B43D1CBC23
5C8A1CD5CC742940
4448609639A97D01
70083317904FEA32
A2162924F174E723
99D8F950657AFDD6
FCEE2C47E28C7A93
21AA628300ACC685
4CC91EFC46329227
EE22F7CD66EC8C45
A80D21B69BE16B9B
E1317E9DF6BAD01D
E82AD3B49C898F94
B9F6C6D7680708ED
56A6BA54ECDF46DF
4C7DC07276D358A2
E06C276FE00B80CF
F18D8176C28680F7
127CE2E4DD033957
D8604454C6FF4CF0
FC4A8CEDFE91DF39
61BDE2F4988EAF4A
996094697BDEE800
E82E2E46B76044CC
7D836210AEC0FDD6
2E46927758C72A7C
0102D7C4864521B1
F962A23ECCFCABD3
DD7CFB2359934FFF
4569484420E19596
F47E94099973C810
14A26A78662E12E2
9C4E58D5A8A332B8
D57412C6546759FB
F07EFF0742355D22
4A19C890D3D4FBAA
CA44DD4208104113
EAC3DEB37CF004CB
529706179921E8E2
AD627EEF037126C2
48F07B427280D667
42DC0FEBB2264176
ACC876489CD85F88
9BA88F13E41B0115
11D364CAB65E4025
6665CAD05D9FD11F
77AE1CDCF9189FD1
756B6301549F0940
BD94FFB39EC7A8F4
58BE0C048204ECED
0CC098392CC0FA30
46234E2FFE45D98F
2C6892D88F6A5F61
FE899960B7A7FF93
9FD0000FD6AB22FF
D1D83000B15A3635
91BFF610889C4D80
FC91CCA44A1A4997
E24D88FBD79C3750
D8399051F5FD82E9
0297E4044F6B0031
FDD8080370162ED3
C66071A2AF930DE0
40C86200B26FADF6
373004F6416543A2
7CE0FFF77CC01BF4
789726169ABFEC73
B87A4A1568B6154F
58063886B1968066
3D0BF100DF0E6B3E
BF43FEF601E70C50
15DF71F310893867
89E583A204A1EAE6
6D9191734D7603C1
18A2A916AF55D0F8
0B54A332DA1DFF2B
86E210ED2B9F3D5E
133F8CC6CFC9280A
C83EB6541A2C408E
E449D018673B50CE
57F38460D5DE881C
E124A7F32DD38BD2
BE4C50F27100755B
3B6D0E4A57171CF1
445E51F81EE6FE7C
FB060A00FC4A23E7
0733E3F0A67F9E24
342A02617C357DF7
201822DAEA941D69
98029D14894B1FC0
0DAFCB632F212971
A8A6A9128FFAEED5
65F1C99BDD40EC68
7DF1188274E89588
C77FE09DFBCB2107
1ED48CA3FBB018E0
B28261F1DFFD6D0F
FB2E11C9DD461689
2024B77CBC53A55C
98FB1C45D31ACAD4
0C82EB0F377B9942
B29A0B15ECCC4085
24A9A8D639D4322B
2F9C3FCC00FC81EF
83607228A0CE33FF
0DDF3177A73684EF
C6CB2218E750043B
E4066E2EA00E9B1F
422069F41E2E0D6F
0443C7E7E888F3E4
9D671AE1074006E4
A0C6847FA52D04C3
0F0189D412A9CB60
4AE5CF7F09D0638B
32B918A9A0761CBD
58EAE282B6A1CCC2
8CEEDD56901089D7
FF7F9E68CF59A7C3
AE66B00D48E16221
0D54627B9BB0EEFF
6FE5D5FEFFF8AE33
00805C65F7379740
986A517DA1647731
617DFD2A5CB23DCA
105DB0E6FAF211B0
08B8329623B00793
0693E943B5B68150
21641017A70D5FB3
221033BF57AF936C
18912E7F10F45707
CC15C56A20DD138B
6883B67ACF3DB716
E520E551B763322C
93A87913C02C2036
F5AA313C85E94490
488A2D7713FF83E3
E61A5C8C9B76967F
77AF8EBDC0E11719
577E0D2626171398
5D31539F8FBCAE09
53561FBFAC230801
4093E981171A9453
04720702C0007085
F3DF8CE27060A2F2
6915682D19AF30C2
D727810A7063D804
F1206951F3AD5233
7331B7FDB56BE7F5
B433123B0597C41B
16C89EC998D6CE6B
17455772E8264210
3047D616D5FB2677
A0EE87CBB19EB351
B10C912A1107CD6F
3FFA33E21E217862
81F340F3081F0DB2
401704EFA0044733
22376571218F13A6
4E024EBDA04C336F
BFEB1C33B312E577
2029E07144DD68E7
8AEED80DE2FE3118
66695F79AC2F7948
4ECC74983FE60085
16A594165A33B014
2891FE0001109846
2371AE0E4334F201
E761308847762561
7B3820E1ECFBBC85
75888F1F508E37FF
104651213FE09315
34FC5FEE5271C882
5120E93F37EFB7FF
343377ED1835623E
A7DA81837B302CA4
E7234031553A99B2
051841DE7E948811
7465536037709D01
3800C2EE4919FCCE
7F4DDC88097CEBFA
834074628A66249E
7213B3374BCB371B
5004EFC92BF940DF
20347912776F5A45
097AF0517FFF4020
2FFB67C832B96650
1CC31460B7FD1B30
C792F2B07DCD80EE
E872C35F398E9D89
40345C13BB706311
A0D7C1101A21714E
8E4C9DCDC84D0D6B
76B39436BEF4D6F6
BD8A8A6CAE635E8A
D4A66ADC799D9796
716E63F561E628F5
EE099F9331E7DB92
F72999CB41FFA1AF
3F2CB4D47AFCEE07
B59CCAFE399E7F58
88FFE87DBF2CEEEE
56E68E82862E8C8E
F04964F4FB10A208
E9EC65642B33984F
3E96034BBB6BE05A
86DF103CE98868F6
ED95C8AE8F86A10F
77AE774370AC1D9C
BEDAFEE4715DB642
14CF30E7EA21EEC7
77C670BAFF4E0313
C34E0F63988738F7
38FCC0E12FC7FA19
7E5512EA89DE18F7
409867F5336BF375
F8CFBAB34E7F0CED
DDED17F0EF99F69F
9EF1473A41DD5606
7B7175E3BAEF9287
558416679B4C0437
D5EEE733E9DAEE10
7BD2169637D238BF
226C933143C43A9C
78543A4C628DC73E
01A625ED97E71FEB
DD9EA1C67CD447C9
49B69F90722ADE43
6E3FDC97E11DF9AC
629CFB94804F5FD8
B7FF6B11022C5A81
14ECEFF4DFD7CFBF
88C211501227C9EF
310861EC56D6C45E
280877F6203E1191
90EEDE9811D816FB
ED6C2608DD3119BE
D97AA9C60F7D66F7
8C590DCD212F515F
CBADBEAA73602328
320A6F7AE5202024
FB6DFE086221FFAF
D3EF3D9FBEF3D399
0FB7FB18DCAF4B3E
7174DE33EF44BB70
5CC86A4A155CED1F
A70FBAC8F124E7DE
7B8E322E55BEDF0E
38A2F398E3756C09
244C3A675395813F
6F7811C79F8F7230
52F8D67F4E05526F
BDDFA10B5783AE45
428A1CED0F18675D
B9DF3F2EE13196CE
2C538FC42BEF0FA8
9102E0B412981EE5
011CED10B30012A0
1F7F42106F175C01
5C81C09D5F3B439C
C1FD91108BFAB9F9
000492248458DF1C
E6C25D6A109A63BD
9568C5F61BFBCD09
C2CA8DC077F89102
849CC7DD2B7F9652
0340F674F8928201
46FF462901434FAF
DCBC95C6FEEED4FF
58EEFCF600443571
B9F003F5EE0489EF
DCC0EDB783707C34
485C1C3E96349666
F4889201E46600F2
FC17DC00E5915F5C
FC760AFCBE25E800
1886664FD49FDD06
FB022CD48B016282
95FE70181D8ED108
082E031B0D54CE52
4CC95B0B002F1100
0AE461183108EEDD
021702BED4950004
AAAB19B2C75E1084
7CF0AA78FB371F26
7CCA72205921FFFF
1FD830009A2345BF
B23E100BDE6E0000
6FFD4FFBAEC54006
139C58891506030C
37D0319E7FE1E013
5F9FF197AFB4DCE4
CF748EBDF8A606BF
19C944829C9A0BFB
035F8002D3372E91
88040F7711829880
0C1A2ED0EEE23788
FDFF2FDD01A4658C
7648868E3A117BFF
FCC2ADD78CEB31C0
CFFC8C45F8CF29BC
5010C150FE79EFFE
7480BC3C280645E7
9FFD011D38080EF8
02394116C6728A9F
F6FF71807F9C11A8
40183F9BD8270220
0F1957400011E6F8
2FFC1000E1097BFE
DEC01963E725F445
C18091897129788B
099F01CA251F3514
41013DDBF61CCC0C
886EDD8FCFBD3739
67F68AFF1EB92BB2
C7FB001D37FFD127
E990041B93FEA6FB
0CBF18FDDFEFA84F
D380A941BC2CD818
BBF409CCB2A489D5
CE30DFC6CD02637B
CCBFC8465000DFAC
D4FD23007171F364
CC2C5A95102FF1B3
7D1C331F58BDD917
E20805CB0C605D81
B789E167C9AEC4FA
73892F45729CF0DF
C599CFFED00CDB21
FE24C0DEA317739B
21FF83A4D417EE1B
1F6BB92DCA78010D
D979612C4BCC9D6E
BA7FEEB2014ECE17
8E568C615822F1D9
D233473A5F37ECD8
EEAC65AF897EEBAE
22CDF34CDB9ED097
2AFE2537C7912784
0F778E6A73776FFF
DB278FB11CBFED8C
FF5E8009E653DAAA
93C1D08829F8FA6F
FCF73F8373FF9589
E8A38D94624EE011
68945D5C52F8E4DD
FFB92CA841D48C20
F700D235CEC7F088
8F30C861158F2F31
00AC7711A9977739
47C16DB3F7F292B8
054ECFF0C1B6CBC0
780998CAA7B9DFCD
8330154C884DB5AD
0F7E15FFFE809AC3
DB503F5011BC65EF
A0BFBC14B8838D4E
76EFEA35217F8DDE
7F108EBBB5F16684
5E5FE70883EFCB11
0AD099B08A0FE0EF
B3FE7A1F5CE9F7FC
315FB3ACDFBC9610
1AEE4F5059D7170D
A3CC1F9BFCD75407
6C1EE30003DF9620
E660E14A60E38D95
0527C9FB6F3B615E
93F821E3C3F1F784
EB2EAF7FDB045707
2FB7CEF739810205
1385289363FF56C7
FE7CEB36247323F0
600C2F0EFF3C6015
DA86F227FA28B6CA
6B04C71072B7CEDD
A847EB1901FB46F8
00DF0E8CD7A0658F
AB915D0F0374BDCE
8A7F2F3F8343F107
F218E5639B51FDA1
FF65F48490692B9A
FE1898BA257B3D2C
03A7552C54FF0F5B
D0103B3334195CCE
650DDDEDAF482606
14038132900426C5
88E671295EF71CDC
D222BC5B885ACBFD
1274F7EF77BFA275
889697E971195168
B5764F568B7EF224
B92F5D82006A2767
464F8BC808393043
58D8011973B7AE4F
20106FBC261F31BC
0E0B00770119122E
DDDD703EDDE7D7F6
8F3407BF817FF99F
3B8D3DC834BE1120
57F0D71DDFFC93FF
AE08FF240DFE9D1E
A833BE1488169022
76040FF76D819EEA
3440EE2CEEE7840B
CBFDE63C45015333
116EC12EDFAB6D48
EF82947A9FFC197E
3F738F4C4CE71109
70908E11B4FB51D8
FA06242B9FFFC67E
2A33BD7D55F40719
127B7E2D1BAA1B32
ECB8ACE5152B915E
D0F7F5A1600D00EE
338DB95A3229DEB1
021B8FE0EB85B22A
E88AFFA8A93062D2
21FC37C15831B839
9D130118F10D74D3
C7FC4A2BA7E813EB
0FF82CEA1482801F
02E41EFBED88B53B
DD1421977B901486
6AC272AD06F8DA09
086F3910A02A1091
D718FF02CEF0207F
C979390177FBE1F8
A92F42296979FDF7
4415B112FFF9B83F
C3C50C6CFF7F2F82
0EE0562A9C4EB289
017A833B1B965437
72BDF942CF8A2781
C7B8199688678942
97E92FB6F380870B
11FEDF277080009B
7A27E525EFD3340D
2C5F75B8AFB3F1B8
440941B6011EFCBD
53880F5CFF008C4E
FA084E39C88E45F2
0406E57ABB918DEC
D9F736897F760104
9230FAA700803037
20233D4805FF30FF
CFA8C9CCAB39D828
B108AB365FB5B398
5891BC7FD713D777
000CDCF21F225E1B
900CAD7B3000E7FF
99E5CA8218739C50
CC7978E8E918FFC8
85EBE06CADC29001
4BE6B317B2AC8DAA
600127059733BB40
D0E086540CFF11F3
C108CC0FC3F5F000
FDBBCAB828C000F1
70023EFBC8807994
001AF56480084DCD
DC03195909A29009
97FFB977C917E676
A703D77F79046C46
8096F9FE202E0D93
18755C3A0DE52F88
97CE2C251E29D044
F9180E777EDF8095
7712B3285CC91A77
9FC7066C64400094
128202BAA9EC767E
E70C815FCDEC648E
2BD64DF396C100F6
9E0991DF74B37B08
524908C1BFE01903
9019A66500236101
DEBF08900C4EFF68
1916374D98092731
2F3D3C5700DE0106
B36C8C95F1CEFFCA
1631DCD70090F7B7
13378F482223A087
8F8F4208FF63FB05
B07AF375EEE05088
7EF2306879AA9000
966B0F913007E3B3
DF77260007DAFFE6
865B23F8BF338153
B1CC681F5FFBE9D2
C8069DEFCC9CFE45
B88036120F9FDF6F
DF5033637EC9CDCC
5C77B9FEDEFE7885
C09FCAF2CFB10DB1
89DF839697CDDC89
A84C9012EB0108AF
631B7D4011040136
54CAFB88AF736D73
77CED95AE277802C
A4174487DC6F08CE
2809D53F533DC309
FFF348BD08661F94
E1C2E29C7E021410
452787E51B1C09DF
8F3E81330C954450
3A3168CE18F8D8C4
FBFB75FC31805E2C
BD03A7D2DF3B1022
9FFAC5FCE028C673
B880FDFF1123B812
C806DFEF0335C323
108BB211F7775FBB
EE81B332EB48EE08
08E1DE2488406EB7
C06C54CC8332A8FF
DD509FBFA4EED559
EE7262C776C5E4DC
64CC4CD08AC4CCB1
69154FE50885E7F6
1251AFC1CEF7DB3F
94347D32D1002644
6947E2736CB38740
9005AF4F0E8C467F
390B5835298B7CD0
C8E2AFF3EE478416
FF0FEBD16EE7D4FC
EFF0AC1FEF58798D
2784A0EB516EFF14
3C0C70C6115E4C08
C4EB197BFA78860C
6E39388688B253A6
94DAE28F699059F9
4C48E90CF717002C
E92D27C160EDE3F2
C828681C7A6E4F63
FA98B2CCF6FBC900
FFBCC0B1EB267955
EB7FF0F13F8C66D5
82A5EC1FCE7C1E14
55290D41D0EF855E
DA1C1F2D8AF6E3C4
E7626476EDBA8289
7EE93B09DBF6ED91
9CC8EE66D010E25C
C916EB143C2B31B5
9173C17C4923DD2A
5F0A0DCE7563CD8F
5F04FEF300B47AB1
C0E5F31EE0142BFE
6883E6984DDE1E38
71AF002F58B60FC2
EF54F989EE8922FC
E538817ADBD95C5A
47B86DE3BBE6802F
E1510A49A711C990
FEAEE676B23F6831
3DEF2A3DA72C2E0C
B7EE2C77C114F904
8C54C642CFE2457D
6C37EE2C31E0F131
405096414A5E4362
01C510C9032BD7FC
97CC1A6C85DC19B5
F39F700170E6F2BC
988B27CF6CE93C61
5C66571023E8D4D1
82BB04C0C3CC85E6
D2FEFF71BE6FEF52
E9DCE2BF9D212DB4
ADE1CD20E21132A5
D0E8B677CC1C559E
B80D1C58CE39C49E
622F68DF01970814
EC3D9908ED38D9B8
AEF8E0CF7484B0A3
44A17CFB75C5F7FB
B875992DFEE0A441
31CFCEE5F733F820
BAA70A2A4F8B5E11
37A919C3F7FC2226
DCAE3B618B7BEB6F
B3FBF6E2A6E8BB66
9FDEC64BC44D66D9
B0BE57401EC099D1
E19BAA829A720406
B72A9CC634EF3357
F9507821D0D7E3AF
6E6FA5EC633D00D1
DA4FFEEC18A32C0B
413EDD6CE1E4BCD2
02244EE04881D8F6
49446709E025855D
C37C10E4C16D86E6
C008A623CFE4D366
5EB6E815ED176F8E
E2BC5EE9CEF58DFD
B5C7C6ED0D295516
1B93E4800180FA03
20ECDFF7C592B808
9DA989C6FB9679D7
EACCCE07818D110B
607CC0AC8596D67E
A93518B9DEAD46E2
7CEA10F85294178D
ACD3A06E542FE30A
A2DEF73A9D69B266
D892A750F6870768
3C5D0C3B86C906F7
8FECCEE9A0474041
34EED028B680BBA9
CFE944E8FB33D3EE
CFF532474AEA022A
CE726263A2A40AFF
FF58D717F75B28A7
1B4672E2973BAF32
F8B5907753F4CC81
5C139E3496023E68
D3FF709603A7BF00
F7FBF5EED8805FFE
FBFF23F4A7F17AFE
18C29711CCF531A9
C5325099AB8BCF6E
F746199EB9BA74FF
71F111DADA0F9CCF
12FF5F3C75FFAAAF
5170FFD0FA058402
30D17B388CFCD0EF
8307C2187C80EC88
4BECD9059F5C129F
8A00BD02EF80572C
5227C9AF61A0FDFF
14D48E726EBDBCF7
50A98FBB833DA22D
B800BC3D7F4BF782
8A6F631B3B73F99D
4FEDBA8A8D4A448E
1A328FB77BAC7A7C
7EE6A601DFFE38EF
8018EC00A78B7318
9274B8B0BA84DDC1
0000000000000000
0000000000000000
0000000000000000
0000000000000000
0000000000000000
0000000000000000
0000000000000000
0000000000000000
0000000000000000
0000000000000000
0000000000000000
0000000000000000
0000000000000000
0000000000000000
0000000000000000
0000000000000000
0000000000000000
0000000000000000
0000000000000000
0000000000000000
0000000000000000
0000000000000000
0000000000000000
0000000000000000
0000000000000000
0000000000000000
0000000000000000
0000000000000000
0000000000000000
0000000000000000
0000000000000000
0000000000000000
0000000000000000
0000000000000000
0000000000000000
0000000000000000
0000000000000000
0000000000000000
0000000000000000
0000000000000000
0000000000000000
0000000000000000
0000000000000000
0000000000000000
0000000000000000
0000000000000000
0000000000000000
0000000000000000
0000000000000000
0000000000000000
0000000000000000
0000000000000000
0000000000000000
0000000000000000
0000000000000000
0000000000000000
0000000000000000
0000000000000000
0000000000000000
0000000000000000
0000000000000000
0000000000000000
0000000000000000
0000000000000000
0000000000000000
0000000000000000
0000000000000000
0000000000000000
0000000000000000
0000000000000000
0000000000000000
0000000000000000
0000000000000000
0000000000000000
0000000000000000
0000000000000000
0000000000000000
0000000000000000
0000000000000000
0000000000000000
0000000000000000
0000000000000000
0000000000000000
0000000000000000
0000000000000000
0000000000000000
0000000000000000
0000000000000000
0000000000000000
0000000000000000
0000000000000000
0000000000000000
0000000000000000
0000000000000000
0000000000000000
0000000000000000
0000000000000000
0000000000000000
0000000000000000
0000000000000000
0000000000000000
0000000000000000
0000000000000000
0000000000000000
0000000000000000
0000000000000000
0000000000000000
0000000000000000
0000000000000000
0000000000000000
0000000000000000
0000000000000000
0000000000000000
0000000000000000
0000000000000000
0000000000000000
0000000000000000
0000000000000000
0000000000000000
0000000000000000
0000000000000000
0000000000000000
0000000000000000
0000000000000000
0000000000000000
0000000000000000
0000000000000000
0000000000000000
0000000000000000
0000000000000000
0000000000000000
0000000000000000
0000000000000000
0000000000000000
0000000000000000
0000000000000000
0000000000000000
0000000000000000
0000000000000000
0000000000000000
0000000000000000
0000000000000000
0000000000000000
0000000000000000
0000000000000000
0000000000000000
0000000000000000
0000000000000000
0000000000000000
0000000000000000
0000000000000000
0000000000000000
0000000000000000
0000000000000000
0000000000000000
0000000000000000
0000000000000000
0000000000000000
0000000000000000
0000000000000000
0000000000000000
0000000000000000
0000000000000000
0000000000000000
0000000000000000
0000000000000000
0000000000000000
0000000000000000
0000000000000000
0000000000000000
0000000000000000
0000000000000000
0000000000000000
0000000000000000
0000000000000000
0000000000000000
0000000000000000
0000000000000000
0000000000000000
0000000000000000
0000000000000000
0000000000000000
0000000000000000
0000000000000000
0000000000000000
0000000000000000
0000000000000000
0000000000000000
0000000000000000
0000000000000000
0000000000000000
0000000000000000
0000000000000000
0000000000000000
0000000000000000
0000000000000000
0000000000000000
0000000000000000
0000000000000000
0000000000000000
0000000000000000
0000000000000000
0000000000000000
0000000000000000
0000000000000000
0000000000000000
0000000000000000
0000000000000000
0000000000000000
0000000000000000
0000000000000000
0000000000000000
0000000000000000
0000000000000000
0000000000000000
0000000000000000
0000000000000000
0000000000000000
0000000000000000
0000000000000000
0000000000000000
0000000000000000
0000000000000000
0000000000000000
0000000000000000
0000000000000000
0000000000000000
0000000000000000
0000000000000000
0000000000000000
0000000000000000
0000000000000000
0000000000000000
0000000000000000
0000000000000000
0000000000000000
0000000000000000
0000000000000000
0000000000000000
0000000000000000
0000000000000000
0000000000000000
0000000000000000
0000000000000000
0000000000000000
0000000000000000
0000000000000000
0000000000000000
0000000000000000
0000000000000000
0000000000000000
0000000000000000
0000000000000000
0000000000000000
0000000000000000
0000000000000000
0000000000000000
0000000000000000
0000000000000000
0000000000000000
0000000000000000
0000000000000000
0000000000000000
0000000000000000
0000000000000000
0000000000000000
0000000000000000
0000000000000000
0000000000000000
0000000000000000
0000000000000000
0000000000000000
0000000000000000
0000000000000000
0000000000000000
0000000000000000
0000000000000000
0000000000000000
0000000000000000
0000000000000000
0000000000000000
0000000000000000
0000000000000000
0000000000000000
0000000000000000
0000000000000000
0000000000000000
0000000000000000
0000000000000000
0000000000000000
0000000000000000
0000000000000000
0000000000000000
FED4FFC5FE3BFFE6
00A601BA00B800F3
00610163FCC2FFD3
0093FEED0081FEEB
0030FE1600D60149
0015FFFB0048003A
00A8FF5E01A2FE99
00A300E80096FF77
0000000000000000
0000000000000000
0000000000000000
0000000000000000
0000000000000000
0000000000000000
0000000000000000
0000000000000000
0000000000000000
0000000000000000
0000000000000000
0000000000000000
0000000000000000
0000000000000000
0000000000000000
0000000000000000
0000000000000000
0000000000000000
0000000000000000
0000000000000000
0000000000000000
0000000000000000
0000000000000000
0000000000000000
0000000000000000
0000000000000000
0000000000000000
0000000000000000
0000000000000000
0000000000000000
0000000000000000
0000000000000000
0000000000000000
0000000000000000
0000000000000000
0000000000000000
0000000000000000
0000000000000000
0000000000000000
0000000000000000
0000000000000000
0000000000000000
0000000000000000
0000000000000000
0000000000000000
0000000000000000
0000000000000000
0000000000000000
0000000000000000
0000000000000000
0000000000000000
0000000000000000
0000000000000000
0000000000000000
0000000000000000
0000000000000000
EB6702A0089D3D48
A6FA559BAF6B332A
31E323FF01BEBA30
68420656117B1983
0869E75793C63800
842B8DA32A728A50
DF0A8BCB00F7219D
6617BBC1D1E1B49E
1A8B8A9C0D4521DF
8002BDFDCC09A400
AADE43EFBEEB95A0
2702C7D4DC19711B
48B1655D548E1B53
DBBE58F9AC45F724
0D95195F303F22D8
FC228923C0AD5157
F8080CF9988D5961
B2A813123F31EFA4
B18C62875808A165
E979A917A8C30600
D37F4C9E3500C220
1A453F38DEA0A0F6
CC35BDD70145A9E6
3120FF2730731877
EC0F0577CF6FF318
5AC19FC425CE4170
9E1759700D657444
3F55C8F8C6276F62
F76670E7C5ADB66F
8E2735DC8BFFACF7
0013F0FE99061112
12821BD6165BDB9D
EF4A87325D256D71
85F29D6213978A23
08B7D734526CF12A
9D73C520F7F97BED
F0779BEFD6EF3039
1448E461C47B8C7B
AFEB71E00C4C3FFF
0F385D809167A5BA
9B4B0E88B2671864
42C50F5F5D0AFF98
30FA5BCAA9E29177
9957A070FB386171
0C138977FED70FD5
E3018F4D157FD840
DFB182E43DE45457
BDDE0037196AA451
33FF2199204A3973
DD492FADD10BD019
9F66B8048FCFBC52
8C0A0367A077D5F2
BB52082316B1AF14
1154B1572199B928
A94D113827502D7E
E64D3DC77C725825
82FF9DCC814E79C1
9DA3BF5DACD09F87
CD037373BCBA4D83
1EF07DF827C2B85B
286C724E16651101
B6D52FF71AE7DDF8
4EBD7CF563EC57C7
5D0BB0086E71126B
00CA3751C2366270
334B80F1CBBDFD04
028C8BAD0F05F584
510B76441970A47B
957C382D080FEF7C
70A9CCC31A67B283
8A634CCB9790F028
13E796E054A1D619
3E08FAA845FC8641
4167AE28A00DF9AD
F3880AA1460C3BEE
AD80117C188EA512
610AFFA78848DCFF
F5B203FEE5374843
5D207DDE175A9012
BD94446B7090D07A
7F0022B8CDD014FB
E7824069351A0C44
C13169E5A0080428
337784052C039BF7
3CCEF68834F2E4B7
7BF357CF1B91B380
9175EC8409F913B9
6429A174D2BEF514
3EAFD303592651C9
E4048A4077CFD1B9
F200A60704E30DFC
2842676F307B2A40
0C05EFE00C83C565
B0C056F191105EF9
AA7F6C05073D0DCD
CCEF63040B98F305
A38269AE7FC651B9
539206FFCB9D0FCF
0A51A820E4244708
8E477B80C00F058A
CE7832484FFDA7D8
5ECF4405C2C5C458
57183106BDE8CCDB
F10D0620EC220223
C1373842C15A0080
8619936733442131
DE0022406986EA9F
B310178376880648
5551F307747A4CED
767055F5EBAC58D8
E71F99424506E70D
2040A4623C985136
5173ECEC65006628
DCF5427F00189260
328157BE1289436B
F0DE4EA06CAEB2D2
0CE7E7BB4EC273B7
E3974FC4FC2751F4
31EC524326E209B0
D3F3D8F1315309B5
E3B64AC8B1AB3700
3167B3B37BEA0517
6E7F971B23D3BFB2
8F7C26433EC585B9
493242D2C3D37910
D99788E3AAE7CC11
A740DD2036FCADCC
5407E10CEB6764EB
4A1AFEF7D841F620
D10FE8E0C49AFFD7
6CEFCD1AEE38D87C
ECC4EF11EFE625FA
B0F9C7DC0810FAF1
D9BBD927F3A4EFDE
C1FF49D0B730FFE0
34155C1471F597F6
093B9D0D9133FB98
600DE4D0BAC03FDF
B549DF7A5C691B9B
FC0D09D817289FC4
3B234CEA17DF6B55
B0D1BEFB9003C777
84BF2FBFDCA6AEF1
A96ACDDD2140C11F
2099EE110E7211D5
80FB57B5CE12324D
CF66FF306273E073
0527BB4888F8FAB6
FD1CD1A57BADB18D
F8F823047B26DDF3
F6E8EC63D13ADE68
48FC620BBAB70A29
F125F73B17997BFF
814131FE6CC26FB0
8C416DF0C9CFA196
7708405477C96349
244147E0CFB4E638
3A6DCEB00DCEDB35
70F150E71F726F9C
8EEFECC2CCE903EB
EE42FEE4728FC215
F6232077EA4A2E8B
FD8CBE4BB61022EC
C0D7218993F53973
3A6CF7FB5FDF2C92
03C515136F205D20
D9986FEF11204690
1DCFEA88D93D06EE
3FEB7FF8F0D6D269
3336E730800CE8EE
E1DD009822817FEE
32A8C472A721B137
D4A9C2B30A78EA88
651BE31938D7747F
B7DDF724C8A0CEDC
D3259377AF514A62
C7D986324EB46776
C53E0509FAF670B1
404AFF79820716DF
0CCAAB1C00713F54
C0D63E0F35F70CC2
3CCEC1B9243AED94
A2B3BF61132523E7
F302DF9AAF774151
F6143773F5FD8367
ECEC58215089A0AC
6F8F40E1F329D9DE
1194C169F731F9F7
42002500E1316778
0520E22C583082E3
622B3C99477F531E
15103ED84FF7FD65
2CAB777B7FF60DEE
BCB8AAA36FE18A48
A0193FFF77FBC4C3
7EA8197FF3AA9175
9F053E7F083D7E5B
1D1B41FC71C246E5
F8FC3F88CF2F6661
77E0F1C4D59D5DF9
6550408381965009
FCF66A52B13D844A
624217E7A113209D
7E760605EFDE490B
5E139328E67F10D7
BF8A6C8BCE358E9B
FED1AC083D3411B6
F5D3D9CB30F6A2A8
F508F7E5323A3FE6
2F0E17C6369F8634
1C7F16B921CB9FCF
BEF76C76454166B2
C56DD98D12DF09A0
58811A152433A640
A473108808985F9C
A8F7C194951B6716
34EF7E894C17168F
7ECF37EA7BC063AA
F363BA304DF7E739
4492CE0C9E07F38D
FF16963A2219991F
E081747B7CB47DDF
F4DC486A679B64C7
D7010C0F7FF01004
0B008111DCCE0AB7
E376D79977BBF6C8
3F6F899EE09B67B3
932643F7FCC85506
E6231D442929D508
37B90C7E9999FF75
790053CC01C87297
407863EADBA9F3D0
1011E2530F35A8CF
AEF249FA8191C7D9
520A45E85CD4B8A9
3DF7191B1EF6808F
5BF93A8AD4544EF3
769B1AB8F7D40A49
B9F71328A9E9AB03
96EFBFFF0B07A214
9C8E177A7ED64E2B
7548B8CCB7CD7AE8
CD9B02CB9814DFF6
3EC870563F1E729D
C8FBCE306DDC773B
D2A63089D4736855
10EE480B0D9F88A9
A09477C477FEABF2
F93307EC83A89C20
C31B3DD2C8883D37
69E0BFDB82CC3E88
69DF067B66881FC8
9BBE0CCDDE3B744B
014235F595A5BF6B
0F01A30A1292D7ED
FF3C368B1FEFEB9F
CCBA1301A1DB711C
4E4BF8D6465A966B
E1F0F2CA1B43C50F
0FE728107F053B58
1001F8C101F04613
3608FA99B0E77FCE
0862BE8A0EB87FF0
F7FE2057B0899DFF
88953F6C0BBB0E6B
F458E5FB70509FFE
A671E04702B76F65
0D40A1F418B18F67
F6FD16AA6F350789
D27A0F080098BCFE
33336666DE543A40
C028FECE678A1829
C90D5FE6ABB2EDD1
5DE1860EE6AA5EDD
EF262F73B4078018
832E8500D4D3EE15
7DDDEF8708D54025
E74D4CCEAFB5F70C
CFD2D8EEB08A98D8
61AD204CC8ABCFBB
719BFE90CCF49ADD
305E10049EE76611
6F499ADEDC5357F6
E427A7074066B21F
C05F5F2F88002C20
EFD5E68A1125FC03
63006D4008904D65
09934E7A74A80CE7
9AF379115E6F218D
5E0B409800B0C6E3
E16CE59CF30560F5
888CE4491019DFEB
6A90512D62E9008C
400193C97DF5E7DD
C6F69EEB9E8B51A0
E1DC520364B08DC1
333CFFBF8D9BFC6F
15C26B502DD06CF6
0EEF067EC9EEC6EA
D5CED98EB26F3BBB
C2C0FC8082EE4210
001E0EF51E0090DD
F48F12BE4EF3EBAB
38DFC8236C189ECE
10050DE00F2987E7
10A8107D15FD2137
75C0BDEBA628F647
7FE71A8180102CB7
FCE9E8FF5BCE60F3
AFAF08E3665FE0CF
402ABB1200C6EEB8
FC9769DFE3DCFAEB
A2209F6F62FD5688
75E6244FBD024FFD
AF607BB137940CCB
FFFD00447B3FFEBF
12CAC5FA10087EBA
25F604A444C9E1AD
FFEDA0452E025001
1E8404966F735FC5
0813700BFECE9408
A00573163042DF33
08630453F7F81B3E
EFF21FEBBD42E188
24410956B33C0521
8E417F20DF731577
4759EBB3B408BF46
9D4032EFB8823FE6
9136CDC10A919EE3
B3DC90AC6E90147E
4FF7189A85DBCE32
E673C90C888C0477
8C4F1FF877872995
7BB0D542F65DE301
C37F28A32A8F766C
DDEAFE0018A3DEC6
B78F719C37EF7D36
AD03DB200EE456EC
1D56FF20BE820049
9118D612D73A31DF
FBA08D2212C0F806
CCE15FBE75FE444D
7C801B40BEE82AB2
B02688CC24442EEB
416C8B70875C1055
1CC8F55AFD73D696
4E72FC38A97F7F76
9706089002C0EDCC
644FFFC73CCB0265
4E57B903DC025770
DE88955930074BF6
6E8708CE8CB38C63
1E739CF896473836
0763310304367FDE
979197F97A649013
DC3D80E8EEA0B80B
0416D95B87BD2935
8C923F326C671444
37E300371D943000
FC8E1BA93323D148
1C4C77758845DCDF
7A101ED0EF9940CE
A57508E717619770
DF67C5D71F07B0D9
21B21BF8BD0F56F0
5A87B2149996BF77
5CCEC59BAE293F76
8018149CCBB9E68B
200DBA10B832C455
D795F9C09E73FE47
AC31AD43BD83BF0B
5E6387EE18D14018
300538E6F449DD06
96E3B3BBBF3A9803
B933044CAE35E1EE
F4028594FC2C7C7D
A491931E757D9546
80D0190121C71FF3
F30B38C19090A019
5F81E8B562EDBFC7
E000782930038268
B24C5218C5169F9D
BEDC04F706884A1F
1B91A5526E01CD60
407CC0531AF8A00D
EA77A8AF920A4180
65764D5611180637
E76104EFA2D12AC3
A980D2BC18B32087
24220EB6F7007148
3264010F80AB46B0
57D3462D1F7CCCA2
9F6B04310FE1048A
28FF2010E0871555
0437062048682618
020627359DB8C42A
03C879077050D6D6
8551D0DCD98F11F4
01DA0A66D00853D3
2139AA2F0E629FE8
0C0FF2A000B00A40
2100FECFB0695FF5
7E0AE223D0974073
4C318243DFBDF118
3328146608A78DFA
886F37304FBCCDF6
C8061D7466032CFD
43921CD0002812FB
C1F656C01502E2F8
2BEFB3316189CDBA
84940020A11089A6
362C8A1D4D64E120
F4A608B201F08477
6ABB00FF16A71076
209731B838843F4B
1BF934C5AF2A0003
44785678AA2100F8
732A80C750A4B164
050CBE20959859C0
30958890F7AF4D1F
9802683336800EFB
401240DB002236EA
205CC40D9F0B94E6
9786E432F5028440
70ACBB1AD0AF7C59
FE224C2B2E40A702
2614C00926286523
904A41EC436A8EBB
B80A96B38104E0B6
490504277AD2231B
5EF04E3131BB4222
A28A5C84F5640838
723F534BB04E200B
3920E595ECD21C0E
24786CE154F0E21A
646000821139DD49
B140F57CF2C61C62
9090182820779114
0205EA20F207E4C2
86614176DF10D00E
A9BFB3BA2E11311B
AC36000821BD38E4
AB004105F0410510
4D2BAA2040688E92
BCE6210F56660D1D
CF10D670F654B9C4
8C8D002323228440
B333C49C4BD283B9
1CCDEAA17E7C2CC6
BB7EBDDD19BB0400
10139B21FE05AF70
B1EA0088AA80AE35
54ED8282ABFC1904
A4C22448A219F324
60A45432518B600B
A8A12E98844183B6
400815012E406162
8200BB0451628061
0102CC249D13AA4C
4B10CF81CA1D6442
EC770B31180C9F7C
ECF7517E5FEF8E39
ED10303D8FB82E12
B75161B7B3C126A0
20BA019B82ED842E
CD4508C24D8D06FE
B68F88890BE5F6C2
B622DEA826006229
84090D39AF0FED26
1D8C4F76F6426E45
D87724115480A434
5D61CDEC5800AB1E
B6EEC81ACC82C000
5538CC40EA62B807
E40B08FBF1446265
B11B00E0AD6B16D7
D9701672B22FCBE1
A1202198EE95940D
AFD2FAEFB0CAF381
3035CFB20C8BE761
11C0834F7980C004
2CFE1D11AAB66364
76CE080C6FF7CDC3
741338C3CD10A1D0
58946E41CD0147C7
88B7F980F330021A
E66FCA464726CDED
E937715D155BF305
9A25A00C6FC5519F
5810F6E0A000CDFC
FCCC0A9DFD537C98
EEDBD3A0AC6E8489
2CDC749AB3BF1945
38ED59F020D809C2
62024453AE86B1D1
C7BFA20DEDC7131F
8DEE7CDFC2446BF4
300BFD7932E22487
9580001379C49880
80ED885054D61B3D
9C3152F60A1A6BF4
6AAA9E847F6F985D
FBC16AB0CD488242
BF21AA31ECCA100C
0AFB0DC22342FF43
7F23CC850B108AE2
5840BC9F04D18232
9A876E364CA5A880
CB6F18EAB97F8FA5
38ED63DDB768A3F7
451EFEC2AD32F281
207769E4D800704C
97430DB48E22AFF2
9F66043198D5FDE5
CE4F32331DC998D2
E80ADFA888FB2508
FF7BB901FED1EDFC
4EF2571A820F013B
BFC85467B0728003
8811C0D9FCF2D100
7027D4451CCCB7F3
F30C4C01892D7C2B
DFAAB719FE44F798
36BF366AA5846D91
68E291F75DDFF554
44050EFE48DE47A7
F5DE7CC8DFEFA217
DCC00036584165CF
FF98A034D5DDFFEF
44D10CF30F5E5A6E
8019C80EBDEEF7F6
F5C5FB9B11E0DFFF
22327D306F2ABC53
3A2AF0BE1802BC0A
D377690992713F04
76FF7DEF31F6D057
A701AB7A501DF583
9940ADB770A7BCCF
5EF347BD0EA7FEEC
19DC516BC7ABF5B1
3C6EFB8706FC6FB0
CF7839F2645FB700
08FFA9FC7F45C98F
D2EC16572B5267FB
55BC4C9F81094F20
B9F0FC73EF53FA28
4E42D9E1F5BFBF80
157EFFFC38270E7F
E4FFEEE2D126F7F3
9FC4C13A2D749012
6D05B5D91168FF5A
9BEF77FD8A004323
19EF0008B5E40180
E90D904EBFEF2869
F8FB7ED1890D259C
CCA5AFF22909804C
2995827F354135F7
FE6D322F64677764
3B84E6D4160C72DD
A6E231D5D77BCF75
EF721CC761117EAE
AF8B97730B22EFC6
126BEE1478AFA9BF
903777BDEEFCD37F
C514F7639BA0C704
32E45A7E7863BF7C
CF7136ECF73917EF
41220232BDDFD594
7DFB090535399A82
23F04B2871992C42
110F08BBC8779189
0004C3F915801105
ACE00733FF74D391
80D3D1DFEF3F59D2
1C936DB264851FEE
22CF28E8B08E777F
F4E5E910E872B39B
2EFBD502121A39FE
C75FEE13E2E20871
F8F87FFCD4F237EF
8226EBB9440C0477
DDFBF7B3A8BB39FF
65677FDB06EA91CE
0425A9785099C044
5C13F7FCBFDC0EEB
C609B4234339A6BF
7F7DEC4264166223
97F71F624A110AEE
3264F1CC5333E431
B8100408708C2258
93633B8A604CC6E4
3B20D63E689118CD
525F274C1F9B7A38
94294838EFE3FB88
C1068FE69617232C
4E39145764465DD7
7BFCF20A5D01225E
D1970E3C128C75DB
47BCEAE6C0E44F55
17CF762F88FAFF5F
742045F803689BF3
F2D719824FF65F00
BFE4C6FCE7DFD4CF
BA8C79336289D8F8
EE53DB46E9DC16F0
7FFF8C46097EFF74
082032BA3F947BBF
CABFB9044246265F
7BF97EA976BBFD01
DCC428BFA289992F
D31033E57E1913EA
F7DBFE998B9F7BB7
1CD4110CD52869F6
828A028B14E6FA9A
FEE22F31CB35D678
EE403B71F8BAAC6B
A552DF88C66AD02E
06ACBB887FF9723C
1DFF6322738703FD
83E0FDD62E01B3C0
292003B57F07577E
8131280020CC50BF
ABB8E1F5FF020AB4
FD14C4B740E0FF47
A2C07D64EFF4BFE0
9A873022A036318C
05492CF067B31677
3DF6DFFF00784265
F339913F56B70D2A
8EFF90FF1C977EBA
E53B31DE3500723E
4A40B19203F50423
ADE4E8D6FE38D488
E4D9834178DFACC4
17B293F371338BD8
CB06C1CDE0D3D8C7
E36A7737846A0320
00631006C407C0DF
880A59FD53EDA4EF
0B990FF3BBF5DFB8
8C913FE6EF6FFF16
74017732BE00FF5D
DB49210D13FFA881
8059B97E004F34E0
DF3BC99F54A3FFF7
5FEFFFEF2F6F8043
7AEFFCCF903D14A6
10393F270D29FD00
6549FB7ED3C2EBF7
733FF4E1DCB4BC0E
D17CDD1A6E8F118A
B8CF60D14DB30CF4
750031E75998AC19
82808E58FB701A88
D6733F5BECBCB6E7
8EA3FC2C80FEDDCE
AF5021FCDFF988B5
A79490E1F2DF24D1
C9CD50CCBB491CFE
E740236FEE23FDFB
A89BEAD8F685A250
1A41BFE48BE5B300
29CD68F72FEFF7F4
AAD4BBBA2F7E7364
FF19F5ECD7B990BE
F782C2FB09C55BE7
DBCE0DD84CCE34D0
F3170A2ADE411FAA
00767F81B98C3EBF
40E2A1FE8D7F36E5
9A7604AD8F3F2B33
5D0C68CE826A7F66
6EF3B13D995A9426
E8092EE3CFCAE993
F7FF006C9B08AEF2
DEEEB17E11FF2A7F
75D0783CF0E6ECF8
7FB806AEFD56C51D
46E63490FA375E02
ED88BF2DFFC8B604
4DFA754B88903F51
925CB37E70FFBC48
297D7E76322F7E76
28FCB8C8AE717124
960D7F7F1E47B1F7
FFAAA8097D0A732B
BB3D29E075C93EEC
59C57FBE818C132F
CE90EBCA92AFDE84
EF3FB7C27C00FEFB
52CD11DC9B601014
30531BBF9E77F423
7C46BF13A5BD0A93
B5552E3AFE0D974E
80F1DACC45A5713C
12FAE66327B1EEFF
410009AC2E0B87C8
B32C6146F0C82F8F
780A00A77CCBE507
F7C54153E33F7008
8D80F709EC58FD89
758379E358BB02E6
B011E8B04A9D35CF
7ECDBED9108D8EBE
895EF7E6EFC1BEFC
B0146313D187D7C4
D72FC8BEA53A33F0
C089033210EFA0E8
7F7F80C31982995F
42B6867AFF1B010C
5FA9F4477327D08B
981372F1C3BAB214
F7E2D3DCFEC4B310
09FE0DE3D031A902
28C8EEEADB8CF323
DCAD81C92C2E2433
7337BBF41CCCF939
0402A7F76C024917
8FCC1091900C2107
2EE76023CCEF6ECC
D7D9D118C61FC000
044600EA003342EF
959BF1C23D66BFF7
F318B363D2379D63
CBB3CC88C1A2085C
2F66C93A56F2EBFB
80032DE7D7F1A6ED
92ECC82B3FFC7E48
EF3BD37EF338ADF6
98558D1611B39DDF
581C8401C61FFF5B
7B15889EC7B1220E
5026DEE525B9689D
008A311704ADBFE2
087E90A0BF6871FB
EDE650168153CF28
173F004C6132BDC2
619BB3E3C6239815
6E7E80C8A70416C4
5E02D996082F005F
9070D03F5652F3F3
EFC6AF9AE2221178
1E3DE082773C9EBE
F4E395F731276712
136B7783C0D4159E
D94C1233404FA8D7
FBFCC7D1333B2F76
2E804058BD4EEC4C
09F17FF76F331D21
DB00B989F996772A
7FC5D5D2FFC07FFA
618E6FC7D5EF1339
3FFCEC4FB0B86006
BF1FEF290A374E0F
049CF08068E309D5
88999739CEF7E2E3
330230BFAFF1E323
847C53337BE6DF01
6FF585C8C7C175EF
77E5EEAB3CC0DFF3
1F57B9095DC957CF
B4114B344FFF3000
501008CE6C38F8E4
5761C89971BF9136
BC80A1499776C731
FB5BE107CF762448
7C83C0FB4AAF0DCE
60436142E0CE403B
08DCE2DB70C86FE8
C688AD4092659295
A6877ECCE25EB1CC
DF017B65C9E52040
F665D8BE86A48594
23485BE73CAB3C91
6C67080C02B45500
C72A00457EA8C040
989D5631432CF901
94C22CA10316BCEF
D334F76C2210DCBB
B9DDA071099FAF04
B08DC09CC5624D83
E8FBE0D02918C957
DD63E8CACC5777D9
4CBABDD301183188
0F008B4D0D8095FE
4012ED3674423296
EC87622FB6518914
C83819FE88207899
4CCCE3307AC1DB5B
F0AFE4D64C1947BF
5DFECA0A98176938
EDE0AEC08C8389FC
0652780205E1E042
7000E0FE0A040688
AA86AFFEB9EB6DE9
24CFFEAA00D0F024
E6DCFA8801536054
EF289380B080F754
00C1F3B737D0C189
05D5384E8FEA8800
C38AF9C9DF0126E9
FA3D86035848B383
2F90FC3EA8F82791
8D9E67991119CDB7
3BEE6835E4238E8C
CA0C50D874DF4405
CA412F31B03CB345
28470191E6D3C141
0678E883FEF34241
B1126201FD3D8E5B
82145514ECEA5640
47B374DF3633EF20
C8C8130188C4E07A
0A44CFDD1E9529E8
9CF8FC247685CE8C
7F155376BC91FD9F
5888640D7F3F0B27
08950840B5106B48
3F914FFCE5A0EE99
7301D3FE7070018D
4D17AA99F94E099F
C20077CE0220E4DF
65334A5DDF3E36E2
431044989EBE285F
7F84FA10E802E7BA
856C21C0CDD42E12
3F6E319E8EC15ADA
611DD0762FABD515
76F1DF73FBACACEC
453DC0258494FDEE
6B778A408AC4FF77
88A077B38388DBEF
2100759DECF66425
0BFA068D13AF99A3
A0149059F99A0A86
6B6A3F74503D8202
45F11108E24F8337
A694ECF95303132D
330AF23840AF98CF
4E2C33EE836F6294
8CC5F758EED88B73
97CD18E74F7CFEE4
6E5604E1FF936F30
176FC2716F1E2170
404AF2DCD86A52A8
43B273C8F178CD88
C8B09CE9036B7FA2
3FBB06047DF67D0E
DFDE24DF9BE9C00F
57F503231F31D551
548F204E88569A7F
17C24675368E82EE
4E24AE2C3EB842FC
9F573E147FD07320
10982A88C2AF11BF
8FD9917B96E84FB0
580801EE4062BCC8
FF5A5F020B75D25E
BB60F88FD66C0897
C867DC9D80B75114
C33C70B7756055EA
DF8490C0EA61FDDA
AD72EC895943BB2A
0115B9252A10E311
209D622B01259F19
035A9B3E20F9139A
48E298758FD27A13
CFAB4663597A91C7
D48325632276A87D
62F2F54F74EF1637
0776AA104735D0F9
EC642A5153DBD18D
844604455758B121
336B8CEF7F002398
3FB7ED6B016B4CF7
462756C757B1C2A4
806A614F513B97CC
8E8118F8F33E7F3F
7DAABAC7FAFB0137
7238E48849185505
F0F643677D4AF582
BB8838F647ED9FA3
DD732009B349E167
7BFEFE4151AF40AE
BF9C3BB9EEC813B3
353352667ED1FAB6
7F79D2D7DC073CCE
D8EC68684A08D608
64B3A28EBACC9DC1
860134610365FAF3
A37CFE57F34D3F98
E70FFAF49480A64D
713D522F555F8A76
B2EE34D40284FA0F
C082213718A8D60B
6EFA4E75660F4D29
B7E70605121BE1EF
0FF8D4B8CF59F500
68D47FFF6A08CFCC
FD05F75DFEB4E89B
B83ED634445B4A00
F002B3C364FF2B8A
1D678EC31612B682
67668843764461CA
C8B5F2BB10F0C104
FF9FB5DB027E26E9
F7D7FCB93027200F
11716730B7D17540
C89FECCC837B4FF5
619F16670925D0EF
4CEAAECB44F5F7FC
C480DDF6FF52D910
3F68FFE6108C34EB
2BBAFF7FFE45F8E3
0AEA5EF276EF2214
EEEDAA5510417298
4DC52E730CED77A3
DF08800E9D913F27
27F6C0B81812DF8D
DD90D6F500130154
9F79288C50F79CE2
FD005300648E0381
974311F4C5C6FCDF
A0011E643EFB3200
49112F99100653FB
FF8000FFA012FF01
23205E6FD03E9788
DBB11DCCEC4C0125
DF8DFF3AEFFDD7A5
CF362082447777FF
3088BF337ABF0F14
ECE46799FF18FF36
99DF8DB2AB728D8C
80037D20BC79D599
41FF2FFE11E2C96E
C92F66F8CF8008E3
8016EC6AFF6B8B04
ED82126ECEB55FF7
3108B7BCCDD7C805
5D39ED6E072770DE
D78C0004804AE6CF
B8C86EFC278C40CC
F3BF7F952AEE808D
9EFF1B7BC7F16AFF
003F81096E699BFF
023119ADAD00008A
DE0CBFFF80582563
FB4DCFD13C0FAF17
ECFEA6E56A6651FC
5014B7606FB037FE
9B0FE243B60A04A8
7F985A81F27BA10F
CF76584412B307B8
06EAB2C085C0AC3F
0FA0577FBFD757FF
D85E4CAE9581FFC1
66FFDB77804139AA
0F9E48801CB01063
F1FCA9C435EC7F76
CC1825B97FE17FE5
2D7C55A80461CF3D
2132C93A9189219A
C2E44E7F798CB276
43B901FA150E6229
9660C05418C10084
78F244BD544CE056
2FC0C465D4CC043B
FC8BDA9B923B6076
EF2031F6019924B9
53168CC54525E8D9
4C2E65E9903AFF90
0E86FEB2E4AE8611
B77268CFBD7BBE53
E8C6CD50E24747D8
021D560C02809B07
26DEB021984577DF
FBA10621863874C4
CDC04A2A2216DA9C
24140EABE6E525E6
A0FC02471703C44B
B11300A9F070DC0B
2723EA0DF7CC3779
42F7C6C85230B08A
CB53B079D6A84646
DA7EE2A7FA92AF94
00F7AE9627BBA572
C7BE46004035511F
4006E39DFD31C146
7282E5E250CD5776
C1FB0303EAB936F6
0476B07894C7ED5F
E0FD8D14BA0BEFB1
BDB3575BC371E27E
F7E2C0E0F0E07900
DD2FE360D595B041
100B4A751525458C
36AA7A499DF10975
00007D1332260013
BE23F5820335103F
C1F740175A224ECC
52C1A2260754817B
E4CC759E001AA056
01F03B9BBA2712B1
B21060269348E726
B8BE33F536294455
C23423FB3B587E37
1D4CDCFD3737725B
08A2A480FE58E440
F151133F918F1BA8
63209DF4A2A2CC57
803EF9D9620DC855
8EB300F8B767D2EC
849D700743C4DDE5
AB6B28704447D995
DCD7C4A42B028372
4602AB6ACA88F466
F6FB22357719D73A
4AE5A926E93F0ECC
A0011A425439BF88
4517A42CE8B65844
BC73091AF175B201
A1FBA87B88FEA0C4
CFB0B1478BE0D008
20E540441257C11D
70E27A102D5A0FCB
FAE03576EA78CEF7
204372661959274C
385B7F33497DB7FB
30427B3D240B2CE4
8180AFBBCC4CA910
217CC3FE2064CF0E
EE40EB66D5A8A4A8
A60A3F7489900DE8
6603B0A32E261613
AFFFBE41E45B4697
2B210725D58CF4A2
A4E857274133ECD4
B3E565F6A1A6B024
087A8F4BF01E56C0
CC2BA1DD6407CECA
FEE8AC450F619167
97217720E62D09A9
CE4C280EF6FD6776
6113DDDEFFE76FBC
7BB4EFF03030F1F7
D14D90611A159E65
CFCE9B4EE6CDEFE2
A6EFFC0D80A4FB7A
CC457C1A5EEB6847
026F310168730FDD
6FFDCAFFD9C8366E
8E49EF45329354FE
AEF79BCEE5137474
6FF60055080CCE85
8124A7B749E65FFC
D4B7DF9CC713DF3F
E7FA9FCBFE6456E4
5940FAD6C7122E6A
4CCBFF34D67DF313
D49717FC01309B32
F3EA508386EE4B1F
84C00CE77772E10E
FEEE2F5E6F57D6FE
9B8ED80EC60C004A
8C701FB4D56BEC01
490E9E2875BDD770
93FD924E3603F3F7
C117C4F790C17182
F71632279DFE0070
CDBD374660282625
0337C9347760A2BF
B76445BEF0CBAF7C
F20A8357D3F83EE8
AA711000E5C8D389
CCC98F6A30950000
355203754200C002
5F21E16D827F90CC
19D8BC5C0244F66F
A55312256FD27000
444CD313F3114845
943F13107F34CC55
C050844359F527C2
B1A271EFE2844701
4722FBE5E921C46A
76F8BF6E766243C6
24450444F47CF4AF
CFFD41B5666411FF
AED81EF895AF4FFE
9E75DC7FF521FFF0
0BC8CB303BE2C337
360FEEFE65BF7340
815FEFF81CDD81B0
DBF7BEFFFFE79F5C
47427FA77A6F41DB
E8C9F844202C90DD
91DF33CBF7E9E408
FA79DFA6F441DEB7
7176CCA1899DDC09
FF2EF291CC811FF3
FF7FD5F7000B0536
7FBAFFDF1BD9F301
F61817F76621495F
DF3D813FA2DE7D4D
7E3F7113886937B9
17CF413959FFDAEE
5CB6D468E3B3D72F
5991C003DF5A7E54
F00727FF9FE1FFFF
9FBFDA00ECE6D45F
D98BFF8F5DE77F76
9037CE2BBDCFC051
D1FEDBCBB70667EA
BF3E301AE33D7F67
468AAECF11F703FF
4256EEE1FF3C3AE1
BF35D9FEF71530FF
FFE64541B53FF7FC
F7D8CB7E8D886F63
88DFF563C724C267
D7EEF6D6A774C9BA
A3FFF195B113BE5B
E3C63FE6FDF1BB9E
7FE6D3C6D72A06C0
FD6EF5F615AFFB3F
FBBF88FCF8E600E3
27C8F57E7DDE5473
7BB866B7FB37DF82
CE6B92DB7288F32E
BEEFDF79B9DE1882
984B31FF788CB562
A00FFFB6673FEC58
087E3CDBF949E804
9373FC7E686DBA7A
E36D6F8DE7FBFDAB
7FEAFBF77F88FD13
50047DFAA4FF1860
3F703E4BF135FF29
AAF3FB0B56125BFB
71B3B1D599E701DF
11D7B7FF76F1F3AA
EF0D910327A8F115
4C760F5AC6FDCC78
FF7FFFCFEFD9B7FD
79DFCE7DBB6ED2F9
7910F418BCA9DD7D
71BA9008B7F3E640
401DA44E7725FDDB
309DDAD9CBFB144B
F380BA7CF770FC4F
E84AFD61DB70FC84
FD21F7F75B8FBFFA
C9C6D5FFC08BE5FB
4C19FC666DDE0494
89DF5293C738DEF3
41838DD1FEC8DD50
77F111BD28765090
AE9C1ACBBBEA482D
BE4D6AA9F9F74F01
F20021ABDF2D7D63
A3ACE6748098BB09
FE73C1CA7EC527BB
37DA20CE3C9107C7
4D333774398D6ECA
F6C27723FD037FC6
2BBD1C8A3E908CB3
3D0E05E0D59CCC83
FBD1AF2EB092B7B4
4563DE4CB692EC20
BDB5FFE32FB39CF7
0F0374CBF689AFEF
17AC775920098098
F96A6C28BB546433
60F69C9840C02A0A
AC054809A7F36AAE
4FACA0017A07FEF8
6E87DCEC4E52721E
1066EA0866D6DF22
761B210B7FFD4F03
4DEF32E2FE8B1738
74776B944B013157
FFD7E43A988A89E8
E0E3323330A19418
F65D378AC420C923
D08B8600FDA55D28
4BF20263EE0C68B0
F3EF5F91B526DC82
3F7D18CEE84F36BD
85DCC09FFA1DEF17
47DB9F747BA15EB9
49BCCE9838452FFD
3B4CD229FE21EB34
7C4082D6F39D7948
50087ED7499A2E19
75DE8C3911E0FFDE
2EFD68E2F55C0AB3
BFEE138E9E17F9E5
D7ED5CA4394F4E4B
58BE1F93FBD6BCD5
73CAE3ABE9127DBF
DE974B814A21FAEF
F13DE638FAE9C9AD
F0419928170A49EF
660DC10DA8C0624A
BAF48A2E56F358C8
EEEBE157DFAFF53F
C5F365EB7C77496F
4091A3E91EC190A0
1827BC768816FCF0
48981689F7517091
DA907C4E81BDA3A5
EEDB38B9B3890443
7F3B1170BFCE2E18
D84C1599793CFE8A
77CB04FBA8103F82
5E7CAE13E883A416
8BC2C079D69CEBC8
EF9A089ADF7F001F
E6BF957E05A90CF5
0AF09C57CB104F73
7FF6AC9B60F660AB
307C7C99C87E510F
EFDCF65C3090FE10
E480720AEE58F6B1
F4CA008073A03724
92773FF6432024B8
A40A31597B108089
0FBECE24AEEAEE15
0FCC3C52013B50FD
FE651DB21F0DAE9B
B36B5088C3EAEC88
EB0FDA09FC315F15
087A74C2B30547E8
F01B7F0328A3F188
99C3F50A87100FD1
7FA1B76DA2396399
5EA0A0C0F7538C55
907F57C47C11008B
E435CFB1E99D0ABE
6EB5520DA273033D
5D8C1B016788CE8E
F2FFF331F6061A19
B2EA10D1607E7950
041C7056EEF2897F
5657C3FFEE206B15
FB39921FDA904E29
6CBF44A38225FA31
E31B3902DCC41795
CE2464B85EB3366E
48B3FFF5E6EC8B23
96F3379A01144600
0BFF3DEE3513F946
B7B790BFD39AD69F
AAC300D09B11010F
C9BFCB17F7D76303
F02A9439EEB6CE69
0E31C301FE23C201
9291BB5606A3EF69
26E44C942CF3D38C
E6DC4307E354F2E8
F1C0E787448C1BE8
E490CB745258D4DC
F01CF87908EBB08D
D08F88128B70AD76
29CA2A0D71886529
61F92A09C4C4A6A5
D19007F895D02117
E8C0F45C0500C60F
FDEACCD6F3991214
5FF3EEE4CA34ADC0
BDFEF1DF719F3BD1
01990E2A15F4EE1F
4454296ED906AA02
E6EB778269F79100
5E80B22CEF3D9B10
F749194487A729B5
587CF9C68B6CB780
FE0B00CA77EBFED0
1765D7F5EAEDF100
8FF9BC07FF684223
95007B07EF04FFD0
82D33193C08D1FFF
41974F2B636DDA6C
8E4F2CF2118E104E
61106BBAB9010909
CF7AD8040E4B9CAF
16768FB3D6E00030
2BECE97692AA418C
003373C1BFB03100
1C70E37277C4ADDC
78DF4DFF86BC3BBB
5965F7517B8941A0
FBFB44F3186244B9
D112E18C47FEF378
430828EC5130511B
FFFF14DA426DF0EF
E4141137402890C2
BDD122AAC4D8F4DE
7330F37F2262FDBF
1080E1CA365A8FED
F719FEFED9CF84FA
27EDB79F103100D0
68335407173AD008
3D899CF3B300FFFF
0E76D1AA36EE66D3
4D3031A623113F7E
EE0F6FFC75D35604
F9F78D8DA208F65B
7DC4BFFE10410729
D899D89FBDC076E4
DDB835552BFD6E72
052E37FFFF3F00FA
E5C250E76284B3C8
04DD45E450340717
91A2BC6E5ECFD196
DEFABA07E53B0E3E
B3CC7FBC33FEA627
9AEFDB185662FEB9
FF43AE7C4C80E97E
899F4899773752D6
46E99EA931A8D464
46691E38D8548519
FACD39FDEDDD2A42
12B3649EFA7600A6
0CA770AAED0500CC
43A3B2EFD84322E2
CF6A24400AD238A9
2F3589B177C56CD7
19DB7172BA2AB9F2
C346020AAFB774B7
0FE4C7CDEC3BDF92
7013FA643CE72376
D851FF2E7FEAC4CE
3320BDD8BFE0F02D
0454B3ED18F177E0
06E517CBF7930077
5EDEB6FF08E5FB71
5D64ACA9146981A3
9F391F72FBCF2802
30020A663C2C3B60
C330CCD99BF9209C
5101F633F4E4140F
7F63ECE1A702189B
BBB311BF08B0BFFE
8BCBDE5AA0D3ABFA
03D6B72015D09F6E
F6F44E324341DDE1
004053FE6B1D8420
0866310396099BFB
2081F3E8402092B0
004C87A6DF80A111
07A1E0EA12FB1148
086246C73ED8FC4C
9366A0365981E7C8
20E420281AB73E12
3B3F975B4119DE37
1B2821358C89B6C6
82EC57017050975A
2379DBFCF3EA5854
265A0EEEAC4C714E
C273891500DBDFC8
3F7351E35AB38042
2131400DD77D4D73
B40868A7DFD79A37
013AEE7AFF2BEF7E
A060FCFA42B022D4
D4311008F33C2FE6
10679D6DF707EFF1
16D46C1206273B7B
E060B60916A86244
39F4601310736EBC
6FEF53FC90470262
8C6C5D048200D0FE
FD9FDA674BBB8C3D
EE4D8034000DD4CF
8A0080FEF3B0FDEF
8FDDF8C0CD3AD477
C2F29ED9CB189EEE
E36F91B2C6711F24
1DECBEC05B3831C9
C6EEBCE0010C0CCC
F00BC0DEC7E45F7E
811016DBFF036461
3EE0257CDF1BB6E6
FE82CA80E4404DCC
5AA8B27E5618BC01
916E40E957CCB74D
BEFD52B21EEF4526
C8C621E9136BA882
7A1E8C6A8BBD9030
4AF22F014CA65A9D
075F1DB7248A6FBF
512F1DB22463297A
F08BA357FB3A202A
9A370110FE0F724D
A441AE4021861006
4044E300908BA985
FC07EC1797FE4076
BDCA79E9423231A8
3654CB20CFC3A280
108D021FAFBBD36F
1036B308B351E17F
8130804F8BFC6274
310410AF64C45501
DF79FBFE7B1EE113
37EAB071F377825F
09080040FCFFDCF7
5E6648E36A209C52
2A838EDEB0DBBFC8
0D7BF33C48131A29
27BFDFB7B290FEFF
C008BFAEE1E95E73
8EED95E98EBFD3A2
20B49EFB40868035
E7EF5737DFF9FF4E
46F9444B371CCDCB
88EBD4F3DFDCF606
F777F44E6A3F3EB9
3FEE93886002D99E
FC7EFFCB2CFAFE27
768A8C605C3FCEFF
97E67C801F89265B
0E73C13CA010B0C6
FB1E7877DA48EAD1
FFF2EA0770814EE7
F6DF210F677BD555
BDC0508B4D33DBFD
2F0ABF6BBB63F62F
7377F2135C6F9F4D
AFB8D406E1707A5D
FE76C36377FE175F
E90EEE45FEC84AEE
42DDB37DEE647EDB
437067612BE8E153
B0D300909FEBF437
5F94EE0CC051116E
B6C5F9BF03E9AD98
C201C6FFBF7926E6
27BB216F2E316DAB
9136A1807300FDEC
EEBE406F5AFBE72B
D7EBBF786765B3B6
9EDB3003A37F8E68
075FBF7EB054B946
7C00B0624833D8D9
3D8A187F36DB2F77
0083631AFFA2632B
6EEF0C7B2F3D1F7F
7E00335349724140
8200FFF1B6E6F6FF
D56827503C8E2B0E
AEFF48EFAEAF77F0
D4C5FACAE74FFFE6
28F355F55238B03C
6AC3D925F6F6F5EF
1647CFFFBE6EAEFB
3BECFF7D68D91ECD
57D71065331A27E4
74930470E342355F
2011FD5073B48C34
D6FBD46CD2DFFBD4
0710F136D6B1D121
BEF7BE3F1FFE8B13
E644B3877EC8EF10
1B4E89EAFC8C766C
0C2A9A037559FEFA
25002D046B9FCAC0
8A0350C075B44731
5B3B5C886B1170FE
FAEFA55F357F02EF
B67362042C4BE80E
1EB103D7CF711407
A80111108C8C5E31
BFEF2F3C48249349
E6FF8191FF710310
FFB1B62F4EC5FF19
00863CFBBFDE6FA7
F10E673B64CB3302
ECAFC0587E41C92E
406E1C81D4B6803D
90FFF3906277728E
DFF751D6FCBC3112
93779A51F50863C0
D998C0CE77261990
B898DBDADF7FD130
618478D69DC83FFE
FC047619EC25E7F9
E00FE87B49EA3FB5
3C993D30B6425F5E
4D2202379904E608
CBFCB94B2EC5AC5A
791181154294F66E
2045B10B6A11CD22
043BB549BE6F773F
AFEE001688C49012
10186CF1EDFFE04E
EC333F6776FCC886
CE7F69F779067D8A
C40E8DCC8187BB11
1120183A6F27F015
A87A13DF1FFF5C81
9BA2E6D81625DFEF
F18E491D00D7B4F7
18FEB88810064E82
F56357BFFA5B7384
1D1DFF1AF101FF5B
74C61E65BBCCEBF9
80EE6511E067CA64
370358030131DD88
C72427A17C9C80E5
904EF060FE3F123A
C11B78B5A6617FEB
9375F541997FF23D
90D7EFD237650308
8859051FE773EBBF
F1122C67E0C005CB
B03080A3FB9A4740
0D7FCFFF30028CDD
CF59F9F96E21E877
E2E3FC635AEE21D2
021D7E4CB9FE8595
D7EE04251140D2FA
C44D2EE693020912
8F17F9A6CFCBD434
001E89F9E266927D
1110D05823F8E961
6812329816BD5B04
FF69061BF5885FFF
83F3A1EC78C9AF0A
04F37CE528963E14
3323DF56AE301EC2
F8978C0EFC159F94
147F3496CC9E2FED
9E7F90BB5427DD02
F650BAEE0F2F3888
C1CCF7FEF2E5C082
C04359E812266123
3044DE0CEE605080
4B9844283CBFEEDF
B4563401F4FC3838
21D2D8B1097C25C4
4BAE1022FBE5A932
4D62E5512A2F8035
7717B18FE8C98A65
48103774C9406394
351EE07C4EC02086
E9053E00E99BF061
055FEC59EEDBE29A
521FCB86E780D4E6
86506B3581BA6100
EE00FD406ECE3318
E385ADE27DF780BF
6E00311840913E9E
66EE10C4F7DF98DF
C39B08C441D40000
538D50015AF83AC9
34205AF57540F3FF
3700906CBF3848D2
50D00F33FE55FEF1
0098614358AC010D
8343872C5DF80F0D
CC0A3AD4F28F2824
42A5931189E0DF41
8459DBD57026F93D
334071FFC41FCE63
BFB950D4F14A508D
80BB3510842AC86C
3E9AFFB341C6608F
2B3F300B5F12C495
7445029B6A2E08A1
54F5FFFFEA92503E
504415150CA38A13
6FE388B76FE0F97E
45F500E4F4368DE7
C41530BD766A190A
63028612CD4EED1A
8D8327EC3B9CF308
DCB046504D050C3E
526D6C033065E28C
6FFD3A9271D04CF7
A689D296FE1AACDF
3AD8FEDD724810B8
43B1F026794AC775
6960E7FDBB111AD7
2001A89047D80F49
2200DDC831F479D9
FB517682034E3200
8028001B43D110C0
4415F5D70CCC451C
7BA823284FD802CC
6F7DEEFEF0E09EC6
B098F6757E0870DF
3C89D360BEC51090
07C628E3E475FCCC
0F20389019DF95DB
D0D6E857413DF821
E200E725DDFB4AC4
8317D0142280C34F
F31F5718315ADF92
D75004E37A46C839
539A6CD622BFC178
2C6EFABE8CC31C85
FFFE81C7AE87A7AB
2677F07FEC3072DA
20FE50CCEF8B3914
7F7783F48A309BA5
430E718EE7C23FFE
E4A30B763B1867EA
A50F943B294EB8BC
501B05460EFA30BE
C350941FF1FE89FA
154574BFC0808E4F
D763A00DE67302CF
80C512B2D194601F
619BEC390F83E67B
8AB22C6018FCD7AC
C2F06AFF4B48AE03
80F9F91D06818629
B41B6E06ABE442C7
9BEF85F0B3852A83
DBD113A0C0BE9B38
BFE440A2427B241D
9EC8D7D2EC225E69
FBACD6820ABAE03D
457FA8192E3F830A
073B6FBCA62BCCFF
0DB5F139047FEBDF
4518AC2AEBCCDBE3
97E883D06C5FD0C8
64812A62C6332BEF
5273BCCABE11CA8D
B7ADADC5F3197FF6
BF74D93B44224416
556E87863ECDAED2
DEB9A99FC26284F3
8417D09BB387C10E
2DD627E7FE4DDE20
14C8E66D705B0CC2
A26E606BF621C714
94AF8CFF08723E2F
890F01087F8ECF2E
2F2EF24DB6C516E5
6A144EA800873457
2DDF908FDE4D3E2F
6CAADE284646F403
E2A56FBCC2C4B7E0
A88B191A8FD735FA
8EA7462EB82B9E28
5024FBFF39378413
244EE77AEA388637
CC3BF7093F6EE41B
138E8110D3D6BFE1
653DF55A1008451A
CCDF31AEC41378C6
22B021AFDF38A803
33976C180960C011
7502F7F2DD8E2EDC
4C096BF3477D60FF
2FFCCF6B8DE80AF8
BF805B2CF78EEC7B
8883ECD86329BEFF
0D0A61006668789F
065D2288C432BDF3
454E3AC3467F07FE
222A362F0DE8E947
B6275EC4C8ABB887
96ED84C98808F4A3
66C7377DBA49CC6A
B944F57B5A59838A
18AAFFA011DB40D1
D990B90B7073E3DA
A4764DCF1184BF60
C34F0C351622486B
40055769113AD077
C799E002213381EE
F7FFBB8D8022BA9F
766117108129AB6B
DFEB1CED73C30735
EDF5104A0149C677
CB7B0A0365EC7E91
08C0DEFA3E097B10
5B3BEF12480347DB
E0339705FAACBFE0
CACA1FE6767B320D
4EC7365D480B7131
9CDFE5721476D777
F684B495C10C2756
EFEF420C08302215
5C7BFEEB9813A309
075E18019DE34177
CE49D3AE20880801
A7C24F24D188CFEB
628877643F72783E
6EFF0BB93D559B71
E6E04E683D106F18
400268950FF1CE32
CFB1D6FD082B510F
41E3FFEECEF5F609
FC89A0984A010FF1
A881FFB039FF0444
785A76CB91517DB3
D703077653438C8C
48AE550FAFEFAB0D
C0FF15EF09CE896D
A06F68018811CEF7
2676E7C5FFF7E223
01A64130FEFFEBFD
81102026CE95CD08
657CBFED0F4F7FEA
AC401C008C8C68E7
6963F9FE64500818
594C456C947E8110
17F36A5FF7CE9F77
002914B26DE0BB70
000718EF4534B908
DB800EF0F5A4BEFB
B323A79A10082200
8DFF7EE1901F5C40
5822912E362A4452
B625E8A422AA163E
E043DE00924E2C0D
7C06F0F7D037DF88
60CC0080CC94BE6C
2FDC81844FA813FF
9885E08E92A10C51
7FFA17BE8A4D23B4
0174440E0499E919
F13E9988D774597F
8CA93F758BF2DEE0
5641306A5E357FDC
CE883BCE5B8A4908
3942E7201A27032B
CDAC68475B7E4051
9B806F302115AE36
32E76F39452C04CD
8F5E32F6146DC97E
9EE00A8CEE1F88FD
29AC10AF80B3070C
D9D9CAFD103B0532
088D02DC24838023
1AD20018976CE10B
181FC62B8476D6AC
A75DED318539631E
3AFDCC4AEB3161CD
F02C7BD344209AD8
6778DB218B36FEA3
071AD37CD172A8F5
762220F100C76E55
3502F468CFCE6496
17CE589BE8DF330E
600566DCCE2932A3
653B91C6CF2C6A31
65440E1572FB62A0
68BC16F5D0F5F1F8
682CCA7011450B54
2385F1422418F4E6
BE28A47988D09B26
F7068B9FA0BAA432
10C72CCEDF8C2A38
863151634AF05472
EEDCE1409C552B27
C90B5A8064DD64A4
100F0714E2E7EAFB
FF506182226CEA39
20260C25CEF9E7E0
A869B9DDDED9F2C8
FFC0E0E18A89DF4D
53886248F4B9A484
4B0C1524F61CA9DF
45313AE35527E012
8BD39729ED574F1E
73884E7CEC50C100
1A4B509BB6ACB2BB
6601EA098EDF2E2A
40CBDE025CE66988
0D3E1908FCDDA904
6998E7AAE686EA1A
FA9DA290086A4A0D
0F5CCC14F609FBFA
2723A4EF002E7BFA
0B820E447A0EACD5
C22EAE11723E0732
E018CCC929E8672A
7432308A88D22306
3FBF4D67E43D6331
8888703A8B667869
711EF623BEF8C0B7
E1616FB1ABCE8D2E
4E6E382B0160E497
EE58C7E9780AA702
8B8F8A701621C729
7379E008A120E4EA
879A9E3F239E7FE2
D3D8E5C11F4CE7F1
F7EA081F5DDB5F09
D8E0E3EC11BEA87D
0AB8ADCAFA31D4DC
01966DEEFF3D8FF3
D65C6EC7EC2B7491
7798EBA662BD8E18
6F71204FBF80BCB5
44202801A4EFAF0A
F16C814E1313CE2D
3A9803F4CDBF316C
6F2710B57302601A
C8CECD89F3F0D7E6
A3E8D1F04FF2B040
0C7467AC7700BF5C
D73847E7CBFB9900
11115AED80FBCF80
B08F011055E5C133
457C82F1474C2894
94CF7F10733BBE94
6AA40F38BF393290
9D7D13F82CB9C067
3773CE7DBB01CEF3
ADCCCD34F524086B
7B33F62084FA05C7
9BFFF088C889AEEF
C5EB1BC9EDF72647
CC010E10EB08F55F
95E3923B6BA8E17E
E88E23A0D900FE96
EBD3C5F8E3E57DF3
02F0D999E598F030
AA9909B507EA1CFC
534CCB1ADD3E6ECC
45558742A339F1E8
CFA837F2AA8BEC80
A08AF812C1FCC61C
BDA189D3CB5DD9EC
F802924EF753F0F4
DB3ACEF95610FF91
CF99887E4808A9DD
1508FCBFB985D71C
FDCDC378CDD4D880
588463786D7314C8
632A5088C86F37B2
79A5370B901FCBDC
27F6D699EED2AC85
DD00837229505066
E43AD6D8EE67AE6B
FBCDF998FA99C7F0
FCBF03B6608533C8
2A996E68B69A981C
FCEEAC3363C4829B
31CCFFE0682C1109
10F60028DDD2849B
8511CEFB41197DEE
F708AE1CABD950FF
FDFFF18E8B6C7F67
3D8CF82C8FC4F781
DF7B40FE0BBDCB8D
7B1ADD01A37ECCD9
08924F58F7FAD771
4576A100ACC8A10A
DF9ABAF6D0CB2BEA
5260C0A3FEEE02BC
F3AFF53C33AC4CF9
80E4B83349930012
367F04A67DB0BD7B
ADFE62C1A3B1FDAB
04F4063F3E86A520
17186309C2FF0E5F
0F8900E249EF9EF4
13CB98768E2124CB
98009D8844AD5601
0D9E489A8DFFC7A0
00004324DC84F44F
0FED53336311A7E8
4373ECFDFEDDB8AC
A00C8FA1BA260006
5101E76451D7036E
61DF14671ABB9D51
87692B9025D10FD7
57044927BDD78A31
20238297BF5BA38C
B03000747AB0FC44
47353B308EC5FEE1
10612F6746C8A824
76C8DC1780E8B672
C0C407F6077AF200
33FC13334CB2FFDB
5C34CCE49001A306
4E35DD001182CFF6
FFCE39DF4009D0F0
0577112D402E9100
EE821B7838883CDF
003534CEFED3DDE3
06F8E69822605D14
4FE6CFEF62925B76
F02F85D5DDEFF1D5
F3B399E1E7858B09
ECEE008A9C287BF7
8D88FC775A39141E
AEE9B714CD7BF5FE
FC885020086E0DC8
DA81863AD3677E6F
56062CC59F1BC77F
EEFF5AE9934057E7
FA4DC321A1FDC8FA
000B83EFBF7F1232
7B014665D0FE56D7
4E003A89BAB286FF
848A519063F8AAEB
1105EB77C00237F8
F7580001EE4C2D45
04E268032B249013
0CA9042682E5D977
DFA195F1CA488306
16FB3DDECDF33703
1CD49A14F651066E
1C0DC13447394004
7FFE120E4F74F84F
08A0800E2228A7F5
BD0357F338B1EF00
DD00FF73F9C60DEE
9EFF066BC7756FEF
885C1735FE68FFFF
C7350CFB1FB09818
2335BFC8220B7408
DCBD253A00081950
E31A709167B497EF
6734D765BB2A41FD
8337DB0790CC6010
0583BAA3EE7E231C
7FF2FFF078F75B52
000F1528B9AAE9EF
0237B715213BBB2B
AAD57EFB3E88673F
E69F0971BB083EFD
5F796C0122712FEF
D7DF7EDFC332573C
743CC4E58FF2413B
F2BB0304010CFF0A
E3E367DE7F678EBD
C414BDD74265F73F
EA5C40FD77467EFF
7CBBD14077BF2B20
FCFB191700882101
804774D688886717
D14E6CC0847B67BA
7EFFECCBB11B0050
0FF4B015399F1010
7D8C33FEFF4E7F3E
6F3B68B63CA76F22
80030CC812F70146
E26EFEFFFFF8A500
0933FF6BDEFD7013
2202D4C2380B5F73
714DFEF8237DA5CF
233F7CC54432F919
F7DFDB397BBE1FFC
F75F38BBAF91C3A0
9BBF181280AAE793
C91089FFF2314E22
85CDC7371955FBAB
FFF497BE2F244502
413D84EE44CFD202
8A1EC89E0087C311
6230B612F7E87239
6973F3B9F2902791
11EFAD3A20D277F1
9B273570E0D2C8CC
077FA0ABC29B25D8
E2B0F4CB08CE0CCB
E41EECFF56CDDDFD
79BBA7DF7442FFFA
2BB9FB722A1B77F7
6C601964651F97E5
00C808BC153431B1
BF30201C0FD9D1D7
06FEDB374478404F
FD6C4F363E33C088
6FA644C784DDAEF6
409AF66B00C67FB3
89F515C893A3AD4F
03093CE9F9E827B5
F3352AE2D10146B6
7F76FF7B33E75DDF
39DFFCC471594EBB
DD18FB360C00BE36
5DED88CA03D12866
DAA9F7EF1FDDF390
CCCE6653C9156B36
0FFC08B5E8132F1A
EAFD7500BFA6E6FF
4037E020C67C4B3C
1151ACF820DCB0A7
32740AA1408170E1
C5F2B33BC690DDC4
84F19F21F06C8B72
8C15EFB8F221F364
B3CF975FFF17FFF2
DF0B9D104B7AC294
CF76CD02FF6054EE
87D2D8FEEF4E95FF
8721F9C77BBEEFA0
DD74C4F8C00DD23C
820B787A94CBE347
FF66C5766FC0CE7F
FAFFC808EF6AE248
F9FC336045405B88
D3C08E686ED23668
C820C88151F21E74
23321764DD605E1F
F30FE0ECD81EC811
6F047E76C53FAC00
76FDDE3DE9C8B912
EE48C5697330DDFE
7A00D3F0D57EFA50
1DBCE618450E8433
739819F31BFB1E92
4E7E5C62BA397EE0
4FBE8AE8C57F6E08
3C7037E8F5C6EF39
C2FEDBBD1003F79B
7DE7EEA8FB366E44
9998206D9804846A
6E297A65C624D965
724B6EC221198E9A
C8746E1FDF7AC027
C04E6468CD5C7D0A
3CE25562E6A79E2A
8676EE14C8358A72
DE671310EEE41FF6
60BD1F107F11191F
D5FFFC028E0081F1
8D68AC6ECD407F43
5100F3F79A800CDF
EC2789C7015F46A1
DC2889F5DD3893B8
9D65CC8C91E09F39
44589C80AC98AC34
CE386829D076392F
CD26F274DFFE8470
5D7B4279049EC042
E72E9102DE79CF0C
16FAD3DD0FF47710
7FC08BFF7608471C
5208C912A39F5A80
CC1D5CE17F7FAF43
6DF36604B97F91B0
0B833AA6F923CDFF
EF01435B7E18BAE2
CF0E97167C381337
BBF3B08E1B10262A
9F8019D19BE10466
255047B1812FF6BB
0000000000000000
0000000000000000
0000000000000000
0000000000000000
0000000000000000
0000000000000000
0000000000000000
0000000000000000
0000000000000000
0000000000000000
0000000000000000
0000000000000000
0000000000000000
0000000000000000
0000000000000000
0000000000000000
0000000000000000
0000000000000000
0000000000000000
0000000000000000
0000000000000000
0000000000000000
0000000000000000
0000000000000000
0000000000000000
0000000000000000
0000000000000000
0000000000000000
0000000000000000
0000000000000000
0000000000000000
0000000000000000
0000000000000000
0000000000000000
0000000000000000
0000000000000000
0000000000000000
0000000000000000
0000000000000000
0000000000000000
0000000000000000
0000000000000000
0000000000000000
0000000000000000
0000000000000000
0000000000000000
0000000000000000
0000000000000000
0000000000000000
0000000000000000
0000000000000000
0000000000000000
0000000000000000
0000000000000000
0000000000000000
0000000000000000
0000000000000000
0000000000000000
0000000000000000
0000000000000000
0000000000000000
0000000000000000
0000000000000000
0000000000000000
0000000000000000
0000000000000000
0000000000000000
0000000000000000
0000000000000000
0000000000000000
0000000000000000
0000000000000000
0000000000000000
0000000000000000
0000000000000000
0000000000000000
0000000000000000
0000000000000000
0000000000000000
0000000000000000
0000000000000000
0000000000000000
0000000000000000
0000000000000000
0000000000000000
0000000000000000
0000000000000000
0000000000000000
0000000000000000
0000000000000000
0000000000000000
0000000000000000
0000000000000000
0000000000000000
0000000000000000
0000000000000000
0000000000000000
0000000000000000
0000000000000000
0000000000000000
0000000000000000
0000000000000000
0000000000000000
0000000000000000
0000000000000000
0000000000000000
0000000000000000
0000000000000000
0000000000000000
0000000000000000
0000000000000000
0000000000000000
0000000000000000
0000000000000000
0000000000000000
0000000000000000
0000000000000000
0000000000000000
0000000000000000
0000000000000000
0000000000000000
0000000000000000
0000000000000000
0000000000000000
0000000000000000
0000000000000000
0000000000000000
0000000000000000
0000000000000000
0000000000000000
0000000000000000
0000000000000000
0000000000000000
0000000000000000
0000000000000000
0000000000000000
0000000000000000
0000000000000000
0000000000000000
0000000000000000
0000000000000000
0000000000000000
0000000000000000
0000000000000000
0000000000000000
0000000000000000
0000000000000000
0000000000000000
0000000000000000
0000000000000000
0000000000000000
0000000000000000
0000000000000000
0000000000000000
0000000000000000
0000000000000000
0000000000000000
0000000000000000
0000000000000000
0000000000000000
0000000000000000
0000000000000000
0000000000000000
0000000000000000
0000000000000000
0000000000000000
0000000000000000
0000000000000000
0000000000000000
0000000000000000
0000000000000000
0000000000000000
0000000000000000
0000000000000000
0000000000000000
0000000000000000
0000000000000000
0000000000000000
0000000000000000
0000000000000000
0000000000000000
0000000000000000
0000000000000000
0000000000000000
0000000000000000
0000000000000000
0000000000000000
0000000000000000
0000000000000000
0000000000000000
0000000000000000
0000000000000000
0000000000000000
0000000000000000
0000000000000000
0000000000000000
0000000000000000
0000000000000000
0000000000000000
0000000000000000
0000000000000000
0000000000000000
0000000000000000
0000000000000000
0000000000000000
0000000000000000
0000000000000000
0000000000000000
0000000000000000
0000000000000000
0000000000000000
0000000000000000
0000000000000000
0000000000000000
0000000000000000
0000000000000000
0000000000000000
0000000000000000
0000000000000000
0000000000000000
0000000000000000
0000000000000000
0000000000000000
0000000000000000
0000000000000000
0000000000000000
0000000000000000
0000000000000000
0000000000000000
0000000000000000
0000000000000000
0000000000000000
0000000000000000
0000000000000000
0000000000000000
0000000000000000
0000000000000000
0000000000000000
0000000000000000
0000000000000000
0000000000000000
0000000000000000
0000000000000000
0000000000000000
0000000000000000
0000000000000000
0000000000000000
0000000000000000
0000000000000000
0000000000000000
0000000000000000
0000000000000000
0000000000000000
0000000000000000
0000000000000000
0000000000000000
0000000000000000
0000000000000000
0000000000000000
0000000000000000
0000000000000000
0000000000000000
0000000000000000
0000000000000000
0000000000000000
0000000000000000
0000000000000000
0000000000000000
0000000000000000
0000000000000000
0000000000000000
0000000000000000
0000000000000000
0000000000000000
0000000000000000
0000000000000000
0000000000000000
0000000000000000
0000000000000000
0000000000000000
0000000000000000
0000000000000000
0000000000000000
0000000000000000
0000000000000000
0000000000000000
0000000000000000
0000000000000000
0000000000000000
0000000000000000
0000000000000000
0000000000000000
0000000000000000
DBE11DB780431DC0
7D507DE23B0AEDF2
09BA49BACF0AA1C9
9984713137010FF0
CFB5DE7E28441B7B
EA98A554916F4402
77E2DD6DC9519917
9166AFF23439B7E9
7BFF42888174C147
D24E965538CCF379
98EC274F3A77FC1A
68E48E09268E11EF
64A9C4178C4C1ED0
C0EC0163F1B2F3F7
72B6133109673BDA
AF5AF5D704F2BFA1
2FEEBFF861014263
66EEFFBD91C34121
7ED380B6CD123B24
7EFC0E701F89308C
3C45DF4F6B7EA57F
AB9D6B74EED10FCA
077750181F9A281E
408ACF3F0FDF4B52
5B4FC940582F796B
CFDFC9A0DC2B2BF4
984401499E2DB57B
98EE786BFFD39DBD
04776641BC3F890C
3ED003FD772790F9
11F4F9B866AC4A23
9C17B9AFB17136A1
007F95726EC4A975
8804DBCB8B1049FE
71D7579904BBAB1E
84312404C50008A8
1D72D90B051F3F7A
08ED0FFEB7803276
47781F62D731FD30
7392815B97D29806
494F0040CDFBA289
F0AF0BD366A20010
370A3DD2C793E177
CFCB7714A09AF8A5
557F827DD043C9DF
3F0134378CFAF952
82611CA52F3B35EB
6FD3A1F0FEEE26F4
0A58A29F3E40F9FF
27C8F5FD0D029589
88997C979847317B
3B3875D4FF21A6F7
117D44C1D998F308
D8B37501EF907264
ABD595CB63A176CA
756B80666CFEB764
1599AAEBE5918908
9A749F5D1E16D9C1
82FFF335BC817D83
317730DA17B103A6
5AB931970961A9E1
0923602353E302F7
765BD06F6FA8E611
117082F9599CFC5D
E46CE1D70C8A9915
3414FBDD14A9C200
0174936E9411A010
1CEBE7640DEE1F57
A2F0010A0A4F4CA8
932C6CD840AC4CCC
FD9B24A1E2A2A5E6
84C2BB805DAC8CE6
5F8A4C4855A10DD5
35453C1D6FCF4469
BC138B3F6E17368C
837F44D105513D4A
A2AD0BDE730F542A
40578931FC0C11FC
7425E6871528B8A1
4E57280FF9EDB564
81112E534BB0C306
D6D035004ADE676E
674319D8F393E707
0078228D08D4FF3A
E1CBC00FF7D663BA
AB5D07E36101033D
CEE07D90AC0F18A5
44DC67CBDB7C6348
B37CB6ACF32F8FDD
84444DC1AEC22643
B690648495F7E79E
002838DFE28C6043
74BE8BE8A6BEBF55
7DB18080F83A6B35
5E98E303F4C0B4F8
7E47EEC15A176624
DA32633F0C88EF8E
7B91681A73F6FB91
C2198FA357E0419D
03F797F32064FE8C
02DFB387785402E3
0CCF0C110D161386
F9FE400BF8ABC533
EA506809C4CC328A
C77F15C8BD954DAF
8FE15A66E6F09CD3
91EEBF5D2348FB10
9D7744203676572C
55B9A91DE5B0A12F
7A805DB7A917C029
6469505F87573204
0A1A028833E880EF
C462B360405319DB
5F07C220BB99F3C8
4344590FD712CB78
508D6D002045E019
C4C8394326CF3325
C7B375786361ED5E
53A01346098233E6
B856FEE992F733EA
7D5FB448A0B420B4
A36EF000FD7123C5
D3B67E75476BB9D0
7AB7E2087717E4C9
DBC6E67B420F2A66
C0701F92500FF1DC
2788B4E578C471CE
78E550D8C3BD7BDA
CA4037717FF63FE1
4190AE7774999FA0
F77F41277D71C76D
CD9568004DB500BD
240C321C45EFE093
640AC709F76ADDB5
26BA9FF6FDB89998
F340776C4BFD7BB0
D12D5FFEF4820232
3E7E0C8AA3B7FF31
7DBF84E2FC7D408A
7F9F7D3464988964
988A4C31F18C17CE
7AAB7E610100CF18
DE5A15FD4C70E07D
006965AAFF44ECD8
B4A94DE8B178DF6F
01645D0C339871FF
2EC6613C1F0877A6
1AB5DF7F75652EDC
5001BE788656E988
70DE9006C733DDB0
96C7F5D93BE8F77C
52F585573FFFFE82
3AAA69C6F2CA6500
430CCE0A136827C1
80F3780010F7E072
F304CC8FFB85C580
CF314AB9318DFF79
DCFB7E3A8590EE11
82BA09ABB7B49398
0D0A9CC29AD60BE0
DF08C293C3995708
83942F6BDE4E3AAE
1CE2B5BFFF7077A2
D78F6D511F2E0A66
EF773C0298C9C5CA
46D5F60977DE07D8
7FD887888B972324
6EFEC707C26A8B61
1381FBC0FF3FE6F7
83BFEB9C00CF3F7E
73FF91F5FE7FB3EE
3E6C8FE54CB0365F
A40A97335A77F00F
571481DCB7C4FFE6
75FFFD4EB6F5C9AD
81CBA0CB0F315190
93602209D6707788
00A3AD387F4C4C0B
62B84C0F7BB78615
72C5E39AC36F197F
FF1DFF2A2C472378
627F9A48FA9224D9
EFAA080BFE020FDD
C908C5D830BE66EB
4F8F6CF3913B67EF
ECC4C4C89BB077BD
3171768C2F6CB61A
F9FF93BBF209D190
FF184FB4335C3979
7E56E4401777FB8A
C4CBADE0EC2037B1
D0F1770D35F6E66D
0911E67AA87C313D
CEE10CDAD0A5B41B
B1DDEE73EEDDE8FF
4C5A2800304CA3E6
4E8960E0BED10FDE
27083ECDEFB21DCE
5F460E1198271A94
2A213F4830092191
874447DDFFEF697D
518138AC10F4C3F6
A08819D9C8E710C9
FFF0F9C18EC97FFD
8B88039F5E8B4C0F
60049F5D95F709FD
73BCFBF61FFF5D01
7F927664D289D4D0
CD797E30C5F77B99
675F8CCC9B8DB8DC
2CCDE8DBEEFA86F1
F48FA9827DEF2D8C
0008CEFF2AF8FFF6
346B1BC50A9F276C
8019984D7650029F
777DEF8A76AC7F87
F65832486C3CFFF9
C0800000C177DE80
7C1BBBFF22891919
FEEF8384091AB2AB
FDEE88925BEE83C8
2386D07353987CD7
77AFB22806C166CF
5D13978718196EFE
FF737D934F4F1215
F3F2620B4E60A65E
FFD81F19FFEF0B21
7EFB1F4DF3F19861
3D992772F6FE9A4E
00082EF17AB2D7BD
A320CBA43C402FFC
43097F9B210B825F
33B6BB378ED346DD
BECF5249B0116273
098C010613C49F88
24F4931B63401EC1
C7F33CC7738ACC70
F34DBFA1100B17C9
285D7D7ABFF1732F
7919905373D501E2
B59D881899EF7568
8F870A040C62290D
600C97D4FBF9EF6D
8C8CFFA2050FCDBC
DA1FB6F849BDDF62
BDFF4538D1F62940
38C8061A16BF1F5D
EA9BFEFFE68C0BB4
1DD51A0C829F07C8
1C0F8512FFB192C0
FDC90985C5E0337C
EA88C12FBF798C0D
CE82F4FC1E3CBFDC
9CC97B301B9CB185
408314CD673A3293
088304CA37D66A2A
F4FE3C137EE7A830
6F091AE14492C4FD
2A102102FF00E321
166F515E6CEA2AC2
6211623E8D6DB7E4
EDE88B118DE37FD8
14DE6BB51FB3D520
AAC68804041D73BA
862D7FFC13C77EF2
2C0064045364C740
06A200795CA493EF
EE72000C8CD71EFB
6F2D695130FD0661
73560A0017914220
9981A77E93CB0011
657862E977AA1150
648406296D798C91
A2090006800967D8
5FEF8A23EEFEEF5B
02A0BE8F67FF4721
470F00084347E39C
ADCC011079543CC0
DE913C80CE275BBB
AEC06A1DAEB607CF
36D5487732958EDF
BF5A73DBEFD50C25
A9CE7C8360D26FCD
011E0DECD7BBC640
6C091EBD40C23882
B3B0670A9434D508
600982C88E4BCAAA
ACE2C88568B4E6EE
8BAC700CD4D7FBE3
EFEDD538FEFC8C57
8E920538210CD724
DFFFF00CBAC1EDDE
98AEECD6CFEBB07B
BA40E8D7EEF331DB
3F1CC2A9B7D683F7
F3F4303D84F2C427
B221F7F70A874A72
90F41993F5640D20
691A849D94B84708
15FD6EEF70E987D3
919D998CF7FDBEE6
13F9000D01B80F10
C4BF000302B1B9FE
0173A78BC120FFBF
F7F76C64E3F71740
0184098E5F7F0EF8
AE054C678FB9CF77
EFC190FBDEFF3997
A495BBFD3A7640C0
83EF42EC285307CE
0B86A7BFBFC7408D
FF9BFCE9ABA648A3
2E07D22E022806C4
2040E51E319643E8
3032FEDE77FE365C
7986C5EE107895B1
94FC77E596357758
DF00E7B7F0517998
D1162677CE8F7F84
68B0E750DD441330
BFC4DC15F43506CF
8BEB8D261335345A
28881D91798AD5F7
B130E9823A03ABB9
1A85FD0CA001FC54
9FF2E3C2AD731E09
4804211D05F3DBAB
64C31CD09073B2CD
2AED26977FD57011
E65A0423B922918B
7DB9403B9904937A
F6FFFACB02BC0A96
E9132019080166A3
7B41011B912A8A19
4D989D6723BA3E50
8019BBF364FA5E9B
B67ABF990D7605D9
999E591B2020F260
BFDF9A085CA0BF00
318B4C742C95C382
8513FEB4800C8011
D08973FF04CF00A4
2FC305277DE0E6AB
9AAA120C2E42F4EE
E09AD5FBC4D80838
5A0B6EF6D4089BB2
714F8CAB5D057523
5211CA6D9DB3402C
4448FCC5087B44DF
A3FEFE248A0C5D00
303BFEBAAFA62AA2
B3403771ECC89DE4
7D499C60B5C7BF7F
6E7A88B5B53108DB
97310C4F3D559F42
9BE00802BAD250C1
BB712C4310BAB1D4
97F467E4D76FE579
4E50B88C94505A19
C5E31D373040FD77
75D72150CB2ACB0C
0104F7B0EF236259
74007C7C129BF5C5
8AB128CFF01520C5
CC5F53D05EE2DAD5
ABAF054656E97DE3
D6C7AEC4DA817588
985F88AE80B64F28
B8926806A3BCC772
0C7340CCF96215F7
DF7317D8A83B3C58
35F3FEFEDFDFFC83
9405329DB82CF895
F6088C90BEE019AC
6580AF3DFBE310BF
DB2301002A384B44
8350F933DC818ACB
B271D0E9BFF25DFA
7228E3A2ABD83E74
E4633814A0208AA3
66FF79C6C0AE35E1
A803EC7F90A0ECC2
D91697F1B3A2E418
5684CC9D9BD3FE3D
0BE059F8A0006500
7E6FC080731AFA6F
7F744CE5510CCD68
2A5499091010AA10
02923EF9E820987F
8EB92519760295FA
D7CB8B54606CA008
0D78730E0000BD70
A8BA91916AF50387
AE02F39B4DEB61D3
FFA27122C5EE65B2
CE70C1B34D032055
0482D62100422E80
D2D8881B562C34B7
80EF7020320DAE77
1228D8AA01261C31
E622783720FF32BE
037F3F66ACD2BA69
4E77E3BA50CDF660
60F31010EEF79452
5AF5EF39AC094EEF
8403CD618C8A5067
06E0B72091954258
20019908CC863A8E
1BC66C83E6977E0E
CDD136D713026019
473015F180239479
FEDFC41B744E5C2C
047362FF60F09793
477933890F35D7FC
CCFD3FB0EC5F4108
97160884724E8901
FECEC3BB09260199
600E8E88F092CFDD
3B75E270B3F68A97
E112600284BD4A6A
40A0281054CE8122
BA9C212255B7E05D
00121DEE6E49DC20
AC78B7BA0E09C421
B04D402946FE2B40
4633DCD80A288500
C1B6D11B16986B23
1197D9E9A6C3FC27
B1B65CDCE81AFA2E
2506C021D9B2EE9B
95D179161B19085F
A5D420454DF5F48C
48FE5EF12FBC1319
34B0F93A5DA0005E
6C0A3965CC032AAF
50F376BF0C7834FD
3F5480CA0AB2C28E
8FBF9084DA27B6B0
75E50A95ECAB5845
04440C06E66DF666
A5FC09255FFFE788
F0306AB25200150F
BACA7550F553A803
64C2E039900700A7
A4345111EA2F51F8
2A5703F060391CC4
00F5C3B00BDFE02D
B4782B32B8423136
EFAE22A290001081
8104A86322499BBD
610BAE42900F3806
70AC3BFF10DD8CD0
7612C26DECC8CC6F
D74FE042A8A0ECE9
B2BA7300FE7E1441
EEC45D52EC0239F9
542294491C900A6C
1DC0DB01694F48E2
AA6EB40337F80ACF
D8844E098F2FB220
00031E81C0056F1C
08E0F6CE1C2C4C40
4DECF8DAF3317CC0
889CC20102161721
5330F30D0149AE19
8F0E111C91100DC0
793E9444EC80E0C0
AF8B0553DA9CDEF5
9F3A415EFCEEC6CF
E92DEAB65D0083AD
724BCF66F2C16000
FEFA74C2682E8200
C72314427EE41441
34D86645D87EC1C8
31769B7A4D51E7DA
2899BED001687F09
160AFAC0B301503C
8ECD27FD8FF6A480
86C6A425215E8480
E932FD777D31A73F
04FF5CC60FC7C32C
F989C7C0912C825A
00AD1806CC4BEFBF
FF78B7AA6D40BF1C
4D4E01C1A1F5CE95
87608D798044EA90
04B8ACF7DDC8CFEE
B19554860EA9012C
747CDBCD0C09B210
8F4E60043299312C
9F064680CEC40082
AB352545AF130211
CE17DA0C328BB3B0
3400FCD7D4CF9296
11A593EC3CF6FD81
EA03FB938ECD0E83
1D6DB8F68CE65082
AA148EF7C8C3FBCF
77D6E08891B4C262
F2625E527000C003
FC66FE6F557E9E93
C042CB1FAC0B84D8
9AB00CA30EFB046C
A029D0F6E03C2E9D
E74D7E6045418318
118A0D015083178B
445564CCB14845EF
E650EAE4DDFF1411
230DD544F019BC1A
B0C0FB40EC026E88
3661CC40109E4BA0
6EABF2008CC959AE
7DAA0C67F1539FC6
F5F7EAB1A86FAF67
13397D8E90FFD296
EB1BE3AD937C37BC
7FD42D82C3AF6C7D
961EE7B2547FAEB7
4B3167E0455860EF
FDB7018BE9DB6C3D
68206A0AF860020A
9A578EF6D01F7CFF
E54CEF82A317EEDE
810B3E7F333AE5C0
00B7E86DFFA1B182
DBE9F0FECEE694C6
2F7011CB33318C5E
D95DB5D57DFB0EAD
3EFFD037C804BE7E
DC80B97777660973
8120D18608810007
BEFD1771200893B9
B9F219F7B5091A02
EABBEDDFFFE3C3BA
09FE617B08C6DB40
094E11F65E39722B
EE7EFBBE493F8109
26C2C4901DD9F3F7
8A143F634176C736
FF23C352DEA96FA7
9BF0E765E02D97A3
8BC4D416FFFA887E
1FBAFF2C1175FDCF
981E377A072B9601
72109E70AFB3EF3F
008CCD00490BE3F1
406BD646DCF8ECE7
400BB7F6773A90A8
EDD4E03DF9915FEE
59F74448888A5F36
BCEF0942E1F4FC45
F5A6CEC8FC556F4A
F9968000E088E50A
E90B0B20EBA8815F
92A4B81D6E3311FF
7A682AA405AF7D1C
FEDE403088035F81
F51BFF05E2621032
F551AA76FE6F4911
FF9F1AB8BE6A0D9D
80CA7170B8043DB7
DC4FF648EF55EFD7
DDF25029A006B8D6
303EFB090D00C6ED
CBEB593CDC4CBBBB
7D4402CCD2AEBD15
FE0051EC0162FF78
DE94E77AF44FE7D5
F98867D2BFD8A994
E7FF184D423F133B
9E7162AA000F0D16
F3FF3E268FB5E12E
BB2F1A03499FCA20
617715480FFBE47A
FEE9E41810779677
512985CD2AFB26CD
376F1888DFFF847D
FF58048B3932EA47
7B3A828B0F71CC57
33B3600AE7F9437E
D3A60C0C02ED38FA
E8C99D3220EF42BA
B874C110A5D73BE4
95BAD18F13E97E89
C442AB9B8522FFF3
07FE3C7731A6FE31
5D3A00BFE001EE76
66F216A76034EEEE
FFD39101E3BDEAC0
BFF90AA97FE4C624
01730CFCE6EB41DB
03ED0BECBBED8B6E
C5DC16C7DE60555B
622A6894AFE04AAA
F605AA42A44529EE
E82318FDC807EC31
C5F760157302CF11
77B689BEBD05B453
CDF884B38C9632F6
002E81B7A3030BEC
AB472CEF7731852B
AB2DB2A6A0806237
A08562317DE966EF
00A8ED683EF44B85
E4C057F1289E5946
88F32C04A842C0C0
C976DE1E7FD82FE4
A4C4287F7011F88B
49C01A5CF2B717ED
9DCF92A4B7CFC6F5
DB9F562F91B83FE9
06CA328370BCAB7E
5FFCF7BF8804030A
71D3EEA6A6328C7F
1BF9FFF002B11195
FB30809B1E42297E
14763CEF2C93F6B4
2087CBF7FBB4FF3D
E6F81C7B89A589F7
0F0FEB2178A77BF6
88C854036B33EAA9
BFEAA623E1125FF9
302792370940FDFE
5EDDFBCC502CB5ED
A068468470832F3D
08CC74C4CBEC90A3
F751BD921044FFAC
2AFE8FFC16B324DF
0BF8FA09D85CB054
0A0910D0FB208C57
6451E3913024C0E0
FFEEA0B9F3A93F34
02EB41B39E926277
8C05FD69408742CA
64651739EE7EDC60
9DFFB631800C9FFA
BDEF20A77FA3A410
CEFBA028833A89FF
A9EEA4FA799A05FD
F6CDB5F42ADA9E59
FC65E4A1A4DEAFFB
00CA6EF3BEC0F54F
BABADB3D90DF6753
07A9FE086DAF364F
E7B93D0376FD2EE8
2CEF2833CE9D0895
12285C31B88D7EBF
902BC6BDFFB56C02
8FE3DEBF882C95FD
8217E444DB889005
8A41CBAEC8D08067
309E228A704813CE
A0E47F4970308679
B8CF719CA12E8E07
3EDF2D7F86E69DDA
FE42AE9DF177C7E7
2B0BEE3F100FCE75
2A091D2CD75B4806
D10CCD3F100D302E
18F53A3F3A88F410
0D50F1F59401EFC8
EE2A6F0BAEAEE76C
1C97C09A33EFAE6D
6BCFD353B315B4D9
8AE1AF668D65EFFF
3326F1D91CA9AFFC
ABC84407B5EF98A3
80D1639B309C9590
B5FED0994CDD72EE
79C3030EB680C66C
2AAA7FEB10900ABF
A00B7F4866E21FC0
01304EB3D0038CFC
27884E23F0478B04
E0E7F5EF8CE5C4C8
B00DE7FE2FB941FF
07BE7A1EC34D77A8
C2694CCCE40ECE7D
BB7FAE112A8E82C9
0EF7AC7827EBFF60
4CF8610C16F8EFA7
628953F757891D7F
570035CBEA7DE0DD
AC7CEA85C87777AA
CCE927FF6950E3F3
49FDAF76C17761AE
5400FD1E07AC7728
77DD51E996AED8F6
F4400D8B64586A21
42FE61002C4DFAEC
01B7BC4046DB10A1
24B98840B6B5BBFE
1F28F73BC304F70C
A6F4EAE07B9F7B63
6469BB21FA2DCF77
2B27374EDCF3CA00
FFAE7B4C0074F5BF
E477D94108FF2307
131C5F1CE18EBB0D
AF6FC6F2CFA3C97C
B6FF3CB7391E2058
20082CA89AEDB827
7482A67F1DFBFE59
AD4080F52E3FFEE1
4013CCE5F1D31BC4
009EF99233469986
B20B7C6D00EF87E2
E89868CFD319D208
DEFCBD15E21E20C8
1111C0345C5D945B
D403B1A7CBBADCBF
89AFD3F793F97B1D
5AC8D00658EE9223
8A7F96DC339784DF
C76F6FD2C0A38410
0115CE7AC100CD06
81AE98FE77ACC02D
C28F51FF00C491BB
C85F35F1C8829F7E
8870ADB7E462CA25
3050311F2213CCE2
BEEF14CC5D621047
B04C37FE91619044
FFF555F0B007E004
C8F730F7D80156E4
DD22685C8D9AC2F8
71DCD1BA140EDA7C
105F12171846F89A
848849B3C923F333
6A8FD7FD5509AA8E
47124C3F5101152F
70E40293B0C3C08D
5FF4CB2DFC5CFE6C
9F53FF0494B1F7F7
2B9B3000B027611F
F04EF364DF201080
C1710E32A709C9FF
7BFC08CDC91D2C0C
E0BFB030DC69E08F
000FEF3F2EC440F8
A5B8184C81340F9A
00EF488CE98C4F78
DECF090A4E377205
0466DFD9104B9FBA
F48C4ED79A7EF558
F9AEA7B6EFDBEBCF
161627754313D0FF
EC0A2A96F29A346D
4CCCA4EF7833608D
E75B6F75E67F300F
94C1D356AC0E5C19
B78D0332DC7725F7
DC88BC9C18488C54
FACBF05BCC3D36BF
4CABA62F300FB033
E012C040B0F3C9F5
7125F1B7D009F4BD
3FC02C8336AC1845
E9EED099F128F615
021F43645EFF5205
B79B1DE97DD9ECF8
E77250BF48FF5C2B
33EFBB3B4D0DB493
377FA6AEB33789BF
7948141169FEE6EF
E05F587F8F7F30CE
B0039FCE10F74D79
F3FD05E9248262DD
30EFB51EE816D600
7EF0DEE705A1D5F5
6079F83762E89B12
7D367F88CEFBEE63
0D920141DFE7F7E5
ACC633B9DBBFD990
3119410B985CAA83
EA99644E94A4FA80
3F7CE337E7809DCE
261A94084480F194
73A098E44C45B986
EE8D89F65DD40EAA
6F3209977F90B413
39337B90EEF2D851
B2308EE6F76C821B
17488AE4DD68CBEB
8FBB0800FCE8FDD3
8556AD9336703E44
FF81E45669BF0D03
C162E89737012721
8DA081882F233871
201040BFA4F0F7D0
C9DC6CC48E3F4137
05807FD1911F6DFD
BD9AC8AE21D0F6FD
F05237A00FFF4990
E030F5800DF6ECE2
ED117CAD1FA1E47D
2D82417880C164C7
D081BB0CA245A825
FAADC7FFD4D00FBA
C062CA21045CEDE6
67041444F68CEEC8
40806C65E2C0FFB1
2ABB8B672C0B79C8
E28152D489FC11CB
CA0B33B02ED75840
E9BABAF6630EB1FA
60167F5F48DEA8A7
B22BFA30447FE410
1F37C108784052AA
7103C1B7731B51A4
EFE1857D2FAF7780
F9EFF1A018D1F021
B3F921A00000DECD
9EEA7A10E140C133
6CD357A06FBAC112
EF4F01E011B2D990
739864216719BF05
85CEDD7D92158081
A047B20706805F6C
42A62129988D8CD4
2CF67B82EB3DADA8
0DBA906003276CDF
0486FD746D15CE15
BA46B1039E998E03
6C6058A2CB74E615
48E7A92726006ACE
35B9CDC07701F03D
5A0A6C794900CCF1
F5F9DF6B1EA5318A
F0F1DC8F9ACAF5FD
99DC4A030081C6D5
AA9CEC35ECCBAD01
3023513332CF88BC
366C681D17EFE461
02427FF64D821C8B
6B8C931733F18A5E
FA754D667622526C
10BC70B5411BAB2A
4C664F192A762807
C47658D68B35BD4F
7E6A90022FFFC5FD
0FED7E39C5532E60
C6A2703B6B74B270
EDFC66E67FBBCF78
220C122FF42260A9
C740177D7A6F31F4
73B87BBEEDCD4324
BCE418FF001E9301
8987934037006254
0C3BACA21CE7293C
770CCC086EFBA8FB
290E6B9C90A56211
00F971F3614F9177
40317FA250E4E8C4
413F2287FFBD0089
8152E67850805DAB
2F74FBFAE5775E79
B563551205595152
7FC60BA2660B3111
1E7B0EE8C5A80DF4
78EF170642BA7E4E
06038CE02A674347
BF3FB33A7F8E2C6E
709333996C810F71
E2E627307B07222B
FCD3C17F37A4C2D2
B0015A020417291C
BAA764E6C6509A18
A930CFEFCD5064B8
CD022EBCAE88D611
9C2EE000EDC748BF
A100183EDE1650F7
9C47A62B20F80104
505DB5C0AF180084
95C84C0F0C31CBE5
F231A9FFCDEE756A
8E77444F13BC4F84
AFA20427C531418D
9B18163E231B7228
E5DD1124F084DEAF
44FD461670BF48AE
CCC5700E2CE8B7C8
FD413188573EFDFC
65E25F6E2808F300
41ED10C3C34DCCCF
CFF3FB770561CA89
12FDECFC057100FD
34F83AEBD808139D
20D896FC7EC40EF4
DA4DF1132A8F3F00
0444A637DA8EEC29
D41897C1D0EA58E8
42F3B184936F075F
420F1B7F20A20175
21E3DEF772B0D2C3
9904AAF6FB8090B4
C17AC76BFED4A890
F7B22BF7CE9DAB74
7EAE4199FFFFE35F
97E37B6C9FE417D4
712213797EE5727E
18DDBFB1F3353FF7
FF5787E0DEDD6A40
7FFD040078A4066D
25EF76F22788BAC8
56AAB218EDDEFBF4
121F24017FA6FECE
EFF191F1BFFBCDDD
BF9803B5211E352F
B9F542D0FF32FE74
FF07C48F76A55020
2E994810AFCD3DC6
EEFF8071FFCCDF69
058877B706B25FCE
EF787B184F864FC7
21D6D38BBFD86F7F
48E8CD1823F7E2B9
6AFDF310E317B7D1
AF333FDEF72E2CA6
84137FD81BF53FE5
7F5C6A5C3087B5CD
5188FBAD9BCC0A00
F9713FB7A1FEFFF4
EF3F6C6FDBD916FA
F40A969DE6F402D3
1AA44BAC41BFCD0C
74FA47C7F777FEA6
9C272ABE4A626CFF
ED572200771FBED1
01587F7E0BFB77F7
DDEAFD5359BC51FD
C7FE041051139F27
405E77B9EF51386D
B16DB66037EC1158
6FC0F47FA4551373
7B60059E9847F588
31626F97D851F6EE
1FA5F3A51395321B
53E61014297EA500
F17D4EFCE10A7FB7
81F4FB1805030EE5
FE60D48A310E9361
2E6F02F03333B817
88048844F0FE9993
C4FD3E61EEFF9FF6
5D4E4FFF733D0835
91105AAC8EF9FF66
6A88D320FD819E9D
DFFE5C6AC57FFDF5
01BAE064E113AC98
1739FDEF4734FFC7
FEE27FBBDFB6B7F2
78E8E20E98B2937A
A08348032F04343B
B917EFFC4F6E772D
C42C4161AD05EDCA
BBE72F6A9FBF6B18
5FE05E828B21FFF5
97CCA400B0A97FF2
6CED658E31BBB1C7
9FE2D0C940CCA4A1
8B16F1C4107F6A26
7D5ADFF782AF724E
E4CAC15F3E986B7C
7ED01523C08A928C
D4B311961418A7BB
FFC3776D5672D9DF
B5FF09DC1C098544
6E32700B91A98037
EC44C8714559A66B
BAE1CA42801F4DB4
21DB1B7E13030010
CA3E2EADC224F06E
C6189CAF11FD21EC
49EC51904816CF76
907E97322013589E
0958462421143232
