34D5CC6E30FAA830
51235DDA170EB026
53BA3571B8C89DD9
5023041E75F697A3
1719E6FBE1BF3B54
813A31CA0CF979A0
0948181226F390E8
6A3BB0E399E82EF3
8F40BF7D41C7139B
213BA7D96FC23BB0
CBFE18477B1A1095
B818D3937BCF0663
305EE27D37386051
C1B13370E8FE4F88
FEC62CC3FAF61105
5272F1C412DBB16B
10D154FBBC9A7ED7
9505FF224C3CC90B
6914F9373F71146A
478C2467781CBF8B
31FB709B97E08C33
4E27EE40F1630EF3
B288FD38C2673FB7
793B93EF5209D3AD
9BA98F5667821DB2
FD8BFE2F71496881
47ED2FE53F9B99CE
BFD15F50B9148419
BF4BCC2EFD7DEB48
F49955E73A9B2693
FA21BB1D18FE263D
FB10812B38D363FF
2C846A5365ECA9AD
9BEF0103E9CF26C8
F759F7559C0B2EDE
F25FB6AD5A8FBB93
8C9B6E4CCC021A30
E98A10003D04F6B9
FDC24E8A68B1924A
3500B0CECCD6A183
6D233EE6D9011C9F
FF0A4F607EAAE717
1AEDE3FCF1A91EB9
DCC66D9CB109F415
654712F0BDCBED04
DF89FFC8BD9FFCC3
DEFCA54F70C5FFCE
B87A74DE72B9590D
9017F66B1CCFF208
DFFD40C06E72C503
E9CBDEDCF48F7FA9
C009EA6C392FFEB7
AFB759898A0599F0
7BABD171EB97BF8F
713A9EFFE097BF9A
A4317FAF77ECF20F
A4FB0B3F5C318381
DBB1F9BC7FFFFA27
7AF19DDEEDDB7D8E
A35F59B6EBFF7ABE
D9948F12224FF89E
BFB1B59972CE5154
B917AD1D79EF1890
58BCAF25F8EFFB4D
2EBCCA20295F4980
FF1BB9B91830E09F
3B039C9AB9A8DE76
3F9B9BABEDCB8137
904CF2CAD50F4F81
639F54CAD5FBE5D7
83B7AE7519DE3D02
1A47D2B11B51780E
FA2330657D9FBB89
A46F6B0E13EF1F7D
981F0FDF2CDBDFCD
773CF7173FB30056
ECDFE485BF8F909E
DA022F95EB6090CD
989CFB627C9F34BB
A973B77C138FAC9F
19BB6EF473B03DAE
8E0C1FF9D0C99DB7
20DED99513FF36D6
D0E293F67FF0C7FD
9942D990B941695E
2CC719CCF009FDFF
5CC1ECF66CFAFFBB
69D4780CBF155C0E
AF8B58C835DF01D1
1ED7C3C975F8B160
F999B745F6366D47
2E3BBCD897B748ED
12AE05553EEDF77E
FD77006527F7CFAA
DDEACE50DAE8E563
82F13D40C8EFD1EB
E42FFFDCA8AEEFF3
F7C6D3F8FBF9DC99
EA74637481D5ABEA
F7A3C8B271DA5FF7
CCB7E9B0925CA653
F2FE83FE06FEF7C8
FBC5EA1D9BE2FABF
7B9E77C7BB31288B
C7878CF3FA7EBFEE
D3BF58D63A806202
CDFF075C619CD9CB
004884B0665512E3
74D5ED444D5EE6FB
879FFFDD6233401F
2FD36685791A911E
C941F1BDFDBDA384
FF8377FDE0325CE6
E34F1ECCFE53FD33
D3F22ECBEFAF2B2C
03DF2E9AE159F88F
13C2F4FCB3C43DB3
F880F1A9ECFD7F10
6FB98C4411867451
486FF3A34AB5DBBF
7DC33D9187F3FFB3
0EBF77ACABAC86BC
43F7E0E6B3FACCE3
C0C0F0BF0CBFF64A
44F6F9DFEE3F8AEA
59DDABDAF7EC3BB7
D7975FE4E8754D19
A3BD27CF11AB9F7F
7FDBEF350540C1DE
44A86597B21951F8
DEA32F5DE6B0EAFD
5531D902EF07CD0E
45A07EF747F889BD
BDFFFB80701B8523
E298E26F0A8433F3
E903532842B607A7
ED5AF40002403E7F
571E59BEB7FA49AA
6F1F119FEF44EDF2
4FDB10FECCF5480B
14CA1B1F4D03F5BF
6E2FD6A0CF850F97
9BE8402E0CBFFB43
CDF74FCC72A40EA3
D8C1ECCF4C885723
41E6FFF3BC32DFEF
DFF8FE180B4AF780
A18E0608EF8126FE
1F55DC9A9148CA30
E297FEC16383736E
83EBF0DF07CDF287
DD7CD5A0D8AAD0E2
CE61094423C75B5E
AF5017BECAE48A62
CAA5E2C1BBA7208A
6FFF7702C1BD1562
7D2E5DC53FC7FA5F
577C471D4CDF08B8
C009CF59E7B1800E
0F3D9908F3B42620
A2BF92D087505B6A
AC2F99952AC83F10
92D783CBEE3F0232
2FBC03760895FB5D
0B22848F03DCCAD1
F35CA411FBC7C824
14548D9EEE0FF3C6
2A0E99F0C82FCFD1
12FD2F857A503F5B
534E933DBA2655B7
D20D7FE35D1F476D
16EAE15530378AF8
B3E5408FDC086841
F22EBD045B0C1016
26E9B9D966001EEB
624A3031EF7051DF
8B106373B7740C9A
341559D707F0E62F
3B9F571046521E10
7F71FCBF7B347D82
DEE22DD175810C01
0B0480CF4866CE66
22443398DBE75D1D
FF3063CF299BF313
AD5A758DB3B44C12
73384F401D8FFB93
407FFE8B3FA05ADD
73011B66739F4E3F
E42BDCBD2F8A3938
FF826E482101743D
7B5F7198053E7E79
2803555264712EE5
CD4312ABC0181834
82263302FF0FB82A
333B592E02037123
09B9C61AFC9832B3
152BE3333DE7176E
C5191430D93F7B2E
3D401A5CD7916FFB
28FBE636DBAFB171
CD66430D06FBA9A4
50051885BE5211B6
2E42CC8E17720276
6D09EEF5E7658A9E
A342F7893E35D9AD
343E534038ABE700
8DC632DACD2F364E
9A6732DF63105622
E7657A3D340A710F
28E382AC6F48670D
46375737EE2B4C08
F40783B91A27EA3E
60106701DC427221
8CF5ABB46A4D662D
3B38339F722DE748
53D21ED09F734738
1EB3BECC5A03300A
74013E3AFFEB9C8C
1BDF7BB87F5CB9CA
9D83F5887B02DC3E
9ED7CEFE49934CE7
31C0DCC6F43C25E6
8DCF5FC53B47CDA0
65232ECDF502CB8D
B06EA60DE5D6BFD8
11224E66B9C6C95A
6195FB05080891F7
FBED27FF3DE6AD82
321A222BCB73BFFD
FF098FA483332DEF
FEECADA64F91416D
82FCADFCAB0AB101
0A38D2E921148ECF
BB16F0187272D91F
F8F95700BD03D839
85C0E36DAB6CEC34
4CDD99D18BCAB9BA
7B8026CF4B36AFAC
86EF8DDEBB9728F2
E124BA023B176728
3D92D90242B3EBFF
AB248E6C0CAE23AE
EFEB79712D92ACAB
8F95B7772050F957
49DE0D30FD847635
9CE028A403F06D55
7E0BCCED0D78AE78
EC68CC404DFC226C
E1E27006B72030E9
0B85761E2C708885
25B1C48EBB006F80
E9DCBF37D2DE1FB8
43ABFCF1EEFD5C0E
713C0B157A2D63E3
29AAEDDCF6D377E6
0F8EFE0EE30C1F9A
26EEF73DF5370D91
840F7372438F36F7
880A47DC7C34C80D
0E6ABF787388DA37
7F9FC8008898B880
7C3BAB9A33B5AB28
9F7D5BAE4CD5C489
0FA6D376AE87CADD
041C28300E8C620C
78FF8401CAA57038
5780EE3C506718F3
83A037C85D006B7A
02F60617B976AA88
9B90EADB22A0FDAB
281A6B2091516500
33A03E91D85E6775
80114F7997F2032D
3144001636894F38
0E6B0300AB5ECBFB
06F0B0A22E3C7131
0E02CD107B234C54
1F3206C349B304E6
907F0480AE74FF84
CD2BF2136FE8EE86
04951CC8308A5FD9
FC001F704E50189E
3710E104A4463B17
C47351143330D5D1
9517C0DEEC89077D
9F94D7D4A037D4FB
0002D8FB7FC8EAEC
A266643185C42139
28265EEED7D65375
F0F6EE57A334BF7F
43732A349B3459CB
78DBA8F2F744C7A7
0E1A2200AA774018
3688060500322E07
E06AE582C5074B71
E7FD76D2EBF03FB1
4100D396FD6672B3
17A231FC5226B43B
89A31B3023399F81
935C647F06440DA3
20CE70DD314E1A22
5BF5ECC1D13F913E
FFFF522F2B14C9F9
B80B7532B913F7D4
639289009E0D07AE
A08F7CEAEEE504EC
735BF9501F900FB1
48D2A63AEF401001
012CF7B9B6C6AB10
1154AE28AB33238C
033ED4470751303F
3FE24A2375C41220
633A21337956226F
403504C0D43A4486
EF94B99FF2044F1C
ADCC233BC0576735
AF3BDF76236B5786
570093AB2B10D0F6
0E02F0084A908B00
634133FD5B8E1601
657E0940F9204191
89F2275EB21C0EA3
9109365972EF1848
D0BD5939043615DE
57BD18000C52718A
3EFA7E92EFF61358
C177414CE6813A28
7D73A3B00B09557D
CC6482F6FE6BBB0F
84EBCEA589B0DFF0
7397199FDD7173FF
FBF513517CD8FDFB
EC7F6E75FDE7F711
C1A360AB92A8AEF9
133AD1D698A06305
6DF746688145ADB3
CA0BDBC5599206BC
F3167E9D41D1F916
DFFDFF2CAB4FF74E
AEE254050A330031
CC00E5CCC83463CC
4D26888A489314CD
6275E016E04BFD9C
EC4E22B750A59BF5
F7E048852BFBE094
B8ECB755841806E7
BA7FAE00FA4080EA
756577D31585E7AC
3FB2622834BD63C0
73C8F328A0673B1B
83749DEDB10824EE
68CF0D2020040CA0
6C8D36641B76B7EB
DB0854123BC316E7
2644FB006397A61F
6540BB300010FEEE
9FE8949651AF2870
CCD53406A005F2FF
4331E801B6F962CC
4C88C4FE4C822191
43FDA84FBFFE967F
EFFB0017CC8047CF
4868BA1FB7C5660C
84C01F9048C8337E
A84044F35FE2C94E
D18201CBA40D6E3B
6FFE4AC658BD4304
7FEDFEBD4910EB09
9E48208888B3733E
CA01792FFE7F0A01
27D1CEDDFEF85E77
1314BBF3BB90CFDC
EFF50AEAB7779700
C6F9CCD4DDF5EE80
38C862FC7E643771
63313DBBF402FFFB
5E637FF1A51DF600
7F1931868E000675
02D5778E8E7FF005
F6CE06ABDC1D383F
4DC0CCE955982D9E
4804FF9AFE65190D
BAEFFFEF09866938
811F6F5C04008B73
AED2F7D5E6F1A09F
04B66451FFFD563D
314FBA268D115339
C7FA8E74C88D3397
6080E39036DC94C7
2A97EFFF00084C8C
DD8C07F6917827F0
633B621D77F9EF35
200AB60BC178FB75
0095F7FFF76046DB
5F088772F211B1BB
F567F351A2942210
8EFD9B00F29F9744
0E79D3FF95E83570
A59044C4BBE857A6
39426003C22E720F
45003BD76FFFEEEC
EC6FE4009D12D6FB
E76FCE1D00B4DFFD
0807CEFF7681584C
ABF24B0706607311
03746B8AD518B072
710178866F7DFFF5
1F690AF180E17758
90FBCFE636C1300D
DFF1A73CE61E66B5
76BFF31BDEFDE95A
801EF7778CF08018
12F6D2F4903996CE
D387FFEFEFF58DC2
8C7FD9CDD2312CE0
8A0F9F5C7666CC0F
843D9F6DBF077084
51917923AB5AFF5F
FFF5FB8B750018FF
F37702359989B5E5
DB8A0DEE4333EC20
51D50A20957D9A67
1FEF49CEDEFBFFE9
C089CDDF0088C188
972818C56110BEFB
F3BA0127EF7E792B
8878BFA3D70820E1
48C707DCA12227B4
CEECFFC09DCAD827
50C661E6C81FBFD2
2FF6D3469D2ACAB2
3CE8075B58077319
CC81DF13C49B53FF
F311803715DFECF0
AEDFD77939C9F3DC
17187F62401BEF69
34C35BA9DD7DD828
BEF6844405081FE5
BA13BEFF43FE7BEC
28EEB4D9C43750F0
46E6FCFFF19FF7A0
7E31E0F74A3AAEAC
B101F77F7D6DE391
FAED1710604BFEEF
BFFD0084E7790146
E8E7C5A9FFFBD98C
94E0F7FF194FE9B6
998FB4882FF81C33
3DEBFC5C99B73E81
8922A899FFCFEDFE
63F08638DFC348C6
D57FF7FE8CD3BBFD
780BC2BB60EE20C6
74079FB6008D00CF
DFFFFB34450402DC
FD7FE1F7D5F3FA7B
FAB3025016FA7FBE
0D1BC60D70019108
4AA7FF7DB90F107A
4656FF7F04FBBD13
F3EC471FBE7F088C
3E1E92E1A774E67F
2400FF7720030113
A2A8FE0FF97762FB
0613F211F5FC591C
7FFDC08C54CD641A
1333E1B3AEAEBDFF
B8869FEF9F63F03D
53A8F27532AC41D8
15AA73021B899079
F03E04D44853FDFF
45921ED3BCE7FFFF
0EF1371F1100F81F
03FAF8B36FED2D6B
0023DFFFE918EFDC
0382154BD36C18D3
2228EE7FC29B0210
4408CFDFB6ED0208
E048D08883ED44CA
A64706F95071B798
DAE064084FD166C9
A5E2A1F8121847D7
7E6B2EED00036763
EB24F78098FF0279
4DEDC40D7F800578
FD7153FCB06440EF
0C59FE677E7B7AC4
81306FBD146B8A23
10B54CAF2601FEE2
3211DC8DE72B4D77
4D826DF614000081
0B28D2F6800BE7FA
C75F00C4A265D7EC
FF6D8000D7FCF5AC
C82E9824732B7AF8
4F87A2630604522B
017E509F7FC68AC4
0115400E116521B1
5EDDD2E8B4187E6C
98C3DEE74E72110A
E1178C558108DEFF
A72F92DD000C9DFE
420F20852128FCFB
00F5263D8FAE0EC2
4E5AFFFFFBE0EEFC
FFFB20340CE9C9F1
79186FEEF5AB6E3E
490D30451015F65B
F70B0CE8A7A3DA2C
0108B0D2066F2FFF
8EFF8D36BF8E1FFF
7428E3034DF54049
4208D33FCF7F0280
04CCEF14205F3FFF
20E74E77AD7222BD
1F67FA2EC3FB26B8
2AFF195F090ED024
48626CE75EC92FFF
E77CDD9E3C516DE2
248D26FB4A105CE2
157C130E810CA6EB
8C408118940882B1
7457BE6510C2D811
1844AC06111680E6
6C5DACD836BD88FB
098A144403984962
7264432ED8C83B00
CA0FDCCF4A9BFEED
01B4A500E6EB07F7
60058A4ECF6412E4
7EE496C7FFF107BD
8FFFA08CB33F2592
19E86FFF04389D13
F6BB000482E15824
7FFD53272731E011
8091F773F8440D3C
AC9F0E020A957C80
6C42DDF5974F24B3
B3F670D1BA085C81
7726880438636AB0
0D3E666BC76E6B73
738EC2E37761EF04
D8059B90C9D83EE1
670067A290EA0D3B
EA139F3B6B21FFBB
45C032E4BDFB87C2
432552952BFB81C8
EB2C3B00740006C6
F687253BFF0449C9
320B045A8389AE10
C6F3C228885007A9
572B2FB936917676
5013FFD73EE7DD41
B831F609B01189E1
FFF2272CBEDD4019
62E393D88C80E245
CCB7AFED36D8AE18
96754E53AABDAA3F
FF8A87E26C2363B9
630D2B133CD80F37
064CFD9936C3E50E
1BF8581172FE7759
030D6251EBB90D7B
9C97977D2A127433
234357739A1A0052
0B651EFADB3714ED
A21675CE88129760
0673B0227C089A13
42645061EF4E6268
929A2E9A51F366A7
698B09BD621DDB13
2CCF897F113E6E19
EFF8B1422E2153D8
69BF97C52342B2FF
F4CE04088BC90448
AE10E191FFDCAD91
31BA99BF27D1EE33
8F906CB12573FA90
E0CEE2348AEC5FE6
1459B30D82C56F99
EA0E1980907A93ED
AB366742F7D09094
167FAE290602F7F2
231482D8685F2A91
D04941AC66044227
90A61118959929F5
A6210198AB5BD20B
7FC8846CE0AAE95B
3FE033E987CF28F1
479374C3C08D2B5B
317BAB312C6EACD4
1B09C5F8CC419878
F218BFCA2363797B
CBBDF79F095E9293
9771D270AEBF3C61
3E803FF48E6B6761
264A06E02649DEB3
5DBF4C8CCACE473F
F3F8C560C581A263
D6FC33C773214990
C015377624D47FE9
F808DECF02B2DE09
0C84ECECB88E980E
FEF280003F314C53
9FD5D88ECCB99CBC
3011A3C0C3FD7DD7
F736A9F277417D10
6722AEED3D53196D
014820313DF32048
E4596D450CED9F5A
0031B3738127206F
11D1A205F620AA00
28DB5E4BE137509A
678F2DE797AB1A07
60F4CEFE2C3F957E
82F5ACDC3778B3F9
01307EE5889004EB
3631EF70F205A42F
10EE7FF2BFCD5D95
CFB7374F194C759F
6EB4993748BFA313
1C5904016FBB11AB
9C61106E2940FF83
CC394C9004CBD5FB
0189FAF8DF9380FF
9B3C5885EA000FEC
654198E508D277AB
066F0625308FB910
3CD1F9050EEAE301
8007F330F8060253
D30EF67ECBD121CE
54DF5882E7DC101C
42D84016BCDE40FD
3A258EC3DFFF738E
FC4406026BC823FC
98FC9FFCFD5C6E22
E39BDC8C42DDFE0C
DF2A8AEF3B0CF1E0
B808F31427B0B701
1CCE7DFF76D80481
088C2025D99F8BC3
6F1353E920064FE1
9C04D0CC53EC1D04
98AB512802B0013B
7EA990C0084CF323
7DDE0E06DEA4B8D8
4D6F110064915088
F517A662B370B8BE
D833EEE9FEBAD226
9C7799800C9D5ED8
320CC9EE2003738C
B2000E147F5013BA
CC672FBF044F0E9D
D83D082D117A88E7
40EFD17279370088
7101F530F27327DB
FFB743B44950216D
88EC73AFC088013E
2E700321FF4CA08A
ECE090711EE8DC97
EF00E380EB98F7DE
2D1F840B289E8EFB
300E8C00F88BEF3E
1696B2CE6FFAA8CC
7FE8C7E8FFF61009
67FF91DF980B0017
79F8B66F08561C37
0FC72CDCE7AF12A5
B00F77FC6B7E7F03
C8BDC0149680CE24
771CF3BB8EDDEF75
DF3E0088137FA7FF
888951CC433B509B
EB01DBF2EFD183D1
7211FCF59AF2D1B4
28004B84D899F8AF
27E7FB320609BF24
D87FDD80EFD4F4FC
4816A8073DBAA611
BF402FD5B706086A
4CBB0E438802F318
CBCCB3844D8695C0
5F4F0FB5E881D218
0CA09085FE571C00
115C91EDD8CCEDEE
3285BB318F88CEB0
8ED98F47CBE90022
4700D0F6CA89C899
A2FECC654052CA88
56FA933A8DC0CB70
59F1BF63F9806013
F763EEC52CEFDFFF
FBFC8C36BE01BE5F
E3F6AD8D8ECC5817
FE91EF71008C3F54
4133E698BA21FA0F
3D07FFBC6EE47915
6FF7571400806E62
900C77A1CEEE0969
D2139023E6B87590
00072DDDDC880105
083F74C1F7BDE202
D1EFBC7688ED1BFF
80B89C018037BDF9
FFD10FE23766E776
8F514E81373BC037
C089896070019089
D312DE8F95EAD7B5
8B588C15FF91DC04
401979FC309000B7
DEC2D7019D7B0054
0A4D5419720290BF
506BD8B51C043BF3
775866FFF9E70035
C995D89BC33CFE00
4F088C4280052101
1BD0DA98901CC8B0
4813B7D1EF96300B
F508480993E48EFF
C3390180C0008200
8A7B777642AE7118
DDC318B8F6665FFD
F6FB791160364FE4
4F6B3F778D7EEFFE
7EFF18FA102C7891
E1CDF760DEE4F7FF
C3FED34CDE569001
57386E855F516720
96B6490AE113311F
ECC0AC5D002001AE
53BD5FEE336706CE
75D532C0F300A9DE
02034CBE608A0416
B8803BD3A0577660
CC6B247DFBC97EEC
2B8F023FF801C941
8A4C04657DA487B0
D7F24ADF4AD40F26
06E23AED8000A8F7
1B6E2996002767FF
CA900504A782013F
6769056443B74FD7
CA307423FA130E49
CFF8C0EBE9C47501
81EC6085E350B671
7CBD8088C6AF636E
88A8B95722001010
C508BECB210C2014
AA2E60C40DAE5E37
3E0C00046D3987BE
8D65C25E1B1A42BF
19C4FEFF30317370
213B72E09DF1DF6F
A20164A49DC92084
02FE7EFBFB705F4C
2973FEC3B8E0F095
2F6725BB23E1AAE6
6CC0F024A2FC39CF
C60A8627203CA77B
2311E638E98786B2
57365E335550F37C
6A390A1C0075E531
A3F902DC7FCF61C0
6DF1045500D46771
6293467D15E91D9C
4044B7B1A556FAD5
1C278D4919EA4DA8
632463560389C9B1
8576609C4B1424D0
002069B7BB8C54F5
104C2EAFDFF6F408
4FA9036443AF6F93
63DE75828A93DC16
380E6E1E0410C888
03FF94FE0CC3D9B1
5CB7039B18007732
4866768E59934637
242ED8A6D381C90C
57B703DD69249886
C7E43B63315CA217
0CF9A9D27B57E798
12320082C10C3CD0
6E024FE01E8D6E01
60B6C9CDE8DE7FFF
C983490067AA47E8
352D23E787F0D82B
ABE8F21802107777
4FFB44CFEAE76191
FFE0FFDF78A8A897
27A220808475B7E5
4F98A2883D35EB40
C2AF24B7C69033C1
194D9FE60C62E33F
9B202041B8DBDB12
FD878BBC1FD7336B
50DC55EAC36BE77E
32B8C5822586B74B
5A20994EC11A80F6
BF305CCD10A5D037
989FB34DC7610244
83ABC198157CD094
8E774B71E0B99BBF
037A2761D9EDD854
4EC1C89D80C3D837
5103DA171BED7B66
C8F67F23FCD6C3E2
07807CC786802A07
98CD5D00EC8D198D
F995A01A5D5E6088
D2DC01C50F647649
1A2940C8FBA4265E
9018AE2233585D4B
00837B8C993EF02F
23E6FB9CCD045158
022D79BB9BF77A61
B9266B83F6FBC802
DFB1C1C1F1D44FFA
A4C624FDA08EB97A
A8B6AD8786B4BD46
D32FF91254ED218C
B88AE01D4424C8CD
9042E040204C2FD7
18CFE9250643522C
3DEE13969AE471C4
B807D35E1C30AB1D
04C675AC66107DEA
1208C0C53D478CCC
C12EE82464EE11EF
E436010ED8DA3065
7DD4BE054CA65470
5AA5D9EE9BEDFD2F
40572509B0578263
39D74402D144919C
E010111E89BBC8E0
5E1315424C27EB9A
6C2C4CF2EA79C702
90B5F47F6280604C
0ECC91EEC901CF2E
F685B95ED32AF344
924CEE7FEF74510E
712B0633939C1882
426C0BBF2360500E
97BBD8A041285048
D1B6B29AD745D6F0
85302C00ABBCA825
500692353273D228
4C551546C7B91CF3
E29CEC01F59D7E73
09FE00A49DBA078C
34E0407D564E2EA0
10032D4C5069BBAD
D0A98DA72C5FE314
D92498C8D53F3962
4003F87F33760188
8035339BBAF6DD90
1987DD09807EDE7C
87F1111200AAAB8B
07EE08878C702020
E780766098194509
9A045409010C323E
72E057288E5E2260
D3C8F10816C0E18E
E06C0619FD8AAA35
AE5C0F3616E247CB
92091400D21E5B0F
C689B0B9F7408EA4
F320BF1F4342FCC8
658C35108948A32A
ECCD0021CA920776
ED7F1322A068FEE0
781B2A2B0EFB4E10
91104EFAFE593322
4C02BF064006F4F2
F8FB6C57DE5DEB16
AEF9A8CE47796609
ECC1A2CA48C74B3A
545B65512475B7EE
C51AC44388013700
AF77E012981E4210
773F86CCC00CA013
274B5D99618747C0
200873A6920E0001
772F4FA7ED89D9A1
40C0F66CFFEB509A
E19CE230775D5F71
FBAD9FBEB91FB59D
2110EC17FE19CC40
9191C3BF812C0395
20A86F3C7CB97719
DE61168069413FFB
B2017FB5227F5563
8000EEFA18D0FD9C
DF08272760854607
4220D5C4D12E910B
05F31EFC006DE7E9
412C6ABEEE585BEC
26726E56F772CA21
74136928AEA3FFF5
D103AE7FC4D1C409
D7E0FF8300C2EFF5
EF500508C086FCC7
3CB96DFC4408880C
C110A4C024EF0911
6EF19179FFF654D4
AFE3D4D57F4C99F9
042809EEC541A9A4
DB0047709CC3E673
A72E008E35042B09
4D531F21C04C3AD4
4012C44004D82263
372EEC0935FF7ECC
08A08600D26F9C4A
5FB0EFF748186601
E24588C2C51086BB
FE5CD5764BD55F60
8826E2B4B0004A88
0DFF86BE8EE4148A
144C80CE04D9593F
21047BE6157C2BBB
EC500A791A385740
A36C8D33D9F48FFF
08CDADC3B923D502
872B1788DFDC4025
B109112F37F1CBB1
ACF9BBFA75DF1344
C800323E0D84E203
B8CD97B3CE342E01
87DCCC9E236B8840
CDC8F5C3E80CD53C
3F3F2D2F7B628201
C767A9E9FD38FBF4
6AB8894FB22CB4C4
15C10408595B997E
397422CE8BF49AEE
D14E0A2626586EB3
94D828E732095696
9DFBA60864034E08
1AEF4A8B137571EE
B213BF8C0662BA37
FC053AEF630E477B
B7030BB1CE8C17F7
1D92015F0100A400
B95BA0A1E0D66B9B
FF42DC4EEC4C8088
9DC6199F54879948
7B323FF8D0912B11
F3344F073088311D
7B9F19C0CCCAC4FF
F8CE3FF313312379
2BBB5BA9BFCB7195
E09D99867CE916B6
13BDECFF0907470C
535D573D2594B21B
ED11E39E2FC59844
04EE3F83D8CFB4EA
7DB62BCAEEF049B4
CE34CFF29D4475B7
C6C6DB32F6EFAB8D
B04D0CCC394F0ADC
B9B76B17C847FA6F
DCC4ECA6367613AA
F5B17E7DBBB30873
5011DC14CBB68206
F6B0DE8910C7EDC6
5B2A033BB991A10B
7AFDECC430338D2D
A794FD91B08C5511
24A1ACCD93EF920C
EFEED70B034CB26C
10D83F3E02A4AC9E
1B1017B09DE3A8B1
C219FCCBCA8AC820
6DD0B949D3D4307E
D332013E89751FB8
773E860333599FE4
010A396EA0AE0E5C
449100E4CC12A1BB
00A0E97C39190048
8B980091213CC864
18A6EF3F52892AB8
A9ECBBDCFF462002
9803ED8345BD7B04
2FFCBF14D09D28C0
9B71397713B07BEB
001C08EBE47E57EF
5C59CFFE0E46F21D
73804311A06BAACF
CFFF4BFC0C650182
1FA4193E91889FFF
5B7FEFB9B43738FE
FF05BF9FAC1B28E6
E460886FBE2ECC6D
888FC6F7F7B95C7D
EBF3BEC7C6BBB21D
4EBFAC557BAD901C
1ED1A76ECDE1751D
50EC139DE6E2C4C9
42876A4C34384010
9FE2C0A8C78757B7
EB6FCF5F207A5588
FFE8BB97C3901A97
7232AF77126FB1A9
D4C22CF79F579E8C
F384A57637FC31D4
A5FDBEF759988066
0281F6FF0800D111
3FF74314AE12AEF5
E88D2192899AE4D2
6C107F94C3F1BEA8
F7AAD9B6784DD6C0
FBD7FC89FC4DBFFC
FE240FB6C0C9C80A
68DDEC35F863243D
1EF214455B63CF68
DF405FA8678C1026
319E7D5BC3D411E7
63EE0D7B9C199C6D
C839F7BE93FF94BD
174C1AB236107712
7B89BFDEEFFBDB33
635B1976F4EDF3DC
FFD9EEDC00CF67A7
417D29994BD2C50D
E0C8AC557436CCB5
2FB208C5FC2BFC53
A2F6380BFE6D133D
151C45EF9EDF7042
744500FF7C567FF8
FBDC6547E6FD12B6
46FE98020B66288B
08ABA1AEDFB51EA4
13B44D248F04FE9F
C8CFA869EEBAAA3B
2F9DC3748B9D53C9
FFAC06F1F6ECFBBE
32670EE51C9F54A3
7F3DA2FFD0846337
A6C0733B2D41C437
1E3702E79B32EC34
983622158B5E67D5
FD05FAFE01AEF4B8
518CFEFB3E4FFD20
A3AACAF5376FC1DE
E77140182D46C415
E311E256169DC85D
4B6688AD40841C43
0467418569955DDD
BFBB37F2EFDF19BC
C42E71DF61707C10
BF80F2A4D1EEFFE8
DECEDC5E60FB38CC
41C8175432250484
4BF52F9320DFC65C
675E6661E1DC0BF0
B863D4D3047DFFEA
FDA4284CE000870B
FBDB44DF62FD9EE8
CEDF56FC5F7479DC
58FB7D41C7909C78
16CB0AA9F8987BC8
DCDB81ECE91FA539
24D89790BD0E58B4
0C79768D9B27407F
E7FC87F4C6D9F2C8
F79C5B75D7F01E7C
05B00060150F7C64
EC8F2823DD71EC61
F9EED8BEBFBF7BD8
FF6D46B766CC983F
64D7108435F6ED4B
3FFF16CDEE36085B
36E0EFC5EE135AFA
D0A1EEF0E5FB80DF
EE3D6C9770E0F66E
2BD43B8B56FDBEEE
BEF4897D8378A69D
14CE569DF392FB7A
1471DE0CD7FD37EF
4967727DB1D465C0
77DD012BD11784FA
73D8BC60C061FAE6
7707C2019C2034A8
359C9B7CECD9D3FC
7CECE67EC8749641
E2DAD04204CF5DDC
EF3E3E9BA05C7E48
3F406C85679FF70C
CCB522E1DBAF8970
82A87F67834C47E8
04ED7ED026589A48
C7FC0249EE6DE7EB
98CE505C74393A7B
C6EBC202E7711ED7
2ED7021867799ACA
FDCDB5FC046FFBE2
14A2DAEDD4151D58
CF0D0800006FC043
9FEF8835DF08E2B9
746C557686FE8FD5
BCC88BC833501828
FFC8379F95C7F5B1
CEC6C7FDE7726E90
2D97E4F796018C00
D8D0FC30CBB6DC0F
C9120AB7FF4C9E9E
49D7E4E8D11C7E66
FFFD8AAB80F009DB
76E15C9DF8E2D684
AD50C7491164DCB9
6FF07C118F039F6F
576B06F46711D02C
8CF7A47582745F3C
714E4064FFFC0764
B7F7D62E750DE908
FE491100666515D9
FC5124077427AEAE
ED5F81043F6DFFEE
87870047042CCFFA
9F9E333744073E95
FF78502E42BE496F
750D101F852FF904
D2B77A05EDE28000
1010653EFFF5889C
2AD7B3906248E489
8913237B947EFD32
D2AAD813DCCEF113
D396C8DA632713FA
FFE7A2E42BF4D414
EC0AFEF6BC4B00AF
C0C8BF7618042C50
F34D76BC4BE6FBBE
2EC40985FB69B82F
701053375FAAE273
19837F7E4804CE41
B3FFF119594477AF
E8364DA6D1400904
9ACDFAC9981F2109
FDEEFFEFEA99CEED
A1E32F531335F98B
2E7DA22CBD870EF7
EEEC3107E666CB08
A8C477F8FFB309D3
EEF2FB5FBEDF2100
331DF9C9701F729D
A11DC11120DC0373
0844DFCBF757FCA8
CE64B55202EAB9EB
70F3CBB7F7E20825
68C71E9B9B0FBD42
F7F8E555A9195085
F101566940F1ED89
83FA057EFF40B7D1
1DBB80C0278B786F
7F354FEF3C26C501
F90889EE508CFD03
C2315F1110A84556
564CD5CBFED9FDEB
1FFDDA2864279BC2
0220ED0849A79005
4E7AF0C0B96D6924
BA1BED20EC475B0E
77222EA94AFF6EEC
9AAC811C471DEFE8
FD414118FFEFB20A
88DABF6DC04C4B95
F13DFF99F9A73ABD
89B364806F725D7E
06E8033053461117
FCDB5BFF089F1908
9FEE7BFBA08ADBD3
DFFBD9B68176C002
082603761CE4F72E
E43F91A7EE0FC141
88DB7FFB7B1CF7EF
05C3F500D0C6FFFA
772EA68D1FB5608E
4CE8E493408BE98F
A6F80854A67B3EE7
04E08B6E390D5830
FF7FCF3F58F1ADFF
0CE056BD86AE40F0
875876B7BFEB3746
0478DCCEFC2E2E48
AA61FF7E90ABD7A7
4AF3145BDFDF072B
860F856842C49B94
C4D7AE0A20C5263E
6A4E7A24FF0D3FEF
6EF844890320AC78
216F07E800CE122F
F19217ED4E4E42C4
7500ACDC508CE0F6
F74BFD670FB95DF7
C7A0EEB14C4F4760
8E062E2234406240
8444C406357163F5
F1CDCCD220E8A64F
FE2B106030653374
8B76A8440489418C
37FDEADF8A44F77B
65D4C98046FEB245
16071104FE6C1040
4ED78CED99CC0F7E
28880BC00BB7901C
72946FEFA01B1E22
AF278C708801C40D
0008AC9A4846DFEF
06B73CDF76C54663
437ABFFFFF703806
FFF824D6BF0E0E69
4881DDF6E2FD8D62
FEC919EA80890B9C
E2B721C7B7EDCFEE
000C260EB5AB7306
1EFE25FC3C9DDF28
8E06CAE0EC304848
4020FEFE1F3C7601
276635401C99CFDF
0EFDAE379F0AA5FE
0FCCF7FECE5975C6
EF6272F51DFC1404
E08CCF38745F6FE5
3616CCE71CF36EEF
27E5CAB343F0AEFC
931AD5532FCC26E9
988C1059522C2BF1
AF090DCB33D0B60D
265840AF462DC896
EE6CEBD8D20F9F5E
ACEF0C534E4BEDEB
270FE2F63DD13E30
0540FB6AE23A4C04
EFFD0600231986C7
44642B0E0F8ACCFE
13E42EEFF28E1718
DE2B40F97380E769
B3FD2E2E0F7817F6
1C518005A40AC8EA
6677CDFF6EF00FDF
88D822F02F4F55EF
F850DE63FEE80F86
D17E151628083911
2CE14CF7BB3600A0
33598AE48D24816A
E9AFF3071FF0F5C3
24EFC2EF778F1912
C78BE0B090EE573D
3E70ABEE23ABE0F2
BB2CC9FE1DD929C1
792D090214F37656
3B759ECE57591BDA
DEAA59355ECFE403
E9F17A7ED351D4E6
4B4298C3E1E2F835
548267C1AF212B4E
1507E0661C66254C
F1212CED39F5EEC5
7C220480AF4CF823
01C5F50CCDD1C48E
642B659DF5C11501
4AE24AF87DD9E872
5E8DFFBEDF2A7CE1
5BD63E6B7A8E8F47
D908F58C407EF1EF
D425224C143F5E3B
33E4DA207E1157DB
FB0B0B6E2005DF85
FF639BF7FB8FE777
D5CC61EF0C0BDC57
03314DACB721FAC6
A790CCFE238A4213
8000B1CB7FC5FE88
2EF9C111540E4C15
FFE7C7B2AB9D4D7B
3B611088F2C3F9C4
80EF13B7B7E2A285
22EF2DD3003E554B
5DE3901463325093
290245C25F2E7ED7
78F0F38B8AEEE349
45D9D37E495709B1
D79B3F7F8122D43D
3005AFD6D584516E
EBC8A362F5BD0D99
F66E89C7B8081F9B
0B967F7A0476C693
CF634A1239DC21CC
0335D1D54B39F0B8
F32643EBB7F926BA
EE65F5C874E3070B
0457510B0A5B1902
793387758686CB1C
D4ED85F28E6E9105
D019F1FC5BB8F1E6
1C164A807CFB0F7F
FB97D5C57AECE47F
2DEE13FCDF368947
BC43F70FEE809563
94EF740810C87639
95474FFE5F6C8339
1D9EF3AB1FBE11CC
0E492F39F0C9F8E4
02B50CEF3CCFD499
96B364D39015B107
7A0EFEBA556E2117
37E5D10D8C727C36
263C722041EBCF3B
B824463DB75FFFE3
BA49548F97244744
C8C10CEA885BF3DF
3AA6F4463110B803
E05CC8BB811787DF
C453FCE16EE15024
2376E2ABFF0208A0
60F37DB00229F5CF
119989B9A3BA68D4
EC6E90B2D18D764C
2939770A6BAD37FB
BBFA7A2D31EA1CBD
3B302289B0317FBC
8E9BE888559E08F5
01E3E092499B1A0C
A95BC89A576DB3BB
FB9303BF8B7F9BBB
B0136572A6CC15BF
9CDAB859E84FCE55
BA3B660985FE4891
1DBB16CF07143B0B
3AFFD61ECE662B81
DD6027C58262E815
E46B8262F38FA02A
33CA0048F7FBD956
236022B63FEC491A
FF7DF033509D7B8B
54090701D8599DDF
BBFF27FD8E7EFCA9
948099698A089191
2D1D1BEB4FD823AC
FC0F497123EF9473
8630D34BE421D17B
1C906E23EBD40CC6
12C87102BD923993
E3352A848D67EEE8
333D62B57BFB63E4
B64CFC4DBE0050A8
E8D94200824368F7
0F0E7FED652B4F90
77C28DF52C738C07
2AD09E90473CF1D3
34FFC2AEFEE88F12
688965CB628E1F18
E6BAB8170FC7861F
FBCCE5FB78E658FB
908A6FAA93BCED1E
03B58C6BFCCCA011
A2B5F69AFA12FBD9
8E9B0B2710DF0FD9
9BEFAEC69017BC5B
F3BECCB91B0ED5FC
C5B1F8C891CFA08A
F8B10D22007E8DCC
100809F32C94BC61
1135A85BCFF09066
10ABB36E608A19A7
2FEF3BEEB9B14F3F
8EF470CE263F0102
700C8E00C18913F3
EC452B6DF4AE18F0
6CA77AE2DE53068E
E64C8C7F0EEECFC1
FCC6D513F09C521B
06CD18A5988E7DE2
39AA6AE1FF007533
4FA684ED8A0E1934
978260805EEA047D
0E807F680A8460F6
918691BE363E603F
C93993074DD9CEA4
03EE8E6BCD772891
B928DC906A943CFE
D7CCFB12CCEA6E01
EA43E6FF7B5E1005
E4865FCAFA8863D7
1B0222DC035C0CDE
8ED66ECE01BB8BE2
904A1706A5D00EF1
11040E0F788990EE
23A6909994EC9EC6
266400A466F06A42
98EDFBFE09E78D82
1BD2004FC08CA218
3ECC4179FEE41879
5A082BC6563E3606
3AB1B28976ADDD51
5246D1F6194EE790
280441EF6118C4FF
8A2B524D594F4491
03DC8DB142ACCCA5
ECD17CEE21EE009D
0827B11BEE41E889
0F6C84913BFF8021
5DC7F3A9824017FA
00CE6F475E0D13C6
D2CB8BBA6FA19828
08CE068CF51E4AE0
4C13225C770E442E
12CA3F30FB3BFFDE
A91E0EAE2F8E0A1B
E614077474C0287C
6FC84D4E2749EF5A
3AEF13DC1B8110E7
EA92A7C453699D1F
AE488B9D5069DBB0
D736D7E164EA14CC
FE8107249B3838CE
2DF3C18446FB02BD
F220BBC50B80E7F9
E2ED685120C804EE
412EE30A2B991E0C
4CBFD5F724AE7F3A
F6FF0279C8A3020E
6B4F5F9F08E73327
409093CEE3AEF69B
8F53055FE085C084
00CC12B6CFFD00BE
4F7B1B842FFC10C1
40DE20AFEC65EE00
BA051FE256568C48
0296520573389661
D15F95607EEF4155
8AB5BCC67ED4D09C
9FA08C480BAD80AE
C018104B408851E9
C4D876089EAEFD00
042CC11A65AE1940
0800AF8C198E5DD1
D3097A8F2FF1F158
1064BBE108C84816
888C28C6A16AD050
0EC2020102A0B5A2
1801CFF017C98008
A092BD3246F194FF
26F50814462B306B
AD47F00CB600703C
497C808A1E8E4000
F38D04CDC4C57909
86F36F390A3EC745
04588DFD58005108
3B00CEE588063BFF
C33C438E5684630D
E8F74EA3FE198938
98189C77541D7394
C8CDEEC32083CA89
184404039C9909F7
CFFF046E801B5740
88ACFCC09236B535
B900113ABCDF077E
F005180E05560F91
EDD20DFEFE980648
40910E6E3413018E
D1CD6011151E641C
DE4202400801DE78
0200BD7E9F8B410E
1388504E570C2110
42420038C0BD16E8
DB7904A04423D2D6
BFC08527F3FA52BC
8CEE6BD21011F32F
F0D3080CB96410B8
4804A06B51C3ED40
57B8F39650967E11
38800212F7B1AD8B
18338109F8903200
47991193599CEFD3
8208626557CF308B
F933E0D46A39C133
67419213D44D0010
9601CF02F7005E00
FCF9A50473515C09
EE535113886EF9F6
3002EA3B1EFEB7DA
80053001671BE2BB
6E5B18EB0B20A007
784F0F761CE175EB
CF4FCFEE29348E85
D0540ECC9D2A2EFE
089FF8EE80010000
449F6F45023BA17F
1041D48BC01431C6
90BD2443B1C02D77
46E02F7FFFCF010C
E91F44769D001712
6690FF28B2303FB6
E9C108C400CE7EFB
F0CC00FB1C8F33B5
6681E7F84002BE38
048331E9C4C907D4
980F562DFB66EEBB
FBCCC08400DC48E7
17B22898F3FF596C
858903C08949EFB2
CF5FC5235BD28EFB
D2043342ECAF733B
FCD3F2B63FEFE053
810B0828B72F1E7E
4C03FC5FC812300D
038D225DF7B70002
8EDF0857AACABB08
DC28C36DCF26A340
98FE77325401B2A5
C09DC116318F06B8
BB0E8A9A63FF5472
DF6079039D16019B
C9F7F776818E8C10
E30114FE39FF4DEF
FB8BC937E3431AF3
7642DB1D880F816F
49CF557CE807C9B2
0910AC32C17D0D0E
556983B22147BDC8
D2C91F67D33C657F
CF5F97EEFE7F4E63
B5E1D11A0A335FA5
3F59EC10979F5DB2
8E815FF147247489
1DE4D1AAFD7E084F
6CF3D101EFB90AD6
42C80184A2057A55
1D90D0C38EDF4103
204038E0F60C0FEE
8A276C08886110FF
7B11CBF5FEF81CA2
06647E881B3CBBE8
FFB80E66280CDF2F
1768128EECEE74D5
8FE8DFB0904816F1
5D300DCB401FF7F3
6F37C8437F6ACF37
B3A30912179814F3
F45B4D8F50B121C0
E6414BB79EBA4DFF
DBE2D8366B2E196E
F8482F50FB70B547
F0D1E0AB31EA6497
DBBB38F0F75BCC90
BDC09BE84B12DFFC
B32748B9021AEEFF
BEB61EF7BD6EE450
D9234F986A371310
1093C2F1B5BB301F
DFB2DD6F75E01180
7AD00C10218D0102
CEDCF1E8BDC630C1
89A2165A7A82901F
659FB0FFFB88820C
A81385509C287C6E
D91C808E7BCFE487
FA74B7EDBA5108AB
AE0699F9D40A9CAF
5B0A3B367FF7BA5F
6CA758C403266F0F
DDD188AB00F7AFFD
6F11301AC47C8ED1
883949BC07BF828A
2B60AF5173B79FEC
A958CE3CA8FB35C9
68C0467F9D108CC8
4107847BC91A3B11
5CCD3FC408BFC631
E33F44EA7002AA9D
3CDCDCEF0124FA43
37DD2E927D6FAB5D
0EE6EDEDBD68E409
05CB97C8F0CE0E66
747C6A1CB3514D0C
4F33DE04C5DB6721
93F9414767E19359
07475531D108004A
857480619F18A705
A8D8FA869EB3F4F1
CED317D7236A0608
3F7662ED59583C0C
E70D8A530D20CA45
B7CDCF256D8833C8
9051874B279CAEF0
B7EF73211EFF842A
AD90F21D913BC7F9
479923D692C88128
920B44397B1CB603
07C9AE2E6670570C
9C87643CA3CE2031
846181308F62F621
8673AE4B07606E00
92C8FDA4E779A130
CDBC836F075293CF
C73DFF5ED80F057B
1F46E2317FF767F1
EA4BFF1B62EE8A4F
AE71E761434CC022
7659AF714151A291
B6279A4CA4111551
29C8C329E98E00CD
EFFC7F38F42B77D8
31D9C854D1071886
CD77950007F5F476
72498778254404DC
3A9F46F987ACFEB9
40040D923F060601
D0EF2E08A77A2C8F
4CC1823A20100561
0F992711B28E0CC0
88FDAAD8C3BC4473
04B9F1BB403DC433
A7CCC645AC043597
6F7DA1EC0746A942
CC048E5BD31D8C7B
2F7A8809CCCDD749
6062A5552B91B352
C1A98EDD0FA3ADFB
0129C38FA4260121
1B4EA11C0CCBBBF7
0B6248870B50B31D
3E4AFD01EF432FF1
C757B6A398BB8DF8
0D236EE26E465042
D813606E9A9A2E6D
0D88C903A8F431B0
8E6EEF724EF0E5AF
113F1D61E074F349
F77BEF6692411DBC
0F509B5563E2277A
5888F70142A609F7
D8D7ABFEBF633FAE
F09290F605F9F7AC
AE78900B76E31468
02816C74BB902BC3
1BB6F64A07496A88
50C82711474E2908
01CCEFCC613309B0
FF8294FC1350C75E
EA5B7EC17BF50067
9E18B737EDE08E07
5BFEDF7142456460
02E98D94BEC1B144
16C467A67802080A
D2FD210156A103C1
C6F47D5265F4A422
794CC8917BD69F13
51888F418802310C
8055DC44CE662621
6DCC04C13F64AB57
581070FF6910AC61
0E4369577E4D0891
24D1B4404BB0FA01
97F8A0F68186197F
A2EE788E5F010EAF
2FE288623F854860
33F193E65282CC42
7065656EC4C0C2D9
F6C582208819B660
34FF10053D3E0063
309D0CE52F99CA42
2142F1C35C0B9212
0C41E708933E1D9A
CE0A192009D73F77
0FA76FF0700AF89E
E7FE688809859BE3
906B0165B2809B1B
9D00CBF77A530FCD
D5077A021A0F5FB3
7C81230F5A331EE6
D524D13090086AB2
B31388A420FB2F86
E85940002FEA2070
4F68222C373B2EED
0FB27F3023E19F7C
B3F9CF7BEC7D86CC
9EFC73D7247234DD
402331DC6927660F
F754F2336C241091
B2DF3E74DDAC40C3
FFC5D02832758933
04F25E7213225C8A
EA803542F6459FFF
80015CB58803937E
E3B5DC4C0AE02063
762F85E3663A39E7
B7F2D7D2EF2D7267
B62D489C5B5A0F7F
38F7B4E0845C2EE5
A293CE61FAB9C48F
B2853C9D6580877C
26307EC8EF7F6EA6
0C9D329570EF7694
85084378DCD2E3ED
E6089DAA546008BB
46D43C693BBFA028
BF89FA140FEF26F7
75B8FFDF06172CCE
851A3EDC70C89FC8
CCE804E97F47A0F0
C95D1418ED6DB6E9
79106F98EEB342B0
DC0482FCFCD02080
3E00FFDF7FF4777F
F7E80E12DE4CC93A
68ED8BBD42D6A70A
90CEE9CE801F36DE
751B41388763A37D
C29C8CE9AD443489
0EFE5008009C1B84
6FFD026CC113FB02
0288480B0CE29120
BD0250E0E6F7C60C
CB8E53C0A0B96BAD
6609E62F3F66D201
BFDD0468A45FAF60
79E99EE9541BF48C
6B3B67775E15BF89
D409B3BBFFFED3F9
36FD6F8A0249660C
9B36E2AEF9066E29
1CA87B7E68DFF76E
07F70E869D80AABB
DD8E0DA001F57680
0481BC2D01CCDB0D
1FFB5D7E11E4D0FB
60396EF4E67A1360
C830FF7CB9E37F04
66BEED7F8CA018CC
93AE1F6E8C7DD788
7738BEA7495FABD7
E370F18887DCCDDF
3AA237E6440808C1
2B92D7FC05FFB6B0
06AAE199063DFB3D
95209DF86F8191AD
034501701558F130
B8990C7E0958C6BF
07BF8D87E8061C4D
4BF9EC18230E1CDC
5F82CFBE94DD465F
9E0F28F33CFB0B81
4A0A030073BF289C
B7B44C743355BC00
225F2014D000D5B0
EDC2D6F10BD717B3
188F97F7FED13A88
096B53BF8D677F27
0CF74884A159B37F
C3DD7385FFF86773
9BF4322EBF8450C0
966EEAB3EFE81000
02E58050BA9044FB
7C9FA908FBCC2618
0175EE3888A79EDF
68F220EF3F22B395
E7F07E62CC6AD926
0421E489B16288F8
802B8EB450662AAA
A88B1F761EC0FFE1
DC0CD586007414D6
2EDEDC889E40BF56
C2287A6D540CE0CF
D7E0CCBF6095FB84
EE45D3F8DEC41A2F
DE0C7E67BA6D6205
D80261B54C80C5E6
007F054EEFB9C479
95F94001EF4C4B03
C047D90B3513F063
004FEED4B1B457C0
88E44460FEC0F04A
F0CE19BE985BCECF
5BF4EBE346AFA010
56DCFE797EA4BD5B
EEC2502000A8E816
36D00045197F9E58
3B1886FFED6DB2B7
592E8FC4F0168DFD
BE634062511117AA
B661C8880841D740
8C44AFF42AE27BAF
F636B5CB1F0B0E51
FEE2BEEC7331FD44
7EE0666ECA13AB6F
93D5A6B9FFBDD741
F6FB93B88009721A
75BEA017752A2072
807455A8DE6F9088
D6EFE7F24D275FFA
E80F53001477712B
FBD31E88A7D71231
50240C40C75C15DE
667F30C4FD229FF3
0B7B8BF7C6C09F01
24D4CEFFF7F590BC
D5074767500C4638
3B409297F18A0EFF
D0357C0768C1AF35
3598AF8EA9192DBC
0208640032C2005F
3C0A8763F1840001
056CB4FC8235AF05
ADEACE02243D1F4E
87BDD2E609E87771
AC00A2666848EEFF
A008832075B37C0C
08E17212DEFF1249
E812895C3A17EFE2
A1E664A8F892CCD5
C000CFFF0F047062
C7EEE92004F86F2C
AE547924F328E9E6
503828F7E7A74966
2F619AF380A474F9
0000000000000000
0000000000000000
0000000000000000
0000000000000000
0000000000000000
0000000000000000
0000000000000000
0000000000000000
0000000000000000
0000000000000000
0000000000000000
0000000000000000
0000000000000000
0000000000000000
0000000000000000
0000000000000000
0000000000000000
0000000000000000
0000000000000000
0000000000000000
0000000000000000
0000000000000000
0000000000000000
0000000000000000
0000000000000000
0000000000000000
0000000000000000
0000000000000000
0000000000000000
0000000000000000
0000000000000000
0000000000000000
0000000000000000
0000000000000000
0000000000000000
0000000000000000
0000000000000000
0000000000000000
0000000000000000
0000000000000000
0000000000000000
0000000000000000
0000000000000000
0000000000000000
0000000000000000
0000000000000000
0000000000000000
0000000000000000
0000000000000000
0000000000000000
0000000000000000
0000000000000000
0000000000000000
0000000000000000
0000000000000000
0000000000000000
0000000000000000
0000000000000000
0000000000000000
0000000000000000
0000000000000000
0000000000000000
0000000000000000
0000000000000000
0000000000000000
0000000000000000
0000000000000000
0000000000000000
0000000000000000
0000000000000000
0000000000000000
0000000000000000
0000000000000000
0000000000000000
0000000000000000
0000000000000000
0000000000000000
0000000000000000
0000000000000000
0000000000000000
0000000000000000
0000000000000000
0000000000000000
0000000000000000
0000000000000000
0000000000000000
0000000000000000
0000000000000000
0000000000000000
0000000000000000
0000000000000000
0000000000000000
0000000000000000
0000000000000000
0000000000000000
0000000000000000
0000000000000000
0000000000000000
0000000000000000
0000000000000000
0000000000000000
0000000000000000
0000000000000000
0000000000000000
0000000000000000
0000000000000000
0000000000000000
0000000000000000
0000000000000000
0000000000000000
0000000000000000
0000000000000000
0000000000000000
0000000000000000
0000000000000000
0000000000000000
0000000000000000
0000000000000000
0000000000000000
0000000000000000
0000000000000000
0000000000000000
0000000000000000
0000000000000000
0000000000000000
0000000000000000
0000000000000000
0000000000000000
0000000000000000
0000000000000000
0000000000000000
0000000000000000
0000000000000000
0000000000000000
0000000000000000
0000000000000000
0000000000000000
0000000000000000
0000000000000000
0000000000000000
0000000000000000
0000000000000000
0000000000000000
0000000000000000
0000000000000000
0000000000000000
0000000000000000
0000000000000000
0000000000000000
0000000000000000
0000000000000000
0000000000000000
0000000000000000
0000000000000000
0000000000000000
0000000000000000
0000000000000000
0000000000000000
0000000000000000
0000000000000000
0000000000000000
0000000000000000
0000000000000000
0000000000000000
0000000000000000
0000000000000000
0000000000000000
0000000000000000
0000000000000000
0000000000000000
0000000000000000
0000000000000000
0000000000000000
0000000000000000
0000000000000000
0000000000000000
0000000000000000
0000000000000000
0000000000000000
0000000000000000
0000000000000000
0000000000000000
0000000000000000
0000000000000000
0000000000000000
0000000000000000
0000000000000000
0000000000000000
0000000000000000
0000000000000000
0000000000000000
0000000000000000
0000000000000000
0000000000000000
0000000000000000
0000000000000000
0000000000000000
0000000000000000
0000000000000000
0000000000000000
0000000000000000
0000000000000000
0000000000000000
0000000000000000
0000000000000000
0000000000000000
0000000000000000
0000000000000000
0000000000000000
0000000000000000
0000000000000000
0000000000000000
0000000000000000
0000000000000000
0000000000000000
0000000000000000
0000000000000000
0000000000000000
0000000000000000
0000000000000000
0000000000000000
0000000000000000
0000000000000000
0000000000000000
0000000000000000
0000000000000000
0000000000000000
0000000000000000
0000000000000000
0000000000000000
0000000000000000
0000000000000000

