20000020
20000020
20000020
20000020
20000020
20000020
20000020
20000020
20000020
20000020
20000020
20000020
20000020
20000020
20000020
20000020
20000020
20000020
20000020
20000020
20000020
20000020
20000020
20000020
20000020
20000020
20000020
20000020
20000020
20000020
20000020
20000020
04000100
04000100
04000100
04000100
0400000A

