21000000
21002000
21004000
21006000
21008000
2100A000
2100C000
2100E000
21010000
21012000
21014000
21016000
21018000
2101A000
2101C000
2101E000
21020000
21022000
21024000
21026000
21028000
2102A000
2102C000
2102E000
21030000
21032000
21034000
21036000
21038000
2103A000
2103C000
2103E000
20100000
20110000
20120000
20130000
31000000

